1111111111110001
1111111111011000
0000000000010000
1111111110101011
0000000000101011
0000000000000000
0000000000011110
1111111111110110
1111111111001101
1111111111010001
0000000001010001
1111111111111100
0000000000001111
1111111111111110
0000000000010100
0000000000110101
0000000000000011
0000000000111000
1111111111010001
0000000000001101
1111111111111101
0000000000010010
1111111111111100
1111111111110010
1111111111110100
0000000000000000
0000000000101010
1111111111101010
1111111111100101
0000000000001010
1111111111111100
1111111111010101
0000000000100110
1111111111101101
1111111111011111
1111111111100111
1111111111110010
1111111111111100
1111111111101010
0000000000101001
1111111111011010
0000000000001000
1111111111100110
0000000010001100
0000000000000010
0000000000000000
0000000000010000
1111111111101011
1111111111101101
1111111111110001
1111111111111100
1111111111111111
1111111111110110
0000000000000011
1111111111111111
0000000000010101
1111111111011010
0000000001000011
1111111111110110
1111111111101111
1111111111110011
1111111111011111
0000000000001000
0000000000011001
1111111110011111
1111111101101110
1111111111010010
1111111110010110
1111111110111000
0000000001011010
0000000010100100
0000001100101011
0000001001110110
0000000000101010
1111111111000001
1111111110111011
1111111111000010
1111111110111100
1111111111101001
1111111110110000
1111111111101111
0000000000011101
1111111111001110
0000000000011011
1111111111100010
1111111111110001
1111111111001000
1111111111000110
0000000001001011
1111111101101000
1111111111000111
0000000000000100
1111111111000100
1111111011100010
1111111001010010
1111110011100001
1111111110111111
1111111101001101
1111101100101110
1111111101101111
0000000111011100
0000000001110110
1111111011101011
1111111011000011
1111111100001011
1111111010000001
1111111111101000
0000000001001001
0000000011110101
0000000111100011
0000000000010001
0000000000001111
0000000000101100
1111111111101110
1111111111110101
0000000000010011
0000000000010111
1111111110001101
1111111101001010
1111111001101011
1111110111001000
1111110011010100
1111101101111111
1111110100100100
1111110110101100
1111111011100101
1111101100110010
1111111010001001
1111110111010101
1111110110101000
1111110010001110
1111110010000111
0000000000001100
0000000101110101
0000000000101001
0000001100001011
0000001111000100
0000000010111000
1111111100101100
1111111110101011
1111111111100100
0000000000011100
1111111111100000
0000000000000010
1111111111111011
1111111111100101
1111111001111110
1111110010110110
1111101101011011
1111101011000011
1111100101001100
1111110000010010
1111110011111110
1111111110000010
1111101110101001
0000000010011100
1111111011111010
1111101101111000
1111101010000010
1111111000000001
0000001110110010
1111110010101111
1111111111100101
0000010001001001
0000001110010100
1111111011010010
1111111110101111
1111111111010001
0000000000111111
1111111111100111
0000000000011110
0000000000011110
1111111110111111
1111111101101000
1111110101011010
1111100100000000
1111010111010100
1111100001100100
1111110111001001
1111110111010110
0000000011101111
0000000011101011
0000000100101001
1111101100111111
1111101110110010
1111110110010010
1111111001111001
0000001101011000
0000010100100000
0000000100110110
0000000100111001
0000010100110111
0000010010101100
1111111101110000
0000000101001011
0000000001101100
0000000000000101
0000000000011000
1111111111101110
0000000001100100
0000000000010101
1111111011010111
1111110011111100
1111101101110000
1111101000110010
1111110100110001
0000000100111100
1111101111010110
0000010100101101
1111101010110001
1111110100111010
1111110001000100
1111110111001010
1111111001100101
1111110011100111
1111110010101110
0000010010010111
0000000111011000
0000001000110100
0000001011100011
0000001010001111
0000000000100110
0000001101100000
0000000000111100
0000000001001000
0000000000000011
1111111111010001
0000000001000010
1111111110000111
1111110111110001
1111110111011101
1111110111111100
1111110110001100
1111111101110011
1111101100011111
1111110001001110
0000000111001010
0000000100100111
0000000101100101
0000000110110110
0000000010100111
1111111011100100
1111111101110000
1111111101100001
0000001011001000
0000010101110001
0000010010000011
1111111110100111
0000011001101010
0000011001100000
0000000111110001
0000000000011100
0000000000110101
0000000000010110
1111111111001001
0000000000010001
1111111110101000
1111111001010101
0000000010111000
1111111110101111
1111110000110001
1111110000110101
0000000011100110
0000000010010001
1111110111100011
0000001110101000
0000010110101001
0000001011011110
0000000000100010
0000001011111011
0000001110010110
0000000101000010
0000000101010111
0000010100100000
0000001110011001
1111111001100001
0000100010000001
0000011000011100
1111111111110010
0000000000111101
1111111111101101
1111111111100000
0000000000011111
0000000000100100
1111111110011000
1111111011101010
1111111011101011
0000000011000110
1111101110100111
1111110110001011
0000000100100101
1111110010011001
1111110010110000
0000001010010011
0000001000000101
0000010010100100
1111110011000100
1111110000101000
0000000001111001
0000001011000010
0000000100000000
0000001001111100
0000001101100111
0000010000110010
0000100111100110
0000100010001111
0000000110011001
0000000000000111
0000000000010110
0000000000010110
0000000000010000
0000000000110111
0000000000011000
1111111101001001
1111110011010000
1111110100111111
1111101101001000
1111101101001100
1111110001001110
1111110100010101
1111110010000010
1111101010101011
1111111110010101
1111101100110001
1111101000001011
1111011111110110
1111100100110001
1111101101010110
1111111011110000
0000000010100111
1111111101101000
0000000101110001
0000001001101110
0000010111111111
0000000110111110
1111111111000011
1111111111110101
1111111111001110
1111111111111000
0000000000001110
1111111010111011
1111110110011010
1111110010110110
1111110101111110
1111111000101101
0000000111111010
0000000011101111
1111111001111010
0000000000011101
1111111110110010
1111110100100100
1111011101001000
1111010100101101
1111000000111110
1110101110011000
1110111010001000
1111011100001111
1111011100010111
1111100111001010
1111100100110100
1111101001111110
0000000001010001
0000000001111111
0000000000110000
0000000000001001
0000000000000101
1111111111110100
1111111111010111
1111111001011010
1111111000000110
1111110100101101
1111111101101111
0000001001101010
0000000100101010
0000000101111001
1111111111000000
0000000100011110
1111111111000101
0000010000001011
1111100101111100
1111111000001100
1111100010111110
1111001000101011
1111000100100010
1111010101100010
1111010100110100
1111010111101101
1111011110110111
1111100110100000
1111111001110101
0000000000000010
1111111111010101
1111111111100011
0000000000100101
0000000001001100
0000000001010011
1111111111101111
1111111101101110
1111110101010111
1111111001101100
1111110101011010
0000000111000001
1111110111110011
1111100101110111
1111110010000000
1111101001110110
1111110011001110
0000000000111001
1111111010011000
1111111110011110
1111110101001100
1111010100000001
1111011110100100
1111100101001111
1111100010101000
1111100010101100
1111101000110010
1111111010001110
0000000000000000
1111111111001010
1111111111011010
1111111111111110
0000000000100000
1111111111001111
0000000001011011
0000001001110110
0000010001101110
0000000110101101
1111111110011100
0000010000001001
1111111110001000
1111101100110100
0000010011100110
1111111010000000
1111111111100101
1111111111001000
1111110111101100
1111110000000100
1111111111000100
1111100110001000
1111100110010101
1111101010111110
1111100010110111
1111101010101100
1111101110001010
1111111100111111
0000000000001011
1111111111011100
0000000000001000
0000000000010010
0000000000100111
0000000000001000
1111111100110100
0000001011100101
0000001000111000
1111111010111100
0000000010011110
1111101101000100
1111101111100100
1111111101011011
0000000100010000
0000000000100101
1111110111100111
1111110110010100
1111101101100011
1111111100100001
1111110110111111
1111110011010001
1111110001100101
1111101110101101
1111101011000001
1111101100000010
1111110010001010
1111111101100111
1111111111101111
1111111111010111
1111111111101000
1111111111111000
1111111111001010
0000000001100111
0000000001011001
0000000110000010
1111111111010001
0000000010011111
1111111111011101
0000000001010101
1111110011101110
1111101101111111
1111110100110011
1111111110000111
0000010011110010
0000001101111001
1111111011111110
0000000111001100
1111111110001110
1111111000000110
1111111011101100
1111101100110011
1111110001010000
1111110101111111
1111110110100111
1111111100101010
1111111111000001
1111111111001111
0000000000011111
1111111111011010
1111111111001111
1111111101100000
0000000011111111
1111110101011101
1111111111011101
1111111011100011
0000000000110110
1111110100011100
1111111010001101
1111111100001100
1111111000010001
1111111101000100
0000001100111010
0000000010001001
1111111010101101
0000000111000000
1111111001011100
0000001110001011
0000001000100101
1111101110011101
1111101101010100
1111101110000110
1111110110101001
0000000000000101
1111111111011101
1111111111010101
0000000000100100
1111111111101111
1111111111111011
1111111011001101
1111111100101011
0000000111000000
0000001100101001
1111111111001010
0000000101100101
1111111010011110
1111111010010111
0000000100001010
0000000001110000
0000010101001111
0000010100110111
0000010000100111
0000010101110001
0000000011110101
1111110000001100
0000010001111010
0000000101110011
1111101011101010
1111110100111011
1111111101011110
0000000000101001
0000000010111110
1111111111010101
0000000000011110
1111111111100101
0000000000010000
1111111111110011
1111111000001110
1111101111110000
0000000001110001
0000001100101110
0000000001011111
0000001101110010
1111111101000101
1111111110101010
0000000100111111
0000001000000111
0000000010101001
1111111010000100
1111111101010010
0000001010100100
0000001110101100
0000000101111001
0000011111100001
0000000010101110
1111100111111001
1111111010101011
1111111110011111
0000000011101111
0000000001010010
0000000000010000
0000000000110001
0000000000010111
0000000000001110
1111111111100011
1111110101101101
1111110011100000
1111111101010101
1111111000001101
1111111101010111
0000001011101111
1111111100001000
1111111111111101
0000000111100000
1111111101000000
0000000000010000
0000000100001000
0000011011011001
1111110010011010
0000000100100101
0000001000000000
0000010011010101
0000001111101010
1111110101010100
1111111010000101
1111111000111100
1111111101001011
1111111110110110
0000000000010101
1111111111011000
1111111111101010
1111111111100101
1111111111110111
1111111100101000
1111111000011110
1111110111110110
1111111101010001
1111101111001011
1111111100101001
0000001000001101
0000000011000000
0000001010010111
0000001001001110
1111111101110110
0000000110100100
0000000011101001
0000000000001001
0000010100001000
0000001000111010
0000000110110110
0000001010100110
0000000100010110
1111111100101100
1111111101011001
1111111111011100
1111111111101111
1111111111110011
0000000000011101
0000000000100110
0000000000110010
1111111111011101
0000000001000001
0000000010111100
1111111100001011
1111110101010000
1111110000110000
1111111100110110
1111111110100100
1111111111010001
0000000100111010
1111111110000011
1111101011101101
0000001010110111
0000000110110011
0000000101110011
1111111111011011
0000000010101100
0000000001010010
0000000110001011
0000000000111110
1111111011011110
1111111100110110
1111111111111100
1111111111010100
1111111111010001
1111111111111110
0000000000100101
1111111111100001
0000000000010110
0000000000100100
1111111110001101
1111111001000000
1111111001100110
1111111111010011
0000000010100100
0000001001011001
0000000010010100
1111111100010000
1111111011101100
0000000100011100
0000000011101011
1111110110011110
1111111000111100
0000001101001000
0000001010100111
1111111111011111
1111111111010100
1111111011101010
1111111110111010
0000000000010010
1111111111111011
1111111101111100
1111111111110010
1111111111110101
1111111111101010
1111111110101010
0000000000110000
1111111111110011
1111111100111101
1111111100010000
1111111000010010
1111111000010010
1111110111111010
1111111110111111
1111111110000111
0000000101010100
0000010000001011
0000001101011011
1111110110010000
1111110011010011
0000000100010110
0000010000100111
0000000110111110
0000000111101011
0000000010001111
0000000001101110
0000000001000100
0000000001000100
1111111111100010
1111111111010011
1111111111111001
0000000000011110
0000000000000110
0000000000011000
0000000000100011
0000000000110101
1111111110111111
0000000000000011
0000000000111110
0000000000001010
1111111011000111
1111111001011011
1111111110101111
0000000101000000
0000001101100010
0000000110101111
1111111010100011
1111111101110000
0000000110011101
1111111101011110
1111111101000101
0000000001100100
0000000001110101
0000000010000110
0000000000010100
1111111111110000
1111111111110000
0000000000100011
0000000000000001
0000000000000001
1111111111101011
0000000000001001
0000000000101000
0000000000001110
0000000000000000
1111111111000110
0000000000001010
0000000001000111
1111111111011110
0000000000000000
1111111111100100
1111111111001110
0000000000001000
1111111111110011
0000000000011010
1111111111100000
0000000000011000
1111111111011110
1111111101111110
1111111111100001
0000000000001011
1111111111110101
0000000001000010
0000000000000100
1111111111110111
0000000000011100
0000000001000010
1111111110111001
