1111111111110011
0000000000000110
1111111111110001
0000000000011011
1111111111110110
1111111111111001
1111111111001111
1111111111011000
1111111111101011
1111111111001010
1111111111100010
0000000000000001
1111111111101000
0000000000011011
1111111111100010
0000000000001001
1111111111010111
1111111111111001
0000000000000011
0000000000100000
1111111111101000
0000000000000110
1111111111111101
0000000000000101
0000000000001000
0000000000111100
1111111111010000
1111111111111001
0000000000000100
0000000000001110
0000000000111101
1111111111110010
0000000000000111
0000000000001101
0000000000001001
1111111111110100
1111111110100000
1111111111011001
1111111110111101
1111111111010101
1111111110100000
1111111111101101
1111111111101111
1111111111000001
1111111101111110
1111111110111000
1111111110111111
0000000000011111
0000000000100101
1111111111110001
0000000000100001
1111111111010111
0000000000111000
0000000000001001
1111111111110001
0000000000010011
1111111111101110
0000000000110010
1111111111101001
1111111111100001
0000000000100100
1111111111110000
1111111111001011
1111111100100011
1111111011000100
1111111101000001
1111111010111010
1111111001100100
1111111001111100
1111111100000000
1111111101100000
1111111011001100
1111110011001111
1111110011100100
1111110110011110
1111111010101110
1111111011110110
1111111110010001
1111111110111011
1111111110111011
1111111110101100
1111111110111100
1111111111100100
0000000000101001
0000000000001101
0000000001011100
0000000000000110
1111111111100100
1111111111100110
0000000000000100
1111111100001100
1111111010010011
1111110010001100
1111110011110101
1111110011001111
1111110001110100
1111101110000000
1111101110100001
1111110010000010
1111100111100101
1111011010101111
1111100110101010
1111101011011000
1111111010111111
0000000011000100
1111111100110000
1111111011010111
1111111011110100
1111111101001101
1111111111010010
1111111111010000
1111111111100100
1111111111111100
1111111111001010
0000000000010001
1111111111000111
1111111110011111
1111111111011101
1111111101011011
1111110101111110
1111110110110101
1111101110110010
1111101101001110
1111100111100111
1111101101100000
1111110110001101
1111110100010000
1111011000100001
1111011000000011
1111100011100110
1111101101001011
0000000001000000
0000000111110001
0000000101101101
0000001011001101
0000000100111000
1111111101011100
1111111000111110
1111111110001100
1111111111100011
0000000000100101
0000000000101101
0000000000100010
1111111110111100
1111111111001000
0000000111010101
0000001010110101
0000000010111001
0000010000110011
0000000101101010
0000000010001100
1111101011101001
1111110010111000
1111101101111001
1111110001101111
1111101001101111
1111100110100101
1111100110101100
1111110100000011
1111100010000101
1111101110110010
1111101110101001
0000000000011101
1111111101000010
1111111100100000
1111111010001100
1111111101011110
0000000000001011
1111111111110011
0000000000001010
1111111101011000
1111111100111001
1111110111110111
0000001110000001
0000100001010100
0000010011011000
0000010111110000
0000000010011010
0000000111101100
0000000000110010
0000001000111000
1111110011000111
0000000110010011
0000001011101101
0000001101100100
0000010000010100
1111110000010011
1111101111011010
1111110000101000
1111111110001010
1111110111100101
1111101010001110
1111110110011111
1111110011001100
1111111111001101
1111111111011110
1111111111000110
1111111101011100
1111111111011010
0000000011110001
1111110100010001
1111110100110100
0000010101010110
0000000110100011
1111111001000111
0000001000101110
0000010001110110
0000001000001110
0000001011101000
1111110110011100
1111110010110101
1111111011110101
0000000100100011
0000010010010011
1111101101110011
0000000111011110
0000001111000111
1111111000111100
1111110011110001
0000000001100010
1111111100010011
1111111100001101
0000000100100100
1111111111101001
1111111111001001
0000000001101111
0000000100110110
1111111111000011
1111101101010011
1111111001100111
0000001100011010
0000000100001010
0000010100101011
0000001110011010
0000000011010010
0000001011000010
1111110100000111
1111110001010110
1111111000000101
0000000110010001
1111101100010110
1111111010000011
0000001110110100
0000000100001000
0000000101111101
1111111000011000
1111111110011001
1111111000110010
1111111101100101
1111111111011101
1111111101000111
1111111111111111
1111111111101000
0000000000000101
1111111100000011
1111111100101101
1111110010001011
0000001010111110
0000001011010111
0000000000100110
0000000001111001
0000000001000000
0000010101111111
0000011000010100
1111111011100000
0000000001111000
1111110110000101
1111110100111101
1111110010010010
0000001011111010
0000010111010010
0000000111010101
0000000001011110
1111111101001001
0000001111001001
1111110001100000
1111101111001101
1111101110110111
1111111001100111
0000000000101000
1111111111011010
0000000001000111
1111111111111111
1111111010101011
1111110000101011
0000000001111010
0000000001010001
1111111111101110
1111110111000110
0000001110010111
1111100100110011
0000000011101100
0000010111110110
0000001111111110
1111111000111101
0000001001111010
1111110011111010
1111110001111111
1111111100100100
0000011001100010
1111110110010011
1111110011011001
1111110111000000
1111100001001101
1111101000110010
1111111011110010
1111111001010001
0000000000010001
1111111111101101
0000000000011001
0000000010101001
0000000010010001
1111101001010101
1111100111101101
1111110101110101
0000001000010100
1111111001000100
1111110110000010
0000000001101010
0000011000110011
0000011101011101
1111111100010110
0000010000001000
0000100001010000
0000010111110011
0000011010111000
0000010100000101
0000010010101001
0000001010100100
1111111011101110
1111110010111000
1111101010001101
1111100100101010
1111111000000001
1111111000111011
1111111111110111
0000000000000000
1111111111110000
0000000010000110
1111111110010010
1111110100001001
1111101111000101
1111111010100011
0000010110010001
0000010100111011
0000000010010110
0000000111000101
0000011101010000
1111110110101011
1111101010100010
1111101100001001
0000100101101110
0000100100010110
1111111110011010
0000011010100101
0000100010001001
0000000111000101
1111111110110010
0000000011100010
1111100100001001
1111101010111001
1111111011001001
0000000010001100
0000000001010000
0000000000000000
0000000000011010
0000000010000101
1111111000011111
0000000110100001
0000000111010110
0000001001011101
0000010010001101
1111111111111000
1111111111000101
0000100110011010
0000000000000010
1111101110101001
1111101011101111
0000001101011101
0000011001001111
0000010110101101
0000001110110011
0000000110010100
0000000010110010
0000001000111010
0000010101110011
1111101111110110
1111100000111101
1111111011010001
1111111110011100
1111111101010000
1111111111110010
0000000000001000
1111111111100111
0000000001101110
1111111010001101
0000000000111101
0000001010100001
1111111101001111
0000001100100011
0000001101100001
1111111001001011
0000001110001100
0000000011010110
1111110101101000
1111110011010101
0000000111001010
0000001100011101
0000010001101001
0000010011110101
0000010001100101
0000100000010010
0000011011001110
0000000111110010
0000001101000101
0000000101001010
1111111010101011
1111111101001110
1111111111011101
1111111111100011
0000000000100110
1111111111011100
1111111111110110
0000000101001011
0000000010001110
0000001000001111
0000001001000110
1111111101111001
0000001001100011
0000001001000101
0000001011111010
1111101100001111
1111100111100101
1111110010010010
0000000111111110
0000011011000111
0000000111010110
0000010100010110
0000001011011010
0000010110100100
0000001110001011
0000000010101000
0000000111111001
1111111110001110
1111111011100000
1111111100110011
0000000001000001
1111111111010010
1111111111111011
0000000000011101
1111111111101101
0000000101100001
0000001110000100
0000001000101110
0000001100000101
0000010001100011
0000001110101110
1111110101110101
0000001100011101
1111111010110100
1111111100111010
1111110010001001
0000010010000111
0000011001101011
0000001110111101
0000011011100011
0000100101110110
0000000100011101
0000000111001111
1111101000101000
1111101100000010
1111110111000111
1111110011100110
1111111100101011
0000000000000000
1111111111101011
0000000000110100
0000000000000111
1111111111001101
1111111111110110
0000000111011000
0000000011111011
0000001100101101
0000001100000011
1111111111011111
1111101110101110
1111101111000110
1111111101110001
0000001010101001
1111110101001000
0000001001111111
0000011011001101
0000010111010101
0000101000000111
0000100000100000
1111100111010101
1111110001100111
0000000011011110
0000000011010010
0000001101101111
0000000010111100
0000000011010010
0000000011111100
0000000000010010
1111111111100000
0000000000000011
1111111111101011
1111111100000100
0000001001001000
0000000011001010
0000010000111001
0000010001111001
0000001110111001
0000000000101010
1111111001010011
1111110110001010
1111110000101101
0000001100011010
0000100110011010
0000011110010111
0000011001101110
0000011000001010
1111110110010101
1111101111000100
0000001001111010
0000011111111010
0000000001001101
1111110111101001
1111111111100010
0000000001000001
0000000010101000
1111111111011111
1111111111101100
1111111111110111
1111111110011110
1111111010110000
1111111111000110
1111111010111111
1111111101001001
0000001110100010
0000001000000110
0000000101100010
0000010010101101
0000001100000010
0000001010111011
0000000101101101
0000001111110001
0000001110100010
1111111010111100
1111101100110001
1111110010011000
1111111011000111
1111111110100100
1111111100000110
1111011110010111
1111100111110111
1111111010111101
1111111111111101
0000000000001000
1111111111101001
0000000000001011
0000000000011011
1111111101000010
1111110101011101
1111111001101111
1111110101001101
1111110010110000
1111101100101101
1111100101001111
1111110001010101
1111110101110101
1111111000110111
1111110100110011
1111011111000011
1111011100101111
1111010010010101
1111100111010000
1111010101111111
1111100001000000
1111011111110110
1111010100011101
1111001011110001
1111010001111011
1111101011001011
0000000010101001
1111111111001110
1111111111101111
1111111110101010
0000000001000011
1111111111110001
1111111011101001
1111110000100101
1111111010111100
1111110100101011
1111101010010010
1111011111001001
1111001100101010
1111011101011001
1111010111001111
1111001011010100
1111010000101101
1111001101000110
1111001001000010
1111000100010001
1111110001001101
1111011000001000
1111001100111101
1111101110000111
1111100111011011
1111100000110101
1111100101100100
1111101100010100
0000000000001000
0000000000110010
1111111111100100
1111111111001111
1111111111110101
0000000000011110
1111111100010000
1111110101001110
1111110101111001
1111110000000001
1111110011001001
1111110110001010
1111110111100001
1111100001011110
1111100101011001
1111011101001011
1111011101011111
1111100010100110
1111111011110001
1111100110011011
1111100001100111
1111100110101001
1111100111111110
1111101111010000
1111110100000010
1111101010110100
1111110101101101
1111110010001000
1111111011100001
1111111101101100
0000000000101110
1111111111110010
1111111111110100
0000000000000010
1111111100101000
1111110011011011
1111101111111010
1111110011101101
0000000001110110
0000001111010100
0000001010010000
1111110001000110
1111110101001111
1111110101110101
1111101011100110
1111100010010010
1111110100000110
1111100110010011
1111100110111011
1111100010010001
1111011111001010
1111110110110100
1111101111101010
1111110010101011
1111110010010111
1111110000110110
1111111010000101
1111111101100101
1111111111001001
0000000000100100
0000000000001001
0000000000000001
1111111111111101
1111111011111111
0000000000000010
0000010001100100
0000000001100001
1111111101111100
1111111001100101
1111101010011001
1111011001111001
1111110100010000
1111100011010010
1111100010101010
1111011111101010
1111101010101100
1111011100000111
1111110010100111
1111100101011010
1111100110010100
1111110111010000
1111111010101011
1111111110011000
1111111101111101
1111110110011010
1111111110000100
1111111111111011
0000000000101010
0000000000010111
0000000000000000
1111111111100011
0000000000101011
0000001000000101
0000000010011110
1111110101110000
1111111000110111
1111101011111001
1111100111001110
1111011110011011
0000001001000101
1111101001100100
1111110000010010
0000000101001011
1111110010100110
1111110111101001
1111110010010111
1111101000111110
1111100001011111
1111111001000101
1111111101000100
1111111101010111
1111111110010111
1111111011111111
1111111111100101
1111111111111010
0000000000010000
1111111111011101
0000000000011000
1111111111011011
1111111111111011
0000000000000001
0000000001011011
0000000011100111
0000000011011000
0000000111001010
0000001011101000
0000000101000110
0000000011101100
1111111010101100
1111111000100011
0000010000001010
1111111111001010
1111111000011010
1111110101001010
1111111110000110
0000000001110110
0000000000010010
1111111111011001
0000000010111101
0000000000011000
1111111111110001
0000000000000010
1111111111010101
1111111110111110
0000000000001110
1111111111100111
0000000000111001
1111111111101110
0000000000100000
0000000000000111
0000000000101001
1111111111111100
0000000000101001
0000000001010011
0000000001111100
0000000000011001
0000000000110111
0000000001000100
0000000010011010
0000000010100101
0000000011011010
0000000010011111
0000000100010001
0000000001010001
0000000001000000
0000000010000101
0000000010010010
0000000000100110
1111111111011100
0000000000000100
1111111111110111
1111111111110110
