1111111111011111
1111111111110000
1111111111110101
0000000000001000
0000000000111101
0000000000010000
0000000000001110
1111111111111000
0000000000001010
1111111111110000
1111111111110000
0000000000000101
1111111111110100
0000000000011011
1111111111111111
1111111111111010
1111111111010101
1111111111101111
0000000000010101
0000000000101101
0000000000101111
1111111111111010
0000000000010010
1111111111101111
1111111111011110
0000000000010111
0000000000101001
1111111110101100
0000000000110101
1111111111100001
0000000000010011
0000000000010001
0000000000001100
0000000000010001
0000000000001101
0000000000011010
0000000000101011
0000000000110001
1111111111010110
0000000000000000
1111111111010000
1111111111111101
1111111110111000
1111111110000011
0000000001110011
0000000000101001
1111111111011101
0000000000011001
0000000000010101
0000000000011101
0000000000000101
0000000000100101
1111111111111111
1111111111101011
1111111111010011
0000000000001011
0000000000010110
1111111111110111
0000000000101111
1111111111111000
1111111111011110
0000000000011100
0000000000011101
0000000000000111
0000000000110111
0000000000010111
0000000001001111
0000000010001100
0000000100110101
0000000100110001
1111111010110100
1111101100000001
1111110101000101
1111111001111000
1111111010010111
1111111101010011
1111111111101010
1111111111110111
1111111111100001
0000000000100110
0000000000000000
0000000000000010
0000000000011110
1111111111111111
0000000000110010
0000000000000000
1111111111111100
1111111111001000
0000000000000101
1111111111110001
0000000000001001
0000000000101110
0000000010000100
0000000010100100
0000000111101111
0000001101100011
0000001001000000
0000000001010111
1111111110101111
1111101101000001
1111101110011010
1111110111011111
1111110110101100
1111110001011010
1111111011101000
1111111110100010
1111111111110101
1111111110010100
1111111111001100
1111111111011111
0000000010010010
0000000000001111
1111111111110001
1111111111101111
0000000000010010
0000000000011010
0000000000000100
1111111110100111
0000000001001101
0000000001111110
0000000110100001
0000010000100011
0000010111011001
0000010001101100
0000010100101100
1111111101011010
1111110011010000
1111100110101110
1111101110000110
0000000110010111
0000000111100010
1111110011111010
1111110000000100
1111110100111011
1111111010000000
1111111001000110
0000000001100011
0000000101010111
0000000011100100
0000000001010101
0000000000100011
0000000000000111
1111111111110101
1111111111110111
1111111111101110
1111111101000011
1111111111011110
0000000011101101
0000000110111011
0000000101110100
0000001010000011
0000010110001010
0000011110110101
0000001010011010
1111110011110010
1111101010111010
0000000100001101
1111111100111111
1111111111110000
0000010010000100
0000001010110101
1111111011001010
1111111010001010
1111110100001000
1111111101111100
0000001011100110
0000000110001111
0000000010011000
1111111111110010
1111111111110001
0000000000000111
0000000000011000
1111111111101010
0000000100101001
0000001100111101
0000010001010100
0000000101011101
1111111011110010
0000000101110111
0000000010110011
1111111101000100
0000000010101101
1111111000111101
0000000010100011
0000000111001010
1111111011011011
1111110101100000
1111111110001001
0000000011001110
1111111100011110
1111111111111010
1111111100000010
1111111100101000
0000001001000101
0000000100010001
0000000001110100
0000000000011110
0000000001110011
0000000001011001
0000000000100101
0000000010100100
0000010100100101
0000011011001011
0000011011011100
0000000111100111
1111110011110111
1111111100011011
1111111110001100
1111110001101000
1111101111010101
1111100001011010
0000000100100011
1111111011011101
0000001010010101
0000001001001111
1111111111100010
1111111111011100
0000001001001001
0000001111011110
0000000000100001
0000001101100110
0000001010010001
1111111111100101
0000000010010010
0000000000000001
0000000000100100
0000000010001101
1111111111011011
0000001000010011
0000010011011010
0000010010111010
0000001110111100
0000000001101010
1111110111101011
0000001111110111
0000001100010011
0000001110000000
0000000011101000
1111110011011011
1111111100011101
0000001111111111
0000000100001111
1111111010100101
0000000110110010
0000001110010000
0000001000001100
1111111011011101
0000001110010011
0000001101011110
1111111101010010
0000000001000111
1111111111110101
0000000000110101
0000000000101101
0000000000110111
1111111111110011
0000000111101111
0000001000111101
0000000111011011
0000000101010010
0000000010111001
0000000000010111
1111111100100000
0000010000001001
0000000111000100
0000010010111000
1111110011101010
1111101101000110
1111111011111100
0000000011110101
0000000001000000
1111111010000001
0000001010101100
0000000010001010
0000000010010100
0000011101100011
0000000001110110
1111111110100011
1111111101110111
1111111011011010
0000000000000011
1111111111100101
0000000000100101
1111111111101101
0000000100001110
0000000011011110
0000001110010110
0000001101100010
1111111111110000
1111111010110111
0000001010000101
0000001001011110
0000001000011100
0000000111010101
1111110101101010
1111101010010011
1111101011110110
0000010001110000
1111111110010111
1111110000000001
0000000111001100
0000000011110100
1111111110100001
0000000000111011
1111110011101110
1111101110010011
1111111101100111
1111111111100111
0000000000111001
1111111111111110
1111111110111100
0000000000100111
0000000000000111
0000000011100110
0000010001000011
0000001111111101
0000000101000101
0000000000001110
1111110110100100
0000001100001101
0000100000111111
0000001100101000
1111111110001010
1111111111111110
1111100101001101
1111110110010011
1111110010011010
1111110110010100
1111110100110000
1111110000110111
1111111011000100
1111110011100101
1111110010100110
1111111011000000
1111111111100101
1111111111100110
1111111111011000
0000000000001100
1111111110110011
0000000000110111
0000000010000010
0000000111000000
0000001100011111
0000001000011000
0000001110111011
0000010001100010
0000000000100111
0000001101111110
0000100111000011
0000000010110100
1111101101110001
1111101101111101
1111101101101001
1111111101110011
1111110111011001
0000001001100000
0000000101111011
0000000010001011
1111111100111101
0000000001000100
0000000010000001
1111111101101111
1111111011110011
1111111111011100
1111111111100001
0000000000110001
1111111111000000
0000000011110001
0000000001000110
0000001101101001
0000001000110011
1111111100111110
1111110111100000
1111111001010001
1111110001110000
0000001001111101
0000010011110000
0000000011000001
1111111001010011
1111110100101011
1111111001001001
0000000011000111
0000011100001111
0000001011100100
0000001010100101
0000001000101100
0000001011110001
0000000110110000
0000000101111000
1111111111100110
0000000001001011
0000000001001010
1111111111101100
1111111111110101
1111111111010000
0000000011011101
0000000011111100
0000001101010100
0000001000111100
1111111111110010
1111111110011001
1111110110100100
1111110000001100
1111111101010101
0000000001010001
0000000011110011
1111110111111001
1111110101010010
1111111001110000
0000010011010100
0000010000000000
0000000011010101
0000000101101001
0000000000110011
0000000100110001
0000000010011100
0000000001011111
1111111111100111
0000000011001111
1111111111110001
0000000000101001
1111111111101101
0000000000000100
0000000101001110
0000000100000001
0000000010110000
0000000010111110
0000000100001101
0000001100001000
1111110101101000
1111111011100110
1111111011111100
1111110001110111
0000000110001011
1111111101011010
1111101101011010
1111111011001001
1111111101110111
0000000010010100
0000010010001001
0000000111011011
1111111101010000
0000000011111100
1111111101001001
0000000110100101
0000000110100111
0000000011000110
1111111111111100
1111111111111111
0000000000010111
0000000000011110
0000000101111110
1111111110101000
1111111001000100
0000000111100101
0000011010110110
0000010111001011
0000001110010000
0000000111010110
1111111111101000
0000001111100011
0000000011111000
1111110010011110
1111101111111010
1111111111110011
0000100110011111
0000100000110100
0000011000000010
0000000100100000
0000000100011110
0000000101111110
0000000100000100
0000001011001010
0000001000000111
0000000011010110
1111111111100011
1111111110110000
1111111111000110
0000000000000101
0000000000111111
1111111011101100
1111111000100100
0000010001111011
0000100111001000
0000100110000101
0000011101110111
0000010001110110
0000000101111010
0000010100100000
0000000101011110
1111110001000000
1111111010111010
0000100000010001
0000101000110001
0000010001100111
0000001101011100
0000000100111011
0000000011110010
1111111011011001
1111110111100101
1111111111001100
0000000011111000
1111111101111010
0000000000001101
1111111111100110
0000000000100100
1111111111101111
0000000100000001
1111111001100111
1111111011101101
0000001111110010
0000011101110101
0000011101010110
0000100010011110
0000010011001001
0000000001111111
0000000000000100
1111110110111000
1111111110110111
0000000111011111
0000011001111101
0000010100001011
0000000011100110
0000001001111110
0000000110011011
0000001010110000
0000001100001110
0000001001100011
0000000011100100
1111111110001101
1111111110000001
1111111111010001
0000000000010101
0000000000001011
1111111110111110
0000000000011110
1111111101000101
0000000000101100
0000000000100100
1111111001111110
1111111110110111
0000001001010000
0000000000111101
1111111011110000
1111110011101001
1111110111001000
0000000101101111
0000010111100011
0000000111011100
0000001000110010
0000000011000000
0000001001001100
0000001110010111
0000001111100111
0000000110011011
0000000101111000
1111111100100001
1111111011011101
0000000000001100
1111111111110010
1111111111111011
1111111111011110
1111111111010010
0000000010110110
0000000100001010
1111111010101000
1111101110001001
0000000001110001
1111111001111101
1111110100000111
1111110000101111
1111110100111000
1111111011110000
0000000000010010
0000010011001011
0000010101111101
1111111010101101
0000000100100000
0000001110010110
0000000111101100
0000001000110111
0000000000110010
1111111011101111
0000000001101100
1111111101011001
0000000001000010
1111111111101110
1111111111001101
1111111111101010
0000000000000000
0000000010001111
0000000010101010
1111111011001001
1111111110010011
1111110011011011
1111101100100000
1111110000100100
1111110101110101
1111011100111011
1111110111001001
1111110010110010
0000001001110111
0000010000001011
0000001111000010
0000010000010100
0000010111101001
0000011100000110
0000011011010010
0000001101001001
0000000011101001
0000000100000000
0000000010110010
0000000010011110
0000000001111110
0000000001010101
1111111111100000
1111111111100001
0000000000110010
0000000001010000
1111111011110010
1111111101101010
0000000001011001
1111110100111001
1111111101000011
1111101110010101
1111110111101000
1111110110100010
0000000000010000
1111111110000011
1111111111010010
0000010101101100
0000010111010100
0000011101011101
0000011100010010
0000100001110001
0000010100100101
0000001100100110
0000000101101000
0000000001000101
1111111101100000
0000000001111101
0000000010001010
0000000000000000
1111111111111001
0000000000001110
0000000000011110
0000000010001100
1111111110100100
1111111110101001
1111111110001010
1111111101100000
1111111011111010
1111111110011101
0000001110111100
0000010000101011
0000001100100101
0000000100011100
0000001010110111
0000100001100100
0000011111001101
0000100001001101
0000011010100110
0000010111101000
0000010000011011
0000001010111111
0000000111001111
0000000001011001
1111111011111010
0000000000110101
0000000010000110
1111111110111110
1111111111101000
0000000000000000
1111111111110111
0000000001011011
0000000000110010
1111111111110001
1111111010111001
1111111000111010
1111110000100101
1111110011101110
1111111011000000
0000000000111010
0000000111010011
0000001111001111
0000000000100111
0000000010110101
0000010110000010
0000011001100101
0000011111010100
0000010110010111
0000010100000110
0000010000100010
0000000111001001
1111111100110000
1111111010011001
1111111111100100
0000000000000001
0000000000100011
0000000000000001
1111111111011100
1111111111000100
1111111111101110
1111111111011111
1111110101110111
1111101111100000
1111110011011000
1111110101110000
1111101111011101
1111111000000010
0000000100011011
0000000010110000
0000000101101100
1111111101111000
1111111111101011
0000010000111101
0000001100100100
0000010001000100
0000010010111000
0000001111000100
0000000101110100
0000000010000101
1111111101100001
1111111100010101
1111111110110110
0000000000000000
0000000000000101
1111111111011011
1111111111110001
0000000000001101
0000000000001001
1111111111010011
1111111101010010
1111111001000001
1111110110101000
1111110100110110
1111111101011011
1111111000111000
1111111101110001
0000000100000001
1111111000110011
1111111000101001
1111111011011100
0000000010000111
1111111110001001
1111111101100110
1111111101111001
1111111111000011
0000000000000000
0000000000001000
0000000000000000
1111111111010000
0000000000101000
0000000000100100
0000000000011100
1111111111010011
1111111111010001
0000000000110011
0000000000000000
0000000000000001
1111111111100110
0000000000000000
0000000000001010
0000000000001001
1111111111011110
1111111111111101
0000000000000010
1111111111001111
1111111111100101
1111111111000011
1111111111000101
1111111111110011
1111111111110101
1111111111000101
1111111110100101
1111111111100011
0000000000000011
1111111111011000
0000000000101110
0000000000000010
0000000000010100
0000000000100111
1111111111110101
1111111111000010
