1111111110100111
1111111110111111
1111111111111010
1111111111110010
1111111111100111
0000000000111000
1111111111000100
1111111111111111
1111111111111000
0000000000000110
1111111111011011
0000000000000010
1111111111110110
0000000000111100
0000000000100110
1111111111111001
0000000000101001
1111111111110110
0000000000100001
1111111111110110
0000000000000001
0000000000000000
0000000000001111
1111111111100011
0000000000101011
0000000000010011
1111111111010110
0000000000001111
0000000000001011
1111111111011100
1111111111111101
0000000000010111
0000000000001111
0000000000001101
1111111111001001
0000000000000011
1111111111111011
1111111111010100
0000000000001000
1111111111111000
1111111111011111
1111111111011111
0000000000111010
0000000001100101
0000000000001001
0000000001000110
0000000000110101
1111111111111001
1111111111001010
0000000000010011
0000000000010111
0000000000011000
1111111111110110
1111111111100000
0000000000100001
0000000000100100
1111111111111001
0000000000000111
0000000000110011
0000000000000000
0000000000101111
1111111111110010
1111111111110011
0000000000000011
0000000001001110
0000000000110010
1111111110101111
1111111101000110
0000000000110100
0000001011000101
0000001000100111
0000001000011000
0000000011011101
1111111111010101
1111111111110010
0000000000101000
1111111110011111
1111111111111110
1111111111000110
1111111111011000
1111111111110101
1111111111110010
0000000000111011
0000000000111001
1111111111011101
0000000000110011
0000000000000111
1111111111110110
1111111111100001
1111111101001110
1111111100111110
1111111011001011
1111110010000100
1111110100101011
1111110001110111
1111101101011110
1111110101110100
1111111110000100
1111110011000110
1111111111100010
0000000101110101
1111111110001111
1111101111010111
1111111000010101
1111110000011110
1111101111111001
1111110110010110
1111111101110110
1111111111100001
0000000000110010
1111111111011000
1111111111110100
1111111111100111
0000000000000110
0000000000000001
0000000000010001
0000000000001101
1111111100011111
1111111001111010
1111110101010001
1111111001100100
1111111111000011
0000000100000111
1111101101000100
1111110000100110
0000000010111000
1111111101111110
0000000101101011
0000000001100011
1111111110111001
1111111001101010
1111110010001111
1111110110010110
1111110110010011
1111111111010111
1111111010101100
1111110100001010
1111111011011111
1111111111100010
1111111111100100
1111111111110011
1111111111100101
0000000000111110
1111111110001101
1111111101010000
1111111011111001
1111111010000011
1111110011111000
1111110001110110
1111111110110111
1111111110001110
0000000011010000
0000000110000100
0000000101100010
1111101111000010
0000000001001100
1111111011110000
1111101011100101
1111111101101001
1111111011000001
1111101010101101
0000000001001101
0000001010101001
0000000100011111
1111111010111001
1111111100000110
1111111111011010
0000000000110000
0000000001000011
1111111111011100
1111111100001000
1111111001111011
1111110110111000
1111101100110011
1111111000000100
1111111101010001
1111110100000001
0000000110101100
0000001011010101
1111111101101110
0000001010000100
0000000011000001
0000001000011001
1111101110100101
1111111001110011
1111110111101000
0000000010011110
1111111110001010
1111111101100101
1111111010011011
0000000100110001
0000000010001110
1111111100111001
1111111101011010
0000000001010111
0000000010010000
1111111111110101
1111111111100001
1111111110101011
1111111100101000
1111111011110010
1111110011010011
1111110000011010
1111111010000111
1111111110001010
1111111110010100
1111111110000000
1111111101011100
1111111101011011
1111110111111001
0000000111010010
1111111001010101
1111111101011000
1111110101010011
0000001100101100
0000001101111000
0000000110000001
0000010011111111
0000001000010111
1111111101100010
1111110011011111
1111110110101001
0000000001101000
0000000001001101
1111111111001000
1111111111011010
1111111111010010
1111111101001110
1111111111111001
1111111100110100
1111111110010000
0000000101100110
0000000001011100
0000000010101000
0000010010101101
0000010001011101
0000010010110111
1111111111111111
0000010001011000
1111111100101111
1111101010001100
0000010010001111
0000000111010101
0000001111010100
1111111011111111
0000000010110111
1111111111010001
0000000101110110
1111110001011010
1111111001000101
1111111110101011
1111111111010001
0000000000100000
0000000000100011
0000000000111000
1111111010010100
1111111100111101
1111111001110010
1111111101001000
0000000101101101
1111111100001110
0000000001100101
1111111110101111
0000001011010011
0000010011101001
0000010111100000
0000001000001001
0000001100111010
0000010001000100
1111111000101011
0000000010001111
1111111100101100
1111100111001001
1111111001010110
0000000000000011
0000000011111001
1111111001101000
1111111101011010
0000000001010100
0000000001111100
1111111111111001
1111111111000101
0000000001011110
1111111100010111
1111111010010011
1111110011000001
1111110101011100
1111111000000000
1111111111000101
1111111010011001
1111101000010010
0000000001101001
0000010011010011
0000010100111000
0000011100110100
0000101011011000
0000001000111111
0000010011110001
1111101111011001
1111110010011101
1111100010011110
0000001011011010
0000000000000000
1111111101011110
1111111010101100
1111111101000101
0000000000100101
0000000001101011
1111111111100110
1111111111111011
1111111110111100
1111111110101101
1111111010011101
1111110101110111
1111110100110111
1111110010010111
1111101010010111
1111111000111110
1111111111001011
0000000011001110
0000010001001011
0000011000100111
0000011110100101
0000001000001000
0000011101010000
1111110011101110
1111101010011100
1111100100010011
1111111111001000
0000010011011101
0000000001101011
1111110101000101
1111101110111010
1111111011000101
1111111100010011
1111111111110001
1111111111111100
1111111111011100
0000000000110101
1111111111011101
1111111101101001
1111111100101110
1111111100101110
1111111100000111
0000000000101100
0000000010011010
1111101100001010
1111111010101101
0000001011111010
0000000111111111
0000001001010001
1111110100110001
0000001000010010
1111111011100001
1111100001011010
1111101010010000
1111111001111111
0000001010111100
1111111010100011
1111110101001101
1111111111111011
0000000010110010
1111111100111110
0000000000010100
0000000000010001
0000000000000100
0000000000000000
0000000000001111
1111111100000100
1111111010011000
1111111001111011
1111110100011110
1111111111000000
1111111001101011
1111011100110011
1111100101101010
1111101111111011
1111111111110110
1111110111111110
0000000100001011
0000010110000111
0000001010010010
1111110101010111
1111101001110110
1111110101101001
1111111101100010
1111110000101110
1111110011110111
1111111111000100
0000000011100010
0000000000000010
1111111111101011
0000000000011011
0000000000010000
0000000000110101
0000000000100011
1111111100100101
1111111001000100
1111101110111001
1111101011001001
1111110000101000
1111110100110000
1111101111001111
1111011110000011
1111111110110111
1111101010100111
0000000010001001
0000000000111111
0000000110010011
1111111111001111
1111111010011000
1111101100110110
1111100110000011
1111100110101011
1111100111111011
1111101111111110
1111111011001100
0000000100010010
0000000100000001
1111111111011001
1111111111111000
1111111111010101
1111111111011100
1111111111111101
1111111011011010
1111101110100111
1111100001101000
1111100011100011
1111101110011101
1111101010010011
1111101110011011
1111110010100011
1111110111101010
0000001101110101
0000010010110110
1111111111000001
0000000010000000
1111101010110111
1111000110110100
1110111100010011
1111000100100110
1111010101001011
1111011011111111
1111100011111101
1111110100001011
0000000100100100
0000000101000010
0000000000000001
1111111111111001
1111111111001111
1111111111111100
1111111111001110
1111111010100001
1111110001001110
1111101001101001
1111100001111010
1111101001010001
0000001011001001
0000000101100000
1111111011101100
1111110100001011
0000000001001101
0000011100101010
1111111000000110
1111110010001100
1111000110010010
1110101001010011
1110110110101011
1111000110010011
1111010011000000
1111100001000110
1111101100111001
1111111110110111
0000000111011011
0000000011101011
0000000000101001
0000000000000100
1111111111110110
0000000000001001
1111111111101101
1111111100000010
1111110111101001
1111101010100101
1111010101100100
1111101000001010
1111110001100011
0000000000001000
0000010011000110
0000010100010101
1111111111101100
0000001011100011
1111101101000000
1111011100001101
1110101010100000
1111000110101001
1111100100001100
1111100110001101
1111100011110001
1111101101111101
1111110011101011
0000001000110000
0000001101000010
0000000011010011
1111111111101110
1111111111100100
1111111111011001
0000000000011100
1111111110011010
1111111100011010
1111101101111110
1111011011011000
1111101101010001
0000000111101000
0000001011000011
0000001000100100
1111110010011010
1111110100100011
1111111000100011
1111110011001001
1111110000011100
1111010111100001
1111101000110111
0000001000101000
0000000110011001
0000001000110111
1111111110100110
0000000001110001
0000000101001001
0000001111000001
0000001010011010
0000000010010011
0000000011010111
0000000000001100
1111111111011101
1111111110101010
1111111110111010
1111111101110101
1111011110010110
1111101011010000
0000000110010100
0000001001110110
0000100000001011
0000001111110010
0000010011111011
0000000111110000
0000010101011010
1111110000100101
1111111111111001
1111111111011010
1111111011011100
1111111110110000
1111111100100101
0000001111000011
1111111100011100
1111111110010100
0000000110010010
0000000100000101
0000001101011001
0000000001001101
0000000000110001
0000000001001101
1111111111100010
1111111111100010
0000000100011111
0000000101110101
1111101010110001
0000000100100001
1111111100011111
0000010110101001
0000001111000010
0000001101111010
0000011100001010
0000100010011011
1111111001001110
0000000101010110
0000000001110000
0000001010000011
0000010001101001
0000001001011110
1111111101000100
0000001000000001
1111111011000111
1111111100011001
0000001010111101
0000001101011100
0000001100000101
1111111111111111
1111111111000010
1111111111111101
1111111111011101
0000000000100011
0000001010011000
0000000011011100
0000010101111111
0000001001100110
1111111110010111
0000000101011000
0000000101010101
0000000100001111
1111110110000111
1111111111101111
1111111001111000
0000000111001000
0000000110011100
1111110110011110
1111111010000001
0000010010100101
0000001011111001
0000001101000011
0000000110110100
1111111111100111
0000001011111000
0000001011100100
0000000111000010
0000000010011011
1111111111101101
1111111111110000
1111111111101010
0000000000001111
0000000001100100
0000000111100101
0000011110111001
0000001010101101
0000000110111100
0000001100001110
0000010011110110
1111110100111000
1111110100111010
1111100100001101
1111101111000111
0000001110010111
0000000001001111
0000000010111010
0000000110100001
0000100011011110
0000001010011110
0000010110101110
0000001111101111
1111111011000110
0000000010011000
0000000100011011
0000000010010011
1111111111110110
0000000000100011
0000000000100001
0000000000011111
0000000000010101
1111111000110000
1111110100110000
0000001000001011
0000001010111101
0000000110110001
1111110010110011
0000000011110011
1111110000101000
1111111100101010
0000101100101010
0000001011010000
0000000000001101
0000000111100000
0000001011111100
0000010010111000
0000000100101000
0000000111000100
0000000000110000
1111111100101010
0000000010111101
0000000001000011
0000000010000100
0000000001101101
0000000000100000
1111111111111010
0000000000101010
0000000000010100
0000000000000000
1111111100010000
1111111110011000
0000000010101110
0000000010010111
1111110001110000
1111110011001000
1111110000100100
1111101001000001
1111111100110100
1111111111111111
1111110111100100
1111111101110110
1111110010010000
1111100000101101
0000000011000001
0000001100100010
0000010001100000
1111111101110010
0000001001001100
0000000101110010
0000000010011100
0000000001101100
0000000001001010
0000000000101010
1111111111011010
0000000001000101
1111111111100110
1111111111111000
0000000000001000
0000000010010111
1111111010001110
1111110110010000
1111110101100111
1111111101100100
1111111010010110
1111110000111001
0000000000101001
1111111111011011
1111111011110111
1111111100111000
1111101101010011
1111110001010010
0000000000111100
1111111010001001
1111101110100001
1111111000101110
1111111111010100
1111111111111010
0000000010101000
0000000000010000
0000000001001010
1111111111100111
0000000000010000
0000000000000110
1111111111010111
1111111111101111
1111111111111100
1111111110000100
1111111110001100
1111111100001011
1111111010000010
1111111101100011
1111111101001111
1111111010001000
1111111010010111
1111110000001011
1111101111001111
1111110000001101
1111101101010001
1111101110010110
1111110001000111
1111111000000111
1111111001011000
1111111011011011
1111111100100001
1111111111110110
0000000000001111
1111111111110010
1111111111111100
0000000000001101
0000000000011001
1111111111000011
0000000000100101
0000000000001100
0000000000011011
0000000000000011
0000000000101000
1111111111111110
0000000000001111
1111111111110101
1111111111011100
1111111111100110
0000000000000000
1111111110111110
1111111111100000
1111111111100111
1111111111100111
1111111110110100
1111111110101111
1111111101011010
0000000000001100
1111111111001111
0000000000100100
1111111111111111
1111111111110100
1111111111101001
1111111111011010
1111111111100010
0000000000100100
