0000000000100111
0000000000001011
1111111111111111
1111111111110101
1111111111011111
0000000000011011
1111111110110011
1111111111110111
0000000000111111
1111111111100111
0000000000011101
1111111111100100
1111111111100010
1111111111111100
1111111111111101
0000000000010010
0000000000100000
0000000000011100
1111111111111010
0000000000101110
0000000000010100
0000000000110100
1111111111011010
1111111111101110
0000000000011111
0000000000111011
1111111111100000
0000000000001000
1111111111000100
0000000000001100
0000000000000010
1111111111011010
0000000000010110
1111111111110010
1111111111111100
1111111111000000
1111111111001111
1111111111001001
0000000000000000
0000000000010101
1111111110010000
1111111110111100
1111111110101000
1111111101101000
1111111110010111
1111111111110000
0000000000011000
1111111110100110
0000000000000100
1111111111001101
1111111111011100
0000000000000000
0000000001011001
0000000000100011
1111111111100100
0000000000001110
1111111111110010
1111111111101110
1111111111101100
0000000000000001
0000000000110010
1111111111010101
0000000000000111
1111111110110000
1111111110111110
1111111111000000
1111111111010110
1111111111100010
1111111101110011
1111111101110001
1111111110011010
1111111101011100
1111111100101110
0000000000110100
1111111111011001
0000000001000110
0000000001100010
0000000001111100
0000000000101010
1111111111011010
0000000000010100
1111111111110001
1111111111110001
0000000000110000
0000000000100110
0000000000101101
1111111111100001
0000000000000110
1111111111010001
1111111111111101
1111111111101010
1111111111010100
1111111101011110
1111111110011001
1111111101010110
1111111111001010
1111111010100000
1111110101111101
1111111101110010
0000000011101010
0000001101111011
0000010011100100
0000000111100100
0000001000110011
0000001100111111
0000000010110001
0000000000110000
1111111111111010
0000000000001111
1111111111110100
1111111111111000
0000000000001111
0000000000001110
0000000000001010
1111111111010000
1111111111100100
0000000000000100
1111111111001100
1111111111001100
1111111111010001
1111111101000011
1111111000101100
1111111011011001
1111111100100000
1111111111011110
0000000011001011
1111101001111111
1111101011110011
0000000011001010
0000001010101110
0000000101001011
0000001111000111
1111111110010110
1111110100000001
1111111000011101
0000000000100001
1111111101101111
1111111011101011
1111111100011000
1111111111101101
0000000000000001
0000000001000011
1111111110111111
1111111111010101
1111111111111000
1111111111101101
1111110110101001
1111110011001010
1111111100110001
1111110110011110
1111110000100111
1111110111110100
0000000010001100
1111111000110111
1111110100101110
0000001011011110
1111101110100101
1111100100101111
1111111000000100
1111110110100100
1111111000100001
1111100101000011
1111110100100000
0000000110001010
0000000001110001
1111111011100111
1111111101000101
0000000000000000
0000000000000101
0000000000100111
1111111111010110
1111111110100000
1111111111010000
1111111110011011
1111111010101000
1111111100101110
0000000111100110
1111110001110000
1111101111001000
1111111000001010
0000001000110000
1111111110010110
1111111001110101
1111111100110111
1111111100001110
1111110111110110
0000001001001100
1111110010001111
1111100111010010
1111111110011110
0000001110011001
0000000010011110
1111111100010001
1111110101101110
1111111111100110
1111111111111001
0000000000110111
1111111110111010
1111111110110011
1111111111101101
1111111110111010
1111111000101111
0000001000110001
1111111010010110
1111111001001110
0000000111110110
1111110001110001
1111111100010101
0000000110101000
0000010010011100
0000011100110110
1111110111100111
0000001110010011
0000010111110101
1111111011011001
1111110110011011
1111110010000010
1111110100100010
0000000111100000
0000001010001011
1111111111101111
1111111010010001
0000001000111101
1111111111011000
0000000000110011
1111111111011101
1111111110111010
1111111111100110
0000000010011100
0000001100010100
0000010110110000
0000001001011001
0000010110000100
0000000011110011
0000000010111001
1111111101111111
1111111111101000
1111111001011111
0000000101000101
1111111011001100
1111100011100011
0000000001111100
0000000011101001
1111101001111111
1111100100000101
1111101100100000
1111111011101100
1111111010000010
1111111110111001
1111111011100110
0000000001000111
1111111110011000
0000000000000000
0000000000000110
1111111111000011
1111111100110001
0000000001101101
0000001110110110
0000000110000101
1111111001100011
0000000011101110
1111110011000111
1111111111111110
1111110111101110
0000000101000110
0000000100011100
0000001001101000
0000001100011101
0000001010100000
1111101010001001
1111101110100111
1111100100001010
1111110000101010
1111111100000110
1111110111101000
1111110011110011
1111110010011111
1111111110001100
0000000100101111
0000001000001000
1111111111101000
0000000000011110
1111111111010001
1111111001000110
1111111110010010
0000001000001000
1111110100100101
1111110110110100
1111110110001011
1111110010111000
1111110100110100
1111111111010010
0000000000000111
0000001000000001
0000100000010011
0000011010000000
0000001001100010
1111100110010111
1111100010010010
1111101101010111
1111101010101000
1111111100101000
1111110000011100
1111101111101000
1111111011101110
0000001001011011
1111111110011111
0000000010011100
1111111111111000
0000000000001101
1111111111011101
0000000000111110
0000000001001010
0000000011110110
1111101111000000
0000000000011111
1111111110100000
1111111011100011
0000001111000111
1111111101100100
0000000011101100
0000000000011001
0000010111101000
0000011000001011
0000011100100011
0000010101001010
1111110110101000
1111110100100001
1111101110111111
1111111011101000
1111110100001101
1111101110111110
1111110100100110
1111110100111000
1111110011001100
0000000000110000
1111111111111011
1111111111110000
0000000000100001
0000000010010110
1111111100111000
1111110000011000
1111100110110111
0000000111011000
0000000111111011
1111111100111001
1111111110000111
0000001100010010
0000011100101011
0000011111010001
0000000001100001
0000100000001101
0000010110001110
0000010000110100
0000010010000111
1111101111101011
1111110101100010
1111110010100001
1111101100110010
1111101111111000
1111111001010001
1111111011111111
1111111111101100
0000000001011011
0000000000010001
0000000000001000
0000000001000011
0000000010100101
0000000000001110
1111111001101110
0000000010110101
0000011110100010
0000001111011100
0000000010111001
0000001001011110
0000001000110001
0000100101111000
0000001010001001
0000001111001110
0000011000101110
0000011110001011
0000010101110110
0000010101100110
1111111011001000
1111111101010100
1111111101100101
1111101110111111
1111110001110011
1111111010001000
0000000100010110
1111111101011100
1111111110100010
0000000000001100
1111111111101111
0000000000010011
1111111111011111
0000000001001011
1111111110111110
1111111000001101
0000000110000110
0000000111101000
0000001000011100
0000011010100010
0000011001100101
0000010110001000
0000001000010001
1111111101110101
0000001011111111
0000010100011000
0000011001110101
0000011100010100
0000001010001100
1111111000110101
0000000100110001
0000000100110011
0000000001111011
1111111010010110
0000000010000100
1111111101011011
1111111111101001
1111111111110110
1111111111101101
0000000001001100
1111111100011001
0000000010001110
1111110110110010
1111110001101101
1111111011000001
1111111011000101
1111111111001000
0000010101010100
0000001110001110
1111111111011011
1111111110011011
1111110101110100
0000001111010101
0000011010111001
0000101111110000
0000010111001100
1111101101000111
1111101110011000
0000000011101000
0000000111100000
0000001000101101
1111111101001110
1111111001000110
1111111101000100
0000000000010010
0000000000101110
0000000000001000
1111111111110100
1111111011011100
0000000011100110
1111110010111001
1111101101110010
1111110111111111
0000001011110010
1111111000100001
0000001100111110
0000010010011111
1111101101101000
0000001001011011
1111101111101101
1111110110000010
0000011110101011
0000001111111001
0000000010011100
1111110010010111
0000000010000100
1111111101100011
1111110000001100
1111111100110000
1111110000011101
1111110001101101
1111111001001110
0000000000011110
0000000000110101
0000000000011001
1111111111001110
1111111100101000
0000000000011111
1111110010000111
1111110001000111
1111101011100011
1111111111100000
0000000001011001
0000100101001000
0000000101001111
1111110000001001
0000010011001000
0000001000110001
0000001000000011
0000011010110111
1111111110011010
1111111001100000
1111110010110111
1111111000100010
1111100111111111
1111101001111001
1111110111101101
1111110100100100
1111110111001110
1111111111001100
1111111111111100
1111111111100001
1111111111010010
1111111111111111
1111111101010100
0000000010011100
1111110110000001
1111110001000100
1111100011011110
1111100110010010
1111100011110101
1111111001101000
1111111110011100
1111101001110111
0000001110011011
0000010001010010
0000000100111101
1111101000000010
1111110110100110
1111010110000000
1111100000100011
1111011011100000
1111011100100111
1111011110111100
1111101010111001
1111110101010101
1111111100111000
0000000011001011
0000000001101101
0000000000000000
0000000000011110
1111111111010011
1111111111010110
0000000010111110
1111111100011100
1111101110010001
1111100000011000
1111011011010100
1111011010100001
1111010111111111
1111101101100001
0000000011010000
0000000100110100
0000001100010010
1111110001011011
1111010110001001
1111010011010000
1111010000001011
1111100111101010
1111011011110110
1111011100101100
1111011010011101
1111100100001000
1111110011110110
1111111111100101
0000000001000000
0000000000100100
0000000000010010
0000000000100010
1111111111001101
1111111100100100
1111111011111110
1111110110011000
1111101000011011
1111100000110111
1111100010000111
1111011001010010
1111011010000101
1111110101011110
0000000010100001
1111101111000010
0000001000110111
1111101101010010
1111110010000110
1111100000101101
1111101101000101
1111011010000111
1111011101101110
1111100011010111
1111101101010011
1111110000011110
1111111001001111
0000000000111001
0000000000010111
0000000000001010
1111111111111000
1111111111111001
1111111111001110
1111111010101101
1111111011001100
1111100111010011
1111100010011110
1111011111010110
1111101111010101
1111110111101110
1111111101011101
1111111110011110
0000001100111101
1111101010010110
1111101011001111
1111011110111110
1111101111010000
1111101101010010
1111111001001110
1111101110011001
1111110001011001
1111101111101100
1111110100100110
1111110110110110
1111111001010000
0000000000111001
1111111111100010
1111111111011001
0000000000001010
1111111111010110
0000000000010000
1111111101001110
1111110101001100
1111011011101001
1111011100011000
1111100111111111
1111111111110101
1111111101111111
0000010101111001
1111100100111100
1111110011010111
1111111000011010
0000000000111101
0000001100111111
0000000101011000
0000000100101100
0000000001010011
1111111101111101
1111111000100011
1111111001101110
1111110100111111
1111110111000010
1111111010100000
0000000001110010
0000000000101011
0000000000001100
1111111111110000
1111111111011011
1111111100110110
1111111101110111
1111110000101000
1111011001011110
1111011001010101
1111100111101100
0000000001000100
0000000111110000
0000100000100010
0000000011101100
0000001001001111
1111111100100111
1111111001111111
1111110001101010
1111101100010100
0000000100000100
0000000000000001
1111111000100101
1111110110000100
0000000011100001
1111110001100010
1111110101111011
1111111101000100
0000000000101011
0000000000010010
0000000000011010
0000000000011010
0000000000010110
1111111111100011
1111111110111010
1111110101111000
1111101100000011
1111100011111110
1111101000100111
0000000011001100
0000000000100100
0000000001100101
1111110001011000
1111011100011000
1111111011100010
1111111001011010
0000000111110011
1111101111101111
1111111101010100
1111110101001110
1111110110101010
0000000011000101
1111111011001001
1111101110101101
1111111000001100
1111111100110101
1111111111111100
1111111111110010
0000000000101100
1111111111111100
1111111111110100
1111111111000000
1111111110111011
1111111110011011
1111111100011100
1111111000001111
1111110100101011
1111111110101111
1111111100010000
1111110011001111
1111111010001011
1111110010111111
1111111010101111
0000000110000110
1111110101011101
1111110001001110
0000000100101101
1111110010000011
1111101000100111
1111110111100011
1111101111100001
1111110100010001
1111111000101110
1111111100010011
1111111111011011
0000000000101111
1111111110111011
1111111111100010
1111111111110011
1111111111101001
0000000000101001
0000000000111101
0000000001100000
0000000010101100
0000000000101111
0000000011000000
0000000101101010
0000000001011100
0000000001100000
0000000110110001
0000000100011100
0000001101000110
0000000010100110
1111111010111001
1111110111001110
1111110101111010
1111111000000000
1111110110110110
1111110101011100
1111111100011101
1111111111011111
1111111111111001
0000000000101010
1111111111111111
0000000000001001
0000000000101011
1111111111001100
0000000000010101
0000000000001011
0000000000101011
1111111111011000
1111111111111011
0000000000010101
0000000000000001
0000000000101010
0000000000110001
0000000000011011
0000000000101001
1111111111111011
0000000000010101
0000000000000011
1111111111111011
0000000000011001
0000000000010101
0000000000010111
1111111111110111
0000000001011010
0000000001000101
1111111111110001
0000000000011101
1111111111000010
1111111111100011
0000000000000101
