1111111111010010
1111111111111100
0000000000000000
1111111111000010
1111111111101111
0000000000011100
0000000000000001
0000000001000001
1111111111111010
0000000000111111
0000000000010011
0000000000010010
1111111111101100
0000000000001011
1111111111100010
0000000000000101
0000000000100001
1111111111010011
1111111111110101
1111111111110000
0000000000000111
0000000000000110
1111111111101001
0000000000000101
1111111111111010
0000000000111011
1111111111111100
1111111111010111
1111111111101011
0000000000011011
1111111111001001
0000000000110101
0000000000000000
1111111111011110
1111111110111111
1111111110100000
1111111101111101
1111111110111011
1111111111110100
1111111110001110
1111111101100110
1111111110011010
1111111111110011
1111111101101100
1111111001010010
1111111011110101
1111111111011011
1111111101001111
1111111101100001
0000000000000011
1111111111010100
1111111110101110
1111111111111011
1111111111000111
1111111111011010
1111111111101000
1111111111110100
1111111111110011
1111111111101001
1111111111100111
0000000000000001
0000000000010001
1111111111110100
1111111011011010
1111111000110011
1111111000101101
1111111000110000
1111110110001111
1111111000110011
0000000001100011
1111111001001111
1111111110001110
1111111010000101
1111110101011111
1111110110001111
1111111011111110
1111111011011101
1111111101011101
0000000000000000
1111111101101111
1111111101010110
0000000000111111
0000000000010011
1111111111110111
1111111111110010
0000000000001111
0000000000110000
1111111111001100
1111111111010101
1111111111010100
1111110010110110
1111110010101010
1111101101000010
1111101110111110
1111110110110011
1111110011101111
1111100110111001
1111100000111011
1111101010101100
1111111010100011
1111111001000101
0000001001100101
0000010011011001
0000000010000000
1111110100100100
1111110100101100
0000000001000101
0000000100011101
0000000001001101
1111111111100010
1111111110100101
1111111111111000
1111111111000110
1111111111111010
1111111111111111
1111111111001001
1111111110010111
1111111110010010
1111110011100111
1111101101011110
1111101110001101
1111110011001000
1111101011100110
0000000000100001
0000010010001001
0000001010110000
0000000000100100
0000001010100011
1111111101011010
1111110001110111
0000000010001011
1111110111101011
0000000010011101
0000001101011000
0000001111100010
0000010100100100
0000000110010010
0000000000100100
1111111110101010
1111111111101001
0000000000001101
0000000000110101
0000000000011001
1111111111100110
0000000011010100
0000001110011101
1111111110101000
1111110100100000
0000000011011100
0000001001000110
0000000000000111
0000000111111011
0000010000100111
1111110111011001
0000001011111001
0000000110111011
1111111101111110
0000000110110100
0000010000010011
1111111101101011
0000001001000110
0000010100101101
0000100001111110
0000010011100100
0000001010010011
0000000001101110
1111111111100100
1111111111100010
0000000000011000
0000000000001011
1111111110001111
1111111101001001
1111111111001111
0000000110100011
0000000001010100
1111111010111100
0000010011101000
0000001111100111
0000010110000101
1111110100001111
0000011000001101
1111111001101100
0000001110111000
0000010100001101
1111110110010000
0000010110011000
0000010101000010
0000001010111010
0000010010111100
0000010100010101
0000100000001111
0000100101011100
0000010011111000
0000000101010011
0000000000111010
1111111111111110
1111111111101110
1111111111011010
1111111111100100
1111111111101001
1111111101001001
0000010100001001
0000001010000100
1111111110001101
1111111111010011
0000000000010100
0000000111110111
0000000000111100
0000000101010001
0000001011000111
0000001001100101
0000001010111001
0000000110101010
0000001100100111
0000010001011010
0000010000100100
0000010001011000
0000001100000100
0000010100100100
0000101001011110
0000001101011111
0000000110101011
0000000101001010
1111111111000001
1111111111100110
1111111111101011
0000000000101001
0000000100001010
0000001001000001
0000001111000110
0000001010110110
0000000010101010
1111111111010000
0000000111000000
1111110000100011
0000000110101010
0000010000111100
0000000100010011
0000000001101000
1111110110000111
0000000010010101
0000001010101001
0000100001000000
1111111010110000
1111110110101001
0000000111111110
0000010000100100
0000010010111000
0000010001100100
0000001001101010
0000000100000010
1111111111101000
1111111111111000
0000000000000110
0000000000011111
0000000010010001
0000000001000010
0000000000110011
0000010101110000
0000001010101101
0000001110111100
0000001110000010
0000001001001100
0000011000000010
1111111100111110
0000001101010000
1111100111001011
1111111000110010
0000001011000000
0000000011011011
0000001101000010
1111111011111111
1111101111001000
0000001000110001
1111111100010101
0000010001011111
0000000101111110
0000010001110001
0000001100111000
0000001011110011
1111111111011101
0000000000010010
1111111111001010
1111111110000000
1111110111010100
1111111000101001
0000001101001000
1111111001100111
1111111011010101
1111111110101001
1111110101100011
1111111001011001
0000001001101110
0000000101010010
1111101101010101
0000000011011110
0000010011011111
1111111100110110
0000001110010110
0000100000100111
0000000100100011
1111110001101111
0000000011000010
0000000100001000
0000001010101000
0000100001111011
0000000101000001
0000000010110110
0000000000101001
1111111111110101
0000000001000100
1111111111101101
0000000010010100
0000000110000000
0000000010110110
1111101111010110
1111101110110110
1111111110100010
0000000111110001
1111111010111010
0000001011110011
0000001100100101
0000010010001101
0000010110111101
0000000001001110
1111111000101111
0000000111100110
0000001000110111
1111110001010000
0000000010100011
1111111111101011
1111110001111001
1111110100001110
1111110111110111
1111111111001111
0000000001110011
1111111111111000
0000000000001000
0000000010100101
0000000010110001
0000001100000110
0000000010101000
0000000100100110
1111111101010100
0000001010100100
0000010100010000
0000001001110101
1111111100010011
0000001011111011
0000001011011110
1111111110110110
0000001010001010
1111110100101000
1111101100011100
1111111111011010
1111111000110100
1111110001010111
1111110011101101
1111110001001111
1111101110000101
1111101110000100
1111111010001100
0000000111011100
0000000011001010
0000000000010010
1111111111100010
0000000001010010
0000000010110111
0000010011001000
0000000110111011
0000001010000110
0000001111010011
0000010001001110
0000011100111111
1111110011110110
0000000010011011
0000000110001000
1111101010101100
1111111100101110
1111110010011100
1111100111011110
0000010001000101
1111110111011100
1111101100111011
1111111000010000
1111101110001000
1111110000110110
1111101100001101
1111110111110110
0000010000101110
1111111101001000
1111111100001001
1111111111010100
1111111111110001
0000000000010110
0000000100010001
0000001000001110
1111111100111001
1111110000110111
0000000000010110
1111111111111010
1111110101001110
1111110100000000
0000000000101101
0000000110001101
1111101000100110
1111111000101101
1111110101100000
1111100000011001
0000011010001111
1111011100110001
0000000110110111
1111110010101101
1111110101001011
1111100110001001
1111101010010010
1111110011100000
0000000100100110
1111111010010010
1111111111101111
1111111111011010
1111111111101011
1111111111101101
1111111111111010
1111110011010010
1111111101101100
0000001010111010
0000010110100010
0000001010000010
0000000010111001
1111111000111001
0000010010110111
1111111010111000
1111011011000111
0000000000101010
0000010010000111
1111110100011111
0000001001011110
1111110001011100
1111110010000001
1111101000011111
0000000001110011
1111111110001110
1111111110010000
1111111101010010
1111110010001100
0000000010111101
1111111101100010
1111111111111001
1111111111110011
1111111110111010
1111110110001001
1111111000111101
1111111100011000
1111110111111101
0000000100000010
0000011001111101
1111111110001110
1111110000010011
1111111010000111
0000010010001000
0000000011010010
1111101001101001
1111111001011000
1111100101111100
1111100010111001
0000000001110111
1111110011100111
0000001010110011
1111110110101010
0000000011101100
0000000011100111
1111110001110111
1111100111110000
1111111110110010
0000000000000100
1111111111010011
0000000000011011
1111111111011001
1111110101001000
1111110100011101
0000001000010111
0000000000111111
0000000110110111
0000000110001110
1111111101001111
1111101111010101
1111111101110101
0000000010000010
1111111100111010
1111111100000000
1111101101110001
1111110110010101
1111111011011110
1111111000101010
1111111011101110
1111111011000000
1111110100111000
0000010111111001
0000011011001010
0000010001010000
1111101111110111
0000000011010001
1111111111001110
0000000000000101
1111111111010100
0000000001100110
1111110011000101
1111111001101000
1111111011001010
0000000010110111
1111111100010001
0000001001011000
1111111000110110
1111110101110100
1111111011101100
1111110101110100
0000010000010110
1111100101011011
1111110011000100
1111101001010011
1111101110001011
1111110100111110
1111110100101101
0000010101000001
1111110011110001
0000000010101111
0000000000010001
1111110011001100
1111101100101011
0000000010000010
1111111111000011
0000000001010011
0000000000011110
0000000010000110
1111111001111001
1111101101010001
1111110101110111
1111111111000111
0000000111101110
0000000100011101
0000000010010001
1111110010100101
1111100010111010
1111101110000010
0000010000000110
1111100101110000
1111101001100011
1111110111100000
1111101100100000
1111111101101001
1111111110100000
0000000101010101
1111111101000011
1111110001111110
1111110110101011
1111111001011000
1111110011001110
1111111100101000
0000000000011111
1111111111110111
0000000000011100
1111111110011000
1111110101111010
1111101111101001
1111101011100111
1111111100001000
0000000001011001
0000000010101101
0000000101001100
1111101011111001
1111011111010000
1111111011001101
1111110101100110
1111110110100111
1111111001001011
0000011001001100
0000001000110000
1111101011111000
0000001111101111
0000001111010111
0000000001111010
1111111101011000
0000001110000101
0000010010001010
0000000010011010
1111111111100111
0000000000001001
0000000001001000
1111111111111110
1111111001100011
1111111000110010
0000000000111111
1111110100101000
1111110111111110
0000001000001010
0000001010110001
0000000011011011
1111110010100100
1111111111011110
1111111011001110
1111110011100111
0000000111000011
0000001001100110
0000010010001111
0000001110100000
0000010100001110
0000100110001110
0000100100101101
0000010101010011
0000010111110110
0000010101010100
0000011010010011
0000000010000111
1111111110001101
1111111111111010
1111111111100100
0000000000101001
1111111111010111
0000000011000010
0000010000110010
0000000101001100
0000010100101001
0000010111111010
0000100101000110
0000010101000000
0000000000010010
0000100110101111
0000010101010011
0000010010001010
0000011111011100
0000010100101101
0000101010010011
0000100000111011
0000011111011110
0000100100011010
0000010111001011
0000100001000000
0000011101100000
0000011110001000
0000001110101010
0000000000100011
1111111110101010
0000000000110100
1111111111111000
1111111111110000
1111111110101011
0000000010011000
0000010110010001
0000011000110001
0000011111010100
0000100111011000
0000101100000001
0000101000011100
0000100000100000
0000110000011010
0000100101110011
0000101110110101
0000111001010001
0000111001111010
0000110111011010
0000111001101001
0000101110101011
0000011100001100
0000001110111111
0000001011100100
0000001100001000
0000001101111011
0000001011010011
1111111111110110
1111111111011110
0000000000000001
1111111111011010
0000000000100110
0000000000010010
1111111111111100
0000001000100101
0000010001011000
0000011001000111
0000100001100100
0000100100011101
0000101010101000
0000100000111000
0000100011010001
0000100110011011
0000110110110011
0000101010101110
0000100011000010
0000010010000000
0000010000000101
0000010011010011
0000000101111111
0000000111110001
0000000110000101
0000001001111111
0000001011110010
0000000001010001
1111111100111010
1111111111000001
1111111111010010
0000000000100111
0000000000000110
0000000000000011
0000000001011000
0000000101000000
0000000101011011
0000000111010110
0000001010000000
0000010000001010
0000010111100010
0000001100100110
0000001010011001
0000001011110111
0000010000000010
0000001110010100
0000001101011001
0000000100110001
0000000000100010
1111111001111001
1111111000100011
0000000011101110
0000000100111011
0000000010010010
0000000011100001
0000000001111010
1111111111010011
1111111110010010
0000000000011001
0000000000010100
1111111111000111
0000000000001010
0000000000010001
0000000000100101
0000000010011101
0000000011010011
0000000010101011
0000000011000011
0000001010001111
0000000011100000
0000000001011101
0000000010001111
0000000010010001
0000000010000010
0000000001011111
1111111101110110
1111110011110010
1111110110011010
1111110011100000
1111111101011011
0000000000100110
0000000000010100
0000000000000001
1111111111110011
0000000000101101
1111111111100001
1111111111110000
0000000000110100
0000000000001011
0000000000010101
0000000000000100
0000000000101111
1111111111011010
0000000000110010
0000000000110011
1111111111011000
1111111111010101
0000000000101011
0000000000101001
1111111111111101
1111111111111011
1111111111111111
0000000000000110
0000000001000001
0000000000111001
0000000010110000
1111111111010001
1111111111000011
1111111111110100
1111111111101101
1111111111011010
1111111111111110
0000000000100011
1111111111110101
1111111111011001
