0000000000100111
0000000000011001
0000000000011111
1111111111110001
1111111111110100
1111111111100111
1111111111110001
1111111111111001
0000000000001011
0000000000001010
0000000000100010
1111111111111000
1111111111100100
1111111111011110
0000000000100111
1111111110110100
1111111111111010
1111111111111001
1111111111100100
1111111111111000
0000000000001101
1111111111001000
0000000000000001
1111111111101110
0000000000000111
1111111111100111
0000000000001100
1111111111100011
1111111111111010
0000000000011000
0000000000010000
0000000000010110
1111111111111001
0000000000101101
0000000000000010
0000000000000010
1111111111010111
1111111111010011
1111111111011100
0000000010000111
0000000001001100
0000000000110010
1111111111101111
0000000000000101
0000000000010101
0000000000000111
1111111111101110
1111111111111100
0000000000111001
0000000000110001
0000000000000001
0000000000001100
1111111111101110
1111111111011010
0000000000011011
0000000000011000
0000000000001101
1111111111011000
0000000000011100
1111111111110110
1111111111110111
1111111111111011
1111111110100110
1111111111001010
0000000000000100
1111111111010111
1111111111010111
1111111110010000
1111111111101001
1111111110100010
1111111110100110
1111111101100101
1111111100000100
1111111110010111
1111111110101111
1111111111101001
1111111101010111
0000000000001011
1111111111100100
0000000000001011
1111111111111011
1111111111011101
1111111111110101
1111111111101011
1111111111001111
1111111110111001
1111111111001110
0000000001110111
0000000000010100
1111111110010011
1111111110110011
0000000010101001
0000000001100010
1111111110000100
1111111101100000
1111111010101011
1111110110100010
1111111011100111
0000001001111010
0000000110100111
0000000010010100
1111110010101110
1111101010101011
1111110111001011
0000000100101111
1111111011111110
0000000000010100
0000000100011001
0000000001000100
1111111100010011
1111111111010101
0000000000000111
1111111111101001
0000000000000101
0000000000110101
0000000000010100
0000000000001001
1111111110110001
1111111110110011
0000000000011001
0000000000101101
1111111010100110
1111110111100110
1111111110011110
1111110000111011
1111111001011000
0000000000010111
1111111100100100
0000000010101001
0000010001001010
0000000110001101
1111110100011010
1111111100010101
1111110101101010
0000000010011011
0000000110101100
1111111011100101
1111111011111011
1111111101100101
0000000000011110
0000000000001101
0000000001000000
1111111111110000
1111111111011000
0000000010011001
0000000000110100
0000000000101110
0000000010001000
0000000001011101
1111110100110101
1111110111110011
0000000010101101
0000000010000101
0000001011101000
1111111010011000
1111111010011000
0000000110011101
0000010010101010
0000010010011100
0000000110010111
1111111100111100
1111111110011011
1111111111111000
1111110110110011
1111110111101000
1111111100000011
1111111111100000
1111111111011001
0000000000111011
0000000000001100
1111111111010000
0000000000000111
0000000010001101
1111111101101111
1111111110101111
0000000001000011
1111110110111110
1111100011110000
1111111010101101
1111110111100011
1111111000011011
0000001001100100
0000000111010010
1111111001100001
1111111011101010
0000001010100100
0000000101011100
0000001010110110
0000001010011101
0000001000100010
0000000101001001
1111110011010101
1111101101100000
1111110110000100
1111111100101111
1111111101110101
1111111111110001
1111111111100100
0000000000000010
0000000000100000
0000000001101011
0000000000101110
0000000110010010
0000000110111001
1111100001010000
1111110000010011
0000000110000011
0000000001000110
0000000110001101
0000001011100010
1111111111011111
0000000001101110
0000000011011001
0000000111000100
0000011011100100
0000100010000101
0000001001010100
0000000101110010
0000000010010000
0000001000100101
0000001010010001
0000000110010100
1111111101100111
1111111111101100
1111111111111101
0000000000000101
0000000000000100
0000000000000100
1111111111100110
1111111000101100
1111111110111110
1111110100000101
1111101011011000
1111110100110110
1111110001000101
1111111010100111
0000000010100010
1111110111110010
0000000011001010
0000000000111000
0000011100110100
1111111000011001
0000010000101100
0000010101111010
0000010001111111
1111110101101111
1111111101010001
0000000000010100
1111111110100111
1111110110111101
1111111010110011
1111111111100010
1111111111101111
0000000000000111
1111111111110011
1111111110111010
1111111101000010
1111111000110110
1111111100010011
1111110110010100
1111110101111100
0000000000000000
1111110101101001
1111100101100110
1111110001001001
0000000001011000
1111101110100000
1111110100000100
0000000011101100
1111110101111011
0000001001000100
0000010110100111
0000101110000011
1111110110001100
1111110110110011
0000001101000110
1111111110111111
1111110011110110
1111111010001110
1111111111011101
0000000000000110
1111111111111001
1111111111001010
1111111110011101
1111111010010100
1111111011000011
1111110111000101
0000000101000001
0000000000111010
0000000010111010
1111101010110100
1111110100101111
0000001101011101
1111110101000101
0000000111111001
0000010010001001
0000000111100100
0000000011011101
0000000001101100
0000000111110000
0000010011100111
0000010100111101
0000011100101110
0000010011000001
0000000001001110
1111110110011011
1111111010101010
0000000000001101
0000000000010110
0000000000000011
0000000000010001
1111111101101011
1111111010001010
1111110101010011
0000001011100000
0000000110011100
1111111011100001
0000000010110110
1111111010111110
1111111111000010
1111110010010101
1111110111010011
0000001011000110
1111110111010001
1111011100001011
1111010100111000
1111011110010101
1111111010011010
0000001110100100
0000001000010111
0000010111010001
0000001001101111
0000001011011011
1111111110010101
1111111101111011
1111111111111011
0000000000010100
1111111111111000
0000000000010011
1111111111010110
1111111011100111
1111111110110001
0000001111011110
1111111011011010
1111111110011110
0000001000000111
0000000000001001
1111111110011000
1111111100100001
0000001110100100
0000000001111001
1111101110100100
1111011110010010
1111011111001000
1111110001111000
0000001001110111
0000000011010101
1111110111110000
0000001110111100
0000010010101001
0000010011110100
0000000011110110
1111111111110001
1111111111011111
0000000000100010
1111111111110101
0000000000010000
1111111100110000
0000000000101110
0000000001000110
0000010010101101
0000000101100011
0000001010011110
0000000110001001
0000010001000011
1111110100100100
1111111101110010
0000000001101000
1111111110010010
1111101110001110
1111100000101100
1111100100101010
1111110111010101
1111111010011011
1111101111010100
1111111011011101
0000001010000100
0000010100100111
0000001011101011
0000000100010000
0000000000000111
1111111111100001
0000000000010010
0000000000000101
1111111111001011
1111111010101010
0000000011010011
0000001111100100
0000001111011110
0000010010001010
0000010000010111
0000000011110110
0000000000000100
1111111101100001
1111111001010010
0000000011110011
1111111101100000
1111110001010110
1111100010000101
1111100001000101
1111110100001010
1111111101100100
0000000010010010
0000000100110000
0000000101010011
0000010000000010
0000001001001000
0000000010110010
1111111111110001
1111111110110101
0000000000011010
1111111111100110
1111111111111101
1111110111011100
1111111101001011
0000010010000110
0000000011100101
0000001111011011
0000010110100010
0000001100110100
1111111011001001
1111100001111010
1111100111110111
1111111000101000
1111110000111101
1111110001011001
1111101011101100
1111100010110000
1111111001111000
1111110110011110
0000001001011101
1111111101101100
0000000100011011
0000001111100000
0000000010101101
1111111101011000
1111111111010111
1111111111110101
1111111111101111
0000000000001010
0000000000001101
1111110110100111
1111111110011001
0000011011110011
0000000110110110
0000001110011001
0000001101100011
0000001101011000
1111101101100111
1111011011000111
1111011011001011
1111100011010010
1111111000100001
1111101100000001
1111100110001010
1111111010010110
1111110011010000
1111110111110011
0000001010000001
1111111010101010
1111111110111010
0000000000010100
1111111000001010
1111111011000000
1111111110010101
1111111111110010
0000000000011001
0000000000011001
0000000000111110
1111111000100111
1111111100110100
0000010110001000
0000000110010110
0000001001110110
0000001100110001
0000001110011110
1111111111000001
1111011101010010
1111101001011100
1111111001010011
0000000000101000
1111101111111011
1111101001101011
1111110011110010
1111101101001001
1111111101000110
0000000011101101
1111101111010010
0000000101111001
0000000000010101
1111111100000011
1111110110010001
1111111111100101
0000000001000100
0000000000010011
0000000000100101
0000000000010101
1111110111111110
0000000111111101
0000000101100110
0000000010110010
1111110101110101
0000011010000010
0000100001010110
0000000101000110
1111100001001110
1111101010101011
1111110100011001
0000000111000001
0000000011101000
0000000011101110
1111111011010110
1111111011111100
1111111000111110
1111111000110101
1111111100110110
0000010100011011
0000000001011111
1111110010101001
1111110110010110
1111111111111000
1111111111011001
1111111111000010
0000000000110101
0000000000100001
1111111000000001
1111111111010011
1111110100111100
1111111100001011
0000000000001011
0000010110011011
0000010110111010
1111110101100101
1111011110100010
1111111100101010
1111111000110100
0000000101011001
1111110001010001
1111111010111000
1111111100101110
1111111111100110
1111110101100000
0000000001100111
0000001101101011
0000010011010100
1111111000111001
1111110010111011
1111110100100100
1111111111010001
1111111111100111
0000000001001100
0000000000111011
1111111111011000
1111111101100011
0000000011000000
1111110010101110
1111110010100000
0000010000010100
0000010100010000
0000001101001010
0000011111011001
1111111000001110
1111111110101101
0000000101100000
1111101011100111
1111110111000011
1111110110010101
1111111000100000
1111111100101001
1111111100000101
1111111001011100
1111111101100101
1111110110010010
1111101110110010
1111110001101000
1111111000000110
0000000000001111
0000000000010010
0000000000011000
1111111111011111
1111111101100010
0000000000100000
0000000010000100
1111111010110010
0000000010110101
0000001101101111
0000000101011000
0000001111011110
0000011010000101
1111111101110001
1111110111100100
1111110101010011
1111101110110101
1111111111110001
1111111001110000
1111101011101010
1111101011110001
1111101110110110
1111111101101111
1111111010001111
0000000000000010
1111110111100000
1111110101001111
1111111101000010
0000000000000001
1111111111000101
1111111111110110
1111111111011110
1111111111111000
1111111110011100
1111111100000011
0000000011111101
0000000101100011
0000000001100000
0000010011001101
0000010011110011
0000001110110001
0000000010101101
1111111101110101
1111111010100000
1111110111101000
1111110111000011
1111110110110110
1111111111100000
1111111001111000
0000000000101001
1111110110100010
0000000000100111
0000000001010000
1111111101100110
1111111101010100
1111111110100100
0000000000000011
1111111111100011
0000000000011110
1111111111110100
1111111111101000
1111111111000101
1111111101100010
0000000100011110
0000001110110010
0000001111100101
0000001110010000
0000010101101110
0000011010010111
0000001001100101
0000000010100110
1111111111110001
1111110011001100
1111111000000010
1111111111101100
1111111110000011
1111100110011000
1111101101110101
1111101111101100
1111110111011010
1111111010001111
1111111011001100
1111111111101110
1111111111010111
1111111111111010
0000000000011011
0000000000001111
0000000000000100
1111111111011100
0000000000100000
0000000010010111
0000001001111010
0000000110100010
0000000000010111
1111111111001101
0000000111101110
0000010010111110
0000000110100110
0000000101011110
1111111001010010
1111110001011010
1111111001100111
1111111000111110
1111111100010100
1111111101100011
1111111001100110
1111110101000000
1111110110011010
1111111100011101
1111111101001011
1111111110111111
0000000000011001
1111111111000010
0000000000011110
1111111111110011
1111111111100110
0000000001010011
0000000000101110
0000000000101101
0000000001111011
1111111111011111
0000000100000001
0000000000101010
1111111111010011
1111110110111001
1111110111100101
1111110100011100
1111111000010110
1111111001000011
1111111000000100
1111111001011100
1111111000001101
1111110111111100
1111111011001000
1111111011100001
1111111010111100
1111111100010010
1111111101111100
1111111110010111
0000000000001010
0000000000001101
0000000000010111
1111111111110100
0000000000110111
0000000000101000
1111111111110100
0000000000110100
0000000000001001
0000000000110101
0000000010001111
0000000001111010
0000000001100000
0000000000100110
1111111111100000
1111111110100110
1111111101111001
1111111101100010
1111111111110000
1111111111111100
1111111101011110
1111111110010001
1111111111101101
1111111110110100
1111111101001101
1111111111001001
0000000000111110
0000000000001000
1111111111000010
0000000000000110
0000000000110110
1111111111111011
1111111111111010
0000000000010011
0000000000000101
0000000000001000
1111111110111111
0000000000001001
1111111111101111
1111111111101101
1111111111101110
1111111111101010
0000000000100110
1111111111110011
1111111111011010
1111111111111010
1111111111101001
1111111111101101
1111111111110011
1111111111011010
0000000000000000
0000000000110110
0000000000001101
1111111110110000
1111111111010100
0000000000100100
0000000000001110
0000000000011110
0000000000000011
