1111111111101101
0000000000101000
1111111111110111
1111111111101001
1111111111111100
1111111111110101
0000000000101011
0000000000000100
1111111111001100
1111111111110000
1111111111111111
0000000000010010
1111111111100101
0000000000010001
1111111111100000
1111111111110001
0000000000010101
1111111111111100
0000000000000000
0000000000000000
0000000000000011
1111111111110010
1111111111100010
0000000000010100
0000000000000100
0000000000110111
0000000000001010
0000000000010001
1111111111101011
1111111111001111
1111111111011101
0000000000010100
1111111111001111
0000000000100000
0000000000011111
1111111111101111
0000000000101011
1111111111110101
0000000000011100
1111111111111110
1111111101011011
1111111111000101
0000000000010011
1111111111000110
1111111100111001
1111111110001111
1111111111111100
1111111111101111
0000000000101101
1111111111100010
0000000000001110
1111111111111011
0000000000001000
1111111111110110
0000000000001100
1111111111101011
1111111110110100
0000000000000000
0000000000000000
1111111111111001
1111111111100010
0000000000000100
0000000000001111
0000000001011010
0000000010001101
0000000100011100
0000000101110011
0000000101001011
0000000101000101
0000000110000100
0000000101011110
0000000100111001
0000000101100100
0000000100000100
0000000000011100
1111111111100100
0000000000100000
1111111111010111
1111111111010011
0000000000011000
1111111111010111
1111111111010001
1111111111010100
1111111111011101
0000000000100011
0000000000100010
1111111111010100
1111111111010010
0000000000000100
1111111101110101
0000000000110000
0000000010000110
0000000010011010
0000000111100100
0000000100000000
1111111111000111
1111111101100100
0000000001011000
1111111111000100
1111111110000101
1111111100000100
1111110101100010
1111111110111100
0000000110000000
1111111111110101
1111111100111000
1111111110000011
0000000000110110
0000000001000010
0000000000101111
1111111111100100
0000000000101001
1111111111110110
1111111111111100
1111111111110011
1111111110011100
1111111110111111
1111111101100010
1111111101000011
1111111101000001
1111111011110101
0000000000001111
0000000110101000
1111110010011100
1111111100101110
0000000110111100
0000001111000101
0000001000001011
1111111100011111
0000000001100101
0000000111010110
1111111010111111
1111111011110001
0000000010100100
1111111110000010
1111111000000001
1111111000110100
1111111101001110
1111111111001001
0000000000011000
0000000000111110
1111111111000110
0000000000011010
1111111101000001
1111111111111110
1111111101010010
1111110111111111
1111110011111101
1111111011000000
1111110100001100
1111111010110000
0000000010000010
0000010100110001
0000000111010110
0000001110101001
0000001011000011
0000010001001111
0000010000110010
0000010001001110
1111111110010110
1111111010110111
1111110110100010
1111111000100111
1111110110011001
1111111000011000
1111111011010011
0000000000000011
0000000000100010
0000000000011111
1111111111101110
0000000000010101
1111111011111011
1111111101110110
1111110010110000
1111110010000101
1111110110011101
1111101010010000
1111100110100000
1111111010110101
0000001000010111
0000000000110010
1111110011011100
0000010011001101
0000010101011101
0000010101011011
1111101101101001
1111100110110000
1111010101100111
1111010100101111
1111110110011010
1111110110101111
1111110000100110
1111110110010011
1111111011011101
0000000000001111
1111111111110010
1111111111111011
1111111111110101
0000000000100111
1111111010111010
1111111100011011
1111110101011011
1111111001110010
1111111011110001
1111101011011000
1111011010101110
1111110000111000
0000001110011010
1111110111110001
1111111011000001
0000100001100110
1111111101001000
0000000001110011
1111110111000010
1111100111100101
1111010001000111
1111101110001010
1111100101010110
1111111000100010
1111110110100110
0000000110000111
1111111110011001
1111111111100001
0000000000101010
1111111110111101
0000000000100101
0000000000100110
1111111001001000
1111110000101010
1111110101011001
1111111010011000
1111111101111100
1111110000100100
1111100010110000
0000000000000001
1111101110000110
1111100000001010
0000011000111100
0000011110000100
0000100000110000
1111100111000101
1111101011100101
1111100100101111
1111111010010100
0000010000100000
1111100111010011
1111111000010010
0000001100101100
0000000100110110
1111111111000001
1111111111111100
1111111110111111
0000000000100000
1111111111110011
0000000000000111
1111111001101111
1111110001110101
1111111010011010
1111101100100011
1111111011101111
1111101110001011
1111101010100100
1111101111100110
1111100110110010
1111110111011101
0000001100111101
0000011011001101
1111111001101111
1111011100111011
1111110100111011
1111101010101101
1111110111010111
0000001001101111
1111110010000000
1111111100111010
0000000001110111
1111111001010011
1111110110111100
1111111100111101
0000000000000110
1111111111110000
0000000000010001
1111111101101011
1111111010101010
1111111101010011
1111111111111100
1111111000100010
1111110111110111
1111110111010100
1111110001010110
1111110011101101
1111111011101101
0000000100001001
0000011100010010
0000000001100111
1111111010011010
1111100101101010
1111110011100111
1111101110010101
1111111000001000
0000000111100111
1111111101111000
0000000111100001
1111110101010011
1111110011100110
1111110110101000
1111111111011101
1111111111111000
1111111111000111
1111111111001011
1111111101011000
1111111100101000
1111111100111100
0000000111111111
1111111001101111
1111111111100001
0000001001011011
1111111101001111
1111111000011000
1111110100000010
0000000001101110
1111101100111101
1111100110001000
1111100100011111
1111101101111110
1111100100101000
1111110001010001
0000001011110101
1111110110111111
0000000011101111
0000000001000100
1111110001101010
1111100100111001
1111111101011010
1111111011101100
1111111111011100
0000000000101111
1111111111000100
1111111101110100
1111111101010000
1111110100000011
1111111001110010
1111101101001100
1111111001000010
0000010110010111
0000001010011111
0000000011000111
0000001010000001
0000001011000100
1111110101111111
1111111000100010
1111110001011101
1111111100001010
1111100010011011
1111111000000001
1111111001110011
1111101000101110
1111111110010010
0000000010011001
1111101000011111
1111110011100100
0000000110011010
1111111101001110
0000000000000110
1111111111010100
1111111111000111
1111111110111100
1111111100110111
1111101111111101
1111101111111111
1111111101110110
1111110111111010
0000000110110110
0000000010000000
0000001000111010
0000000100110010
0000010011000110
1111111111100110
0000001001010010
1111110111000110
1111101111100101
1111111001000101
1111111001000010
1111110001010110
1111110010001010
1111110111100110
1111100111100000
1111111001101111
0000001000100111
0000000100110000
0000000100010110
0000000100010100
0000000000011010
1111111110011011
1111111101110010
1111111110100011
1111111011000101
1111110011100100
0000001000001100
0000001000101001
0000000001110101
0000000010100111
1111110010011000
1111110111101001
0000010001100011
1111111101110110
0000000110101001
0000000100011000
1111111001011000
1111100000111000
1111111011101101
1111100111100101
1111111010101001
1111111001010000
1111111011000000
1111111010110000
1111111100011100
0000001000100111
0000000101011010
1111111111111010
0000000000011000
1111111100111100
1111111110110100
0000000101011100
1111111011000110
1111110000001010
0000001011000000
1111111101011101
1111111110100011
0000011110001001
0000000110010100
1111111111101010
0000010001111101
0000001110101011
0000010101011010
0000000100110100
0000001011000111
0000010101000000
1111110010110100
1111111010001100
1111110101011001
1111111111001111
1111111001000101
1111110011000011
1111111001011111
0000001110001000
0000000011001100
0000000000101010
0000000000000011
1111111110100001
1111111011110011
0000000010110100
1111111101110001
1111111111110111
0000010000011000
0000010111010001
0000001010100010
0000100100111101
0000001100111100
1111111101011000
1111110110000100
1111110100010001
0000000101001001
0000001010001011
0000011111100010
0000101011011011
1111111101001000
0000001000111010
0000000001110100
0000010011100100
1111111101101001
0000001101010110
0000001110000011
0000010111100001
0000001001100100
1111111111100111
0000000000101010
1111111110110111
1111111011010001
1111111011111101
0000001010101111
0000001010100010
0000000011010001
1111111001100011
0000010110011101
0000000100011101
1111111000000001
1111101100010111
1111110110001111
0000001010000011
0000011010100110
0000001100101001
0000001111010001
1111111110001101
0000010100000101
0000000010110101
0000001000011101
0000000011101000
0000000010111101
0000000110111011
0000000000111100
0000010000110010
0000000011110001
1111111110110111
1111111111101000
1111111111001010
1111111101000011
1111111110101000
0000001011111101
0000011000110001
0000000101010110
0000000001010011
0000001101101011
1111111111110110
1111110010011010
1111111001110100
0000010101111000
0000100000111111
0000100011101110
0000001011110110
1111111111110010
1111110111010111
0000011001110010
0000100000101101
0000010000011000
0000001101000011
0000001100001111
0000010011010101
0000010100010001
0000001111000111
0000000001001000
0000000010110000
0000000000011010
0000000000000010
1111111110101010
0000000000010001
0000000111000000
0000001101101110
0000001011101111
0000000111110110
1111111000100000
1111111110011110
1111101001010111
0000001011110011
0000000010111100
0000010101110101
0000001110000010
0000101011111010
0000001010001111
1111111010010010
0000001011111100
0000011101000010
0000010100110101
0000001100111010
0000010110010011
0000010110110011
0000010000001100
0000001011101011
0000000010011011
0000000001100001
0000000000100100
1111111111110000
1111111111011111
0000000011000010
0000000110100101
0000000111110010
0000001101001111
0000001001110000
0000000001111001
1111110010101110
1111101011100001
0000001000001010
1111110100101001
1111101000000110
0000010110000100
0000000100110001
0000011100111000
0000001011000001
0000011001111111
0000001100100011
0000100011110011
0000100001000101
0000010011101110
0000001111000001
0000001010001111
0000000100010101
0000000010101011
1111111111000011
0000000000011110
1111111111111100
0000000001111011
0000000011101100
0000001011100111
0000001101011111
1111111011000101
1111111001001011
0000001011000011
1111110001011011
1111111001111110
1111110000111001
1111110100010010
1111110011010010
1111111000110000
1111101110111100
0000011011010001
0000010010011100
0000100111000001
0000011000100010
0000001101101010
0000010100000111
0000001011001111
0000010010010011
0000000011001010
0000000001111110
1111111111100001
1111111111000100
0000000000001100
1111111111111110
0000000010010101
0000000010111111
0000001101101110
0000001110001001
1111111000001000
0000000001000101
0000000010101010
0000000001010001
1111110110100001
1111110000001010
1111111000000010
1111110111000010
1111100101110010
1111101111101001
0000000101000000
0000010001001011
0000001100100011
0000010001110011
0000001100101100
0000001101111011
1111110010110001
1111111011110001
1111111100111001
1111111111011100
0000000000000000
0000000000000000
0000000000000111
0000000000110100
0000000000100010
1111111111110111
0000000010100100
0000000100001011
1111111011111101
1111111001101110
1111110010010010
1111111101001011
1111111010100010
1111111110010110
1111110100111011
1111101000010100
1111100110110101
1111100010111100
1111100001001001
1111011010101010
1111101011000000
1111101111001011
1111111111010010
1111111010110011
1111110000111110
1111111011110101
1111111010100111
0000000001111001
0000000001001101
0000000000001111
1111111111111100
0000000000110000
0000000000101111
0000000000100011
1111111111111011
0000000011001001
1111111110100110
1111111000011111
1111111111000101
0000001011011100
0000000010010011
0000001001010111
1111101001111000
1111010101100010
1111100111100111
1111110001111100
1111011110110000
1111010110010111
1111011101001101
1111101110001011
1111100110101110
1111110100011110
1111110001111000
1111110011100110
0000000011100011
0000000011010010
0000000000011100
0000000000010000
1111111111101101
1111111111100010
1111111111001001
0000000000000101
1111111110101001
1111111100110010
1111111100111111
1111111011001110
1111111100011011
1111111011010101
1111111100100001
1111111000011111
1111100101110111
1111011111011000
1111100100010000
1111110100010101
1111010010101100
1111011101111101
1111011010001010
1111011000010000
1111100111101111
1111110101000001
1111111110010101
1111111100100010
1111111111000001
0000000001010110
0000000001010000
0000000000001001
1111111111001000
0000000000100010
1111111111011000
0000000000011010
1111111110110111
1111111101101001
1111111101001001
1111111010111011
1111111011100010
1111110101000001
1111111000100010
1111111001100001
1111110110011011
1111110110001101
1111110011110000
1111111011111010
1111111000100011
1111110111101110
1111110101100111
1111110111111010
1111110111111011
1111111101000011
1111111110100011
0000000000100100
1111111111011001
1111111111110001
1111111111110110
0000000000011101
1111111111100000
0000000000010000
0000000000110001
0000000000100100
0000000000001101
1111111111111101
1111111111111111
1111111111000101
1111111111010000
0000000000000000
1111111110010110
0000000000001000
1111111110010010
1111111111001001
1111111110010000
1111111111001111
1111111111110010
1111111111001100
1111111101010100
0000000000001101
0000000000000100
1111111111100110
1111111111100011
0000000000100001
0000000000000111
0000000000011111
0000000000001101
1111111111111010
