0000000000000110
0000000000011110
0000000000011001
1111111111111011
1111111111100010
1111111111011001
0000000000001111
0000000000010111
0000000000001110
1111111111110110
1111111111100111
1111111111101101
1111111111101011
0000000000100000
0000000000001011
0000000000001011
1111111111001111
0000000000001011
0000000000010000
1111111111100110
0000000000111011
0000000000000110
1111111111010111
0000000000011000
0000000000101011
0000000000001100
1111111111110010
1111111111111011
1111111111101100
1111111111101111
1111111111101101
1111111111111011
0000000000101111
0000000000110111
0000000000110001
0000000000011001
1111111111101101
0000000000010001
0000000000010101
0000000000110110
0000000001001010
0000000000010000
0000000010100110
0000000100110101
0000000100101011
0000000010110110
1111111111110101
0000000000101010
0000000000101110
1111111111101111
0000000000010000
0000000000000011
0000000000000011
1111111111110111
0000000000001010
0000000000011111
0000000000000111
1111111111100111
1111111111110011
1111111111111100
0000000000000100
0000000000000000
1111111111011111
0000000000101011
0000000000010110
0000000000100110
0000000000010011
1111111010101010
1111111001001011
1111110101110111
1111111101010000
0000000000110010
0000000000000000
0000000110101110
0000000000100000
0000000001111000
1111111111011110
0000000000011100
0000000000111001
0000000001001000
0000000000000010
0000000000000011
1111111111010000
0000000000100000
1111111111011011
1111111111110000
0000000001000011
0000000000100010
1111111111110010
0000000001000111
0000000001100010
0000000000000111
0000000100011011
0000000101010111
0000001010010000
1111111010100001
1111110110101001
1111110110001101
1111101100101100
1111101010101101
1111110010100000
1111111010001111
1111110111100011
1111111100101000
1111111110010000
0000000101100011
0000000111110000
0000000101100101
0000000011010001
0000000001010111
0000000000110100
0000000000100110
1111111110100100
0000000000111100
0000000000000000
0000000000011001
0000000000010000
1111111111010001
0000000001000101
0000000000101011
0000000111000000
0000010000000000
0000001111000010
0000010011010100
0000000110000101
0000000110000101
0000000011110100
1111100100010000
1111100101111110
1111110111100110
0000000111101010
1111110111100001
1111100110001010
0000000101111010
0000001010100100
0000010010100011
0000001101100010
0000000101101011
0000000000010001
0000000001000000
0000000000001010
0000000000000001
0000000000101110
0000000000010110
0000000001000010
0000000100111100
0000000111110010
0000001111111010
0000001000011100
0000001001010000
0000010010110100
0000010011111110
0000001011110011
0000001111001110
0000000100111001
1111110101011001
1111100001000111
0000001110111100
1111101000011110
0000000011001101
1111110000110001
1111111001010100
0000000001111111
0000000100111100
0000001001001010
0000000100101110
0000000010100001
0000000001010101
1111111111111100
1111111111010101
0000000001110010
0000000000110110
0000000001110011
1111111110001111
1111111010111000
0000000101110101
0000000000010110
0000000010010100
1111111101101100
0000011010111000
0000001110100101
0000010111110010
0000000101111000
0000000001110000
1111110011001001
1111110101110000
1111110011010111
0000001010110010
1111111110111001
1111111110001011
0000000011011010
0000010001010000
0000001011011010
0000000011100111
1111111111010010
1111111111100100
0000000000011111
1111111110111000
0000000000110001
1111111011010000
1111111010011100
1111111000011111
1111111010101001
0000000010011111
0000000011011100
0000000000001101
0000000111110011
0000010111101000
0000001100010100
0000000110100110
0000001110101011
0000000100010111
1111110001100111
1111111101001101
1111110110000000
1111101001110111
1111101000110100
1111100111011011
1111110001111100
0000001110001011
0000011000000011
0000001110110010
1111111111000111
1111111111101001
1111111111110000
0000000000001110
1111111111110010
1111111011110101
1111110010111100
1111101110010001
0000000011000010
1111110011010000
1111111111100001
0000000111101011
1111111001010110
0000000110110111
0000000111011100
0000100011001011
0000000110011011
1111101010101001
1111111111010100
1111110110001110
1111110001011111
1111101111010110
1111111110100011
1111111110000100
1111101110011001
0000001101100010
0000100100001100
0000001101111101
0000000000000110
0000000000110100
0000000000100101
0000000000111101
0000000000100011
0000000011000000
1111101111010011
1111100110101101
1111110100001011
1111111011011000
0000000011011111
1111111001000010
1111110001000001
0000011011111010
1111111110110100
0000011101010101
0000010101000011
1111011011100000
1111001011000101
1111101100101100
0000000100010100
1111111110110111
0000000010101100
1111111100111111
1111111100001000
0000001101000000
0000100000000000
0000001001011101
1111111111001010
0000000000011000
0000000000001001
1111111111110011
0000000000101100
0000000010111111
1111110111010111
1111110100000011
1111101001010111
1111110011111000
1111101010110001
1111101100100010
1111101000101011
0000010011001111
1111111000010011
0000010111100110
0000001110110100
1111010110010110
1111110001001001
1111110100001111
0000000100100010
1111101011000100
1111111000110101
0000000101111110
0000001011001010
0000010100001101
0000010011111010
0000000100111100
1111111111011001
0000000000101001
1111111111000100
0000000000011000
0000000001100001
0000000101000100
0000000100101000
1111111001011100
1111101111011011
1111101001111000
0000000010000000
1111110100110011
1111101101110011
1111111101101110
0000011000000111
0000111101111010
0000100110011001
1111101000011110
1111110101100100
1111110001111111
1111110000001010
1111100111101101
1111110000000011
0000000110011100
0000010001110111
0000001100101001
0000001010001011
1111111100001111
1111111110110110
0000000000001000
0000000000000001
1111111111111011
0000000001000011
0000001000001111
0000010000001100
0000001000110100
1111111010010111
1111110000100010
1111110101101000
0000001011111111
0000011011011000
0000111011101101
0000101100110110
0001001011001011
0000100001101001
1111110101111110
1111110001111001
1111111001100000
1111111100111110
0000010010010100
1111111101100100
1111111001000010
0000011110101010
0000010110110001
1111111010100100
1111110101110010
1111111110100101
1111111111110101
0000000000110010
0000000000000000
1111111110011010
0000001101111000
0000011001111100
0000010100111001
0000010011000101
0000100110111101
0000011011100111
0000101110000000
0001000010001101
0000110010001100
0000111100001111
0000100000011000
1111110111001010
0000010001010100
0000001101100110
0000000001110111
0000001100011001
0000011110101101
0000010001011011
0000000010001101
0000010110101101
0000001010000100
1111111000011110
1111111001010101
1111111110001010
1111111101100000
1111111111111010
0000000000110001
1111111110110100
0000001111111110
0000010110000001
0000011110001101
0000100111011111
0000011101110101
0001010000000010
0001001000011100
0000101000111011
0000001010100101
0000000111100000
0000010101000000
1111101011000110
0000001001010010
0000000011001011
0000000000010100
1111111101001010
1111111110011100
0000000100011010
1111111011000111
0000000101111110
1111110101101011
1111110010000100
1111111101001011
1111111101000001
0000000000100010
1111111111010010
0000000000101100
1111111110011001
0000000110010010
0000011001100010
0000100100111111
0000110101010010
0000101111000101
0000101010101101
0000010101110100
0000000010000100
1111101111100111
0000000010001100
1111111100111100
0000000110000111
1111101110011000
1111110110011101
1111111011010011
1111110101011100
0000000110111011
0000000000000111
1111110111010011
0000000100001100
0000000000100001
1111110001111001
1111111011011101
1111111101101011
1111111111011110
1111111111010101
1111111111001001
1111111101001101
1111111110101111
0000011100110100
0000100111111001
0000110011111011
0000011001010001
0000001100110111
0000001010111000
1111111110101001
1111110101011000
1111100101111110
0000001011011111
0000001010100000
1111111010101110
1111110011111011
1111101110011000
1111101001011001
1111101101110011
1111111001011101
1111101000101001
0000000111100110
0000000111100011
1111110010001001
1111111001101110
1111111110000001
1111111111111011
0000000000010011
1111111111101110
1111111110111110
1111111100111011
0000000111100000
0000010010110011
0000010000111101
0000000011111101
1111111001111011
0000001011100000
1111111101101010
1111101011111110
0000000001011100
0000000110100010
0000000110100001
1111111101101001
1111111011010111
1111110010011010
0000000101110111
1111101111110110
0000001001101110
0000001000001011
0000001111010100
0000010000111000
1111111010011001
1111110111110101
1111111110100100
1111111111110001
1111111111110001
1111111111111011
1111111111101000
1111110000011011
1111101001001011
1111101100110110
0000000101101001
1111101100100000
1111111100011000
0000010010101110
0000000010000110
0000000101000101
1111101000100100
1111110010011000
0000000000111111
1111101100000011
1111110101000111
1111110000101100
1111111100000100
1111101110011010
0000010001001001
0000001101000010
0000000111110110
0000000100110010
1111111110011111
1111111011100000
1111111110101000
1111111111000011
1111111111000100
0000000000111101
0000000110000011
1111110111111001
1111101101110111
1111101010001000
1111110011110010
1111100101110111
1111101000101001
1111101111110010
1111111001001010
1111110110100101
1111111011010111
1111101000010111
0000000100100110
1111111000010000
1111111010011000
1111111101101100
0000000110001111
1111111011010111
0000001011000110
0000001001101101
1111111110100101
1111110111110111
1111111010000110
1111111011100001
1111111110010111
1111111101110010
0000000000001000
0000000000101011
0000000110010101
1111111011110010
1111110110011101
0000000011000111
1111110101000110
1111100101110011
1111100100011110
1111111010000001
1111111111100001
1111110100111011
1111111100110101
1111110111010101
1111110011100010
1111111010111111
0000000111101000
1111111100010010
0000001011010010
0000001000001110
1111110010010101
1111111110111000
0000000000000001
1111110101110111
1111110110101010
1111111011001100
1111111111011101
0000000000101010
1111111111101011
1111111111011110
1111111110010110
1111110101001101
0000000010111010
0000010010000111
1111111111110001
1111110100010111
1111110010101011
1111111010111010
1111110010000111
0000001101100101
1111110110100011
1111101101100010
1111101011110010
0000001010000110
0000001110011000
1111110110111011
1111111100001010
1111100101100001
1111101010011001
1111111001100100
1111111000110100
1111110011010000
1111111010001000
1111111011101110
0000000001101101
1111111111100111
0000000000100001
1111111111011111
1111111111011100
1111111111111011
1111110111000000
1111110010010100
1111110000000010
1111100101100000
1111111010001010
1111111010100001
1111110000100010
1111111111100100
1111111000101100
1111111110110000
0000000111101111
0000000001010000
1111111011101000
1111111110111011
0000010001011100
0000000010111111
1111111101010000
1111101001101110
1111101001011010
1111101111110001
1111110010110010
1111110110111100
1111111111110011
1111111111010011
1111111111110101
0000000000101000
0000000001111100
0000000011001101
0000000000111000
1111111010011011
1111110011110011
0000000001011011
0000010100101100
1111111101010101
1111111110101000
1111110011100001
1111110110101100
0000000000101101
0000000101100000
1111111001100000
0000000010111110
0000010010011010
1111110111100000
0000000010101000
0000001110000000
1111110010110001
1111110001001110
1111101101111111
1111110111000001
1111110111000110
1111111110101001
1111111111100101
0000000000011100
0000000000010111
1111111111100000
1111111111001111
1111110111000011
1111110111001001
1111110011100000
0000001001011010
1111110111001010
1111110100010000
0000001111111010
0000001101101111
0000010001111010
0000000000011111
1111110011111011
1111101101100101
0000000110001001
1111110011101000
0000000111001101
0000010000010111
0000001110000101
0000000000001111
0000000110010001
1111111111001001
1111111000011100
1111111011101010
0000000000010101
1111111111101100
1111111111111100
1111111111011011
0000000000001101
1111111111011110
1111110111100100
1111110111111010
1111111011111100
0000000010111101
1111110101111001
1111111010110001
0000010011001111
0000010100001111
1111101111110101
0000000000011011
1111110101101011
1111101110000110
1111111011111100
0000000101000000
0000010000100000
0000001101001010
0000001101000000
0000010000101010
0000001000101110
0000000011011000
0000000001010001
1111111111111010
0000000000000100
1111111111101111
1111111111111011
0000000000101110
1111111111110101
0000000000010010
0000000001111000
0000001000110010
0000000111010001
1111111110111000
1111111100111101
0000001010000110
0000010010000010
0000001101001011
0000010000111011
0000010010011000
0000001001100011
0000001001011001
0000001100000001
0000001011000101
0000000111100100
0000000100001011
0000001011000100
0000001001010110
0000000011000000
0000000001000111
1111111110111100
1111111111111000
0000000000110000
0000000000100110
1111111111110110
1111111111111000
0000000000011000
0000000000010010
1111111111111011
1111111111011110
0000000000011011
1111111111111101
1111111111010011
1111111111000010
1111111100110011
0000000000010011
0000000001100111
0000000000010100
1111111111011000
1111111111001100
1111111110000010
1111111111110100
0000000010010111
1111111111111101
0000000011000110
0000000010010101
0000000011111111
1111111110111111
0000000000010101
0000000000001101
1111111111011011
0000000000101100
