1111111111111101
0000000000101010
1111111111011111
0000000000101101
1111111111101110
1111111111110101
0000000000110011
0000000000001011
0000000000001100
1111111111100101
0000000000100000
1111111111101111
0000000000001101
0000000000100001
0000000000000010
1111111111010100
0000000000000001
0000000000001110
1111111111000101
0000000000000101
1111111111001000
0000000000100110
1111111111100001
1111111111010100
1111111111110111
1111111111111110
0000000000000000
1111111111100000
0000000000011100
1111111110111100
1111111111011000
1111111111100110
1111111111101001
1111111111011010
0000000000010000
0000000000001111
0000000000110011
0000000000011010
0000000000000000
0000000001000110
1111111111010010
1111111110100100
1111111111001010
1111111111101100
0000000011111111
0000000001010001
1111111111110011
1111111111000111
1111111111010111
1111111110110001
1111111111001101
1111111110101001
1111111111101000
0000000000010000
1111111111011000
1111111111011001
1111111111100101
0000000000101111
1111111111111100
1111111111110111
1111111111111011
0000000000000001
0000000000010001
1111111110101100
0000000000110100
0000000010010010
0000000001110110
0000000000111100
0000000001110000
0000000000000000
1111111010010111
1111110011000110
1111111011001011
1111110000111001
1111110001000100
1111110100010110
1111111010100011
1111110111100111
1111111011110000
1111111111000000
0000000010100000
0000000010001100
1111111111110100
0000000000011001
1111111111001001
1111111111011110
0000000000000111
0000000000011001
1111111111101010
1111111111110101
0000000000001101
0000000000110100
0000000100110101
0000000101010110
0000001110010011
0000001111000010
0000010010100111
0000001111000011
1111111110010100
1111110101011101
0000001011101111
0000000101100000
1111110100001101
1111110000110011
1111110111000001
1111110011110101
1111110101000011
1111110100011001
1111111010110100
0000000010000011
1111111111100011
0000000000001101
1111111111110001
1111111111011100
1111111111101001
0000000000100101
0000000000100111
0000000000010111
0000000011110000
0000001001011101
0000011000010001
0000010101000001
0000011011011000
0000100010100001
0000011100000010
0000010010110101
0000011000001010
0000100011101000
0000000100010101
1111110111000100
1111111101110010
1111111001010000
1111111000101100
1111110011111011
1111110100001011
1111100000101101
1111110010000110
1111111111011000
0000000001101110
1111111111010010
0000000000011001
0000000000001100
0000000000110110
0000000000010101
0000000000010001
0000000010010010
0000000111000111
0000001100111101
0000011011101111
0000011111001110
0000101111101101
0000010110111101
1111111110011101
0000000000011010
1111110100000101
1111101100000011
0000000110100011
0000000000111011
0000011110001110
0000000110001010
1111110100101000
1111110110010111
1111111000001001
1111100101001111
1111101011101010
1111111101110001
1111111101101001
1111111110001010
0000000000001110
1111111111111110
0000000000001011
1111111111111110
0000000000110000
1111111101100100
0000001001001011
0000011101001101
0000101001111110
0000111110001000
0000110010101000
0000000011111011
1111101110011100
0000000101000111
1111100101011010
1111011100011000
0000001000111101
0000001101110101
0000010000101100
0000000010011110
1111110110001101
0000000101001100
1111111110100000
1111100011111110
1111101011110010
1111111111001100
1111111111011111
1111111111001100
0000000000001000
0000000010000100
0000000001001110
0000000010111001
1111111110011010
1111111100000111
0000001001000100
0000010111010011
0000100111011000
0000110111001011
0000011001010001
1111111111011000
1111111010101101
0000000110100101
1111110011101010
1111111010101110
0000010110000001
0000001110000000
0000010101001001
0000001001010110
1111110110001110
0000010000011001
0000000101100111
1111110100011110
1111110010001101
1111111100010101
1111111101101110
0000000000110101
0000000000010010
0000000000010010
0000000001101110
0000000010010000
1111111111101011
1111111100111110
1111111111110010
0000001001010010
0000011101001100
0000111111001111
0000101111011010
1111100010101111
1111100101011010
1111101001111100
1111111111001101
0000001000001001
0000011011100010
0000010001110111
0000001010110001
0000000100101100
1111110111100011
0000001001001001
1111110111001011
1111101111110111
1111100100111010
1111110011011111
0000000000001011
0000000000000100
1111111111100111
0000000000001011
0000000000011110
0000001000001111
0000000100101100
0000000010011110
0000000011100011
0000000011101000
0000011100111111
0000101110110011
0000010110011011
1111101011110000
1111110010001100
1111110010001100
1111101110011010
1111110101000010
0000010110111001
0000100000010001
0000010011110011
0000010100010100
0000001101000101
0000000110010111
0000000010001110
1111110100100001
1111110010111011
1111111110010010
0000000011110101
0000000110001101
1111111111110110
0000000000111001
0000000001101010
0000000110011101
0000001010011011
0000001101001100
0000001100000110
0000001011000010
0000010011010010
0000100100100001
0000010000010110
0000001100001011
1111110011100110
1111101001000000
1111011001111001
1111110111111100
0000010000111100
0000100101111010
0000100001110101
0000001010000100
0000011100110110
0000001110010100
0000001010110111
1111111101010101
0000000000001011
0000000100111010
0000000111010110
0000000001010001
0000000001010000
0000000001010000
1111111111001011
0000001000100010
0000001010111101
0000001110100011
0000001100001000
0000010010001001
0000011011010100
0000011001101001
1111111011010001
0000000110110010
1111100000011100
0000000111010110
0000000011010111
1111110010111100
1111101001111101
0000010101101010
0000010001100100
0000001111011011
0000000001101010
0000000110011100
0000011100100111
0000001110101101
0000001000101100
0000000111110000
0000000100101001
1111111111000001
0000000000000001
1111111111101000
1111111111110001
0000000110100000
0000000111110001
0000010000000010
0000001100001001
0000001100111111
0000010000010000
0000010100000001
0000000110101100
1111001111101010
1111001000111011
1111101100011100
1111100111111100
1111110001000101
1111111011111011
1111111000011101
0000011110110100
0000010010011111
1111110100011010
0000000011100111
0000010111111001
0000001100110110
0000010100001011
0000010111110001
0000001000010101
0000000000100000
1111111111011111
0000000000000010
0000000010111101
0000000100010100
0000001011000000
0000010000101000
0000010001001000
0000000000011010
1111110011011101
1111111100011111
0000001110111111
0000000000010000
1111101000001100
1111101111111001
0000000000000111
1111100011110011
1111110001010000
1111111111111101
0000010111100100
0000010110111010
1111101101001110
0000001110101001
0000011110111101
0000011110010111
0000100101011111
0000010111000001
0000000100111001
1111111111110111
1111111111110000
0000000000001111
0000000001000110
0000000001110001
0000001000101100
0000001011101101
0000011010100110
0000001000001010
1111110010010110
1111111111010011
1111111010011011
1111111100101001
0000000101010001
1111101110001001
0000000111100001
1111111011010011
1111111000010110
0000000111011111
0000010100110111
0000010101001110
1111101000011000
0000000000100000
0000010111101001
0000011100111111
0000010101000100
0000000111101100
0000001000010010
1111111111110100
1111111111111011
0000000000011000
0000000000100001
0000000001111101
0000000101011011
0000001011110001
0000001001001111
1111110010001010
1111111011101000
0000001011111101
0000001111110110
0000001101101111
1111110110000000
0000000011010010
1111101010011011
1111110000110111
1111101101011010
1111111111101010
0000000001000110
1111111100010100
1111111101111100
1111110111010101
0000001110011100
0000001101110010
0000010111001000
0000010011111011
0000001111110010
1111111111011000
0000000000100000
0000000000001011
0000000010001001
0000000100010101
0000000111000011
1111111100111011
0000000111001010
0000000111100101
1111111101001111
0000011000011000
0000100011100001
1111110111101100
0000000101000000
0000000000000111
1111101110000001
1111110001000001
1111111001001100
0000010001000010
0000001100110100
1111111011111101
0000000111101110
1111110100000010
0000000101001111
0000001011011011
0000010101010101
0000010000000011
0000000110010000
1111111111111010
1111111111010001
1111111111101110
0000000010101111
0000000010000101
0000000001011010
1111111010000011
0000001000001011
1111111010001000
1111111001010110
1111110101011110
1111101101101000
1111110100100111
0000001100110100
0000001011010100
0000000110011111
0000001000100100
1111111011111010
0000001100000001
1111111001111101
0000000101001111
0000000001011000
0000000110000101
0000001100110111
0000000101101100
0000001110010110
0000001011010001
0000000010101110
0000000010010000
1111111111111100
1111111111011100
0000000001101000
0000000010100111
1111111011001101
0000000100111100
0000000010110101
1111110011010000
1111111110001010
1111101110101101
1111111010111100
1111111100100101
0000001101110111
0000000011010110
1111101111011100
0000001000010100
1111110010100011
1111111010001010
0000000011000101
0000000010101100
1111111110001100
0000000111101011
0000010000100101
0000010010001111
0000010001110101
0000000111001011
0000000001110010
1111111111100011
1111111110101101
1111111110111000
0000000001010001
0000000111110010
1111111001011001
0000000101010000
0000000110100010
1111111110010110
1111110111001010
1111101000110111
1111101111111001
1111101000110111
0000001100010100
0000000011000110
1111111010001011
1111111000100001
1111101111010101
0000001000110101
0000001111000000
0000000011000000
0000000011110001
0000001011011100
0000010001100010
0000001101001001
0000000111100000
0000000100100011
1111111111010111
1111111111101101
1111111111110100
0000000001010000
1111111111110011
0000001101000101
0000000001101100
1111111100011000
0000000001000001
0000001010000101
1111110100100000
1111110011011011
1111111011010111
1111111101011000
0000000010011000
0000010000101000
1111110110110000
0000001111011011
0000001001100111
1111111101001011
1111111010000100
1111111100001100
0000001101010110
0000001010101000
0000010000100000
0000001100011011
0000000111010111
0000000011110101
1111111111111100
0000000000100101
1111111111010000
0000000000110100
0000000001100101
0000000111010010
0000000100001011
0000000000110001
0000000011110100
1111111110011101
0000000001010111
1111111110000011
0000000101110011
1111101111111110
0000000000000110
1111110111011001
0000001110100100
0000001111010011
0000000111011001
1111111011000101
0000000001110000
0000001100101011
0000001111110000
0000001111011011
0000001010101100
0000000101101001
0000000010001110
0000000001100010
1111111111011001
1111111111010100
1111111110111011
1111111110111110
0000000000000110
0000000001000100
0000000100011100
0000000110100001
0000000111010011
0000000101010100
0000000101100111
0000001010001010
0000000101110101
0000000110011010
0000001001100000
1111100111000010
1111110111010101
0000000001001010
1111111001001011
1111101100010111
1111111111011100
1111111011111011
0000000010100101
0000000110001110
0000000110001000
0000000010011111
1111111111100101
1111111111001011
0000000000100011
1111111111110001
0000000000000011
0000000000001010
0000000000110110
1111111111111110
0000000110110100
0000000010100100
1111110101001111
1111111010110100
1111110100100101
1111111010011010
1111110000101100
0000001111101011
0000000110100010
1111111111000100
1111110011110111
1111101111110111
1111110111010001
0000001101011001
0000000011100000
1111110011100110
1111111000010100
1111111111110001
0000000001101110
0000000001010001
0000000000001111
0000000000000011
1111111111111111
0000000000010011
1111111111111101
1111111111100100
0000000000101000
0000000001110011
0000001000000110
0000001110000111
0000001011000110
0000000000001110
1111111000100100
1111011100100000
1111101001100000
0000010111111100
0000000110000100
0000000010111101
0000010101000100
1111111111101111
0000001101001111
0000011101010011
0000000001001101
1111101101010010
1111101110101110
1111111000010101
1111111100100101
1111111110111010
0000000000100001
1111111111111111
0000000000000110
0000000000100011
0000000000001101
1111111111100010
0000000000110010
0000000000100010
0000000100100110
0000001001101011
0000001111011100
0000010000010111
0000000101111011
0000000001010111
0000000100000001
0000000000110101
1111111001101011
1111111001000101
0000000010010010
0000000001100000
0000000101000011
0000000111001100
0000000111101000
1111111111000000
1111110110010111
1111110111110100
1111110111100111
1111111100110111
1111111111101011
1111111111100101
1111111111111011
1111111110110100
1111111111011101
0000000000010010
1111111111110110
0000000000101011
1111111110110101
0000000001000101
0000000001101001
0000000001110110
0000000101010001
0000000100011011
0000001011000101
0000001010000010
0000000000101000
0000001000000111
1111111100000010
1111110110010010
1111111100110100
0000000010010010
0000000101011010
0000000010100101
0000000000110100
1111111111100011
0000000000011001
1111111111011101
0000000000111011
0000000000000111
0000000000011010
1111111111100001
1111111111111011
0000000000010110
1111111111111111
0000000000001111
0000000000011101
1111111111111010
1111111111110010
1111111110110101
1111111110001001
1111111111111011
0000000001110010
0000000000011111
1111111111110100
1111111111010000
0000000000100111
1111111011111001
1111111011111001
1111111111111001
0000000000010111
1111111111110100
1111111111011110
1111111111110111
1111111111110001
0000000000011010
1111111111101001
1111111111110010
1111111110110001
1111111111100110
