1111111111011111
1111111110101001
0000000000001101
1111111111110011
1111111111111101
0000000000001011
1111111111110101
0000000000011001
0000000000011111
0000000000000000
1111111111100101
0000000000001000
1111111111011110
1111111111100010
0000000001001011
1111111111110000
1111111111111010
0000000001100011
1111111111111001
1111111111111110
0000000000011011
0000000000000001
0000000000110011
0000000000100000
0000000000000010
0000000000000111
0000000000010010
0000000000001101
1111111111001010
0000000000101000
1111111111111101
0000000000011101
0000000000110111
1111111111111100
1111111111110101
1111111111101001
0000000000010110
1111111111111101
0000000000001110
0000000000000101
0000000001100111
0000000000001001
0000000000011010
0000000001000001
0000000000110001
0000000001011100
1111111111111010
0000000000011101
0000000001000100
0000000000110100
0000000000011110
0000000000010101
1111111111011101
1111111111110011
1111111111111111
1111111111110001
0000000000000000
1111111111111001
0000000000010100
0000000000001101
0000000000001101
1111111111111101
0000000000010011
0000000001110011
0000000001111110
0000000001011001
0000000011010101
0000000011000110
0000000011111010
0000000101000110
0000000011001011
0000000100101101
0000000101101001
0000000100001100
0000000100101110
0000000011010101
0000000001100111
0000000000100010
1111111111110000
0000000000011001
0000000000100100
1111111111111111
1111111111111001
0000000001001100
1111111111110000
0000000000001011
1111111111100101
1111111111101111
0000000000100010
0000000010011011
0000000010011011
0000000100011000
0000001011011111
0000000111011011
0000000000100011
1111111000010101
0000001010001100
0000010010010011
0000000100111101
0000001101000010
0000010001001111
0000001100110110
0000001111110101
0000001010110000
0000000001010001
1111111111000010
1111111111010011
0000000001010110
0000000001110101
0000000001001010
1111111111101000
1111111111111111
1111111111100001
1111111110110001
1111111111110110
0000000000010101
0000000001011000
0000000110101100
0000001000001111
0000001011111101
0000010010110101
0000001010100000
0000010000001001
0000001001111001
0000000101110000
0000010000001011
0000001100100010
0000001110010100
0000001011000110
1111111101010001
0000001100000100
0000010101110111
0000001111111101
0000010001010001
0000000111101011
1111111100111101
1111111011111100
1111111110001111
0000000000111111
0000000000001011
1111111111111011
1111111111011000
0000000000100001
0000000000101011
0000000100100100
0000001011011001
0000010001011000
0000011010100011
0000001101010101
0000000110110101
0000001001000110
0000010010101011
0000000101011000
0000001011101010
1111111011010001
0000001011101110
0000010001100110
0000100100111101
0000011110110010
0000101000011001
0000011111101101
0000001100111011
0000001101111011
0000000100001111
1111111110101001
0000000001111110
0000000000100110
1111111111010001
0000000000011111
1111111111111000
1111111110011110
0000000001011110
0000000101001010
0000000011111110
0000010010101000
0000011111110000
0000010000000010
0000010110100000
0000010010100010
0000011001011011
0000010100111100
0000011000011100
0000011011100001
0000110111001100
0000110010110111
0000101111101101
0000100011001101
0000001011101111
0000001001101000
1111110011101100
1111110100010011
1111111011000000
1111111101101111
0000000010100000
0000000000010111
0000000001000011
1111111111011011
0000000000110000
1111111101011011
1111111101110110
0000000111011111
0000000010100011
0000001100110010
0000001011010010
0000001000011111
0000001001111110
0000010110101011
0000010010111011
0000101110101000
0000100101000010
0000101011101110
0000011000100110
0000000001110001
1111101001001101
1111110001110110
1111101101001011
1111100100001000
1111100010010010
1111100111001100
1111101101111100
1111111010100001
1111111011110101
1111111011100000
0000000000010100
0000000000000111
1111111111101101
1111111100101011
1111111101110100
0000000000001000
0000000110011111
0000000000010000
1111110110000000
0000000100111110
0000011101100111
0000100101010101
0000010000000010
0000010100110101
0000000111011101
0000000000011011
1111101101111001
1111011010100111
1111100001000101
1111101010011000
0000000011001011
1111101000011111
1111110100111001
1111110101010000
1111101000010100
1111101010100000
1111111100000110
0000000001101100
0000000001000010
0000000000000100
1111111111010011
1111111110111011
1111111110001011
0000000100001111
0000000000010111
0000000011000000
0000000110111001
1111111111100011
0000000111000100
1111101101101100
1111111100000101
1111110101000100
1111011110011101
1111100011000011
1111100000100010
1111010011101001
1111101101001110
1111101101111111
1111111001001111
1111101101001111
1111110111111000
1111111110100001
1111101010100110
1111101110000111
0000000100001011
0000000000000000
1111111111000100
1111111111110010
1111111111100000
1111111111111001
1111111111001011
1111111111110101
0000000000100011
1111111100101011
1111101110101011
1111101100010000
1111100110010010
1111100001100001
1111101010010000
1111011111100100
1111110001000001
1111110000101111
1111100100010100
0000000100111111
1111111100010001
1111111011001000
0000000101010100
0000000001001100
0000000000011011
0000000011011010
1111110010000010
1111110010000110
1111111100100110
0000000000000000
1111111111010001
0000000000100001
1111111111110001
0000000000100011
0000000000111110
0000000111011110
0000001000101110
0000001010001100
1111101011001101
1111100100110110
1111100000010111
1111100110100011
1111110101111011
1111100111100111
0000000101101100
0000010100000011
0000001111000010
0000011110011111
0000001010101100
0000000101101100
1111110100000110
1111110111100111
0000000001010110
0000000100111100
1111111111101011
1111111110011001
0000000011001110
0000000101000101
0000000000101001
0000000000011010
0000000000000000
1111111110101101
1111111110110001
0000001001011011
0000000111010111
0000000111000001
1111110111101001
1111101010000110
1111101001011111
1111110001100010
1111100110000011
1111100000000010
1111110111000000
0000011001010011
1111111111101110
0000001110110111
0000011000101001
0000001000010010
1111110011100011
1111110010101011
1111110001010000
1111110100101011
0000000100110010
1111111110001000
0000000000010101
1111111111010000
0000000000100101
0000000000011011
1111111111110110
1111111110000001
1111111101110011
1111111001001001
1111111000000011
0000000001100000
1111111010101010
1111111010101010
0000000001000011
1111011111110001
1111011011110010
1111100101010111
0000000000001000
0000001110001001
0000000000111000
0000010000111100
0000001011011000
0000001111011101
1111110010111100
1111111001001101
1111110100110110
1111110110010000
0000000000011000
1111111010001000
1111110111111010
1111111101000010
1111111111111111
1111111110111010
1111111110111010
1111111110000100
1111111111110001
1111111100010110
1111101110011000
0000001011001101
0000001000100001
1111101110101000
1111101011000110
1111100111101111
1111010010110001
1111010111010110
0000001100010110
0000011001100110
0000001100100000
0000001000110110
1111101001011011
0000000111101101
1111111100100000
1111111010111010
1111111010100001
1111110001010100
1111111010100000
1111111111110011
1111111111010110
0000000000000101
0000000000001010
0000000001010011
1111111111101010
1111111101101111
1111111111011000
0000000011101100
1111111110111110
0000001010000111
1111111100100100
0000000100101111
1111110011100110
1111101100000001
0000000000001000
1111011101011111
1111111110010100
0000010011100110
1111111110100000
0000001011011100
1111110111100101
0000000000110011
1111111110000011
1111110101100110
1111111110001101
0000000001110110
1111111100001111
0000000000100111
0000000010100101
1111111100101010
0000000000101011
1111111111101111
0000000000000001
0000000000000000
0000000110000000
0000001010100001
1111111101011010
0000000001110010
1111111000001110
1111110100000010
1111111101000010
0000000000100000
1111111011001010
1111101110011000
1111111110110101
0000001011110100
1111111100111110
1111110011111110
1111100011100110
1111111001010010
1111110100100111
1111111001000111
0000000000010000
1111111100111010
1111111001101001
1111111111011101
0000000001011110
1111111100101111
1111111111110011
0000000000000101
1111111110111111
0000000000110100
0000001011011101
0000001100001101
1111111110010100
0000000010101101
1111111111011101
1111110100100111
1111100100110111
1111110100110011
1111111001101011
0000000000011010
1111111001101010
0000000110010101
0000001011100101
1111101110100000
0000000001101000
0000000100111001
1111110010011101
1111110100010001
1111111111111111
1111110001101110
1111110100100111
1111110101111010
1111111101000100
1111111101101110
1111111111110100
0000000000000000
1111111111111101
0000000001010100
0000001101000001
0000001010001001
1111111010010101
1111111111010110
0000001111110100
0000000000000100
1111110100100010
1111101011101100
1111111000001000
1111111010010011
1111111010010101
1111111101111101
1111111010101001
0000010010010010
0000001110110100
0000001110011100
1111111000111101
0000000101110001
1111111011110010
1111111110100110
0000000001000000
1111111101001110
1111111111110011
1111111110010001
0000000000001101
0000000001000100
0000000000100111
0000000000011000
0000001000100110
0000001000001111
1111111001100110
0000000101010100
0000010010010011
0000001010111101
0000001111011111
1111111111100011
0000001001110000
0000000101100011
0000010110100000
0000010000010011
1111111100000101
0000011000110011
0000001000000000
0000000110000101
0000000010010101
0000000100101110
1111111011010110
0000001011011010
0000000110100111
0000000101100110
0000000001011010
0000000000100001
0000000000001001
1111111111011111
0000000000001111
0000000001010000
0000000111101010
0000001000100001
1111111111010110
0000000000011000
0000010000110100
0000100100000010
0000011001010101
0000001010100101
0000000101110001
1111111011111010
0000000111101101
0000001100011111
1111111111010000
0000001010111111
1111110001100100
0000001010111110
0000010000000001
0000001101110100
0000001101100101
0000010011001111
0000001001100101
0000000110000011
0000000000100110
0000000000111000
0000000000001000
0000000000010101
0000000000000101
0000000001100110
0000001000100010
0000000110100001
0000001000101100
0000001001001110
0000001100100000
0000011000110001
0000011011110001
0000001101000010
0000000100100011
0000000101000000
0000001100111000
0000011000100010
0000001111000100
0000011011111110
0000000111011111
0000001111100101
0000000101110011
0000010000111010
0000001110001111
0000000010111011
0000001010101011
0000001001100011
0000000001010111
1111111110101011
1111111111101011
1111111111101101
0000000000001001
0000000000000100
0000000011101111
0000001111100011
0000001111101101
0000001011001010
0000010000000001
0000001011111010
0000010111101100
0000000111011110
1111101110110110
1111101110010111
0000001101101110
0000010111111110
0000000000111100
0000010111001100
0000001100000101
0000000001111101
1111111101000011
0000010011111101
1111111101011010
1111111111011000
0000001100000100
0000001000000100
0000000011001001
0000000000001001
1111111111111001
0000000000010001
0000000000000111
1111111111110110
0000000000111110
0000001010000101
0000001111100101
0000001110101011
0000001101111001
0000001010100111
0000001001010110
0000000011010100
1111101101100000
1111111000101101
0000000111100100
1111111000011111
0000000111111000
0000010001101101
0000001010101001
0000001000000100
0000000010000011
0000001101010010
0000000000001010
0000001001010111
0000001000110110
0000000110010011
0000000000011101
0000000000111000
1111111111000010
0000000000110110
1111111111101101
0000000001000000
0000000000001001
0000000011010100
0000000110001011
0000010011111101
0000010111101100
0000010001110011
0000000110111100
0000000110011001
0000001000001010
0000000111110010
0000000110110010
0000001111010011
0000011010000110
0000000000011000
0000000001111110
1111111110010100
1111111100001101
1111111100101010
1111111100010110
1111111011011100
0000000100001001
0000000010010010
1111111111111000
0000000001001001
0000000000010010
1111111111111001
1111111111100011
0000000000000001
1111111111010001
1111111111111110
0000000101100111
0000001011010001
0000001011010100
0000010001010111
0000001000001010
1111111110100010
1111111001001101
0000001010101111
0000000101100010
1111111101100101
0000001010001111
0000001011001100
0000000001110010
0000000111110000
0000010011010001
0000001000010010
1111111111010101
1111111100001010
0000000000001001
0000000000100000
0000000000000001
1111111111111010
0000000001010110
0000000000110110
0000000000101101
1111111111110101
1111111111100011
1111111111110101
1111111111011000
1111111111101011
1111111100110100
1111111011111111
1111111101001010
0000000001111000
1111111101100110
1111111101100001
0000000001101000
0000000010110101
0000001010100111
0000001101011111
0000001101100110
0000001010111100
0000001011010111
0000000011111001
1111111111111110
0000000000011011
1111111111101011
0000000000110010
0000000000101000
0000000000001110
1111111111110011
0000000000010110
0000000000100010
1111111111010011
0000000000011010
1111111111101100
1111111111011010
1111111111101101
0000000000000010
0000000000110011
1111111111100011
1111111110101100
1111111111010001
0000000000010111
1111111111100011
1111111111100000
0000000000000101
0000000000100110
1111111111111110
0000000000010011
0000000000010100
0000000000010111
1111111111001110
0000000000100111
1111111111011010
1111111111110000
0000000000001000
1111111111110011
0000000000101011
