1111111111111100
0000000000000001
1111111111010101
0000000000000000
1111111111110111
1111111111100101
0000000000110111
0000000000000100
1111111111100101
0000000000011011
0000000000010100
1111111111011101
0000000000100100
1111111111111001
0000000000001100
1111111111111100
0000000000001101
0000000000100001
0000000000101111
0000000000110010
0000000000011010
1111111111010000
0000000000010101
1111111111011111
1111111111101100
1111111111110010
1111111111100001
0000000000001011
0000000000001010
0000000000011011
0000000000000110
0000000000100001
0000000000100100
0000000000001110
1111111111100111
0000000000001001
0000000000001011
1111111111011011
1111111111101100
0000000000001111
1111111111101110
0000000001011011
1111111101110001
1111111010001100
1111111000101101
1111111111000000
1111111110111100
1111111111111100
0000000000001010
0000000001001001
0000000000111000
0000000000011100
1111111111010110
0000000000000100
0000000000111101
1111111111100001
1111111111110001
0000000000110010
1111111111110010
0000000000001000
0000000001000101
0000000000011110
0000000001011011
0000000010000011
0000000010010000
0000000100000001
0000000110111010
0000000101111111
0000000100110011
1111111101001111
1111110111111100
1111110001110000
1111110000100110
1111111101010100
0000000001101100
0000000111111010
0000000111111111
0000000100110000
0000000010111001
0000000010000000
0000000000100101
1111111111110001
1111111111110111
0000000000100101
0000000000000000
0000000000010101
1111111111111110
0000000000001000
0000000000100100
0000000000101010
0000000011011100
0000000100000101
0000000111101010
0000001110110100
0000001100101100
0000001101100011
0000000001010110
1111100010000110
1111010110000011
1111011001011011
1111011001110011
1111110111111000
0000001000101010
0000010000101011
0000001100011000
0000000100001011
0000000110110110
0000000011001111
0000000011001101
1111111110011111
0000000000000100
1111111111110000
1111111111000111
0000000000110011
1111111111001111
1111111110110011
0000000000000000
0000000100010110
0000000111110110
0000001010111010
0000010010110000
0000010011101010
0000001110011011
0000000010101110
1111110101101101
1111010011100011
1111000110000010
1111000111110011
1111101001000101
1111111011000111
0000000001111010
0000010001101001
0000001100111010
0000000000100001
0000001010111111
0000000111101010
1111111001101001
1111110110000100
1111111001110101
0000000001100101
1111111111100101
0000000000111111
1111111111110111
0000000000010001
0000000011000000
0000001100010010
0000010011010100
0000010110111000
0000011110010101
0000011110000000
0000011000000111
1111111111010010
1111100000101010
1110110101010110
1110111111010100
1111000111011011
1111111100011100
0000010100001111
0000010101010111
0000001001001011
0000010100101001
0000001011000100
1111111101100010
0000001010010001
0000010001000111
0000000011010011
0000000010111110
0000000001011111
1111111111011101
0000000000001001
1111111111011100
1111111111100100
1111111100011110
0000000001010100
0000001100110100
0000011000100011
0000011101010010
0000001011011000
0000010000100101
1111110010110011
1111010110011000
1110100110001100
1111000101110000
0000000110010011
0000000101011100
0000001010000101
1111111011101010
1111110110001000
0000010011001011
0000000100011111
1111111010111000
1111111111100100
0000001101110100
0000001000100101
0000000001100111
0000000010100101
1111111111100001
1111111111011100
1111111111111001
1111110111011100
1111111100000101
0000010010000010
0000001111001000
0000001110111001
0000010010100000
0000000100011110
0000001011100000
1111110101010100
1111001001010101
1110011101110100
1111101110100000
0000010100110110
0000011111000001
0000011011101011
1111111111101011
0000000101011011
0000001111000001
1111111001001110
1111110110101110
1111101000000100
1111110010100010
0000000010100001
0000000001100110
0000000001010001
1111111111011000
1111111110011110
1111111110110110
1111111100101110
0000000101110011
0000011000101000
0000001100100111
0000000010011011
1111111010010000
0000000110001100
0000000011011110
1111101001100100
1110100001001000
1111000101100011
0000000111110100
0000001010101000
0000010111111001
0000100000001111
1111111011001010
1111111101000001
1111101110010001
1111110001100101
1111101111001111
1111100010011010
1111100111111010
1111111000001010
1111111010100111
1111111111110100
0000000000001001
1111111101011100
1111111110100011
1111111110011100
0000000111100100
0000001000110011
1111101101010110
1111110111101011
1111111100000111
0000000011110110
0000000101001001
1111110011100011
1110111010100001
1111001011110011
1111101110011110
0000100110011001
0000011110111111
0000000011011011
0000000010001001
0000000100001100
0000001010001001
1111111011101111
1111100110010010
1111100110101001
1111110000000000
1111110010010010
1111111001110011
1111111111011011
1111111111100001
1111111101100011
1111111101101011
1111111010111011
0000000001010000
1111111010110011
1111011011101000
1111111110011110
0000000110000011
0000000111111001
1111111100011010
1111110000110011
1111100101100010
1111010011011100
1111111011100101
0000010011011011
0000000101011001
0000010110110110
1111110110010100
1111110010001111
1111110000111000
1111100110000110
1111100011100111
1111101111101000
1111111011001011
1111111010111000
1111111100010010
1111111111110101
1111111111110000
1111111110010001
1111111110100000
1111111011000101
1111110100110010
1111111100000101
1111111000000111
1111110010000101
0000000000001110
0000001001111011
0000000000111001
1111100010110001
1111011010011101
1111110010110000
1111110110000110
0000000101110000
0000001111000101
0000000100110111
1111100111101111
1111011011100010
1111101110000010
1111110010000000
1111110010010111
1111111000011110
1111111100000111
1111111110110111
1111111110110011
1111111111101000
0000000000110110
1111111111011000
1111111110101100
1111111110110010
1111111010001010
0000000101101110
0000001001001001
0000000100101011
1111110001011111
0000001001000001
0000010111111000
1111110011101011
1111110001101010
0000001101110100
1111110101001111
1111110101110011
1111110111111101
1111110111001101
1111111100111000
1111111001010101
0000000111111011
0000010101000111
0000000111001101
0000001001100000
0000000001111101
1111111000010111
1111111100000110
0000000000100010
0000000000110011
1111111111011111
1111111110100111
1111111110001100
1111111111000111
0000000001101000
0000001010111100
1111111101111110
1111111000000010
1111111110111000
0000000110100011
1111111100101001
0000000001111110
0000001100010010
1111110100111001
1111101110010001
0000001000111111
0000010011001100
0000000110111100
0000001000110101
0000001001010011
0000000010100111
0000001110100100
0000010000010110
1111111000101010
1111111001100111
1111111101010010
1111111111100000
1111111111010001
1111111110101000
1111111110010001
1111111110111110
0000001011010000
0000010001010011
1111110111101110
0000001010101100
0000000111100011
0000001010010111
0000001011010101
0000000100100101
0000001000001010
1111111011110111
0000000110000010
1111111011110110
0000001000010111
0000010100100100
1111101110100000
1111111111000110
1111110010110001
1111110000101010
0000000100001000
1111110111010100
1111111101010000
1111111101101100
1111111011101011
0000000000010010
0000000000010001
0000000000000000
0000000010010111
0000000000011111
0000001101100111
1111111010000100
0000000101000101
0000010101111110
0000000001100011
0000001100110000
0000001011001001
1111110011111010
0000010000101000
0000001100000110
1111111110111010
1111110111000001
0000000011010000
1111111101100011
1111110011110100
1111111110011010
1111101001111101
1111111011111000
0000001101111111
1111110110101111
1111110100010001
1111111010001100
1111111001110011
1111111110111001
0000000000000011
1111111111011011
0000000001110010
1111111010110010
1111110111101011
1111110111111110
0000000010001000
0000001100100100
1111111101000011
0000000010000011
1111111001000001
1111101010111001
0000001110001101
0000000010100110
0000000001101110
0000001010111100
1111111110011110
1111110011100111
0000001100010100
0000100000000110
0000001111101000
0000010110111101
1111111010010011
0000000010000000
1111111110011110
0000000000100100
1111111110010010
0000000000001100
1111111111100110
0000000000011011
0000000101001000
0000000000011100
1111111111000111
1111111000111011
1111110010111001
0000000001010111
1111111010001001
0000000101011111
0000000101000010
1111110100011001
1111110110011110
1111110100011000
1111110101110110
0000000011111000
1111111010110011
0000000010100011
0000001100101110
1111110001000111
0000000001101011
0000000011011110
1111101101111001
1111110100011100
1111110110111010
1111111101010111
1111111101011111
1111111110001111
0000000000111100
1111111111100001
0000000011000010
0000001011011011
0000000100000100
1111111100101111
1111110111101001
1111110111101110
1111111000010110
0000001010100100
0000000100110111
1111111001111011
0000001010100001
0000000110111101
0000000000100000
0000000000010011
0000000010001010
1111111000000110
0000001000100101
1111110001010001
0000001101011000
1111111111000100
1111110101100101
1111111001110110
1111111010100001
1111111100000011
1111111100110001
1111111111011010
1111111111010100
0000000000010100
0000000010000111
0000000100110111
1111111010111111
1111110010001010
1111110100011110
1111110111111010
1111101000100011
1111111010000011
1111110101001011
0000000110001110
1111101110100010
1111110101111101
0000000011011110
0000001001110000
0000001010001110
1111111100110011
1111111111111000
1111110111101111
1111111111100110
1111111110101100
1111110100010110
1111111110011011
0000000001000010
0000000001010111
1111111110111010
0000000001000101
1111111111101011
1111111111001011
0000000000110101
0000000001101011
1111110100111001
1111100010101000
1111101011011010
1111111101110101
1111111001100010
1111111001110101
0000010111000110
0000000011000001
0000000001001110
1111110001001010
1111110111101011
0000000010111100
0000001101101010
1111111011111110
0000010010010000
1111111111001001
1111101100010110
1111111101110111
1111110111011000
1111111100110100
1111111111010101
0000000000100110
1111111111100001
1111111111101101
1111111111011000
1111111111110100
1111111101111010
0000000000110111
1111111010111110
1111101111110111
1111110000010001
1111111101111001
0000001101010011
0000000111110001
0000010000110101
0000001010010010
1111101111110101
0000000000111111
0000000111000101
1111111111000010
0000001001010101
1111111111101110
0000001000001111
0000000011001101
1111110100101101
0000000001000011
0000000100010010
0000000011011101
0000000000111101
0000000000010100
1111111110101100
0000000000011110
1111111111011101
1111111111101000
0000000000000011
0000000000010100
0000000001010100
0000000011011001
0000000000101010
1111111010000000
0000000010100011
1111111100001101
1111111010100100
0000000101011010
1111110101010000
0000001110101100
1111111010101101
0000001000110001
0000000000010110
1111110110001010
1111110101011101
1111111100010110
0000000101000010
0000001100100101
0000000101111010
1111111010001100
1111111111000101
0000000001000101
1111111111011000
0000000000000001
0000000000000110
1111111111101001
0000000000011000
1111111111100100
0000000000110100
0000000011111011
0000000110101010
1111111110111010
0000000111110111
1111111100101111
1111110011000011
1111111010000001
1111111100111110
0000000010111100
1111111001110110
0000000110100100
1111100110001001
1111100111101110
0000001100011110
0000000111101001
0000001110100011
0000010100000001
0000000100000010
1111111011110010
1111111001011010
1111111111110000
0000000000000000
1111111111110011
0000000000001011
1111111111101101
0000000000010010
1111111111010100
1111111101001110
1111111110011010
1111111101100010
1111111011000101
1111111000001100
1111111000001110
1111110010101111
1111110110100110
1111110011010101
1111111110100110
0000001010000111
0000001101001101
1111111011011110
0000010001000011
0000100000000110
0000000100001001
1111110010010111
0000000110000001
1111111100100100
1111110101000101
1111111110000000
1111111111110100
0000000000100101
1111111111000110
0000000000001000
1111111111110110
1111111111001101
0000000000000001
1111111110100010
1111111110010100
1111111001001001
1111110100001110
1111111010000101
1111111001110000
1111110100110011
1111110101001011
1111101101001110
1111111010000110
1111100011011010
0000000010101100
1111101000011011
1111111011011010
0000000110010010
1111010011101001
1111100011111010
1111110101111011
1111110011001010
1111111000100010
1111111111010010
1111111111001010
0000000000101110
1111111111101101
0000000000001100
1111111111110000
1111111111100000
0000000000011111
1111111111011011
0000000001010111
1111111101100111
1111111011110110
1111111001001101
1111111010111010
1111111000010100
1111111101110001
1111110000000001
1111100111111000
1111101001010101
0000000001001100
1111101110011100
1111110000111100
1111100100110010
1111110011101001
1111110100001001
1111110010010000
1111111010011101
0000000000001101
0000000000001100
0000000000001001
1111111111110001
0000000000011011
0000000000001011
0000000000010001
0000000000001101
1111111111111001
1111111111111110
0000000000011000
1111111111100110
1111111111011011
1111111111011011
1111111111101010
1111111101111110
1111111101010010
1111111100111000
1111111110100100
1111111011000111
1111111101100100
1111111111101011
1111111011000110
1111110101100010
0000000000001100
1111111111101001
1111111111011010
1111111101000101
1111111111100101
0000000000001111
1111111111100011
1111111111101110
1111111111101011
