1111111111100000
1111111111110101
0000000000000110
1111111111011101
1111111111101101
0000000000001110
0000000000110010
1111111111110111
0000000000111101
1111111111110100
1111111111110101
0000000000101000
1111111111001001
0000000000001100
0000000000001101
0000000000000000
0000000000101000
0000000000000101
0000000000001100
1111111111010011
1111111111011110
0000000000001101
0000000000010110
1111111111111110
1111111110111110
1111111111101001
1111111111110000
1111111111110000
0000000000100011
1111111111000101
0000000000001110
1111111111010101
1111111111010100
1111111111101110
0000000000101010
1111111111111101
1111111111010000
1111111111110101
1111111111100110
1111111111100100
0000000000001110
0000000000001110
0000000000101101
0000000010000001
1111111110110110
0000000000010001
0000000000100011
1111111111111011
0000000000101000
1111111111110001
0000000000001000
1111111111000011
0000000000000001
1111111111100100
0000000000010000
0000000000100101
0000000000010011
0000000000000011
1111111111111001
1111111111001100
0000000000001001
1111111111110110
0000000000001111
0000000000011111
0000000000000101
1111111111111110
0000000000000100
1111111111100000
1111111111001010
0000000011000000
0000000110101000
0000010001001101
0000001111010000
0000000110001101
0000000100100011
0000000100100100
0000000100001101
0000000010001100
0000000001101101
0000000000101100
1111111111110100
0000000000101101
1111111111100001
0000000000010010
1111111111111101
0000000000000110
1111111111000110
0000000000000100
1111111111110011
1111111111110101
0000000000011010
1111111111011011
0000000000011111
0000000000110001
1111110001001101
1111101101010110
1111110011010010
1111110100101011
1111110011011111
1111111001010110
0000000000001010
1111111010101000
0000011001001000
0000010010001101
1111111111000111
1111111111001010
0000000100000010
0000000110100101
0000000101010111
0000000000101000
1111111111101110
1111111111010111
0000000000010001
1111111111100010
0000000000000101
0000000000001000
1111111111101001
1111111100111111
1111111011010110
1111111000110010
1111110111101011
1111101101101011
1111100001110111
1111100010110000
1111110001001001
1111111000111110
1111110010101101
1111101000111010
0000001010100111
1111111010110011
1111110101111000
0000000111000110
1111111100011111
1111110111011010
1111110111011110
1111111101000111
1111111010111111
1111111011111000
1111111110001111
0000000000001011
0000000000010001
1111111111110100
1111111111100100
1111111111101011
1111111101000000
1111110011101110
1111110000011000
1111110010110011
1111111001100100
1111101101110110
1111101100011000
1111100111111001
1111101110000011
1111100101101010
1111100101010011
1111111011000011
1111101101110010
1111100111001100
1111100101010111
1111111001101101
1111111000100000
1111111000100010
1111110100010100
1111111010001101
1111111100110010
1111111010110011
0000000000100010
1111111111011101
1111111111011101
1111111111010101
0000000000110011
1111111111000101
1111111010111011
1111101100010111
1111100111010101
1111101011001111
1111011111110010
1111100000100011
1111100110100101
1111010111001110
1111100100110010
1111011110000011
1111101100000111
1111110100111111
1111101010111110
1111111011001101
1111101111001010
1111111101010110
0000000000111100
0000000100011000
1111111000111001
1111111011111101
0000000001011111
0000000011010100
0000000000011001
0000000000110100
1111111111000110
1111111111010110
1111111111110001
1111111011100100
1111111101011011
1111111010110100
1111101000010011
1111100101101011
1111100000101111
1111101011111011
1111100011110110
1111011100010100
1111011000110110
1111011011000111
1111111101011011
1111101011010000
0000000011101101
0000000011011011
1111111011010001
1111110111011110
0000000011101100
0000000100001011
0000000011001001
0000000000100000
0000000001011001
1111111101110101
1111111111000001
1111111111111100
0000000000000110
1111111111010110
1111111110100111
1111111011001101
1111111010010010
1111111100001011
1111111100111010
1111110010111011
1111101111011100
1111110110000111
1111110001101010
1111010010101011
1111001110001011
1111110010000100
1111011111111110
1111010001000111
0000000010110000
1111111111001100
1111011000111000
1111110011111010
1111100100101001
1111110011100010
1111111011100100
0000000101100000
0000001010101010
0000000100010111
1111111111110100
1111111111110011
0000000000011110
1111111110111101
1111111111001011
1111111001010101
1111111110011101
0000000101101101
0000001010011011
0000000111101111
0000000101100001
0000001100011101
0000001110110111
1111110100101101
1111011110000111
1111101101000011
1111010110100011
1111000111110100
1111110101001111
1111011111001100
1111010011111110
1111101100111010
1111100011111101
1111111110011010
1111110111011000
0000000101000011
0000000111100101
0000000000111001
0000000000101000
1111111111110101
0000000000011001
0000000000100000
1111111110101111
1111111101011100
0000001011001110
0000010010011100
0000010111100000
0000100001001111
0000011010101101
0000101000011101
0000011110011100
0000000110011111
0000000100101101
0000001001101101
1111101001010011
1111001101010011
1111101001101100
1111101100110110
1111111011101101
0000000100010110
1111111000001101
1111111001000100
1111101111100110
0000000101011011
0000000101101110
1111111100101110
0000000000011011
0000000000110110
1111111111110110
0000000000010110
1111111111110000
0000000010000010
0000010101011011
0000100001001001
0000100001111110
0000100101011111
0000100001111001
0000100011110111
0000100101000111
0000011011011001
0000011110100011
0000110000001011
0000100111011111
0000000111101100
0000001111011010
1111111010100000
1111111011111011
0000000101111000
1111111010101000
0000000101111010
1111110111010101
0000001000001010
1111111111111000
1111111100000000
1111111110001101
1111111111111101
0000000001000101
1111111111011011
0000000000001100
0000000111011010
0000011000001100
0000011101010011
0000011010100111
0000011101011100
0000011010101000
0000100101111110
0000011110000100
0000100001001000
0000000100000001
0000001101100010
0000111010011111
0000010011111100
0000000010011001
0000001101000111
1111110101111011
1111111001110001
1111111001011111
0000000010101011
1111111110001110
0000011010010101
1111111111000010
1111111011110110
0000000000010101
1111111111110001
0000000000110101
1111111111011010
1111111110100001
0000000101110011
0000001111101011
0000001010101010
0000011000110000
0000001100001111
1111111001100100
0000001001001000
0000000100000111
0000001000001110
0000000001111110
0000001000101111
0000100011000101
0000001111110001
0000000010000100
1111111101011111
1111111000011010
1111111111000101
0000000011101100
0000000000001001
0000010001111110
0000011100101111
0000000010100111
1111111100101011
0000000000011000
1111111111101110
1111111111110010
0000000000110011
1111111110100110
0000000100001100
0000000111110011
1111111110001010
0000010010111001
1111110011101111
0000000101010000
0000010101010010
0000001000101111
0000001110010100
0000001001001100
0000001100111010
0000011010011110
0000010101010100
0000010100111001
0000000010011010
0000001110101100
0000000110011000
0000001110111110
0000000100111010
0000010111101100
0000001001011010
1111111111110011
1111111111110001
1111111111111000
0000000000111000
1111111111011100
0000000000011010
1111111110001001
0000000100001101
1111111001111101
1111111010111011
0000001001001010
0000000101011100
0000010010100110
0000000101010111
0000000010000010
0000011011000000
0000011000111001
0000011001010000
0000010001010100
1111111000110001
1111110101000101
0000000001000011
0000001001000110
0000010101100101
0000000100111100
1111111000100011
1111111100101010
0000000101100000
0000000001100111
1111111110110111
1111111110001001
0000000000000011
0000000000110111
1111111111011011
1111111111000101
1111111110010101
1111110101100011
0000000011101111
0000010000011011
0000000101100101
0000010011000001
1111111111001011
1111110101110100
0000010010000101
0000010010011100
0000011001110011
0000000101001111
0000000100101000
0000001001010000
0000001000111101
0000000101010100
0000000101110100
1111110111100010
1111110011010010
1111111100101111
0000001000010100
0000000000011101
0000000001100001
0000000000000101
0000000000100011
0000000000100011
1111111111100111
1111111111000111
1111111000110100
1111110010100001
0000000110001111
0000001100100101
1111111101110100
0000010101011011
0000000011110101
0000010100100000
0000011001001101
0000010100101011
0000011110101100
0000011001000111
0000010110000110
0000000111011001
1111110011011100
0000001100110100
0000010000100100
0000001110000011
1111111010010101
0000001011100000
0000001100001011
1111111100001001
1111111100010001
1111111110100111
0000000000011000
0000000000001011
1111111111111000
0000000000010010
1111111011011101
1111111001001100
0000000111111001
0000001000100110
1111111010010100
0000000011110101
0000010011101110
0000000000110000
0000001100101110
0000010100110101
0000011101000010
0000001011111111
1111111000101010
1111101100100000
1111111100100100
1111111111111011
0000001011111110
0000011011011111
0000000011101110
0000000100111110
0000000101110100
0000000000100100
1111111101100111
1111111101100011
0000000001011100
0000000000001100
1111111111100001
1111111111000010
1111111110010111
0000000011101110
0000000001010110
1111111001001011
1111111100010101
0000000110111101
0000010000110011
1111110011001011
0000010011100100
1111110001110010
0000001110100011
1111111100010010
0000001000111011
1111111000110000
1111110010101110
1111110111001010
0000000011111111
0000000010011001
0000000001101111
1111111101111111
0000000101010111
0000000110110111
0000000000110000
0000000001110011
0000000000101011
0000000000100010
1111111111000001
0000000000001111
1111111010011011
0000000101100001
1111111010100111
1111110100011110
1111100111110101
1111110101000100
1111111111110100
1111110110101000
0000000011011001
0000000101011111
1111110000001011
0000001101110000
1111111111011010
1111100101000110
1111111010101100
1111111000100100
1111110100001100
0000000101011001
1111111011111110
1111111111111111
0000000100001100
0000000100111110
0000000000111101
0000000001000110
1111111111110101
0000000000000111
0000000000001100
1111111111100010
1111111101000111
0000000001101000
0000000001110100
1111110011110010
1111100101110100
1111100000110101
1111110010001000
1111110100111011
1111110101000011
1111101100100101
1111111000110000
0000001000100011
1111110010101110
1111110101101101
1111111000010010
1111111011111110
1111110100000011
1111111011000101
0000000001001101
0000000001001110
0000000100011101
0000000011101101
0000000001010001
1111111111101111
0000000000000000
0000000000010110
0000000000111100
0000000000001011
1111111110010011
0000000010101110
1111111011101100
1111101010111111
1111100100101001
1111011111110110
1111101110001110
1111111110101001
0000001010000000
1111111000010101
0000000000011011
1111110111100011
1111111000100100
0000000111100100
1111111000000010
0000001110000000
0000000011101001
0000001100110010
0000000011011011
1111111110111001
0000000110101010
1111111111111110
0000000000111101
1111111111110111
0000000000001110
1111111111111111
1111111110111110
0000000000111001
1111111111010100
1111111110111100
0000000000100010
1111110111100010
1111110001111000
0000000110010101
0000001100111001
1111111001000011
1111011011000100
1111110110000010
1111111010001011
0000000000100000
0000000000111001
1111110111011110
0000001000000111
0000001111100100
0000001101111001
0000010001010010
1111111111101111
0000000111000111
0000000101100110
1111111111101001
1111111111101110
0000000001001010
1111111111100111
0000000000000000
0000000000001100
1111111111110001
1111111111010010
1111111100010011
1111110011111100
1111110100101100
1111110101111011
1111111111110010
0000010101100111
0000010000101101
0000000000100100
0000000111001011
1111110100000100
1111111011101011
1111111110111010
0000000101011000
1111111110110111
0000000001111100
0000010101010100
0000001110111010
0000001000010010
0000000111010110
0000000100101100
0000000001010111
1111111111110001
1111111111100111
0000000000001011
1111111111101010
1111111111010110
0000000000000100
1111111111110110
1111111100011010
1111111011101000
1111111101001011
1111111101001111
1111110100110001
1111101110101111
1111101100100100
1111111000110100
1111111011101000
0000000001001010
0000000011110110
1111111001001011
0000000010100010
1111111111001100
1111111001001101
0000000000000101
0000001001001111
0000001000111100
0000000011110101
1111111111111011
0000000000010100
0000000000111110
1111111110110001
0000000000001001
1111111111101110
1111111111100010
0000000000000101
1111111111111110
0000000011101111
0000000110110000
0000000011111010
1111111100000100
1111110010001110
1111110010010100
1111110010000100
1111111101011001
0000000011111101
0000000001011011
0000000001111000
1111111111101111
1111111001001110
1111111110101000
1111110111110110
1111111101000010
0000000000110011
0000000010011011
0000000001111010
0000000000001110
1111111111100101
1111111111111000
0000000000100111
0000000001000110
0000000000000011
0000000000010001
1111111111111100
0000000000011101
1111111111010000
1111111111011000
0000000001010001
1111111111111000
0000000000110100
1111111110110011
1111111111101100
0000000000110001
0000000000110010
1111111111100011
1111111111011111
1111111111100110
1111111101111010
1111111111000111
1111111110000000
1111111111000000
1111111111110101
0000000000001110
0000000001010010
0000000000000000
1111111111011111
0000000000000100
1111111111100111
1111111111111000
