1111111111011010
0000000000001010
1111111111111111
1111111111111100
0000000000101101
1111111111011000
0000000000010001
0000000000001110
1111111111101110
1111111111110101
1111111111011100
0000000000100010
0000000000001010
1111111111001001
1111111111011011
1111111111010100
0000000000000000
0000000000000001
0000000000011110
1111111111100011
0000000000010010
0000000000110010
1111111111011110
0000000000010011
1111111111110001
0000000000001011
0000000000000010
0000000000000000
0000000000011011
0000000000101000
1111111111111101
1111111111111011
0000000000010110
0000000000001110
0000000000010111
1111111111101110
0000000000100000
0000000000000000
1111111111111111
1111111111100100
1111111111100111
1111111111000111
1111111110111110
0000000000110010
0000000000001001
0000000000000000
0000000000000000
1111111111101010
1111111111100000
1111111111111111
1111111110111101
0000000000000001
0000000000001010
1111111111110101
1111111110100101
0000000000111101
0000000000001000
1111111111110100
0000000000011110
1111111111100011
0000000000011011
0000000000000010
0000000000001011
0000000000110100
0000000000011011
1111111111011011
1111111110010101
1111111011110010
1111111010101010
1111110111010101
1111111011000011
1111111100101100
0000000000000111
1111111110011010
0000000001000000
0000000100101100
0000000001010000
0000000001011110
1111111111110101
1111111111111000
1111111111010111
0000000000010111
0000000000000101
1111111111010111
1111111111111111
1111111111110100
1111111111111001
1111111110110100
0000000000011000
1111111111111011
1111111111110011
0000000001011010
0000000100111010
0000000100001010
0000000000001101
1111110001010001
1111111001000011
0000000010011111
1111111010111000
1111111101110011
1111111000101011
1111110011010010
1111111010110101
0000001010110000
1111111101000001
1111111001010100
1111110011101001
1111111010001101
0000000011011010
0000000000100101
1111111111111001
1111111111111110
1111111111101111
1111111111111101
1111111111000101
0000000000011001
0000000001010101
0000000010001110
0000000010010101
1111111111100101
1111110000001010
1111101110101000
1111110001101100
1111111001100010
1111111100011001
1111101011100000
1111110010011100
0000001000111010
0000000110010010
1111101110100100
1111111001010001
1111111111111010
1111111010010100
0000001100100111
0000000110001111
0000000001111100
0000000101110111
0000000011011111
0000000000001111
0000000000100011
1111111111001011
0000000000001110
0000000000011000
1111111110111110
1111111111110110
0000010001001000
0000001100101100
1111111101001110
0000001000011000
0000010001110101
0000011001000111
0000010010001001
1111111010011011
0000000110001101
1111101101100011
1111101111011011
0000001011011100
0000001011011001
0000001110010001
0000000011111001
0000001100010000
0000001000110011
0000001101101000
0000001100000010
1111111010110101
0000000000111100
0000000000110111
0000000000000000
0000000000000100
0000000000000000
0000000001100110
0000000000010001
0000000000111001
0000011000100000
0000010011001010
0000001001111000
0000000110000010
0000001011011110
0000001011101000
0000000000100011
1111111110010000
1111110100111100
0000000101010010
1111110101100000
1111111111101110
1111111100011111
0000000100011011
0000001111100000
0000000110100000
0000001110000111
0000010010110011
0000010110100110
0000010011110111
0000001101101101
0000000100110110
0000000000010011
0000000001001101
0000000000001010
0000000000100100
1111111111101001
1111111000110100
0000010011110000
0000000011001011
0000000001110111
0000000111110010
0000000000000111
0000001110100001
0000001101010001
0000000011100110
1111110001000011
1111111100000001
0000001011101000
0000011010100111
0000010010111000
0000010100010011
0000010001111011
0000100111110110
0000010111100001
1111111100010111
0000001100000010
0000010101111101
0000000111111010
0000000101001001
0000000000100111
1111111111100001
0000000000111101
1111111110111111
1111111110100010
1111110110001110
0000000110000001
1111110011001001
1111111010010101
1111101111110110
0000001000010110
0000000100110011
0000000111001010
0000001010101000
0000001010010101
1111111001001111
0000011010110000
0000010010000010
0000000100001111
0000010100001011
0000011010011111
0000000111001100
1111110100000101
1111111000101100
0000000110010001
0000000111111100
1111111101101000
0000000011100001
1111111111110011
1111111111001110
0000000000101110
0000000000110000
1111111010101101
1111111111101011
1111111111100000
1111111000010111
0000000001111010
0000000011110011
0000000001100101
1111111100100110
0000000111010110
0000000010100001
1111010110011101
1111001111111110
1111011001001001
1111011110110100
1111010110010100
1111100100000111
1111011011010001
1111011000110100
1111010010000100
1111011101000111
1111100011011101
1111111001110111
1111111110001011
0000000010001110
0000000000011010
1111111110111001
0000000000001011
0000000000010110
1111111011000101
0000000001010010
0000000100101101
1111111110011100
1111110110011010
1111111100001101
0000001011101101
1111111100011100
0000000010101011
0000000101010110
1111100010110001
1111000111111101
1111000000111110
1110111100001010
1110101010000011
1110101000000110
1110100011110101
1110111110010000
1111001111100000
1111001100101000
1111001000010100
1111101101111110
1111111101111111
0000000000111011
0000000001101110
0000000000000011
0000000001010011
1111111111110111
1111111010101011
0000000100100111
0000000101100001
0000000010000000
1111101101110000
1111111110000101
0000000000100111
1111111110111111
1111110110011111
0000000010011110
1111111100100110
1111111101001110
1111110010110100
0000000001101111
1111110010101001
1111101010101111
1111100011101000
1111010000110110
1111011110100111
1111001111111110
1111011011111100
1111101010001111
1111111011110001
1111111111101111
1111111111011111
1111111111011010
1111111111011001
0000000000100011
1111111011101111
0000001001110000
0000000101000100
1111111111111100
1111111110101101
0000011001111111
0000001000010101
0000001001010010
0000010000101000
0000000000100101
0000001110011010
0000000011000100
1111111000001010
0000000101001110
1111101000010101
0000000000111010
1111111100101110
1111110111100011
1111110011100101
1111101100100111
1111101001111111
1111101011100100
1111111100010100
1111111111001010
1111111111100000
1111111111011110
1111111111110110
1111111111111000
1111111110100110
0000001111010011
0000010100101001
0000000101001111
0000001011001011
1111111011100110
1111110000011000
1111111011011101
0000001010010100
0000010111111000
0000001111000010
1111111111011001
1111111000001001
1111110001101111
1111111101100100
1111101111001011
1111110101111001
1111110010111100
1111110011000100
1111110111111000
0000000000000100
1111111111011110
1111111100100110
1111111111010111
1111111111111101
0000000000010101
1111111111001101
0000000001010101
1111111110011010
0000001100001001
0000000010011111
0000000111110010
0000001011010000
0000001010110100
1111111101000111
0000000100011010
1111111100010000
0000001111011001
1111110110010010
1111111110111100
1111111010111000
1111101000100101
1111110000101110
0000000110010110
1111111000000010
0000001001001101
1111101000101010
1111111100111111
0000001101101000
0000001011100000
1111111110101001
0000000000010000
1111111110010001
1111111111000110
0000000000111010
1111111101111100
1111111011101010
1111111100110011
1111111010111110
1111111010001111
1111111001011001
0000000101101000
0000001010101010
0000011101001100
1111110011011101
0000001001100011
1111111100100110
1111101100011011
1111110100001100
1111110111100001
1111111111101011
0000000100010000
0000000100101111
0000001001100000
1111111011101011
1111101101101011
0000001010000110
0000010010010001
0000000000000100
0000000000111101
0000000000011101
0000000000011011
1111111111101111
1111111110111100
1111111100101011
1111111010100011
1111110011010111
1111100011101111
1111100101011000
1111110001101000
1111101101011101
0000000011001010
1111110110100001
0000001111110100
0000001011010001
0000001101000101
0000000111110011
0000000000100001
1111111011100001
1111111011110000
0000000011001001
0000001101100011
0000000011101010
0000010011010011
0000010011101101
0000001110011101
1111111111011110
0000000001001111
0000000001000001
0000000000010110
0000000000100011
1111111110011011
0000000011010111
0000000011111100
1111110001001000
1111101101111110
1111100101011101
1111101110000100
1111100110110110
1111111000111101
1111110010001111
1111101111110110
1111111011011101
1111110110000101
1111101110110001
1111011110000110
1111110100101110
0000001011010011
1111111010011011
1111111100110101
0000000100010010
0000000101010010
0000001101111101
0000000111110001
0000000001000001
1111111111101011
1111111111101001
0000000000000011
0000000000101100
1111111110011000
0000000000111101
0000010100100101
0000000011010010
1111110001111011
1111111100001100
1111100100010001
1111101111010010
1111101010000011
1111010000100001
1111010101000110
1111010001001110
1111010100101101
1111101101111110
0000000011010101
1111111000100011
1111110111000101
0000001010000110
0000000100011100
0000001001101100
1111110100010100
0000000110010111
0000001010110010
0000000001101011
1111111110110111
0000000000000101
0000000000000111
1111111111101100
0000000011100001
0000000000100001
0000010110000101
0000001110011111
1111110101010001
1111101110110000
1111111000111000
1111100101001010
1111101011100010
0000000101011100
1111111101000100
1111100000111101
1111111101111010
1111101101100111
0000000101101100
0000000100010110
0000000001010110
1111111110111010
0000010011100100
0000000101111010
1111110111100101
0000000000100000
0000010100101011
0000000100111000
1111111111011110
1111111111110100
0000000000000000
1111111111101100
0000000001110101
0000000010100000
0000010100011010
0000011101000000
1111111010110000
1111011011100100
1111111101110001
0000001101110010
1111111100010111
0000000100011100
0000000111000010
0000010000010100
1111111001111101
0000000011101001
0000000000101000
0000001111100011
1111111110111110
1111111011011001
0000001010010110
0000000111111111
0000000100100110
0000010111011000
0000001111110001
0000000100101100
1111111111011100
0000000000000000
0000000000001101
1111111110100110
1111111100100000
1111111101100110
0000010010011010
0000100001001010
0000000000010101
0000000010001101
0000000110000011
1111111101001010
0000010001011011
0000000110100101
0000001010011001
0000000100100111
0000010011111111
0000001111011010
0000000010101000
0000010001110111
0000001100110110
0000000110101000
0000011011011001
0000010000000000
1111111100111011
0000011010000010
0000001100000100
0000000100011111
1111111111010111
1111111111110110
1111111111110100
1111111111001011
1111111111011000
0000000001001101
0000001011111001
0000001000101010
1111111111100000
1111110110001000
0000001011011000
0000001010111001
1111111011111100
0000000001110100
1111111010100000
1111100100111011
0000001110010111
1111111100111101
1111111110000110
0000000001011111
0000001000010110
0000000110001001
0000000011100101
0000000100010011
0000001010111101
0000010010110011
0000000000111000
0000000010111100
0000000000101011
1111111110101011
1111111111111000
1111111111011101
1111111111111101
0000000010010110
0000000111010111
0000000100010101
1111111110101110
1111101111100111
0000000001101101
0000000010110101
1111111010111001
0000001101001110
0000001100101101
0000000100101100
0000001001011111
1111111011110110
1111111000011010
1111110011101101
1111101001000111
1111110111001111
0000000101101010
0000000000110010
1111111110001001
0000000110111111
0000000100010000
0000000011011100
0000000000001011
1111111111111100
1111111111111001
1111111111101010
1111111111101110
1111111111101001
1111111100111100
1111111111010101
1111111011100000
1111111110100011
1111111110110101
0000001000011011
0000000110001100
0000000000110100
0000001100100101
0000001010010001
0000001000001100
0000000010110100
1111111010011110
0000000110000111
0000010110001011
0000001000100110
0000001001000011
0000000001100001
0000000100101101
0000000000111001
1111111111001101
1111111111111000
0000000000010101
1111111111101000
1111111111110011
1111111111101011
1111111111111000
1111111111100010
1111111100101100
1111111010111100
1111111000000110
1111110001000000
1111110101011001
1111111100000000
1111110111101100
1111111111101000
0000001000110011
0000000110110100
0000000000011001
0000000101100100
0000000000010011
0000001000001101
0000001110111001
0000010001011001
0000001000100010
0000000111110011
0000001000011101
0000000011000010
0000000010001000
0000000000000111
0000000000011011
1111111111011111
1111111111101101
1111111110101011
1111111111100010
0000000000011000
1111111111110111
1111111111010001
1111111110100101
1111111110010100
1111111110010100
1111111010100110
1111111100011001
0000000010000111
0000000100100100
0000000101011011
0000000101101110
0000001001110110
0000001001011010
1111111101110111
1111111101111000
0000000001100101
0000000010011011
0000000101011101
0000000010100111
0000000000111011
0000000000011101
1111111111101000
0000000000110110
0000000000011001
0000000000001011
1111111111101100
0000000000011011
0000000000000100
1111111111111111
1111111111111011
1111111111111110
0000000000101001
1111111110111000
1111111111100110
1111111111110001
0000000000111001
1111111111001001
1111111111101111
0000000000000000
0000000000111100
0000000000101000
0000000000011000
1111111111011111
0000000000000001
1111111111011110
0000000010101001
0000000000111111
1111111111011011
0000000000001011
1111111111110100
1111111111101111
1111111111110101
