0000000000001110
0000000000000011
1111111111011011
0000000000100000
0000000000101010
1111111111100001
1111111111111111
1111111110011011
1111111111111010
1111111111101000
1111111111101101
1111111111111001
1111111111011001
0000000000000011
0000000000101010
0000000000100010
1111111111010001
1111111110111010
1111111111100001
1111111111101000
1111111111110011
1111111111100111
1111111111110000
0000000000101000
1111111111111100
0000000000011110
0000000000000110
1111111111100100
0000000000010000
0000000000011000
0000000000000110
1111111111101110
1111111111101110
0000000000101110
0000000000010101
1111111111110010
0000000000001011
1111111111011111
1111111111001111
0000000000010100
1111111111111100
1111111111100001
0000000000010011
1111111110011110
0000000000010111
1111111111101110
1111111111111010
1111111111011111
1111111111101111
0000000000110100
1111111110110101
0000000000000001
1111111111110010
1111111111111100
0000000000101100
1111111111101010
0000000000011110
0000000000110110
0000000000000000
1111111111100000
1111111111100110
0000000000101010
1111111111000101
1111111111010111
1111111110101011
1111111110001110
1111111101010100
1111111010010100
1111111000101101
1111111001011100
1111111010001001
1111111001110100
1111111011001011
1111111100011010
1111111101000011
1111111111001000
1111111111110101
0000000000110000
1111111111111010
1111111111101101
1111111111100101
0000000000001010
1111111111110011
0000000000100001
0000000000001111
1111111111100100
1111111111111111
1111111111101101
1111111111100101
1111111111100001
1111111110011010
1111111101000111
1111111000100001
1111111010010111
1111111101010010
1111110101100010
1111101101010101
1111101100000101
1111110100100010
1111111000100010
1111110111000100
1111110011100000
1111101101110110
1111110110001000
1111111101111000
1111111101110110
1111111100110100
1111111111110100
0000000000110001
1111111111100101
1111111111101010
1111111111001000
1111111111110100
1111111111110110
1111111111100100
1111111111011001
1111111110110011
1111111110011110
0000000000000011
1111111011110110
1111110011011101
1111111011111001
0000000100000101
1111111010011110
1111101001011000
1111101110101011
1111100101110001
1111101011111001
1111110000110000
1111111111111101
1111111110001011
1111110001010010
1111110010001010
1111110111010101
1111111110100111
0000000010000001
0000000000000000
1111111111010000
1111111111010001
0000000000000101
0000000000000100
0000000000000011
0000000000011111
1111111111101101
0000000000011000
1111111111001101
0000000001000010
1111111010100000
0000000010010010
0000000111000000
1111111110110101
1111110010010001
1111111011010111
1111111001100111
1111111000000010
1111101110100010
1111110100110001
1111111010111010
0000001001101100
1111110110111001
1111101010000011
1111110100000100
1111111111011101
1111111110011101
1111111000101011
1111111101100010
1111111110111010
1111111111101111
0000000000011011
1111111111010001
0000000000100010
0000000000010011
0000000001001111
0000001001101010
0000000011101110
1111111111010101
0000010110011101
0000010011011011
0000010100110101
1111111110000101
0000010010101010
1111111101000101
1111111100111101
1111011100001100
1111101010000100
1111111110001111
0000001001010110
1111111110110011
1111100011010101
0000000000011101
1111111111010010
1111110110010010
1111110000111000
1111110101100011
1111111101111101
1111111111011101
1111111111010101
0000000000100010
0000000000010001
0000000101011101
0000000011001010
1111111110111001
0000010110000001
0000011000101010
0000000101011010
0000100110011010
0000001110100110
0000000010001110
0000000010111011
1111111011101110
1111110110010101
1111011011101010
1111101110100010
1111111011100100
0000010001101011
1111111010101010
1111110001011010
1111101001101100
1111111110000100
1111110101111011
1111111001000010
1111111001110011
1111111111001000
1111111111100110
0000000000100101
0000000000011101
0000000001001101
0000000001000101
0000000001100110
1111111110110110
0000000110010111
0000011010110011
0000101011110001
0000101100011101
0000011101111100
0000000101100001
0000100001011101
1111111010111110
1111110000100011
1111111101011110
1111011101010100
0000001111000101
0000000110000010
1111111100100101
0000000101010101
1111111011000101
0000001100101110
0000001010100001
0000000011000010
1111111110001100
0000000000001100
1111111111011111
0000000000010011
0000000000110101
0000000000111100
1111111100101010
0000000101111001
0000010100001101
0000010110001001
0000010111011101
0000000100110011
0000011101100110
0000010100011110
0000001011011001
0000011010100111
0000010010011001
1111101011001010
1111110110000110
1111110001110100
0000000000100000
1111111011101010
0000000011101011
1111111110011010
0000011001001001
0000010110011011
0000010001100100
1111111111110111
1111111001010001
1111110111110011
0000000000000001
1111111111100101
0000000000011000
0000000001111100
0000000000001110
0000000110010000
0000000110111110
0000010011111101
0000000000101001
1111111011001011
0000011011101110
0000100110010011
0000110000100101
0000110101110000
0000110011101010
1111110011111111
1111111110100000
0000001001100100
0000100100011111
0000001000101001
0000000010111000
0000001001110001
0000001101010010
0000000010111101
0000000011111110
1111101100000011
1111110010111000
1111111010111010
0000000000000000
1111111111010001
0000000000101010
1111111110101001
0000000000110000
1111111110100010
1111111000111110
1111111101010001
1111110001000010
1111101111111000
0000011001001010
0000000111010111
0000110100000010
0000010101010000
1111100001110001
1110111011010000
1111111011111101
0000000101101101
0000011001001000
0000010011000010
0000001101010110
0000000011111111
0000001100001001
1111111100101010
1111110101111100
1111110110000101
1111111100011010
1111111111111111
1111111111110010
0000000000100001
0000000010110000
1111111111010111
1111111110111101
1111110110011000
1111110101100111
1111111110011110
0000010001111110
0000010011111010
0000000000010101
0000001100010100
0000010101110111
1111111110101011
1111000100011011
1110101000110000
1111110001001100
0000001011011010
0000000001101110
0000001111110000
1111110111001010
1111111101010111
1111111011100011
1111111111110010
1111110010111111
0000000000111111
1111111111111001
1111111111101111
1111111111101110
0000000000000111
0000000001100011
0000000011100001
0000000101001010
1111100101011111
1111111000011110
0000001100011111
1111110111100101
0000001100100010
0000000010001100
1111101111111000
0000001010111101
1111001011011111
1110110010010010
1111000110001100
1111000111010001
1111110100000011
0000001011001110
0000000110111000
1111101110011110
0000010010000000
1111111111100111
1111110100010010
1111110010101101
0000000110001010
0000000000001010
1111111110111110
1111111111111101
1111111111100010
0000000000000000
0000000101111011
0000000101110100
1111101000111101
0000010001001110
0000000101010011
0000000111100110
0000001101000110
0000001000001010
0000101010110111
0000000110010000
1111000010111101
1110110110110111
1111100110010010
1111100111111001
1111110100110010
1111101011011101
1111111101110000
1111111010110011
1111111010101000
1111111001001110
1111110111000110
0000000000001001
0000001010010101
1111111110000110
1111111111000101
1111111110110010
0000000000000001
1111111111011110
0000000101100110
0000000110100101
1111110110001111
0000000100001111
0000001001110000
0000010011001110
1111111011101000
1111110110001001
0000001000100100
1111010011010000
1110011110101011
1111000100000110
1111101010001110
1111101111110110
1111011100101000
1111100101000110
1111110101101001
1111110011101010
1111101011001101
1111110010010011
1111111101101100
0000000110111101
0000001110001010
1111111111000000
0000000001110000
0000000000010110
1111111111111110
0000000000000010
0000000011100001
1111111111111010
1111111010101011
1111110001011101
1111110111110011
0000001000001001
1111111001110000
1111011100101011
1111101010101111
1110101010000001
1110111101100011
1111100110000111
1111110001001100
0000000011111001
1111111001100101
1111100110101010
1111100110101100
1111111101010011
1111110101110011
0000001000101000
0000000001011000
0000000101110101
0000000100011001
1111111010100101
0000000010010001
0000000000001101
1111111111101010
0000000000011000
1111111111000011
1111111000111010
1111111001100100
1111110100101001
1111101110011000
1111101000110000
1111101001100010
1111011010001100
1111011101100111
1111010110010010
1111100110000110
0000000001110001
0000000000100100
1111111100100010
1111101110000110
0000000110111001
1111111100010010
1111111110010101
0000000100011111
0000001010111111
0000001010010110
0000010000000010
0000001011111010
0000001010111000
1111111111111111
0000000000111000
1111111111101100
1111111111001001
0000000001001100
1111111000110100
1111110110001101
1111101111010000
1111100011111101
1111100101011001
1111101001111100
1111100010111101
1111100100110000
0000000010010100
1111110010000101
1111111111011110
0000000110100110
1111101111000001
1111100101101000
1111110011010011
0000010010010001
1111111011011011
1111111100000110
0000010100110111
0000001110100001
0000001010011100
1111111110100000
0000000110001110
0000000000100100
1111111111100111
1111111111011110
0000000000111011
0000000000110101
1111111011010100
1111111011101011
1111111110110101
1111101011011101
1111101001000100
1111101100010011
1111100011001111
0000000000110000
1111110100101101
1111101101100110
1111101111010101
0000001110100010
1111101011001100
1111111001011101
0000000010000101
1111111000000110
0000001000101110
0000000111011100
0000000100010101
0000000001011010
1111111011101100
1111111100000111
1111111111110100
1111111111100010
1111111111001010
1111111111111110
1111111111101001
0000000000001010
1111111101101011
1111111101111111
1111111000101101
1111110001010010
1111110010100011
1111111000101101
1111110010011110
1111111011000111
0000010010011011
0000000111000001
0000010010100001
0000001110001111
0000001110101111
1111111000110100
1111100110001101
1111100111110011
1111101101001011
1111110100011001
1111111011101000
0000000001111011
0000000010100110
1111111011101001
1111111000010111
1111111111111000
1111111111110111
0000000000011110
1111111111011011
1111111111101001
1111111011000111
1111111001101000
1111110110001001
1111111000100001
1111101111001101
1111111000011110
0000000001110110
0000010010010101
0000010110111100
1111111100110001
0000000100111110
1111110111111010
0000001011110110
0000001011000001
0000000011101000
1111111101101101
1111110110001100
0000000000101001
0000000000010111
1111111111001111
0000001001110100
0000000000001001
1111111111011100
1111111111110100
1111111111011010
0000000000000110
0000000000100011
1111111111011011
1111111011010101
1111111001110010
1111111110001000
0000000111100001
0000000100000101
0000010000101011
0000010100000111
0000001111100100
1111101101011011
1111101111110001
0000000111100101
0000001000110101
0000011001100000
0000010011000101
0000011011111111
0000010011000011
1111110110100111
1111111000111011
0000001000111100
0000000010000111
0000000010111010
0000000000011110
1111111111101010
1111111111100101
0000000000011001
0000000000000010
1111111111111010
1111111111111001
1111111011001110
1111111101010100
0000000100000101
0000001101110111
0000001001111101
0000000111011000
0000010100111001
0000000010001001
0000000111110011
0000000001000101
0000001000101001
0000000001011110
0000010000011110
0000000000100011
0000000010110011
0000000001001111
1111111110100001
1111110011111100
0000000110010110
1111111001001110
1111111010110111
1111111010101011
0000000000100101
0000000000010110
1111111110111000
1111111111101000
1111111111100110
1111111110011010
1111111110001101
0000000010100100
0000001010001101
0000001011001001
1111111111010010
0000001011001100
0000000001010111
1111110010000010
0000000011011011
0000001011110001
1111111001001001
1111101111101011
0000000000101010
1111111111000001
0000001101011000
0000000101000011
0000000100101110
1111111101101110
0000000111110110
1111111110000011
1111111000010110
1111111101110001
0000000000011011
1111111111011001
1111111111100100
0000000000010110
0000000000010111
0000000000100100
0000000000000001
0000000000011010
1111111110001011
1111111101010111
0000000000000000
0000000001001111
0000010000000011
0000000011110001
0000000101110000
0000100011011001
1111111110011101
0000001011000011
0000001101111011
0000001001010001
0000000011100101
0000011110110111
0000011001111110
1111111110001011
1111111001000111
1111111101010110
1111111101010101
0000000000001000
1111111110101100
1111111111100011
1111111111001000
1111111111110000
0000000000011001
1111111111111111
1111111111100011
1111110111010011
1111110110110100
1111111001000011
1111111011011111
0000000110010100
0000000101110111
0000000011111001
0000001110000101
0000000110000001
1111110100000110
1111111110000111
0000000000000111
0000000100100011
1111111100100010
0000010101101110
0000010111110100
0000001000000110
0000000011010100
0000000000110110
1111111111101100
0000000000011010
1111111111010010
1111111111010011
0000000000101010
0000000000111111
1111111111111111
1111111111001000
0000000000000100
0000000000110000
1111111111110010
0000000001000001
0000000000101101
0000000000000010
0000000000000001
0000000000001111
1111111101011111
1111111011111001
0000000001110000
0000000001110010
1111110101110110
1111110110010100
1111111111010101
1111111110000000
0000000010010110
0000000000010101
1111111110010100
0000000001101001
0000000000100011
1111111111111001
0000000000000111
1111111111100100
0000000000111000
