1111111111111001
1111111111110110
0000000000111110
1111111111111110
0000000000000000
1111111111110001
1111111111111000
0000000000000110
1111111111010101
0000000000101000
0000000000010001
0000000000100010
1111111111100101
1111111111101111
0000000000111010
1111111110100101
0000000000001011
1111111111010101
0000000000010100
1111111111010001
0000000000010011
0000000000101010
0000000000100110
0000000000001111
1111111111010000
0000000000000001
1111111111110100
1111111111011110
1111111111111001
1111111111001100
1111111111100011
0000000000011101
0000000000100001
1111111111111011
0000000000001001
0000000000111111
1111111111101101
1111111111111110
0000000000101011
1111111111111101
0000000000001101
0000000000010011
1111111111111011
1111111111111110
1111111101100000
1111111110000111
1111111111101001
0000000000000110
0000000000000101
1111111111101100
1111111111100101
0000000000011111
1111111111100110
0000000000111001
1111111111101010
0000000000011001
0000000000001101
0000000000000001
1111111111110101
1111111111010001
1111111111011110
0000000000011110
0000000000100100
0000000001101010
0000000001001001
0000000000101011
0000000000011101
0000000010110111
0000000010011100
1111111111111001
0000000001100011
0000000000101111
0000000000001011
0000000001101110
0000000010110101
0000000001001111
0000000000011110
0000000001011011
0000000001100011
1111111111111011
0000000000011011
1111111111011110
1111111111110001
0000000000110001
1111111111101101
1111111111010010
0000000000010111
1111111111111000
0000000000011111
0000000000011011
0000000001111100
1111111101110101
1111111110000011
1111111111101011
1111111110000100
0000000010111001
0000000011110010
0000000010110100
0000000111001011
0000000110100011
0000000100011001
0000000001100110
0000000100100101
0000000011100011
0000000011111111
0000000011010001
0000000001011011
0000000000100101
1111111111101011
1111111110011010
1111111111110000
0000000001001100
1111111111100101
1111111111110110
0000000000010100
0000000000101100
1111111111101111
0000000000010111
1111111110100100
1111111111100111
1111111111111000
1111111110111101
0000000011011000
0000000111000111
0000010001111001
0000010011001011
0000010100100111
0000001111101000
0000001100111010
0000001001001000
0000000111001100
0000001010011000
0000001000110000
0000000100001110
1111111110101001
1111111101010111
1111111110100111
0000000000010110
0000000000010000
1111111111110101
0000000000001111
0000000000010101
0000000000000001
1111111111110001
1111111110111011
1111111100100110
1111111100110110
0000000011100010
0000000111100010
0000001011011011
0000000110010011
0000001100111011
0000001110010001
0000010010111111
0000101100100000
0000100110100011
0000101111111011
0000100011000010
0000011000010010
0000001000101000
1111111100101101
0000000010100011
1111111110110010
0000000000101100
1111111111101111
1111111110100100
1111111111010011
0000000000010110
0000000000010011
1111111110111010
1111111111001011
1111111101111100
0000000000101001
0000000111010001
0000000110100010
0000001000000000
0000000110011100
0000000110011001
0000001010101101
0000001011011000
0000010111011011
1111111110110100
0000000111101111
0000000001001011
0000000001001100
1111110001101101
1111101011000011
0000001010110111
1111101010011111
1111111011011010
0000010100001010
0000011110101101
0000001010101000
0000000010011001
1111111111100100
1111111111101100
0000000000010100
0000000000111101
1111111101001111
1111111100000010
0000000010111100
0000001001110000
0000001000010000
0000010101100111
0000000010010001
1111111010000011
1111110101111001
0000000100011111
1111110110011010
1111101001000110
1111011010010101
1111010010001001
1111101010000111
1111100100010000
1111100101011111
1111110010111001
1111111001001010
0000001011010010
0000011100111011
0000100101000101
0000010011101011
0000001000010101
0000000010111100
1111111111110111
1111111111010111
1111111111111001
1111111110110100
1111111100010110
0000000011010111
0000000001100110
0000001010010011
0000001010101001
1111110011100010
1111110001110100
1111111111110010
1111110001000100
1111100000000111
1111100000000101
1111010101101010
1111011011000111
1111011000011110
1111100110010101
1111110001100110
0000000111001000
0000001000011001
0000000100010101
0000010111001111
0000100010001100
0000011000010000
0000001011011111
0000000000100110
0000000000000100
0000000000011001
1111111111111110
0000000000100011
1111111000100100
1111111011010010
0000000011010011
1111110001111010
1111110101111010
1111110001100001
1111101001000011
1111110011110000
1111110000111100
1111100111010010
1111100011101010
1111101100111001
1111101010001110
1111110010001110
0000000111110000
0000010111001101
0000011100010110
0000001100000110
0000001100001100
0000001100011111
0000100101000100
0000010100110110
0000000110100000
0000000010100111
1111111111011011
1111111111100110
1111111111011111
0000000000100011
1111111001000011
0000000001011001
1111111011000011
1111101001111110
1111110010001011
1111110000000100
1111011011000001
0000000100111000
0000000001010010
0000000011100011
1111111111111110
0000001100100110
0000100001000011
0000000111100001
0000010011100101
0000001001110101
0000000000000000
1111111101001000
1111111101001100
0000001000111111
0000010000000111
0000001011101000
0000000100001011
1111111111111111
1111111111011010
0000000000011101
0000000000011101
1111111110100010
1111111000010010
1111111000001000
1111110001011000
1111110000101100
1111111010001000
1111111011101101
0000000111101101
0000011100111001
1111110000010111
1111111111100101
0000001010111000
0000000001010100
0000001011011101
1111110011100010
1111101011111111
1111100111110110
1111110001101011
1111100101110001
1111110011111110
1111111011001110
0000000000100111
1111111001111110
0000000010100001
1111111101110011
1111111111011110
1111111111101110
0000000000001010
1111111110011011
1111111110100100
1111101111101000
1111111101101101
1111111011101011
0000001100111111
0000010000110111
0000000011110010
0000001011111010
0000000001000001
0000011110100001
0000100010100111
0000001010010111
1111110111111100
0000010101100010
1111101101010100
1111110001111000
0000001010010011
0000000100011011
0000000111010001
0000001100110111
1111111011010101
0000001000101100
0000000100000010
1111111101001010
0000000000011111
1111111111110001
1111111111111111
1111111111010011
0000000000110001
1111111110001111
0000001110001010
0000000101100001
0000000111010000
0000001000010001
1111111101100010
0000000101010001
0000000000001111
0000001101000100
1111110110101101
1111101110111101
1111101110110100
1111111111100101
0000000101011000
1111111110100100
0000001100111000
0000000110100110
1111111110110001
0000001101111111
0000001011000110
0000001110001101
0000000100010111
0000000010011100
0000000000000010
0000000000000010
0000000000000010
1111111111111111
0000000010100101
0000000110000000
0000100011001011
0000001000011011
0000010011001001
1111111000111000
0000001110010001
0000000010111110
0000010100011001
0000010101111111
0000000110101000
0000000111100010
1111101001100010
1111111100110100
0000010011100111
1111110111101011
1111111100110001
1111101101110010
0000000010001000
0000010111100010
0000010101001110
0000010000111000
0000000100110000
0000000001011011
1111111111101000
1111111111100011
0000000000001010
0000000010011010
0000001000011000
0000001001110001
0000010010010110
0000001000101010
0000000010101011
1111100010011000
0000000111001110
0000001101100010
1111110100110101
1111111111000011
0000000111110000
0000001000001110
0000000010001111
1111111110011111
1111111001010111
1111111010101101
0000001101000111
1111110101000100
1111111111011110
0000010100101100
0000001011001000
0000001001110001
0000001000101100
0000000001100001
0000000001111100
0000000001001110
1111111111101011
1111111111111000
0000000101001010
0000000101010000
0000011001001101
0000010010010110
0000000000101000
0000000000000110
1111111101000110
1111110100011000
1111101110011100
1111111001110101
0000001000110101
0000001111000101
0000011110101111
0000010101101111
0000001001010101
0000001011110111
0000010111010011
0000001010110111
0000001100111011
1111111111110010
0000001010000000
0000001011011011
0000001101100100
0000000011101011
1111111111101010
0000000000000010
1111111111101100
1111111111100010
1111111111101011
0000001010100011
0000011011100001
0000011000110010
1111111000100001
1111110001101010
0000000000100010
1111111010010100
1111111100110010
1111111010001100
0000001001100110
0000001111010011
1111111111110001
0000000101110100
0000001000110000
0000000101100100
1111111111000011
1111110100000000
1111111010001111
0000001010011111
0000001011001010
0000000110111001
0000001010111011
0000000010011100
1111111111101111
1111111111110111
1111111110110001
0000000000000100
0000000011110001
0000001111000110
0000100000100000
0000011110101000
0000000101000101
1111111100110111
0000000101010001
1111101111111101
1111110110111100
0000001010100001
0000000000010001
0000000001010101
0000000001011100
0000010110001010
0000000101011011
0000000110101110
1111111100101001
1111110000000000
1111111110000111
0000000011110000
0000001010000100
0000001100000000
0000000100000011
0000000000001011
0000000000110000
0000000000011010
1111111111101010
1111111111000001
0000001010001011
0000010110000110
0000011010001001
0000011000100111
0000001101100011
1111111010100001
0000000101010110
0000000100000111
1111111101100010
1111101000011000
0000000110111100
1111110111000111
0000000000010000
0000001001101101
0000000011111101
0000001110110100
1111111000000100
1111111110100001
1111110111010011
1111111100011011
0000000110010000
0000000010000000
0000000001001101
0000000001000010
1111111111110100
0000000000011010
1111111111010010
1111111111111110
0000000110001110
0000010010110110
0000001100001100
0000011011101010
0000100000011111
0000011011111010
0000010110111000
0000011000011001
0000010010011101
0000000111010001
0000000110011100
1111100101001111
1111110010100011
1111111001011011
1111111110101111
0000010010111010
1111111000010111
1111110100100111
1111111001001101
1111110011110111
0000000000110011
1111111101010111
1111111010001110
0000000000100100
1111111111101001
1111111111101001
1111111111011010
1111111111010001
0000000001100010
0000000011101011
0000001000101011
0000010000100000
0000011010000111
0000101000111111
0000101001101001
0000011000110111
0000101110100110
0000010011010100
0000010101101010
1111101111001011
1111110100111010
1111110111111000
0000000100100111
0000010010101000
1111111101010111
1111110001110101
0000000110000101
1111111100010111
0000000100011001
1111111001110111
0000000001000101
0000000001011000
0000000000000001
0000000000100011
1111111111111011
0000000001011011
0000000001011110
1111111110011100
1111111101001001
1111111101011101
0000000110001100
0000010010101000
0000001110111111
0000000000101011
0000011010010100
0000001110100011
0000100000000111
0000000000110110
0000001110010010
0000000110011110
0000011010000100
0000011101010001
0000001110111111
1111111111001110
0000000110100001
1111110001100011
1111110011000010
1111111010101010
1111111101101100
0000000000100110
0000000000000000
0000000000011111
1111111111010101
0000000001001011
0000000000001001
0000000000010001
1111111010110110
1111111000011100
1111111000011010
1111111101101011
0000000111101000
1111111000101100
0000000001110110
0000000110100001
0000000110000100
0000100001001011
0000100000000111
0000011001110111
0000011000111000
0000101001000000
0000001100000000
1111111100101100
0000001001010101
1111110110100010
1111110011011110
1111110111100101
0000000011111110
0000000000011101
1111111111010100
0000000000000000
0000000001010111
1111111111101011
1111111110101000
1111111100001111
1111111011000001
1111111001111111
1111101101110101
1111101010100010
1111110101100110
1111101101001100
1111111100010010
1111111100101101
0000000110000010
0000010100001010
0000000010001000
0000100001010010
0000011000111001
0000011111000001
0000000101101000
1111101111101100
0000000100000100
0000000000000100
1111110111100111
0000000010000011
0000000011111000
1111111111110011
1111111111111111
1111111111111100
0000000000000010
1111111111011001
1111111111110101
1111111101101101
1111110110101000
1111110100100110
1111101100111010
1111100110001011
1111101000001010
1111111100000100
1111111011011101
1111110110100111
0000000111001001
1111110100101100
1111111010000010
1111101010010001
1111101101111011
1111110000011100
1111100000111110
1111101101101111
1111111000100011
0000000000011101
1111111110100111
1111111111001011
1111111111101000
1111111111111110
1111111111101001
1111111111110100
1111111111110010
0000000000110100
0000000000100110
1111111101000111
1111111010000110
1111111001000010
1111110110100111
1111111001100010
1111110010001000
1111110010101001
1111110111101011
1111101101110011
1111101001110110
1111011000111001
1111101000111011
1111100101001000
1111100110010101
1111100110110100
1111110110100001
1111110011101001
1111110101001011
1111111101011111
1111111111101011
1111111111001110
1111111111110001
0000000000000010
1111111111111010
1111111111101011
0000000000010101
0000000000001001
1111111111111101
1111111111001001
1111111111110000
1111111111010110
1111111110000110
1111111101111011
1111111111010110
1111111110001101
1111111101011111
1111111001100000
1111111101110111
1111111011011001
1111111010101110
1111111100010001
1111111101001110
1111110111111011
1111111111001001
1111111111110110
0000000000011100
1111111110111101
1111111111100110
1111111111001101
1111111111111101
1111111110100010
1111111111110000
