0000000001010111
1111111111010010
0000000000010010
0000000000110101
0000000000100111
1111111111011110
1111111111111001
1111111111111010
0000000000101110
0000000000010110
1111111111010100
0000000000001111
0000000000011101
1111111111111001
1111111111011111
1111111111110000
1111111111111011
0000000001011010
0000000000011111
0000000000100010
0000000000001110
1111111111111101
1111111111111110
1111111111101010
0000000000010101
0000000000100010
1111111111100100
0000000001001010
0000000000010000
0000000000000010
1111111111010101
0000000000011100
1111111111101000
1111111111000011
1111111111110000
1111111111110110
1111111111110010
0000000000010100
0000000000001011
0000000000001010
0000000000001000
1111111111100010
0000000000001101
0000000001110101
0000000000111010
0000000000100011
1111111111000111
1111111111101010
1111111111010001
0000000000101010
1111111111101111
0000000000000000
0000000000111110
1111111111101111
1111111111111010
1111111111111010
0000000000000011
1111111111011011
0000000000001001
0000000000011010
1111111111110001
0000000000000010
1111111110111111
1111111110010001
1111111101011110
1111111010111100
1111111010011100
1111110111110011
1111111000011100
0000000010001111
1111111000101110
1111111110111001
0000000001001111
1111111101111001
1111111110110110
1111111111001111
1111111100111110
1111111101001001
1111111111010111
0000000000010011
0000000000010110
0000000000011111
0000000000110011
0000000000000001
0000000000000001
0000000000100100
1111111111101011
1111111111101010
1111111111100011
0000000000110011
0000000001110011
0000000110011101
0000001010111111
1111111101001110
0000000000101011
1111110100101101
1111111111110101
0000001110001011
0000000110100110
0000001000010111
0000000110000000
1111111001100000
1111111100000100
0000000011011000
0000001110011111
0000000111001010
1111111111000101
1111111111000110
0000000001011000
0000000010100010
0000000000100110
0000000000001001
0000000000000011
0000000000111011
1111111111000001
0000000000010011
1111111111111111
0000000010110111
0000000001111001
0000001000100101
0000010010111111
0000001100110110
0000001000110111
1111111100011010
1111111011000011
1111110111011000
1111111111100111
0000001011011111
0000000010110010
1111110111111000
0000001010011110
0000000000000010
0000001110010100
0000011011010110
0000001010110110
0000000100010011
0000010000010011
0000000111100111
0000000000100101
1111111111101101
0000000000000111
1111111111110110
1111111111011001
0000000011011000
0000000001100111
0000001001110100
0000000110001000
0000001101100100
0000000011100110
1111111011100111
0000000101101101
0000000100010011
1111110101101001
0000001101010000
0000001010010101
0000001110011000
0000001010000010
0000000110110100
0000001011110111
0000000010010000
0000000011001010
0000000001111101
0000000110010010
0000001010010101
0000010000000101
0000000111010001
0000000001100000
0000000000101100
0000000000100000
1111111111111000
0000000000000001
0000000101000011
0000000111011000
0000010001000111
0000010011000000
0000000101101100
0000000100010000
0000001000111110
1111110001000000
1111110001000110
0000000010100110
0000000101101111
1111111110000001
1111110111010100
1111101111110010
0000000000101100
0000000111110000
1111110000110100
1111111011110010
1111111101101101
0000000100110011
0000001101100000
0000010010000000
0000000110100010
0000000001101010
1111111111111010
1111111111011001
0000000000000101
0000000001001010
0000000101110100
0000001010001101
0000001010110110
0000001010100110
0000001111101000
0000001000100111
0000000100101100
0000000111111111
1111101001110101
1111101111011110
1111110010000110
0000000111000100
0000010110000011
1111110111000111
0000000110010101
1111110100110001
0000000101000111
1111111100111001
1111101100010100
0000000010001000
0000000100110110
0000000100100010
1111111111111000
0000000011000101
0000000000001111
0000000000100010
0000000000001011
1111111110101000
0000000011000111
0000000110100110
0000001100111101
0000000110100100
0000000011111011
0000000101000001
1111111001100101
0000001010001011
0000000110111000
1111111011100111
1111111111110111
0000001010011111
1111111110011000
1111100101001011
1111101000111010
0000000011101101
0000000011000010
0000001000010000
0000001010101111
0000001000101101
0000000000100000
0000001000001011
0000001000001111
0000000010011011
0000000000110100
1111111111010010
0000000000001000
1111111101101010
1111111111001101
1111111110000110
1111111010011111
1111111111100001
0000000100100011
1111111110100000
1111110101101100
1111111110101101
0000000100110011
0000000101101000
0000010001100110
0000100101110111
0000001011111000
1111111000000001
1111110010101110
1111110010110110
1111101111110110
1111111000000010
1111110100111111
0000001111001011
1111110100100111
1111111110110110
0000001001011010
0000000010011111
0000000000011001
1111111111111011
0000000000011100
1111111110011011
1111111111011100
1111110100110101
1111110000111100
1111101101100000
1111110011011010
0000001100001010
1111111111100110
0000000000101111
1111111001000100
1111111111001011
0000100100010100
0000101100010011
0000010011001110
0000010111001011
0000001010000101
1111100010010100
1111110111011011
0000000110100001
1111110001001000
0000000100010100
1111111110010010
1111111110100111
0000001000000101
0000000010100101
0000000000011100
0000000000000000
1111111110101110
0000000001000101
0000000010001110
0000000000000110
1111111000111101
1111101111010000
1111100010100001
0000000000101100
1111101000111001
1111111000000010
1111111110000101
1111101010111000
1111111011011110
0000010001101110
0000010110111011
0000100100110111
0000110101011110
0000000001011111
1111111111100001
0000000111111001
1111110001000010
1111111010010001
1111110111111100
1111111111000010
0000000001110000
0000000010010111
1111111111110110
1111111111011101
0000000000100000
1111111110110000
1111111111110100
1111111111000100
1111110010010011
1111100111111011
1111101011000111
1111110100010010
1111111000101101
0000000001110011
0000001001000101
0000000010110111
1111110000011100
0000010010010001
0000010011100000
0000011101000010
0000011011010010
0000010100010100
1111110110001010
0000001011011111
1111110000000100
1111111001100100
1111110011011010
1111100111110101
1111111000111001
1111111111101111
1111111111011011
1111111111110011
1111111111010001
1111111111110101
0000000010101000
1111111110001111
1111100110100100
1111100001110011
1111100110000001
1111111101011101
1111110111110011
1111111100010110
0000000000101011
0000000010110000
1111110110101000
0000010001111000
0000001010111010
0000100011101100
0000100000101111
0000000000111111
0000010100010011
0000000011000010
0000000011100010
1111110010110111
1111101100101011
1111101111111110
1111111000101011
1111111101000110
1111111100111110
1111111111011000
0000000001100110
1111111111111010
0000000000100001
1111111010010001
1111011111010101
1111010011000111
1111010011111100
1111100111000001
1111111101101001
1111111001100011
1111110000010010
0000000001111111
0000001000111110
0000100010001010
0000001001010100
0000001111010111
0000001100111110
1111111001101001
1111111011010001
1111111001011001
0000000001001010
1111111110111101
1111111001101111
1111111001010100
1111111011100111
1111111110101100
0000000000100101
1111111111101110
0000000000111111
0000000001100100
1111111111001010
1111111100011010
1111100000101010
1111010100010111
1111010001110011
1111001110000000
1111010110011001
1111010101000010
1111100000000110
0000000111110010
0000000011000000
0000010001011010
0000011101010101
0000010100101101
1111111110111110
0000001111111100
0000000001000101
0000000101101010
0000001101111110
0000001000010000
0000010100011110
0000000101110000
1111111100001010
1111111110010101
0000000000001101
1111111111000001
0000000000001011
0000000001011111
0000000011000011
0000001000010000
1111110011010000
1111110100110101
1111110000001010
1111100111000100
1111100000110110
1111001011111010
1111000011101001
1111100001101010
1111100110000011
1111111101111010
0000001010001100
1111101110001011
0000000001000001
0000010011100000
0000001011111110
0000001010010000
0000001000100111
0000001111110111
0000010010101001
1111111100110010
1111110100000000
1111111100100101
1111111111111000
0000000000000111
1111111111101000
0000000001010010
0000001011010000
0000000011011001
0000000101011010
0000000111100110
0000001100100001
1111100111101111
1111011100110010
1111010100111111
1111001001000001
1111001100100011
1111101000000111
1111101110011110
1111110101001100
1111110010011100
1111111101100110
0000000001110000
0000001100000110
1111111000010001
0000000101101001
0000000001011101
0000010001001000
1111101110100110
1111101111110010
1111111110011101
0000000000010001
0000000000111000
0000000000010101
0000000001101011
0000010100000101
0000000101011100
0000000011100011
0000001110101011
0000000101011101
0000000111111100
0000010011111011
1111101001111010
1111011011101110
1111001100110001
1111101000100101
0000000101001011
0000011110100000
1111111110101101
0000000000110101
1111101110100101
1111111110111000
0000001000111010
1111110101110010
1111111110101011
1111111110011010
1111101110110000
1111110111101100
0000000000101110
0000000000001101
1111111111110100
0000000000011011
0000000000011001
0000001010100101
0000000001111101
0000001001110110
0000001100000100
0000000010000100
0000000011011010
1111111111111001
1111110100010110
1111100111101010
1111100110000001
1111110001100011
0000010011010010
0000010101010100
0000001101100100
0000010100011000
0000000001111000
0000000100100011
0000001100011000
0000000010111111
0000000111101101
1111110110100011
1111111101100101
1111111100110011
1111111111011010
1111111111010010
1111111111110110
0000000000000111
1111111011110011
1111111011101100
0000000010110101
0000001100110010
0000001000111000
1111111111111111
1111111010100110
0000000010011101
1111111010111101
1111110001101010
1111011001010101
1111110001101010
0000010111110111
0000000010100000
1111111111100110
0000001101101100
0000001000100011
0000000100001001
0000001010001111
1111110100010000
1111111111010110
1111111010100000
1111111010001000
1111111100101000
0000000000010001
1111111110011100
1111111111100100
1111111111001001
1111111000011001
1111110011011000
1111111011001011
1111111100110011
1111111100111111
0000001110101111
0000001011100101
0000000000000000
0000000000100110
1111110001011011
1111100011010001
0000000011000000
0000011000100111
0000000111010010
1111110110001110
1111111010001100
0000001011111011
1111111000100010
0000000111110101
1111110100010100
1111101110100101
1111101000011011
1111110110111011
1111111100110101
1111111111000100
0000000000101010
0000000000001010
1111111111110110
1111111001000110
1111111000111111
1111111000110110
1111110000010001
1111110001000001
1111110010100000
1111111010101100
1111110011101000
1111110101111000
1111101110101110
1111100100010011
0000000101010000
0000010001111101
0000000111111010
1111111010001100
0000001010111011
0000001100110100
0000000110110011
1111110001101101
1111110001010010
1111110000110101
1111101110101110
1111110111111110
1111111100010111
0000000000110011
0000000001000100
0000000000010110
1111111111111010
0000000001111011
0000000110011111
0000001010100001
0000000001001111
1111110001110011
1111110001110110
1111100011100110
1111100111000010
1111101000010001
1111110010110100
1111011101111011
1111111010000100
0000001010110011
0000001001101011
1111110111001000
0000001011111001
0000001111011101
1111111001101011
1111110101100000
1111110001101101
1111101111010101
1111110010011101
1111111010001100
1111111011011111
1111111111110010
1111111111111010
0000000000100111
1111111111110100
0000000001101010
0000000100110000
0000000111101110
0000000110001010
0000000111101101
0000001100101101
1111110111011000
1111101101010101
1111101001101101
1111111010010010
1111111111011000
0000001011110111
1111111111110000
1111110101101011
0000000111110011
0000011011000110
0000000000111100
1111101111011101
1111111000000101
1111110100011011
1111110101011100
1111111011110011
1111111010011110
1111111101101111
1111111111011110
0000000000000101
0000000000010101
0000000000011010
0000000000010001
1111111111100110
0000000000011100
0000000010110011
0000000100101000
0000001100000001
0000001111001000
0000001011001010
0000001001011011
0000001000111111
0000010001001001
0000001110001110
0000000000111110
1111111010111110
0000001000011110
0000001010011010
0000001011001111
0000001110100001
0000001000101011
0000000101001111
0000000000101110
1111111110111001
0000000000010110
0000000000000101
0000000000001100
0000000000110010
1111111111110011
1111111111110100
0000000000010001
1111111110101001
1111111111001010
1111111111010111
0000000000101100
0000000010011110
0000000000011000
0000000010111011
0000000110011010
0000000101111100
0000000001100011
0000000100001001
0000000110010010
0000000111001110
0000010010001101
0000001111000111
0000000110111010
0000000010110110
0000000011011100
0000000010001100
0000000000101110
1111111111111110
1111111111011011
0000000000010100
0000000000010010
0000000000000000
0000000000100011
0000000000011100
1111111111101111
1111111111100100
1111111111101011
1111111110100010
0000000000000100
0000000000011011
1111111111011000
1111111111111000
0000000000011100
0000000000011101
1111111110110100
1111111110101010
1111111110111011
1111111111111011
1111111111000001
1111111111111000
1111111111110011
1111111111011100
1111111111001010
0000000000100101
0000000000110010
1111111111101001
1111111111101001
0000000000000000
1111111111111101
0000000000101101
