1111111111101001
1111111111111101
0000000000101111
0000000000010101
0000000000010111
1111111110101110
0000000000010101
1111111111111110
1111111111100111
1111111111111111
0000000001000100
0000000000000101
1111111111010101
1111111111111000
1111111111110011
0000000000111101
1111111111100100
1111111111011110
0000000001000010
0000000000000101
0000000000001010
0000000000000000
0000000000101101
0000000000010111
1111111111101000
1111111111101111
0000000000001111
0000000000010010
1111111111101101
0000000000100101
0000000000001000
1111111111101010
1111111111010011
0000000000010101
0000000000000111
0000000000000001
0000000000000111
0000000000010000
0000000000111100
1111111111000000
0000000000110100
0000000000101110
0000000001101100
0000000011010010
0000000010010111
0000000001101110
0000000000101000
1111111111011101
0000000000111001
1111111111011101
1111111111110010
1111111111110101
0000000000000110
1111111111100011
0000000000001111
1111111111111101
0000000000000000
0000000001001110
0000000000000011
0000000000000010
1111111111100001
0000000000110100
0000000000010010
0000000001010001
0000000010001000
0000000001101001
0000000001110010
0000000011000001
0000000010110011
0000000000110011
0000000011000011
0000000000111010
1111111100111001
0000000001101000
1111111111111100
1111111111010100
0000000000001111
0000000000100001
1111111111101011
0000000000011100
0000000000010000
0000000000111011
1111111111110111
0000000000000010
1111111111011110
1111111111010001
1111111111111110
1111111111110001
1111111111101000
0000000000110000
1111111111101111
1111111111011111
1111111111111111
0000000001100010
0000000000110111
1111111111010110
1111101000111100
1111100101001101
1111101110110011
1111101100110110
1111110000101101
1111111000010011
1111111001000010
1111110110100101
1111111010011110
0000000011100000
0000000010101001
0000000000000100
1111111111100111
1111111111001001
1111111111111000
1111111111100101
1111111111000101
0000000000101011
0000000000010100
0000000000111100
1111111111111001
1111111110000100
1111111100101011
1111110111100101
1111110100101001
1111111000011110
1111111000001110
1111110101110011
1111110110011001
1111110101010110
0000000110101001
1111111010101100
0000001010110010
0000011011000100
1111111000100101
0000000000011101
0000000101011000
0000000101001100
0000001000000111
0000000000011001
0000000101101010
1111111101010000
1111111110011111
0000000000111010
1111111111110101
1111111111100011
0000000000010011
1111111111011000
0000000000001011
1111111000000110
1111111000000110
1111111010110111
1111111001001011
1111111011011101
1111111001111100
0000001110101000
0000010000010001
1111110101101100
0000001100010001
0000000110101010
1111111000101001
0000001001111001
1111111111100110
1111111111110100
1111110001111011
0000001101011000
0000001000010000
1111111111010100
1111111011110110
1111111100101001
1111111111111100
0000000000110101
1111111111011111
1111111111010010
1111111111001011
1111111110110011
1111111111110001
1111110100010011
1111111101010001
0000000001000110
0000000000000000
1111111011100100
0000000101001000
1111111100010011
0000000001110101
0000001100000101
0000000001100011
1111110011001110
1111110110011000
0000010001101011
0000001110010100
0000010110101000
0000001010011000
0000010001110011
0000010110010010
0000000101010010
1111100111110000
1111101101101110
1111111100110010
1111111111100001
1111111111100011
0000000000001000
1111111111011100
1111111011110011
0000000010101011
1111111101000100
1111110011100010
1111110001011111
1111111111011111
0000000110111110
1111111110101111
1111110011011001
1111110100101000
1111111110110001
1111101111010100
0000011100101101
0000000101101111
0000000001100000
0000010001111001
0000001010001101
1111101011000110
0000000010100110
0000001011100110
0000000010010111
1111011011110000
1111101110001010
1111111010001100
1111111111010000
1111111110101100
1111111111000100
1111111111111110
1111111101001110
0000000010011110
1111111100000101
1111111100110010
0000000111000000
1111111110110011
0000000001111111
0000000100010001
0000000111001111
1111111101100101
1111111011100101
1111111111010000
1111111000010001
0000000001101000
1111111010111011
0000000111011010
0000001110101101
1111111011010110
0000000110010111
0000000110110011
1111110110101100
1111100010101101
1111110010100011
1111111011100000
1111111111100111
1111111111111111
1111111110101101
0000000001100101
0000000000101110
1111110111100011
0000000000000001
1111111100111100
0000000111110011
1111111111001010
0000000001100000
0000011001000010
0000010010101000
1111110000110100
1111101000100011
1111111000011111
1111110010010011
1111101011010000
0000000011010110
1111111101010011
1111111110000011
0000001011010101
0000010010000011
0000000000100011
1111111111100111
1111101100101001
1111110010111001
1111111111011101
1111111111110110
0000000000001010
1111111111010010
0000000000011101
1111111101110000
1111111100111110
0000000010000000
0000000000110000
0000000110101000
1111111110110111
0000000010001011
0000010100011010
1111111111000100
1111111011001001
1111101101001111
0000010000010001
0000010011000110
0000011000110010
0000001111011111
1111111110110101
0000011011011100
0000001011010111
0000000100101000
0000000010001110
0000001011011010
1111110010110001
1111110001111001
1111111101110100
0000000000001000
1111111111101000
1111111111000000
1111111100111111
0000000001011111
1111111111010111
1111111010101000
1111110110110101
0000001001010011
0000001111000111
0000011000101111
0000011011101001
0000001010001011
1111111000010011
1111111001000000
0000011001010001
0000010001111010
0000001011110001
1111110000100011
1111100111101001
0000000001100011
0000010001001110
0000010010011101
0000001110110110
0000001011001111
0000000010110100
1111110100010101
1111111101000001
0000000000110010
1111111111110001
0000000000000000
1111111110100011
0000000011110010
1111111110001011
1111111111110001
1111110100111001
0000000010001011
1111111100011001
1111111110111011
1111100010101100
1111110000110110
1111111100100110
0000000110011010
0000011101111101
0000100100111001
0000010011010111
0000011001110011
1111110101111010
0000000111110100
0000000111000111
0000001100101101
1111111100001000
0000001001111110
0000001010011110
0000000010010110
1111111111111111
1111111111110100
1111111111111001
0000000000110011
1111111110111001
0000000011100000
1111111110101001
1111111010001111
1111110001001000
0000001001000110
0000001110000110
1111111010110100
1111101000001111
0000000010110011
0000010010101000
0000011101101010
0000001110101101
0000100101101100
0000000011010101
0000001011100001
0000010010001011
0000000100110111
1111110111101011
1111111001011101
0000000110110100
0000000001001111
1111111010100001
0000000011101001
1111111111101001
1111111111111100
0000000001110000
1111111111011101
1111111110111000
1111111110101110
0000000010010101
0000000000001111
1111110010000010
1111110110000110
1111111010100000
1111101110001010
0000000010100111
0000010011000011
0000010100110000
0000011100011110
1111110111110000
0000000000110101
0000010010001001
0000001010111100
1111111001101101
0000001000001001
1111111101101010
1111110010011110
1111110010111010
1111101000110110
1111110101101011
0000000101101010
0000000000100101
0000000000101001
1111111111110111
1111111110011100
1111111111011101
1111111111110011
1111111101111111
1111111011111000
1111110100100011
1111111011101101
0000010110111001
1111110110111101
0000000101101000
0000001010010001
0000001000111100
0000010010101110
0000001110010110
0000010001001110
0000010111101010
0000100010000000
0000001101001000
1111110111001000
1111101101010011
1111101011011000
1111111001110010
1111101110011111
1111110110000010
0000000111000111
1111111111011101
1111111111111101
0000000000000111
1111111111011101
1111111110000010
1111111111101000
1111111101000110
1111111110101011
0000001001010110
0000011101111011
0000100001001111
0000011011011001
1111110101000111
0000000010000010
1111111010100010
0000000001011001
0000011010111111
0000010111101101
0000010110100111
0000000011011000
1111110000100001
1111101111100000
1111100100011001
1111011010001001
1111101001111110
1111111010111110
1111111011001111
0000000111100001
0000000000111001
0000000000001110
1111111111110000
0000000000001111
1111111110010101
1111111010101001
1111111000000101
1111111110000001
0000010010100001
0000000011010001
0000010010100101
0000100010000011
0000100010110001
0000011011001000
0000011001011111
0000101011000010
0000001110011001
0000010100011000
0000010001010011
1111110011111111
1111011100111100
1111011100010000
1111100111100100
1111100101110110
1111110100101101
1111111000100111
0000001101000111
0000000001101110
0000000000111111
1111111111101101
1111111111100011
0000000000000010
1111111101101100
1111111011110111
1111110101100011
0000000100100000
0000010011001010
0000001000010011
0000001000101001
0000100101011110
0000101000100011
0000111001101100
0001001010010110
0000111010101100
1111111101101001
1111111101011011
1111100011100011
1111100111000101
1111011010000011
1111011100111001
1111101010100011
1111100111111001
1111110001111000
1111111100110111
0000001100011000
0000000000000111
0000000000101101
1111111110111010
1111111111111111
1111111111110111
1111111111000001
1111111101000110
1111111100100001
0000000110011000
0000010011000111
0000000111111111
0000001010101010
0000011110011111
0000011010000110
0000010001101010
0000001010101010
0000010100011111
1111100101100001
1111100011000011
1111100001100011
1111101101011001
1111100110110000
1111110011111110
1111111000010101
0000000000100000
1111111100001111
1111111111010110
0000000010000011
1111111101011110
0000000000011001
0000000000011010
1111111111101111
1111111111001100
0000000000000101
1111111001111010
1111111111101010
0000000000110001
0000010000011111
0000000010101010
1111111110110110
1111110111110111
1111101101101011
1111101110110010
1111110010100100
1111011110111101
1111011110010011
1111100110011010
1111011111011110
1111100001101101
1111111010110101
0000001010110111
0000001110101101
0000000000001001
1111101011111010
1111111111010101
1111111110110011
1111111111100011
1111111111111111
0000000000000110
1111111111001110
0000000000111110
0000000000001011
1111111001111010
1111110011101001
1111111010110011
0000000000001110
1111111001111110
1111101110010000
1111110101000101
1111101110101101
1111100000001011
1111100011111011
1111101100101000
1111101110110000
1111101000111110
0000000010011000
0000000010010001
1111110001110101
1111111011110011
1111100111010110
1111110100001101
1111110001110100
0000000010111111
0000000010000011
0000000001100010
0000000000011010
1111111111111001
1111111111110010
1111111111101011
1111111111110111
1111111010111111
1111110111111000
1111110100000101
1111110011000110
1111111110111001
1111111001000101
1111111101101111
1111111001001101
1111111001101100
1111011110100111
1111110100010111
1111111111100000
1111101100111111
1111110000010011
1111101011011111
1111111001111111
1111111100001001
1111111100101010
1111111111010011
1111111101100001
0000000011000110
0000000011011101
0000000001101001
0000000000001100
1111111111111011
0000000000010111
0000000000000001
1111111111110110
1111111101000100
1111110100000110
1111110010011101
1111110010001111
0000000010010101
1111111110001001
1111110010110001
1111011100010111
1111011010011100
1111111101110110
0000000011100100
1111110100001010
1111101110011111
0000001000100001
0000001011101010
0000010001111000
0000010010010001
0000001011100010
0000001100100110
0000001001100101
0000000101111000
0000000100010100
0000000001011110
0000000000010100
0000000000001110
0000000000010110
0000000000010011
0000000000000010
1111111101101111
1111111100011101
1111111100101011
1111111000101001
1111011111100011
1111100011111011
1111100010101100
1111100111110111
1111100101110101
1111111111101111
0000000100001101
1111110001101010
1111100000101110
1111111001000011
1111101100000010
0000000011110001
0000011011111001
0000010000100001
0000000101101100
1111111111100100
0000000011001001
0000000010100011
0000000010100001
1111111111011101
0000000000001000
1111111111000111
1111111111110100
0000000000000100
1111111110110001
1111111111001111
1111111111110001
0000000010001010
1111111010010101
1111110010110001
1111101001011001
1111110101010101
1111101001000111
1111100100101010
1111100000010111
1111110101111001
1111111010000111
1111111110011110
0000000011110111
0000000000000000
1111111101110011
1111111110000110
1111111010010011
1111111000100001
1111111101101111
1111111111111010
1111111111011100
0000000001001100
0000000000001000
0000000000010010
0000000000001101
0000000000001101
0000000000011010
0000000000011010
0000000001011010
0000000001111111
0000000001111100
1111111111110110
1111111010100001
1111110011111001
1111101111110011
1111111001010110
1111110111011101
1111111101111111
1111111101011111
1111110011000100
0000000010010110
1111111101100011
1111111010000110
1111111011110001
1111111010010010
1111111011111111
1111111111001001
0000000000000111
1111111111010011
1111111110111011
0000000000100100
0000000000010011
0000000000011100
0000000000000001
1111111111101001
1111111111011111
0000000000011001
1111111111100010
1111111111101110
1111111111110010
0000000000001011
0000000000010010
0000000000000011
0000000000111101
1111111111001001
1111111111001100
0000000100100001
0000000010001001
1111111111111110
0000000001011001
0000000000100010
0000000000000100
1111111110110011
1111111101100001
1111111111111111
0000000001001100
0000000000101111
1111111111101111
1111111111111101
