1111111111111101
0000000000000000
1111111111010111
1111111111100100
0000000000001001
0000000000000101
0000000000000000
1111111111110001
1111111111100011
1111111111100010
1111111111111011
0000000000010000
1111111111110111
1111111111101110
0000000000000111
0000000000000010
0000000000100111
0000000000000011
0000000000000010
1111111111111100
0000000000000101
1111111111101101
1111111111110010
1111111111010101
0000000000101001
0000000000000100
0000000000010010
1111111111101010
0000000000000001
0000000000001110
0000000000100001
0000000000011100
1111111111100011
0000000000110011
1111111111011010
0000000000000000
0000000000010001
1111111111100011
1111111111101000
1111111110111111
1111111110101010
1111111110010000
1111111110110101
1111111110100100
1111111111010100
1111111110110111
0000000000000000
1111111111011011
0000000000011000
0000000000100110
0000000000010010
0000000000001101
1111111111111111
0000000000110110
1111111111100100
1111111111011111
1111111111100010
1111111111110110
1111111111010010
1111111111010001
1111111111111011
0000000000000000
1111111111111010
0000000000011101
0000000000010101
0000000001101000
1111111111001111
1111111110000110
1111111010000011
1111111010010101
1111111011110101
1111111010010011
1111110110010001
1111110101100011
1111111001011010
0000000001101000
0000000011111001
0000000001011010
1111111111101011
0000000000101000
1111111111111110
1111111111010011
1111111111000101
1111111111001010
0000000000000000
0000000000100100
0000000000011111
1111111111101111
1111111111101010
1111111111110010
1111111111100101
1111111111010000
1111111001100011
1111111000100101
1111110111111011
1111110111011111
1111110010001111
1111101111110110
1111110101010101
1111101100110111
1111101000111001
1111110111100011
1111110010010001
1111111001100011
0000000011011101
1111111101111110
1111111100111100
1111111110110101
0000000000001000
0000000000101100
0000000000011010
0000000000100000
1111111111100001
1111111111110000
0000000000001010
0000000000001010
0000000000001011
0000000101001111
0000001000001101
0000001001100101
0000001011101100
0000001000111000
1111111110010010
0000000011110111
0000000011000101
0000001001111101
0000001000110111
1111110110001101
1111110010011100
1111110100110001
1111101011010011
1111111011111011
1111110011010100
1111110011101000
1111110110101000
1111111100111110
0000000000010000
0000000000001110
0000000000010001
1111111111100011
1111111111111001
0000000000011010
1111111111100010
0000000010011111
0000001001110001
0000001011101001
0000001111110110
0000010101010100
0000000110111111
0000000010010000
1111101111110111
1111100110010001
0000000100001101
1111101101111110
0000000001010000
1111110010111010
0000001000101101
0000001101010000
1111110011010110
0000000011111100
0000000110000110
1111110101111100
1111110100010001
1111110110101111
1111111101000001
0000000000110000
1111111111011111
0000000000001011
1111111111111001
0000000000000101
0000000000011110
0000000100001011
0000001011010110
0000000110100001
0000011000110100
0000000010111000
0000000110100101
1111111010101010
1111101100010010
1111101101100111
1111111111101100
1111111001000000
1111110100101111
1111111111001011
1111110010000110
0000001000100110
0000000011100111
1111111101000000
0000001110111011
0000010100011100
0000001001100000
1111111001000000
1111111011000100
1111111111000010
1111111111010111
0000000000011101
1111111111101111
0000000000000101
1111111111001111
0000001001100010
0000010011000011
0000000110101010
0000000110000000
1111110111110101
0000010011110001
1111111010011111
1111101100001100
1111101010101111
1111110101000100
0000001001101001
1111111010011100
1111111111110011
0000001101000100
0000010110110010
0000010001110000
0000000001010001
0000001110100101
0000001110011011
0000010001111000
1111111110000100
1111110110011100
0000000001110110
1111111110011001
0000000000011011
1111111111011110
0000000000000011
1111111111101100
0000000110110000
0000001010101001
0000000100011001
0000000100110010
0000010000111100
1111110110011111
0000001001010110
0000000100001100
1111110100100001
1111111011001110
0000100001011101
0000000111011100
1111100101010000
0000011000000010
0000011001110000
1111111111110001
0000001000100010
0000001010100000
1111110011011001
0000001000010011
0000001010101000
1111110100110100
1111111111110100
0000000110011110
0000000000010011
1111111111100011
0000000000010000
0000000000011111
0000000101010010
0000001101010011
1111111110001010
1111110101101011
0000000101001000
1111101101010100
1111110011000011
1111100011000011
1111010110001100
1111110110010011
0000100100001000
0000001011010101
1111100101000010
0000000001100110
0000001010000001
0000001111110010
0000100001110011
0000000100011101
0000000001011111
0000011011111110
0000000100101100
0000000100100010
0000000100101100
0000000000111110
0000000000000000
0000000000011010
1111111111110110
0000000000110110
0000000011000010
0000001000111100
1111110110011000
1111101011100101
1111110101110110
1111110010111100
1111101111010100
1111101001101011
1111101110011100
0000000000010110
0000010011001110
0000011001100110
1111101000101001
0000000110110101
1111110000100000
1111111011100010
0000001001100101
1111101110111100
1111110110111000
0000001100100101
0000001000010010
1111111010101100
1111111000110100
0000000010001000
1111111111110110
1111111111101110
1111111111110101
0000000000000000
1111111011111000
0000000011001010
0000001100010011
1111101011111101
1111110111000011
1111111110001111
1111100110100100
1111100110101111
0000001000000001
0000010001111110
0000100101110111
0000011100000111
1111100101010010
1111100111110001
1111101010011000
1111101111010100
0000000000011001
1111101101010001
1111110001001001
1111111011111111
1111111011110110
1111110000110100
0000000010001010
0000000111011010
1111111111110111
0000000000010001
1111111111010111
1111111111000001
1111110011010010
1111101111101100
0000000010100110
1111111101100010
1111110100110000
1111101110000011
1111110011000100
1111100110111111
0000000011100000
0000101001010011
0000110010110110
0000001011100100
1111111101100011
0000010001111001
1111110011011001
1111111100100110
0000000001001000
1111111010100111
1111110011000011
1111110110101100
1111100111010011
1111111010100011
0000000010110101
0000000011110111
0000000000100101
0000000000000111
1111111111001001
0000000000000101
1111110110010110
1111100000110110
1111101101000010
1111111100100011
1111011101110111
1111111010010110
1111101110001000
1111101010011100
0000010001001000
0000011110000001
0000101011100010
0000011101000010
0000000100110001
0000000000101100
1111111000101111
0000001101010001
1111111100101011
0000001011101001
1111111011010000
1111101100111000
1111111000100011
1111110110100010
1111111011101111
0000000101100001
0000000100011001
0000000000110011
1111111101111111
1111111111000101
1111110110011101
1111011110110110
1111110001000010
1111011111010100
1111011010110011
1111101010110110
1111110010010011
1111110100001011
0000001011001000
0000100101011110
0000011100101011
0000010101101001
0000000000010111
1111111000110111
1111110111111000
1111110111010100
0000001000001010
1111111101001001
1111111111100101
1111101010101010
1111110111000000
1111110110110110
1111111111100000
0000000110000001
1111111111100101
1111111111001100
1111111111101110
1111111111011000
1111111000010110
1111101011100110
1111101111100100
1111100011011010
1111011101011101
1111111100100101
1111111101000010
1111100000011101
0000000010101010
0000010111100011
0000011011001110
0000101111011000
0000011100100101
1111111101101010
0000001000101100
0000000011011100
0000001001101100
0000000001011111
1111101101011110
1111111001011100
0000000001001011
0000001111100100
0000001000100010
0000001010010000
0000000000111101
1111111111111101
1111111111000000
0000000001101000
0000000000011111
1111111011001000
1111101010011011
1111110101110010
1111110010101101
1111101100010100
0000000101011100
0000000101100101
0000000110010110
0000011000110001
0000010110101111
0000011111111011
0000011111001001
0000010010011110
0000000001010011
0000001001101100
0000001111101100
1111110100000010
0000000100111000
1111111011001110
0000001001111100
0000001010111111
0000001001011111
0000000100111101
0000000000011100
1111111111111011
0000000000100001
0000000000100011
0000000100000101
0000000110110001
1111111101101100
1111111001101010
1111110101101001
1111111001100111
0000000100000001
0000000011101010
0000000001100011
0000001001111010
0000011010000101
0000101000101001
0000101101011001
0000000110000110
1111111100000000
1111110111100010
0000000011111011
1111111010101101
0000010010100110
0000000000000110
1111111001110011
0000000001111011
0000000101000010
0000000001100011
1111111111100000
1111111111111010
1111111111100111
0000000000011110
0000000010000101
0000001100000001
0000010011000001
1111111101100010
1111111110100000
0000010000000110
1111111110111110
0000001111111000
1111110001111000
1111110101111000
0000001100101111
0000101010100011
0000100110111110
1111110101100011
1111100100001111
1111111101000000
1111110101011110
1111110000011110
0000000011001100
1111111011111000
0000001101000010
1111111110000111
0000000100111101
0000000000010010
0000000001000000
0000000000000110
0000000000000100
1111110111101100
1111111001100011
0000001100110000
0000010001010000
0000000110000100
1111111111111110
1111111100010111
0000000001010010
1111110111010001
1111011011110101
1111101011001111
0000010110100100
0000101100001100
0000100100100101
1111101010111000
1111110110011011
1111110101110001
1111110011101011
1111111001100010
1111111001000101
1111110111110010
0000001010000101
0000000001111100
0000000011010110
0000000001000111
0000000000011010
1111111111011011
0000000000111110
1111111011110100
1111111110011100
0000000111001000
0000000011111000
1111111101010111
0000100011100101
0000000010100011
1111111110010101
0000000001011011
1111111100100101
0000010011001000
0000100011001010
0000001101010010
1111111101100110
1111001111101101
1111111110001110
1111111100001001
1111111101100111
0000001110001101
0000010100000110
1111111110000000
0000001001100100
0000000010011010
1111111011011010
0000000000110111
0000000000011100
0000000000000000
0000000000011111
0000000101111100
0000001010110111
0000000111111111
1111110101010111
1111111111111011
0000000011010110
1111101101010100
1111110101010100
1111111011001000
0000001110001100
0000000110100111
0000011010101111
0000010011010101
1111101011101100
1111100100110001
0000000010101000
1111110000000100
1111111010011110
1111111100010110
1111111001111010
1111111011101110
0000000101001010
1111111010000111
1111111111111010
0000000000001101
0000000000100001
1111111110110101
1111111111011110
0000000110101100
0000001000010101
0000001001010111
1111111001111011
0000001011111100
0000001110011111
0000000100011111
0000010011001101
0000010100010010
0000010010110110
0000011001001010
0000010010011100
1111101001001110
1111111000110000
1111110010110001
1111111100111111
1111100101100111
1111110111001010
0000001010101011
1111101101111101
1111111000101110
1111111111100010
0000000101101111
0000000001101011
1111111111100111
1111111111111110
0000000000010100
0000000000011000
0000000000101000
1111111111100011
0000000011000011
1111111010101101
1111110101011010
1111111001111010
0000000010100011
0000010000110010
0000011011111000
0000001111111110
0000010101110010
0000010110100111
1111101101001000
1111100111110110
1111100111000001
1111011111100000
0000000010100101
0000001101010110
0000000100010011
1111111001011001
1111111010101010
0000000011110010
0000000001110010
0000000001110110
0000000000100101
0000000000010101
0000000000111010
0000000000110101
1111111111100000
1111111111001011
0000000000011110
1111111101101000
1111110111000010
1111110001110000
1111110101111101
1111111010100000
1111110111100101
1111111110111010
0000001000111111
0000011011000101
0000000011000011
1111100100010000
1111101010000010
1111100010101000
1111110011011001
1111111110000001
1111101001010011
1111110001011001
1111110111111001
1111111001111001
0000000011101000
0000000010010001
0000000001001000
0000000000011011
0000000000001110
1111111111110101
0000000000100100
1111111111110110
1111111110011011
1111111111001101
1111111111010110
0000000100000000
0000000101000011
0000000010110111
0000010001100001
0000001100000110
0000011011110000
0000001111100101
1111111000100000
0000000000001110
1111111111100111
1111110010101110
1111110001001001
1111110101011111
1111110100000110
1111111000011011
0000000001000011
0000000001011111
0000000000001101
0000000000000110
1111111111110010
0000000000010111
0000000000000101
0000000000001011
0000000000000010
1111111111110110
1111111110110110
1111111111010101
1111111111110100
1111111111110011
1111111111111000
1111111100101001
1111111100101111
0000000000111010
0000000000111001
0000000001000110
1111101111001111
1111101100100110
1111110001111011
1111110010101001
1111110111110011
1111111000111001
1111110101011001
1111110110001110
1111111101000010
1111111111010011
0000000000100000
0000000000011000
0000000000010010
0000000000110111
0000000000000100
0000000000010110
0000000000000000
1111111111110000
1111111111100000
1111111111000010
0000000000001110
0000000000000110
1111111111111101
0000000000111110
1111111111100001
0000000000000110
1111111111011011
0000000000011101
1111111011111110
1111111101101100
1111111110111011
1111111111111110
1111111101111110
0000000000011101
1111111110100010
1111111110010100
1111111110001110
0000000000100000
0000000000110001
1111111111111110
1111111111111101
1111111111111001
