1111111111001001
0000000000001000
0000000000001100
1111111111100011
1111111111011110
0000000000011100
0000000000000000
0000000000001011
1111111111010011
1111111111100110
1111111111100010
0000000000100110
1111111111000110
1111111111101101
0000000000010011
1111111111011001
1111111111110011
1111111111101001
0000000000001111
1111111111010101
0000000000110111
1111111111101100
0000000000000101
1111111111011011
1111111110111110
0000000000110001
1111111111111000
0000000000010110
0000000000000100
1111111111100110
1111111111111010
0000000000001111
0000000000100110
1111111111011101
0000000000001110
1111111111010111
1111111111111001
0000000000001010
1111111111101111
1111111111101011
1111111101010101
1111111101111101
0000000001000011
0000000001011101
0000000011100011
0000000000101111
0000000000010101
1111111111110000
1111111110100011
1111111110111011
0000000000111000
0000000000101110
1111111111101011
0000000000000010
1111111110111001
1111111111110111
1111111111111010
0000000000011110
0000000000001101
0000000000101100
0000000000110011
0000000000010001
0000000000011101
1111111110100010
0000000000111110
0000000001011100
1111111110111001
1111111101001010
0000000001010100
0000000110011011
0000001000010011
0000000111100001
0000000110101011
1111110111010000
1111110101110000
1111111011011110
1111111110100100
1111111011010001
1111111110101100
1111111110100100
1111111111110100
1111111111110010
0000000000000110
0000000000000010
0000000000001110
0000000001000000
0000000001000110
1111111111001111
0000000000011001
1111111111001000
1111111111011101
1111111111010101
0000000000111110
1111111111100010
0000000100011000
0000000110110101
0000010100110000
0000010001001100
0000000001100011
1111111101100001
0000010010111010
0000011100101110
0000000100100001
1111111011111010
1111111111010010
1111110001111010
1111110010000101
1111110100010110
1111110111100101
0000000000010100
0000000000100111
0000000000000010
1111111111011010
0000000001000100
0000000000010101
0000000000100011
0000000000111010
0000000001011101
0000000010011100
0000001000001101
0000011010011011
0000011101111011
0000011010100011
0000010000101110
0000001111011100
0000010101100110
0000001110001001
0000001110001110
0000001111011010
0000000100111011
0000010100101000
0000000111111000
0000001001101101
1111110111100011
1111110010101111
1111100101101001
1111110000111101
1111111011100011
1111111111111111
0000000000010000
0000000000001111
0000000000010001
0000000000001100
0000000000111110
0000000001100111
0000000010000001
0000000100011000
0000001101111101
0000010100001011
0000010110111000
0000010111011110
0000001101001000
0000010011001110
0000001001111001
1111111110010010
1111111000010011
0000001101001101
0000010111100111
0000010011101110
1111111101111110
0000010100101000
0000000011001101
1111111000000010
1111110100000001
1111110010100100
1111111001110010
1111111111101111
1111111111111000
0000000000000000
0000000000001100
1111111111111011
0000000010010111
0000000101110110
0000000101101110
0000000100010111
0000010000000100
1111110110011011
1111111100001110
0000011011110110
0000011001000011
1111111110001100
0000011111000011
0000011100100001
0000001001000000
1111111001011000
0000000000011010
0000011011111000
0000010010000010
0000001011001110
1111111111100100
0000000110110110
1111111001011010
1111111011001001
0000000000001100
0000000001100010
0000000000111011
0000000000110011
0000000001001110
0000000000100100
0000000100111001
0000001000110110
0000000100111011
1111111111101011
1111111101110010
1111110110111101
1111101000101010
1111101011010100
0000011101001011
0000001110011111
0000000011011111
0000011011111111
0000001110010001
0000001000101001
0000000010010011
1111111010011110
0000001000011000
1111111111011010
1111111100010110
1111111001011101
1111111011110011
1111110001111100
1111110110100011
0000000010000010
0000000000110011
0000000000111001
0000000010101110
0000000000100001
0000001000110111
0000000100001110
1111110110111111
1111110011000110
1111110111000101
1111111100001011
1111111010100100
0000001101110010
0000000001001111
0000000010101000
1111110111000101
1111110111101100
0000000100100001
0000100000010101
0000010100101110
0000000001100000
0000001101000011
1111110000111110
0000000101001111
1111110111100010
1111111000010010
1111101000101001
1111111100101111
0000000001101011
0000000001000110
1111111111111101
0000000001101101
0000000101100101
0000000010001000
1111110101010000
1111011110101011
1111011111000001
1111100010101101
1111011110101110
1111010101011000
1111001000011011
1111001010001010
1110111001111000
1111000110010001
1111011111100000
1111111011001100
0000010010000010
0000000111110010
0000010011011101
1111111001011110
1111110100001001
1111111011111111
0000001001000001
1111110011101111
1111110000000101
0000000101001010
0000000000001101
0000000000111110
1111111111111000
0000000010110010
0000000111001101
0000000001011111
1111100111010000
1111001110100001
1111000111001010
1110110001100111
1110010101010010
1110100000101101
1110101110101110
1110101010111100
1111000110111010
1111111000110100
1111110011100000
1111101000111101
0000001101101010
0000011101111110
1111111101000010
1111111001011010
0000010011100001
0000000101010000
1111111000000100
1111101010011101
1111110111000000
1111111110010110
0000000000101110
1111111111011000
0000000000010110
0000000001101111
0000000111011110
0000000001010011
1111101001011011
1111010000100110
1111001101000110
1111001110011011
1111001001000100
1111011101110110
1111100110011011
1111110110001110
0000000011111110
0000000001011101
0000010010010100
0000010011111000
0000000010000110
0000010101010100
1111110111111000
0000000100100010
0000010001101110
1111111111000011
1111110101010101
1111110010110101
1111111000010010
1111111011100010
0000000000000010
1111111111010111
0000000000011110
0000000000011101
0000000011101000
0000000000111000
1111110000111011
1111101000011011
1111100100111001
1111111001011000
0000001010100000
0000001010101001
0000011111100000
0000011110101110
0000011001100110
0000000100001110
0000010011011000
0000000011100101
1111111011101011
1111110011100011
1111111100100010
0000000010010010
1111111101100101
1111110110100100
1111111010111001
1111110010100000
1111111011100100
0000000010101110
0000000001110110
0000000000010111
0000000000010000
0000000000010100
0000000011010100
0000000101011110
0000000000101000
0000000111000010
0000001011001110
0000001110101111
0000100001111111
0000011011010010
0000011010001101
0000010110000100
0000001110011100
1111111111110100
0000001101111001
1111111001101110
1111111001000111
1111101101010010
1111111111001111
0000001010101010
0000010110111101
0000000001001111
1111101110010111
1111110110000100
1111111110010101
0000000010011000
0000000000101000
0000000000010101
0000000000010011
1111111111010110
0000000001011101
0000000110011000
0000001101100101
0000010101110111
0000110101111101
0000110011110001
0000101000000011
0000010000101011
0000010100001011
1111111100010001
1111101111001001
1111101101111110
0000010000100011
1111111111101001
0000000011100111
1111111000001100
0000000100110000
1111110111010101
1111111001001101
0000001010011010
1111111011110001
1111111010111101
1111111010100100
0000000001100100
0000000011001101
1111111111100111
0000000000110010
1111111111111100
0000000000000110
0000001011011001
0000011010001010
0000100001001000
0000100001110011
0000001111110011
1111101101101110
0000000001101100
1111101010111010
1111110010011011
1111111101100111
0000001010001111
1111110110111010
1111111011101001
1111111101111101
1111100101101110
1111110011110100
1111110101100001
1111011111001011
1111101101101010
1111110011111100
1111110110101110
1111110101100000
0000000010000010
0000000010110111
1111111111011101
0000000000001010
0000000000000100
0000000010010000
0000010010001110
0000001111000000
0000000111110111
0000000011101000
0000011011010011
1111111011101101
1111110101011000
1111111101101100
0000000100111001
1111111010011010
1111110110101111
0000000101010101
1111110010111000
1111110001011110
1111110001110101
0000000101101001
0000000010001000
1111101100000111
1111101110000001
1111110100100110
1111110111110101
1111110111000001
0000000010010111
0000000011101101
0000000000101011
1111111111011111
1111111111110001
0000000010110110
0000001010010011
0000000000001010
1111111110000110
1111111000110110
1111111000001011
1111101110101010
1111110000110011
1111101000001010
1111111001100101
1111101111100111
0000000010000111
1111111001111101
1111111010011100
1111110110001001
1111110011001111
1111101110011011
0000000001001010
1111110001000111
1111110011001100
0000001100110101
1111111100000011
0000000001001100
0000001101111001
0000000010110011
1111111110111001
1111111111111010
0000000000000110
0000000010111111
0000001110111110
1111110010100100
1111111100110110
1111110101011101
1111111101000001
0000000100011110
0000001011011000
1111110111111111
0000000011001100
1111110111010000
0000001001110110
1111110011010110
1111111010100111
0000000000010000
0000001001111111
1111111110000000
0000001001100010
0000010110111111
0000010000001111
0000010001011111
1111111111000001
0000001000011111
0000001100101111
0000000001110111
0000000001011001
1111111111001111
1111111111010101
1111111000101111
0000001011100111
0000000111111000
1111111110000000
0000000000111111
1111110110111011
1111101001010000
1111111001011100
1111110100001100
1111111110000001
1111111111100000
0000010000011010
0000001001000110
1111111110000000
0000011001101101
0000010101101000
1111111100110010
0000001110001000
0000001000100100
0000000110100110
0000000011011111
1111111010100100
0000000001100000
0000000111010111
0000000001001011
0000000001000111
0000000000111100
1111111110011110
1111111000011111
0000000011100100
0000010000001100
1111111011100111
1111111110101010
1111101100110001
1111111110010101
0000000011110101
1111111011110000
1111111100011011
0000001100001011
0000010001100000
0000001010110100
1111110010000111
0000001100111000
1111110001111001
0000001101110111
0000000000000000
0000000010000100
1111111011100001
1111111110100111
1111111011101100
0000000101011110
0000000100100010
0000000001000000
0000000000000111
1111111111100101
0000000000001100
0000000010111001
0000000011100000
0000000000111011
1111111111001000
0000000100110110
0000000010001011
1111110000101011
1111101111011110
0000001101010101
1111110010010101
1111101010011110
1111111001111000
1111111010011100
1111100100110100
0000001011011000
0000000100100111
0000001101110110
0000000011111010
0000000010001101
1111111000000000
1111111011011000
0000000110111111
0000000111110101
0000000001011100
1111111111000000
0000000000100000
1111111111110110
0000000000000100
0000000001000110
0000000001010101
1111111111011100
1111111111110000
1111111111011000
0000000110100110
1111110011111000
1111100100110100
1111111001111101
1111110010001011
1111110111100100
1111110010011011
0000001011101010
0000001010100000
1111111000011010
1111111001110010
1111101111011110
0000000100010101
0000000110110100
1111110011011111
1111111001100010
0000000001010010
0000000000000001
1111111111111101
1111111111101110
0000000000011001
1111111111111001
1111111111111000
0000000001000101
0000000010101011
0000000001001001
0000000000010000
1111101001010001
1111110000101101
1111110011100100
0000001001011011
0000000010001011
0000000000110010
1111111001010111
1111110101011011
1111111110100101
1111110100100110
1111110101000111
1111111001111001
1111101101001011
1111110010011110
1111111011110000
1111111111100111
0000000101100110
0000000111001101
1111111111001011
0000000000000101
0000000000111101
0000000000100010
0000000000010011
1111111111110101
0000000000010111
0000000001101010
0000000000111110
1111111111111111
1111111011000001
1111111011000110
0000000100011111
0000010110010000
1111111101111001
1111111010111111
1111110011001001
0000001011110111
0000011100110000
0000000100001011
1111110011110100
1111111011110111
1111110000010011
1111110010100101
1111111000000111
0000000100011011
0000000001000100
0000000101000001
0000000011010101
0000000000010010
0000000000011001
0000000000001011
0000000000011111
0000000000010000
1111111111011001
0000000000000000
0000000010111111
0000000000010101
1111111100001011
1111110111000001
0000000100001011
0000001101000100
0000000100110011
1111111111011010
0000010011100001
0000010011011101
0000001011101110
1111111100000011
1111110101000011
1111111110110111
0000000100110010
0000000010011110
1111111010010000
1111110110011000
1111111101110011
0000000000011010
1111111111011010
1111111111100111
1111111111110011
0000000000100001
0000000000000111
1111111111011111
1111111111101111
0000000000010001
1111111111001110
1111111111011001
1111111100110101
1111111010011010
0000000101110111
0000000101110001
0000000111100011
0000000100110101
1111111010111000
1111111110010101
1111111011111101
1111111111010010
0000000100101110
0000000011010100
1111111110000111
1111111111100001
0000000000001111
0000000000001000
0000000001011100
1111111111110111
1111111111111110
0000000000000111
1111111111111110
1111111111101000
0000000000110010
0000000000100101
1111111111100110
0000000000111001
0000000000010101
1111111111110100
1111111111000110
1111111100110110
1111111100111111
0000000000010010
1111111111101011
1111111111111100
1111111110011100
1111111110101100
0000000000011000
1111111111011111
0000000001000000
1111111111110111
1111111111010100
0000000000000010
0000000000101001
1111111111110111
0000000000100010
1111111111001100
1111111111110010
0000000000110101
0000000000110101
1111111111010001
