0000000000100001
1111111111111000
1111111111000101
0000000000001100
1111111111100011
0000000000000011
0000000000100000
0000000000001001
1111111111100100
1111111110101111
0000000001011001
1111111111010010
1111111111011100
1111111111110000
1111111111110100
1111111111110101
1111111111111101
1111111111110011
0000000000101010
1111111111110101
1111111111100111
1111111111100010
1111111111111100
0000000000000111
1111111111101001
0000000000000000
1111111111100010
1111111111011011
0000000000001011
0000000000011110
0000000000011000
1111111111110111
1111111111111110
0000000000101001
0000000000100101
1111111111111111
0000000000100110
1111111111111110
0000000000111110
0000000000101001
0000000000111010
0000000001010011
1111111111110001
1111111111010100
0000000000010000
0000000000100110
0000000000001001
0000000000111001
0000000000101010
0000000000100110
0000000000110111
0000000001101110
1111111111111111
1111111111111001
0000000000011000
0000000000001110
1111111111101000
0000000001011111
1111111111110001
0000000000001111
1111111111101010
0000000000000011
0000000000101001
0000000011001101
0000000011110001
0000000100010110
0000000110101100
0000001000101010
0000001011111001
0000001110101110
0000001110010110
0000001000001100
0000001000001111
0000000100100111
0000000000000000
1111111111101000
0000000000001000
0000000000011110
0000000010101100
0000000000100010
0000000000011101
1111111111101111
0000000000100101
0000000000011101
1111111111110110
1111111111110000
0000000000010110
1111111111011100
1111111111111011
0000000000011100
0000000111011101
0000001011001000
0000001010111101
0000001101000101
0000001110011111
0000001100110110
0000011110000000
0000100111111110
0000101000001011
0000010000010000
0000001110101000
0000010010010100
0000000111010111
0000000110100100
0000000110110011
0000000010000001
0000000110011100
0000000100100001
0000000100100001
0000000010001100
0000000001100001
1111111111101010
1111111111010100
1111111111010101
1111111111001100
1111111111101100
1111111111001011
1111111111100110
0000001000000100
0000001010101110
0000000110000010
0000010010100101
0000010001011100
0000000001110110
0000001000011011
0000000000111111
0000001110011000
0000010001111011
1111110110000100
0000000001001100
1111111001001100
1111111110100100
1111110111010110
1111111110101100
0000010000100001
0000000111110101
0000000111000110
0000000011111001
1111111111000011
0000000010000101
1111111111010111
0000000000101001
1111111111110110
1111111111110011
0000000000000000
1111111010001110
1111111111000001
1111111011011000
1111111010001000
0000000110000000
0000001101001011
1111111010100001
1111101111000101
1111110101010100
0000000000000111
0000000111010111
1111110001000010
1111100110111001
0000010011010000
0000000111101001
1111111011100111
0000000010011100
0000000000011000
0000010010101001
0000001100000001
0000000011100000
0000000011011011
0000000001110001
1111111111110010
0000000000101100
0000000000111011
1111111101011111
1111111101100101
1111111000001101
1111111001111001
1111110010001111
1111101111010000
1111111100011011
1111111101111101
1111101011110000
1111111010110000
1111101110110011
0000001010000111
0000001001010110
0000010011101110
0000000111010101
0000011001010111
0000000000001100
0000001010000010
0000000111110011
1111111111101001
1111110100111000
0000000000001001
1111111111101110
1111111111011001
0000000000111001
1111111111100100
1111111111101111
1111111110010111
1111111011010011
1111111100101000
0000001100100110
0000000010001000
0000000010010111
1111111101010100
1111111010000111
0000000000000110
0000001001011010
1111110000101100
1111110001010010
0000100100000100
0000001111001100
1111111010001011
0000000110011111
0000010100101101
0000000011111001
1111110110111001
0000001011100110
0000010001000111
1111111001000111
1111110101001010
0000000010010011
1111111101001001
0000000001001111
1111111111111101
1111111111110010
1111111111000100
1111111010001110
0000000010111011
0000000001100100
1111110011001110
1111111011110101
1111111110011100
0000000011010110
0000000110010011
0000000010010110
1111111011110001
1111110100100110
0000000111011110
1111111001100001
1111110001100000
1111111011110000
1111110010001111
1111110011011100
1111101100100101
1111110101101000
1111111011111101
1111110110000111
1111100001011101
1111110010010001
1111111101001001
1111111111010111
1111111111100110
1111111111110000
0000000000001001
1111111001110010
0000000001000111
0000000000011110
1111100001111010
1111101001000101
1111110011010010
1111111001100010
0000010100010111
1111110000101011
1111111001010001
1111101111101001
1111110100010001
0000000011110000
1111111110111110
1111011001001111
1111111010101110
1111101110001110
1111110100111010
1111100110100010
1111100011110011
1111101100101001
1111100011000101
1111101111001101
1111111011001100
0000000000001011
0000000000010001
1111111111111100
0000000000111010
1111111001101101
1111110110011000
1111110111100111
1111101100001010
1111110111011101
1111111100101010
0000000010110000
1111111101100000
1111111110011010
1111110101111101
1111111001101011
0000000100111001
0000000111010010
1111101011110101
1111101110110010
1111111011011011
1111110010011011
1111101001010110
0000000101001111
1111110000111111
1111101001010001
1111110101010011
1111110011111111
1111111011011111
0000000000011000
0000000000000000
0000000000000100
0000000000000111
1111111010001110
1111101111010110
1111111100101011
1111110100111001
1111110010010011
1111100101100010
1111101001101011
1111110110010000
1111111010111010
1111110101001010
1111101100001001
1111111110000101
0000000111111101
0000000101110110
1111111110111110
1111111101110100
1111111001000000
1111110000111010
0000001011010010
1111111100110001
1111110001001111
0000000101001100
1111111100001010
1111111000100001
0000000000111001
1111111111100011
1111111111100010
1111111111011001
1111111101100010
1111101111100010
1111110110010000
1111101111100111
1111101110011001
1111101010110000
1111111011100010
1111101010100011
1111110001100110
1111110001011011
1111101010000010
1111110010010111
0000000111010010
0000000101110010
1111111000001110
1111110011010101
1111111011101011
0000000010000110
0000000010111101
1111110000100110
1111110110000110
0000001010100110
1111111101101110
1111111010011110
1111111111110111
1111111111110101
1111111111111000
0000000000001000
1111111011110001
1111110000100100
1111110001001011
1111101011110101
1111101111011011
1111100100101101
1111101010101110
1111110111011000
1111101001110000
1111110001100101
1111101000111010
1111110000111110
1111100101110100
0000001010001001
1111111111110111
0000000101110100
0000010001010100
1111101110011001
1111111000111011
0000000010110000
0000010101100001
0000001001000001
1111111100001010
1111111101011111
0000000000101101
1111111111011010
1111111110000101
1111111101111110
1111111101010010
0000000010100000
1111101110110010
1111110000100011
1111101111101000
1111100110111000
1111100011011000
1111101101000100
1111110110011100
1111110100010010
1111101010011100
1111101100111001
1111101101110111
0000000011011111
1111110000000000
0000010101010101
0000000010110010
1111111010011011
1111111101010110
0000000000000001
0000001100100000
0000000101101110
0000000000010001
0000000000111010
1111111111010011
1111111111111010
1111111100101010
1111111101010011
1111111101100111
0000001101111100
0000000100010100
1111110101100101
1111110101101000
1111110000101000
1111010100011000
1111011111111010
1111100010000110
1111011111011100
1111101011001001
1111100001001100
1111110000011011
1111110110110010
1111110010110010
1111110111011101
1111111010011101
0000000111010100
1111111100000001
1111110100100000
0000001110110111
0000001100110000
0000001001000101
0000000110001110
0000000000101011
0000000000001101
1111111110111110
1111111011011110
0000000001110010
0000001111101001
0000010110101101
0000010000011010
0000010111110111
0000000001010001
1111111010111101
1111110011111011
1111110101110110
1111011001101101
1111011100000011
1111100110100101
1111110000011010
1111110101011110
1111110001001010
0000000110011010
0000011110101100
0000010110010010
0000000001010010
0000000010101101
0000011010111001
0000010000000110
0000001111100010
0000000011111111
1111111111110010
1111111111100111
1111111111010110
1111111100001001
1111111111101000
0000010100100110
0000100101111000
0000011111011001
0000100100100111
0000011101000001
0000000000010001
0000011010101001
0000000110100101
1111110110101010
1111100010111010
1111101101110011
1111111100111000
0000000101010110
0000001110100011
0000010001101100
0000100001101010
0000001101011110
1111110100110010
0000000110100000
0000010000010000
0000001001000011
0000001011101100
0000000000010110
0000000001011111
0000000000010001
0000000000001000
1111111110000100
0000000010010010
0000011110100001
0000100001001101
0000011110101010
0000101100001000
0000110001111001
0000101111000101
0000110001111000
0000001011110000
0000010100101111
1111110100101001
1111110010000110
0000001001111010
0000010101110010
0000110001000000
0000011011101011
0000010101000011
0000000101011101
0000000111110101
0000010010000111
0000010010101010
0000010000000011
0000000101100000
1111111110111100
0000000000110100
0000000000011011
1111111111111000
1111111111000010
0000001011010101
0000011001111000
0000010110010111
0000011100101001
0000011011110111
0000100110101011
0000100011010010
0000011010010111
0000110111111001
0000111011100101
0000011110101011
0000011001101110
1111110111001000
0000001100111001
0000010000001000
0000000110000100
0000000101101111
0000010100001010
0000010110011101
0000010001110000
0000010111001000
0000001101001010
1111111111100010
0000000000100100
0000000000001010
1111111111011111
0000000000110101
1111111110011110
0000000101110111
0000001110010101
0000010011110000
0000010011011011
0000000000100011
0000001110110110
0000001010100110
0000010101100000
0000001111110011
0000101101001001
0000010111010000
0000001010011101
0000000101111110
0000010011010011
0000001001010010
0000000110111100
0000001010111110
0000010111000101
1111111001110100
1111111011111000
0000001111000011
0000000111111011
1111111101011101
0000000000111011
0000000000001110
1111111111011011
0000000000001011
1111111110101100
0000000000101011
0000001000101011
0000001010010110
1111111000000110
1111111101101001
0000001000010110
0000000011011000
1111110010001111
1111110101111101
0000010101101000
0000010111110011
0000011111101010
0000001011010101
0000000000100010
0000010010000111
0000010000001011
0000010100110101
0000001110011010
1111111101001110
0000000110010100
0000010011110011
0000000010011001
1111111110111111
0000000001010111
0000000000101001
1111111111101000
1111111111011001
0000000000000101
1111111110010100
1111111000100101
0000000000010111
1111011111011001
1111110001101100
1111110100100110
0000000100011100
1111111100010110
1111101110100100
1111110111000011
1111111000100000
0000010011000000
0000001001001011
0000011100111111
0000000100111000
1111111011011111
1111110101000010
0000001101011101
0000001100000111
0000000100101111
0000001101010111
0000000001011111
0000000000000110
0000000000000000
1111111111110010
0000000000101010
0000000000000000
0000000000100001
1111111110001001
1111110010101001
1111110010000010
1111110101100001
1111101110110101
1111110011111100
1111111111101110
0000000010100010
1111110111110101
0000000010011100
1111111111011010
1111111110001001
0000000101110101
0000000011110110
0000000111111010
0000000100001111
0000001010001010
0000010000110011
0000001101111011
0000000111001010
0000001000111100
0000000011000000
0000000001100010
0000000000101010
0000000000001000
1111111111111001
0000000000010111
1111111110011110
1111111101110100
1111111000111010
1111110101100000
1111110110111110
1111110001000001
1111111110011101
1111111100010101
1111101100001010
1111110101011100
0000010100001111
0000001100101010
0000001010010011
0000010000110010
0000011011011110
0000010111101100
0000001100110111
0000001110001100
0000010000111001
0000001000110110
0000000100111010
0000000110000000
0000000111111011
0000000110110111
0000000001000010
1111111111101001
0000000000100100
0000000000010011
1111111111111011
0000000000000110
1111111110100111
1111111011001111
1111111011000100
1111111001000111
1111101111110101
1111100110000110
1111101101101111
1111110101101100
1111110110100001
1111110100110011
1111111111111101
0000000100100001
1111111110100010
0000000001110100
1111111100101110
1111110110010110
1111110101000110
1111110111110011
1111111010100011
1111111110000011
1111111111111001
0000000000011010
0000000001000100
0000000000011001
1111111111001100
1111111111100100
0000000000001111
0000000000000001
1111111111100001
1111111110010110
1111111110110001
1111111101101100
1111111011101000
1111110110111110
1111111101011111
1111111100111111
1111111101100011
1111111001101101
1111110101010100
1111110110101011
1111111000100001
1111111000101100
1111111010100001
1111111101001000
1111111100100010
1111111000111101
1111111011000110
0000000000010010
1111111110111110
0000000000010001
0000000000011001
1111111111010101
0000000000001100
0000000000001110
0000000000101100
1111111111011001
1111111111100101
0000000000011011
1111111111101110
0000000000001101
1111111111111001
1111111111111011
0000000000011001
1111111110101100
1111111111001110
0000000000000110
1111111111110110
1111111111011011
1111111111001111
1111111110111100
1111111110111110
1111111110111110
1111111110110000
1111111110100001
1111111010011111
1111111111001111
0000000000011111
1111111111110101
0000000000010100
0000000000000000
