1111111111111001
0000000000000101
0000000000010111
0000000000010001
1111111111110110
0000000000000000
0000000000111100
0000000000001111
0000000000101110
1111111111101001
0000000000001111
1111111111110011
1111111111011001
1111111111101010
0000000000010001
0000000000111110
0000000000000000
1111111111111000
0000000000001110
1111111111100111
1111111111110110
0000000000011111
0000000000010111
0000000001000011
0000000000100011
0000000000001001
1111111111110000
1111111111101000
1111111111110011
0000000000011001
0000000000011100
0000000000011111
1111111111011111
1111111111101100
1111111111101101
1111111111001011
0000000000100111
0000000000011111
0000000000011111
1111111111101111
1111111111111001
0000000000001111
1111111110000101
1111111110001001
0000000011010101
0000000010100110
1111111111001011
1111111111110111
1111111111000000
1111111110111100
0000000000010001
0000000000011011
1111111111110001
1111111111000000
0000000000101100
0000000000010110
0000000000000010
0000000000010101
0000000000010100
1111111111101011
1111111111100111
1111111111111111
1111111111100110
1111111110000100
1111111110010010
1111111101000101
0000000000010000
1111111111000100
1111111100010101
1111111011000010
1111111001010001
1111110111011001
1111111110011101
1111111011110111
1111111000100010
1111110110100100
1111111010101001
1111111011010010
1111111101111001
1111111111000110
1111111111101011
0000000000001010
0000000000011010
0000000000110111
0000000000011011
1111111111110000
1111111111101111
0000000000010011
1111111111011011
0000000010011101
0000000001100101
0000000000011101
1111111110100000
1111111101110100
0000000010100111
1111111010010110
1111111011110111
1111111110110101
0000000001000111
0000000101000010
0000000100001000
0000000101010011
0000000001100010
1111101110111011
1111111010001100
1111110001011101
1111110100000000
1111111100101010
0000000011001010
0000000011110011
0000000000001001
1111111111110000
1111111111111001
0000000000000010
1111111111011110
0000000000101111
0000000000100010
0000000001011100
1111111111000100
1111111101010011
0000000001101010
0000000111110100
0000000011000100
1111111110001111
0000000110000001
0000001000110000
1111111010100110
1111110011100100
1111100111110010
1111101101101000
0000001101001100
0000000011110101
1111111001011110
1111110011000101
1111110110010000
1111111110001010
0000001000010101
0000000001001010
0000000000000000
1111111110101100
1111111111000100
0000000000110000
1111111111100110
0000000000000000
1111111111010101
0000000001101100
1111111101010000
1111111100101111
0000000010001111
1111111011011100
1111110010011111
0000000011101000
0000000100001001
0000010100001110
1111111011110001
0000001000010101
0000000111010001
1111111011100111
0000000101000110
1111110101111000
1111110000110011
0000000001111100
0000001000101110
0000000111011111
0000000110111000
1111111101100010
1111111100111101
1111111111000000
0000000000000000
0000000000001110
1111111111110011
0000000000000011
1111111110110110
1111111110001001
1111110101101010
1111101011111000
1111110110111011
1111110110010100
1111111001100010
0000000001001010
0000001111101011
0000000001000110
1111111000011101
1111100000110011
0000000100000000
0000000010101100
0000001111001110
0000001010111100
0000001000111101
0000010000011100
0000001110010101
0000000101100101
0000001011101010
0000000001100111
0000000010000011
1111111101101110
1111111111100010
0000000000100011
1111111111001111
0000000000110110
1111111111000100
1111110110001010
1111110100111100
1111101010100110
1111101000100111
1111100011100001
1111101110000001
1111110100000010
1111111011100010
1111101110010111
1111111001011001
1111101101101100
1111111000111001
1111110010100100
1111111001010010
1111111100101100
0000000010001111
1111100111000110
0000000010111010
0000001010100100
0000001100110100
0000000111101101
0000001000000010
1111111111011010
1111111111111010
0000000010001101
0000000000101100
0000000001011100
1111111101001011
1111110011111111
1111111011110100
1111110010001110
1111101110101010
1111011100100100
1111100100101101
1111011000010011
1111101011001001
1111011110100000
1111100111001111
1111101100000101
1111110110010110
1111110000000100
0000001100010100
0000001010001011
0000010110000101
0000001001011101
0000000110100100
0000000110010100
0000001100110111
0000001111011110
0000000111011001
0000000000111101
1111111111001100
0000000100001100
0000000010001101
0000000101010000
1111111101000111
1111111011100000
0000000101000000
1111110110000111
1111101110100110
1111011111011011
1111011000110110
1111101010011001
1111111011100010
1111101001100101
1111110111100000
1111110111011011
1111111100101111
0000001001011010
1111110111110011
1111110101001000
1111111000101011
0000000010101101
1111111101011010
1111110111110010
0000010001000010
0000010110001110
0000001010101000
0000000010100111
0000000000011100
0000000010110111
0000000011100010
0000001010000101
0000000010010000
0000000101110011
0000000010001100
1111111010001111
1111101101100111
1111111110010111
0000001011111000
0000001000110101
0000000000100010
0000011100001111
0000010001100100
0000011001111100
0000011000100101
1111101100111100
1111101110001011
1111110001001011
0000000011111101
1111110110110111
0000000000011000
0000001000101001
0000010001000101
0000011011000101
0000000101011011
1111111111101111
1111111111100001
0000000001000000
0000000110111011
0000001100111011
0000001110111110
0000001101010101
1111111001010011
0000000101010000
0000010001101011
0000001110100001
0000000011101100
0000001111101010
0000010000001100
0000011011010101
0000001011110011
0000011111000111
1111111010110111
0000000111101100
1111111011111010
0000001010000110
0000001010101001
0000000100000110
0000000010111001
0000001011001010
0000000101111110
0000001100001101
0000000001011011
0000000000110000
0000000000000000
0000000000100000
0000000011011001
0000000110101110
0000000110000011
0000001001010110
1111110000110011
0000001100100001
0000010001001110
0000001011100110
0000001001011100
0000001001001000
0000100000010000
0000001111111000
0000001010011000
0000010001001100
0000010001010101
0000001001100100
0000000110000110
1111111011010001
1111111000110100
1111110101010011
1111110101101011
1111110001010101
1111101111011100
0000000000111111
0000000010010000
0000000000000010
0000000000001010
0000000001001010
0000000010011100
0000001000111001
0000010111101101
0000011001100101
0000000111111111
1111110111110010
1111111100100111
1111110101101110
0000000001101110
0000001001011101
0000011101100100
0000000000000011
0000000110000001
1111111101111000
0000001010010100
1111110100111010
0000001000110011
1111110111100000
1111101000101111
1111101100100000
1111101100111101
1111111001000000
1111111010011100
0000000001001010
1111111110110000
1111111011111110
1111111111110000
0000000000011100
0000000001001010
0000001010001010
0000001101010111
0000001110100000
0000010001000011
1111111100010100
1111110100000100
0000000100110110
1111111001101001
1111111110011100
0000000101101101
1111101110111110
1111100110001111
1111011111010001
1111110110000111
1111111111111010
0000000011100111
1111110111001000
1111101011111001
1111110101001100
1111111000010111
0000000000001010
0000000101110000
1111111011011011
1111111111001000
0000000000010001
1111111111101100
0000000000010100
0000000001010000
0000000011110101
1111111111110101
0000000011011001
0000001011010000
0000000101010001
1111111010011011
0000001010101101
1111100010001111
1111101010111011
1111101111111111
1111101101111011
1111100111001111
1111110001111110
1111100001100111
1111110011011001
0000000100011010
0000011011010101
0000001000010011
1111111011110000
1111111000111000
0000000010001101
0000000000011010
1111111110011111
0000000010100101
0000000001000010
1111111111101100
1111111111001110
1111111111110011
0000000100001100
0000000010011111
1111110000110010
1111110101101011
1111110001001000
1111101101001110
1111001100110001
1111001010001011
1111011001101100
1111100001010010
1111100101011100
1111100101000000
1111110111100100
1111101001111101
1111110111100011
0000001011010111
0000001001101101
0000010001101100
1111111101100000
0000000000001111
1111111000101000
1111101101101100
1111110111111101
0000000000000100
1111111111110100
0000000000010010
0000000000111011
1111111101111010
0000001001110101
0000000011111101
1111111101100000
1111111010010101
1111110111110100
1111110100100101
1111100101001111
1111011110001101
1111101011100010
1111100010111111
1111011001101100
1111111010011000
1111111101011001
0000010000010111
0000000111011010
0000000000001010
1111111000011110
1111111100100100
1111111011000010
1111111011000110
1111110100000000
1111110110100011
1111111000001010
1111111111000110
0000000000111110
1111111111100110
1111111111010011
0000000000000001
0000010011101101
0000001111000010
0000010001110010
0000000100110011
1111111001011100
0000100000101110
0000011001111100
0000001100101010
0000010110000000
0000001010101111
0000010001010000
0000000110100110
0000100000001011
0000001101111001
0000001111011110
0000000001101100
1111101101100100
0000000001011010
1111111110000001
1111111011101101
1111110110001100
1111111001100011
1111111100001000
0000000000100111
0000000000000011
1111111111001101
0000000000011011
0000000000011111
0000010111101111
0000011001110001
0000010100000010
0000011000101100
0000010001100101
0000011000101010
0000001101110010
0000001000001011
0000000101010000
0000010100110001
0000011101101011
0000000101011001
0000001101111000
1111110111100110
1111111110001111
1111111100111110
1111110110110001
1111111101110001
1111100111010011
1111110000110111
1111110011110011
1111111011010011
1111111110110011
1111111111010110
0000000000000111
1111111111101100
0000000000110111
0000000000010010
0000001000111111
0000000111111001
0000000100111010
0000001001011110
1111111110011011
0000010100110110
0000010101001011
0000010001110110
0000010101101001
0000010011111011
0000100101101010
0000001101001111
1111111110000010
1111101011001100
1111111111010110
0000000101010010
1111111100101000
1111101010101010
1111100010110000
1111101110000011
1111110100100010
1111111001101101
1111111101011000
1111111111001100
0000000000000000
1111111111111010
0000000000000001
1111111111010001
1111111101001011
1111110111001001
1111110001001000
1111110010000001
0000000011101001
0000011010001000
0000000010001001
1111110111010011
0000001000010010
1111110001010001
0000000000001100
1111101001110101
1111110100100000
1111101110000101
0000000010010011
1111111110010100
1111110010111100
1111101100000010
1111101011010100
1111101101010101
1111110101000011
1111111010000101
1111111111100101
0000000000010000
0000000000001001
0000000000110010
1111111111011111
1111111111001010
1111111100011010
1111111110100110
1111101110011111
1111101100100011
1111111101011101
0000000001100010
0000010101010101
0000000011101001
0000000101010000
0000010111011101
0000000011011100
0000000001111100
0000001110001010
1111101110110111
1111101100100110
1111100011110000
1111110001010110
1111110010011111
1111110000001011
1111110111010001
1111111011111101
1111111101100111
1111111111100011
1111111111100110
0000000000000000
1111111110110100
1111111111111100
0000000000000000
0000000100111111
0000000110010010
0000000110000100
1111111001011011
1111111001010011
0000000011101111
0000000111010100
0000001111101011
0000010001110000
1111111010110000
1111100101100101
1111111101001001
1111111011010000
1111110011010110
1111101111010000
1111101111100101
1111110001011010
1111111000110011
1111110101110111
1111111000111010
1111111101101101
1111111101101101
0000000000000011
1111111111000111
1111111111110001
0000000000110000
0000000000011001
0000000000001111
0000000101011001
0000000001110111
0000001000101101
1111111111001011
1111111010101010
1111111001100110
1111101000110111
1111011111101000
1111110101101101
1111101101011111
1111110101011000
0000001110110101
1111110101001000
1111110100110011
1111111101001101
1111111010000101
1111111001100111
1111111010001010
1111111011101011
1111111100010001
1111111110101101
1111111111111100
0000000000011110
1111111111010110
1111111111001000
1111111111100100
1111111111001000
0000000000000010
0000000000011000
0000000000101111
0000000000101101
1111111110001001
1111111110101000
1111110100101100
1111110111100110
1111110111000010
0000000010010100
1111111101011111
1111111101101100
0000000101111011
1111110011100011
1111111100010110
0000000000010101
0000000010010111
0000000001001000
1111111110010111
1111111111000001
0000000000100101
1111111100101101
1111111111011110
1111111111110101
1111111111111001
0000000000010111
0000000000000001
1111111111010100
1111111111101110
0000000000110100
1111111111001000
0000000001010010
1111111111010111
1111111111101001
0000000001101101
0000000010010110
1111111101110000
0000001011100001
0000001101110101
0000001010101110
1111111010100001
1111110110000010
1111111100010001
0000000000100010
0000000000000111
0000000001101000
0000000000001101
1111111111111110
0000000001000111
0000000000000111
0000000000000110
1111111111100010
0000000000100000
0000000000000101
1111111111011010
0000000001000101
0000000000111001
0000000000000111
0000000000000111
0000000000001111
0000000000100001
1111111111001000
1111111111111111
0000000000011010
0000000011000011
1111111111101000
1111111111100110
0000000001010001
0000000000110001
1111111011110110
1111111101001001
0000000000000100
0000000000110001
0000000000001101
0000000000000101
1111111111100010
0000000001011101
0000000000101010
1111111111011001
0000000000000101
0000000000100000
1111111111001100
