1111111111101000
0000000000001110
1111111111010011
0000000000100111
1111111111101010
1111111111011001
0000000000010110
0000000000001001
0000000000000000
1111111111111101
0000000000010011
1111111111110000
1111111111110010
1111111111001011
1111111111100000
0000000000000111
0000000000001011
0000000000011100
0000000000000000
0000000000000000
0000000000001111
1111111111100010
0000000000011111
1111111111101100
1111111111100000
0000000000000010
1111111111000011
0000000000010000
1111111111111000
0000000000011001
1111111111001110
1111111110111101
1111111111110010
1111111111100001
0000000000101110
0000000001010001
0000000001011111
0000000000100101
0000000000011010
0000000010101011
0000000100000001
0000000011000101
1111111111001111
0000000000100101
0000000011111011
0000000010111010
0000000000011111
0000000000010110
0000000000011001
0000000000000010
0000000000110111
1111111111110101
1111111111101100
1111111111010110
1111111111011100
1111111111010011
0000000000001110
0000000000110110
0000000000001010
0000000000011000
1111111111111111
0000000000011101
0000000001110010
0000000001001111
0000000010010011
0000000001010011
0000000001111001
0000000110100010
0000000101010111
0000000010100011
0000000101101001
0000000101010001
0000001010000000
0000001101010011
0000001001111001
0000000110100000
0000000011011010
0000000001010010
0000000000011101
1111111111110001
1111111110011110
1111111110110111
0000000000001111
1111111111001101
0000000000011111
0000000000110100
0000000000010000
0000000000001000
0000000000010000
1111111110011000
1111111111111101
0000000001101010
1111111111010101
0000000111100101
0000001000110000
0000000101010111
1111111000010011
1111111100001011
0000010100000010
0000001100101100
0000010111110100
0000011111001100
0000011111000010
0000010000100111
0000000101100110
0000000101110110
0000000010111101
0000000001101100
1111111111101001
1111111111111110
0000000000010000
0000000000101011
0000000000000010
1111111111110111
0000000000001101
1111111111110000
0000000000001000
1111111100010000
0000000100000011
0000000011010110
1111100110000110
1111111100010110
1111110101001110
1111111011110011
1111101111001010
1111111000000100
0000001100000011
1111111100111010
0000010101110101
0000100110111101
0000011001101011
0000100110111000
0000011111111000
0000001110001000
0000001011101001
0000000100000001
0000000000110101
0000000000000000
1111111111101010
0000000000101000
1111111111110111
1111111111100010
1111111111110111
1111111100100010
1111110010001011
1111110000001101
1111111000111111
1111100101010010
1111110100110011
1111110110011010
1111111100100010
1111101101100100
1111101100010100
0000000000011000
1111111010010010
1111111100000000
1111111110011110
0000001110101011
0000010101000111
0000100011110110
0000110101100111
0000011100101111
0000010001100001
0000001001100111
0000000000000101
1111111111011100
1111111111010011
0000000000011011
0000000000111010
0000000000001110
0000000001010100
1111111001101100
1111101110001100
1111110001110001
1111011001011110
1111110101100000
0000001000001100
1111111000110011
0000000010011010
0000000100100011
0000001010111010
0000000001001101
1111110011100001
0000001000110011
1111111010001101
0000010101011111
0000001110111110
0000100010011001
0000011001011101
0000010111100100
0000010010111011
0000001010100101
0000000100110101
0000000000011101
1111111111100101
1111111111110101
0000000000101110
1111111111001100
1111111111001111
1111110101000110
1111100100100001
1111111001000010
1111100001011111
1111101000011100
0000010110001100
0000011000001010
0000011000111111
0000010010111111
0000001111101001
1111110110101000
0000000011100100
0000000101000001
0000000010010011
0000001110101100
0000010000110110
0000100001111111
0000100011111100
0000100000101010
0000011000101010
0000010001111001
0000001011011111
0000000100010110
1111111111111110
0000000000000101
0000000000001011
1111111101111111
1111111101110110
1111111010011111
1111101101011100
0000000000101111
1111111000110111
0000000100001000
0000001110000011
1111111101101110
1111101101111101
0000010011000011
0000000000111101
1111110010000001
0000000011000011
1111110011000000
1111110011110011
1111111101110100
0000010111011000
0000010110110001
0000101101011000
0000100001011010
0000100011110010
0000011000111001
0000001111001010
0000000111000010
1111111111010100
0000000000010010
0000000000011101
1111111100111110
1111111101001000
1111111010010010
1111101010001010
1111101001010010
1111111100111001
0000000011111011
0000001010100101
0000001000001100
0000010100101110
0000001001010101
1111110100001010
1111101000011000
1111000011011010
1111001001100110
1111100010101010
1111110111110010
0000010001101100
0000010110111011
0000100110000000
0000011001001110
0000100000010101
0000100001000001
0000001101100001
0000000001111010
1111111001110100
1111111000101011
1111111111101111
1111111101011101
1111111110101011
1111111011010001
1111110000111010
1111100111010111
0000001000011001
0000010111010100
0000101101110101
0000010010100110
0000000110011000
1111101000010101
1111110111110100
1111011100000111
1111010001110110
1111010111110001
1111011100000010
0000001010100111
0000100100001000
0000010010011100
0000001110010110
0000001111110110
0000001111111010
0000000111011101
0000001101011111
1111111100100111
1111111011001011
1111111101110011
1111111111010010
1111111110101011
1111111100011100
1111111001011000
1111100111000011
1111101001000101
0000000101011100
0000001101001101
1111111110000010
1111110000000100
1111110110011100
1111100001011110
1111100111111111
1111101010011001
1111100000110010
1111100010101011
0000101000000110
0000111111110001
0000110001101000
0000001101110010
0000000100111011
0000001001000111
1111110111100111
1111111111101000
0000010111111100
0000001001101100
0000000001011111
1111111111100010
1111111111101101
1111111111001101
1111111011101100
1111110111110001
1111101110110001
1111110110001001
0000000110100000
0000001001111110
1111110111100101
1111101111011010
0000001011000110
1111111101001100
1111111110010101
1111110011111101
1111010010100001
1111101000110011
0000001101110000
0000010010100101
0000001111000101
1111111001110100
0000001001101010
0000000111101001
1111110110101010
0000000010111000
0000000001110000
1111111100110011
0000000000101001
1111111110001110
0000000000000001
0000000000010110
1111111101011101
1111111011101011
1111101001101110
1111111011110000
1111111110010011
0000001011001110
0000010001000111
0000010001011111
0000001000101010
1111101111101101
1111111111110011
1111101101010101
1111100001000000
1111111010111111
1111111010100111
0000010011100110
1111110001011101
0000001000011100
1111111000000111
1111110110011000
0000000010000110
1111111000100001
1111110001001100
1111111000100010
1111111111001010
1111111110100101
1111111111010110
1111111111010111
1111111111000010
1111111111010011
1111111110111001
1111111111000101
0000001100111001
0000100011000110
0000001010101010
0000010101101010
0000010101110110
0000000110110000
0000000000100100
0000000011001000
1111101000110011
1111101110110010
0000000010001101
0000010011001110
1111111111110011
1111010101100010
0000000000000100
1111011101010110
1111111000010100
1111101010010001
0000000000000110
1111111101111001
1111111010111010
0000000000000111
1111111111100111
1111111111010111
1111111110100011
0000000000000000
0000001101010100
0000001101000111
0000000110101010
0000011011100000
0000000001001101
1111111100000110
0000000101111100
1111110001110101
1111111000100111
1111110110000011
1111110001011001
1111111110001001
0000001000111100
1111110111011111
1111111101101100
1111101111101001
1111111100101110
1111110111001001
1111110000101000
0000001010100010
0000000000010101
0000000010001000
1111111110010110
1111111111100000
0000000000010001
0000000000110110
1111111111000000
0000000010101011
0000001011110101
0000011010000110
0000000011101101
1111101101100101
1111110011000010
1111111010110011
1111111010010101
0000001111001110
0000001100101000
1111110100000101
1111110011111001
0000000100100111
1111111001100010
0000001111101000
1111111011110110
1111111110011001
1111110000100100
1111101010111010
1111110101101111
0000000010110011
1111111010001010
0000000100001011
1111111110000010
1111111111111111
1111111111111001
0000000000000111
0000000000010000
0000000011111010
0000000101010000
0000001010000100
1111111101111110
1111111001101000
0000001110010000
0000000100101000
0000000111011010
0000001011101001
1111111111011111
1111110001110110
1111110011110010
0000000001000101
0000000110001100
1111111000111111
0000001011010110
1111110011110001
1111110110111100
1111011110000000
1111101010110101
1111111011010000
1111110100001101
1111111100101110
1111111100100101
0000000010001110
0000000000011000
1111111111011001
1111111111101001
0000000000101010
1111111101100110
1111111111001101
1111111011010101
0000000101011000
1111110110110010
1111111001100010
0000001010111111
1111111110010000
0000001010101001
0000000000001010
0000010010101001
0000010001111001
0000001010110011
1111110110110101
0000000110001011
1111111000000001
1111110101101001
1111101101010010
1111110011010000
1111111010100000
1111110111010001
1111111011001110
1111111101110011
1111111111001001
1111111111010110
1111111111111000
0000000100101111
0000000111111110
1111111101011111
1111111100101111
1111111101001011
0000000110101010
0000001010001100
0000000110011000
0000001100111101
0000000101101100
0000000000110000
0000001111000000
0000000001010000
0000000010100010
1111111011111100
0000000011011110
1111111000101110
1111111011001110
0000000010110111
0000010101100000
0000000011011000
1111111010001010
1111101110100001
1111111011100101
1111111111010111
1111111111100011
1111111111100110
0000000000010001
0000000100100100
0000001001000111
0000000110000101
0000000110001101
1111111110001101
1111110001110110
0000001101101110
1111110011110010
1111111100011011
0000000101001001
0000000110110001
0000001000101001
0000001000011010
1111110011110111
1111111010101110
1111110101001001
1111110110000100
0000000011110011
1111110000110001
0000000111111110
0000000011101111
1111101110001100
1111101110101010
1111111101100010
0000000000011001
1111111110011001
0000000000010001
1111111111100101
0000000000000011
0000000010000101
0000000101111111
0000011010111010
0000010000010110
0000010001110011
0000001001101001
1111111101011100
0000000111100101
0000001111111001
1111111110011111
0000011111100101
0000001011100110
1111111011011110
1111111010000001
0000010011001000
0000001000001000
1111111111001101
0000000101000001
0000010011000111
0000000010010111
1111111000111010
1111111111000110
1111111111100011
0000000000010110
0000000000100011
0000000000000101
0000000000010101
0000000000101011
1111111111000110
1111111001100000
0000001000000101
0000001011001100
0000000100010100
0000000101010000
1111111110010011
0000001011000100
1111111101000000
1111110001100110
0000010000000110
0000011001001101
0000000010011110
0000000101000100
0000010010010010
1111111010111101
1111101110101100
1111111001110111
0000010001000000
0000000001011110
0000001001010111
0000000100000001
0000000000100110
0000000000010100
1111111111011101
1111111111110010
1111111111111011
1111111111100100
1111111111101000
1111111010010000
1111111010101100
1111111100110010
1111111101100111
0000000000010110
1111101111010010
1111111101001010
1111110001101100
1111111010100111
1111111000101011
1111111110100011
1111111000010101
0000010010110000
1111111000001100
1111111110010111
1111111101011010
0000001101000100
0000001110011011
0000001000100101
0000010001001111
0000000111010110
0000000001001011
0000000000001111
0000000000101100
0000000000001010
0000000000000000
0000000001000010
0000000000001000
1111111100100001
1111110101010100
1111110001100000
1111111101010100
0000000101100101
1111111010010111
0000000011001011
0000001010100000
0000010111101001
1111110011000111
1111110000010101
0000001010111101
0000001000110011
1111111011100010
0000001011001011
0000000110100000
0000001111011111
0000001100000010
0000000101101000
0000001100001110
0000001000100011
0000000000001001
0000000000100110
1111111111010001
0000000001000000
0000000000101000
0000000000100001
0000000000100100
1111111100101010
1111111000100111
1111110110101100
1111111000110000
1111110110001001
1111110010010001
1111101110111100
0000001000000001
0000001001110111
0000000000110010
0000000001011001
1111110110101011
1111111000100101
0000000111111011
1111110001101010
1111110011101101
0000000010110000
0000000111110001
0000000000001100
0000000011110110
0000000010111011
0000000000101000
0000000000010001
1111111111110000
0000000000011111
1111111111100110
1111111111100101
0000000000001101
0000000001001001
1111111111101110
0000000000110011
1111111111110101
1111111100100111
1111111100001010
1111110110100101
1111111001011111
0000001001000001
0000001000111001
0000000101001111
1111111100000100
1111111111001101
0000001000000100
1111111111111010
1111111001111001
0000000001001110
0000000100001100
0000000000011101
1111111111110111
1111111111000110
0000000000101001
0000000000101110
1111111111101100
0000000000010111
1111111111101100
0000000000111001
0000000000000010
0000000000000100
1111111111101101
0000000001111000
0000000100000110
0000000010110111
0000000000001001
1111111111110101
0000000000010010
0000000010100000
1111111111011111
1111111111101010
1111111110111101
0000000001011001
1111111110110001
0000000000000011
1111111111011001
1111111111001100
0000000000011010
0000000000110001
0000000000000100
0000000000111011
1111111111101011
1111111111111100
1111111111110011
