1111111111110110
1111111111011101
1111111111011011
0000000000000001
1111111111101000
1111111111110101
1111111111101000
1111111111110110
1111111111010101
1111111111010011
0000000000000111
0000000000010101
0000000000000000
0000000000100000
1111111111011101
0000000000010011
1111111111111010
1111111111101101
1111111111001111
0000000000010111
1111111111100111
0000000000001011
0000000000011010
1111111111110010
0000000000011111
1111111111101001
1111111111011101
0000000000001010
1111111111110011
1111111111010110
1111111111101001
1111111111101111
1111111111100111
1111111111101011
0000000000011111
1111111111100100
1111111111101111
1111111111111000
1111111111111011
0000000000000011
0000000000000010
0000000000000101
1111111111111101
1111111111111001
1111111101011110
1111111111011101
1111111111100001
0000000000001100
1111111111111011
1111111111101000
0000000000000110
0000000000011111
1111111110111111
0000000000001111
1111111111110010
0000000001010000
0000000000000111
1111111111111110
1111111111111000
1111111111011111
0000000000011100
0000000000011011
0000000000010111
0000000001011011
0000000000001001
0000000000100101
1111111111100010
0000000000010011
0000000000101111
0000000001101110
0000000001011111
1111111110001110
1111111010100001
1111111101011001
1111111010110001
1111111111111000
1111111110011000
1111111111111010
0000000000110110
0000000000101111
0000000000001001
0000000000010010
0000000000000101
1111111111011101
1111111111100100
1111111111110001
0000000000010100
1111111110101000
0000000000100010
0000000000001010
0000000001010100
0000000010011110
1111111011100011
1111111010011001
1111110110010110
0000000010000000
1111111100000010
1111111011011101
0000000101101001
0000000000000100
0000000001110111
1111111001100111
1111101011110011
1111110000010111
1111111000000111
1111111111000001
0000000001010001
0000000010110011
0000000100011110
0000000000111110
0000000000100000
0000000000010001
1111111111100011
0000000000001100
1111111111110111
1111111111111010
0000000000100000
0000000010100100
0000000011010111
0000000000001111
1111111100101000
1111111010001011
1111111101011011
1111110001110111
1111111011001101
0000000111011101
0000000101100001
1111111111011000
0000000100001100
1111111000110100
1111100011101000
1111110010100001
1111111011011101
1111111110011101
0000000110110101
0000001100111110
0000001011011010
0000000001111111
1111111111011110
1111111111111010
1111111111101111
1111111111110011
1111111111101001
1111111111010011
1111111111100101
1111111111010111
0000000010010110
0000000011001010
0000000011101010
1111110110101001
1111111100101010
1111101000011000
1111110100111100
1111110011010010
1111110011111100
1111110101001001
1111110010101000
1111110001111111
1111100000111100
1111100010100010
1111100111110111
1111111000110001
0000000011010100
0000010011001001
0000001110000100
0000000111000000
1111111111110001
0000000000100110
1111111111010000
1111111110111110
1111111110010000
1111111110010111
0000000001111101
1111111111111011
0000000011110011
0000001011101101
0000001011011011
0000000001101110
0000001000111100
1111110011100001
0000001100011010
0000000000000000
1111111001100000
1111101001010101
1111100111100000
1111110001000100
1111101010101001
0000000000000011
1111111101100001
0000000101110101
1111111101110110
0000001111010001
0000000110111100
1111111101001010
1111111101010111
0000000000000000
0000000000011001
1111111111111010
0000000001001000
0000000010101001
0000000001001010
1111111010100110
1111111001111110
1111111110110000
0000000000100000
0000001001000010
1111111000010010
0000000101011101
0000001011100100
0000001111101000
0000000000111001
1111111001111110
1111011010111100
1111011110110010
1111100001000001
1111110110011110
0000000110010000
1111111010000000
1111111011111010
0000010001001101
0000001101011111
0000000011110111
1111111100000000
1111111111100111
1111111111100110
0000000000000101
0000000001001101
1111111110010110
1111111001101001
1111111011110010
1111111010110011
0000000001110000
0000000110010100
0000000000101000
1111111100011111
0000001001010011
0000010010010111
1111110101010000
0000000010011001
0000010100001000
1111101001010011
1111001010111001
1111011000100000
1111101001100110
0000000011000101
1111111100010011
1111111011111010
0000000000101110
1111111111000100
1111110011010011
1111111011111101
1111111110111111
1111111111010110
1111111111111101
1111111111111001
0000000000001110
0000000010101101
0000001100111111
0000000000100001
0000000100110011
1111111101111100
0000000100101110
1111111101100001
1111110100010110
1111101001000111
1111101011110100
0000000110110100
1111101001000010
1111111011001111
1111111110010110
1111101010110101
1111100001001111
1111111001100111
0000000110000111
1111111010000010
1111111101110100
1111110001001000
1111110011100110
1111110111011001
1111111101110100
0000000000011111
0000000001100110
0000000000101110
1111111111101000
0000000001010011
0000000110101111
0000001000100110
0000001001011010
0000000101000001
1111111101110010
1111111011000111
1111110001101101
1111100111000110
1111101100110100
1111011110010100
1111100111000010
0000000001010011
0000011010100110
0000001011111111
1111101111101000
1111100001100011
1111111101001001
1111110111001101
1111100110110001
1111100100110001
1111110100000000
1111111000100010
1111111111110011
1111111111101001
0000000001000111
1111111101111111
0000000011101111
1111111010110011
0000000111000001
0000010010101110
0000001111010101
1111101111110100
0000010000100000
0000010001000111
1111110001111001
1111111110111001
1111111000111000
1111111000010101
1111111000111011
0000001100101011
0000011010100000
0000010001100001
1111111011001000
1111101001101001
1111111010010101
1111111000000001
1111100010011000
1111011000001011
1111110000000111
1111111011010111
1111111111001001
1111111111111001
1111111111110100
0000000001010101
0000001000110101
1111111110010110
0000000110010011
0000000001001101
0000000010010000
0000000111000000
0000000000101000
0000000011100001
0000000100101101
0000010001011100
1111110101001100
1111011100100011
0000000110001110
0000100011000100
0000010111000111
0000011001000000
1111111011001100
1111110011111100
0000000111110010
0000000101011010
1111110000111111
1111111000111011
1111111000101111
1111111101010100
1111111111111101
0000000000111000
1111111111011101
0000000001001010
0000001000010110
0000001000001010
1111111101011110
0000000100000011
0000001000000100
1111111001001010
0000000010100100
0000010111000001
0000010010001010
1111101111000111
1111011100011111
0000001011010011
0000001011011011
0000001000111110
0000011011001011
0000011000010110
0000001010111111
1111111100111010
0000000011010001
0000010010110011
1111111101011010
1111111110100110
0000000010011111
0000000000011011
0000000000010010
0000000000001100
1111111110000110
0000000000011000
0000001000100001
0000001100101100
0000001010110111
0000000011110011
0000001000100011
0000000111001011
1111111101111101
0000010000010111
1111111001111010
1111100010100010
1111101111100111
0000010101011101
0000001010111001
0000001101001101
0000010010001000
0000001000110100
0000010100101110
1111111001110111
0000000000001101
0000010000000001
0000000100111101
1111111001011010
0000001001010001
1111111111001111
1111111111111100
1111111110111011
1111111101000001
0000000010000000
0000001101111101
0000001100011000
1111110111000100
1111101110011111
0000000011111101
0000000000000011
0000000100110110
0000001000010011
1111101000100011
1111001110101001
0000000010000010
0000100010001001
0000101110110100
0000000100000101
0000000001001100
0000001000110110
1111111100000010
0000001010000111
0000000010110000
0000001001001101
1111110111011001
0000000011010000
0000000111101101
1111111111110100
0000000000001001
0000000000011110
1111111111100010
1111111100110101
0000000011001101
0000000111110011
1111111011001011
1111111011000000
0000000111010111
0000000110011101
0000000001010011
1111100111000011
1111010011000111
1111111000000110
0000101011000011
0000111111010100
0000010111110101
1111111011010001
0000001000110000
0000001000010011
0000000001111001
0000010011111110
0000000001100110
1111101001010011
0000001001101011
0000001101001000
0000000110101011
1111111111001001
0000000000000000
0000000000001110
1111111111000101
1111111100110000
1111111010001100
0000000110110000
1111111011100101
1111110111001100
1111111110010000
0000000011011010
1111110100011001
1111101001001111
1111100110001001
0000011101000100
0000101011010111
0000011111110010
1111111100011100
0000000001010110
0000010001010011
0000001000000000
1111110101000110
0000000001111100
0000000010001010
0000000011100110
0000000001011100
0000001100011111
0000001000000010
0000000010100111
1111111111101101
0000000000001011
1111111111110000
1111111101110110
1111111101110000
0000001100101010
1111111010010001
1111110011000010
1111111001111101
1111110011101110
1111010110011000
1111011010001110
0000001000011010
0000011111111010
0000010001101110
0000000011100001
1111111000100100
0000001010001101
0000000111011000
0000001100000000
1111110101101111
1111101111111101
1111110110011100
1111110100110110
1111101100101001
0000000010000111
0000000011111101
0000000010000011
0000000001101101
1111111111100110
1111111111100110
1111111111101101
1111111101000000
0000001001101101
1111111011101110
1111110100110101
1111111111101001
1111101111011001
1111100111100011
1111101110111111
1111111111111011
0000001111000001
0000011001011011
0000000111100110
0000001111110011
0000001011110011
0000000110001110
0000001011001100
1111111010001111
1111111100100000
1111110011000010
1111101001011001
1111101001010011
1111111101110101
1111111110100100
0000000000000111
1111111111100110
1111111111110110
1111111111001111
0000000000010110
1111111100011001
0000000111000000
0000000001100100
1111101110010010
1111110001110101
1111100110001100
1111011010100101
1111110001000001
1111111111000111
0000010000010110
0000001110011000
0000000111000101
0000001111100011
0000010111110010
0000011000100010
0000001110111001
1111111001001011
0000000011000111
1111101101011000
1111011110010111
1111101011111000
0000000010110001
0000000001001001
0000000000111100
0000000000010100
0000000000000111
0000000000000110
1111111110011100
1111111011100111
1111111101011000
1111111001110111
1111101101100010
1111101001101001
1111110011111101
1111110000111101
1111110000010101
1111111001100001
1111111100001111
1111110010100010
0000001110001010
0000000010110001
0000000101111000
1111111011110110
1111111011001111
1111110101011010
1111110111001111
1111101110100101
1111101101101011
1111111111000100
1111111111010001
0000000110100110
0000000000101000
1111111111100100
1111111111110001
1111111111111101
1111111110101000
1111111011101111
1111111000000010
1111110001111001
1111101100111010
1111111000010001
0000001010010011
1111111000001000
1111110000101010
1111110111100011
1111110100101101
1111101111110100
0000001100010100
1111111010011100
1111111111100011
0000000110110100
0000000010100100
1111111110101100
1111111001101011
1111111011101101
1111110110111111
1111111010101101
1111111100111011
0000000010011111
0000000000000100
0000000000101011
0000000000000101
0000000000100100
1111111110011100
1111111010010011
1111110100111100
1111110101001111
1111111010000001
1111111101010001
1111110110010000
1111101110011010
1111101001101111
1111101001001001
1111110110001101
1111100110111101
0000001100010101
1111110110000101
0000000010011010
0000001000111001
0000001111001110
0000000100101110
1111111100000010
1111111111111111
1111111010111111
1111111011001000
1111111010000001
1111111111111000
1111111111011100
1111111111011111
1111111111001100
0000000001011010
1111111101111110
1111111010001111
1111111101100000
0000000001000001
0000000000111010
1111110000111111
1111110111000000
1111110110000011
1111110000100101
1111110001000011
1111101011111100
1111110100010011
1111111000110101
1111111110110010
0000001110010010
1111110110110111
0000000001100001
0000001111011110
0000000001101101
0000000010101001
0000000101101001
0000000011110110
0000000001001111
0000000010101000
0000000000101100
1111111111110010
0000000000110110
1111111111110101
1111111110110110
0000000000100111
0000000010001010
1111111101111110
1111111011111010
1111110111110001
1111110111110111
1111111001101110
0000000000001001
0000000010101010
1111111100110010
0000000010010000
0000000001100100
0000000101111111
1111110110001001
1111101101011111
1111110101101110
1111110011000111
1111111001011101
1111111010010010
1111111011100101
1111111110011111
1111111111010100
1111111111110000
0000000001000001
0000000000101001
1111111111101000
0000000000010010
1111111111010100
1111111111100111
1111111101110101
1111111100101011
1111111011111000
1111110111110101
1111111000101110
1111110011001001
1111101001111001
1111110001101100
1111110001001010
1111100111001101
1111101100000100
1111111001100111
1111111110100000
1111110111100101
1111111011001010
1111111110000011
1111110111100000
1111110101111001
1111111110100111
1111111111101000
1111111111000101
1111111111010111
0000000000001110
1111111111011001
0000000000101110
1111111111111010
0000000000000000
1111111111111110
0000000000001101
0000000000010000
1111111111010100
1111111101100000
1111111101010110
1111111111000001
1111111101100010
1111111101111010
1111111101001000
1111111111100110
1111111101111001
1111111110011010
0000000001011010
1111111111110100
1111111100011110
1111111111111010
0000000001011100
0000000000010010
1111111111100101
1111111111011111
1111111111110010
1111111111110001
1111111111100010
1111111110111110
