1111111111101011
0000000000010100
1111111110111000
1111111111101000
0000000000000110
0000000000000101
0000000000110001
0000000000001010
1111111111010000
1111111111111000
0000000000001100
0000000000010001
0000000000001010
0000000000100101
0000000000001001
1111111111111011
0000000000111100
0000000000001100
1111111111111100
0000000000000100
0000000000011011
1111111111110010
1111111111100010
0000000000000000
0000000000011100
0000000000001000
1111111111111100
1111111111101101
1111111111010111
0000000000001001
0000000000000011
0000000000100000
1111111111100111
0000000000100110
0000000000010010
1111111111111110
1111111111110011
0000000000100001
0000000001101100
0000000000011010
0000000001100000
0000000000001111
1111111111110010
0000000000000001
0000000001010110
0000000000011101
1111111111101011
0000000001000101
0000000000110111
1111111111110101
0000000000010000
0000000000001110
1111111111100010
0000000000101001
1111111111100011
1111111110111011
0000000000010010
1111111111110111
1111111111100110
1111111111001101
1111111111111011
1111111111111001
1111111111101110
1111111111111011
0000000000010110
1111111111001111
0000000000100001
1111111111101111
1111111110001110
1111111111010100
0000000000100100
0000000001000000
0000000111010000
0000000111000000
0000000101000110
0000000000110010
0000000000000010
1111111111111000
0000000000001101
0000000001001011
1111111111110011
0000000000001001
0000000000000010
1111111111100101
0000000000011001
1111111111101010
0000000001000111
0000000000001001
0000000000001100
1111111111101000
0000000000010000
0000000000110100
0000000011100000
0000000001101000
0000000110100111
0000000011001101
0000000001111110
0000000101011000
0000000010010000
0000010000000011
0000010001011110
0000001111000100
0000001100111100
0000000011100100
0000000101010011
0000000110010100
0000000010110000
0000000010110000
0000000010011010
1111111111111111
0000000000010010
1111111111110010
0000000000010111
1111111111011110
1111111111110000
0000000000101001
0000000000001001
0000000010010111
0000000001001000
0000000001010011
0000000110111110
0000001100100010
0000010001101000
0000000011011101
1111110111101110
1111110100000111
0000001100001111
0000011001111011
0000010000001010
0000000111110000
0000001010101010
1111111101010111
1111110100010011
1111111111000001
1111111001110011
1111111010010111
1111111010100100
0000000001001101
0000000000111101
1111111111110011
0000000001001011
1111111111101010
0000000000000000
0000000000100011
1111111111101101
1111111111011110
1111111000111010
1111111011100011
1111111000101100
1111110001000011
1111110010000101
1111101100010010
1111111000100101
1111110010110010
1111111000101101
1111110101110010
0000000010010111
0000001110010100
0000010101110100
0000000110011111
1111111111011000
0000001101001111
0000001001010101
0000000011011000
0000000000100010
0000000001110010
0000000000110010
0000000000000110
0000000000101101
0000000001000000
1111111111010100
1111111111100001
0000000001110101
0000000110000000
0000000000110111
0000000000101011
1111111101010100
0000001000011111
0000000100001100
1111111001011110
0000000100000010
0000000111001110
0000010000100000
0000010001100000
1111111111100011
0000000001000101
0000001010010100
0000000000111100
1111111000100000
0000001011000101
0000001001111111
0000000010011100
0000001110000001
0000000110100010
0000000001101001
1111111111100101
1111111111111110
0000000000010111
1111111011011001
1111111111001011
1111111010001101
0000000001110100
1111110100111110
1111111011101111
0000000111011100
0000000001000100
0000010011100001
1111111010001001
1111110101001001
0000001001111010
0000010000110000
0000001110110111
0000000010110111
1111111001010110
1111111110111110
1111110011000001
1111111011100000
1111111111101011
1111111111010010
1111111101011011
0000001101000110
0000000110101011
0000000001001010
0000000000000010
0000000000110000
1111111111000011
1111111011011111
1111111011011110
1111110100101110
1111111111101000
1111111010001001
0000010001101101
0000000111010100
1111111000000001
1111111011000111
1111111000000001
0000001100000100
0000011001111011
0000010011011000
0000000110110101
0000000010010000
0000001000011110
1111101011110110
1111110101000110
1111110010000001
1111110100111010
0000010011010110
0000000110101101
0000001000111000
0000001001101001
0000000100111101
0000000000001010
0000000000000111
1111111111101101
1111111101111001
1111111011111101
1111111010100011
1111110011110111
1111111100000000
0000010110110101
0000000110011001
1111101101001010
1111111111111110
1111111111001100
0000001001000010
0000000100001100
0000011001101001
0000010111011110
1111111101101000
1111111001111001
1111101010110110
1111101001011101
1111101110100101
1111110001011010
0000001010000001
0000000011110010
0000000100101101
0000001100110001
0000000110011001
0000000000010101
0000000000001001
0000000000000011
1111111110011101
1111111010100100
1111111011101000
1111110110111011
0000001000000000
0000000100100001
1111111110001100
1111110010101011
0000001011000000
1111101101101101
0000000011110110
0000100000100100
0000110000110101
0000110011100010
1111111010100000
1111011110011010
1111111001111010
1111110010010011
1111111011001000
1111111010110001
0000000110011010
1111111001110001
0000000111100101
0000000100111001
0000000111101011
1111111111011101
0000000000100111
0000000000110010
1111111101111011
1111110111100010
1111111110100101
1111111001111000
1111110000010000
1111110001011111
0000001100011100
1111111100111101
1111101000011101
1111111011000001
1111111010100010
1111111100110100
0000111111001000
0000100011011001
1111101111001010
1111011110010011
0000000001000101
1111110000010101
1111101010000010
1111110111010110
1111110011011100
1111110111101101
0000000111000100
0000001001010001
0000000110111011
0000000000001111
1111111111111110
0000000000000000
1111111110000111
1111111001100000
1111110110100110
1111110010110011
1111111000111010
1111111111001101
0000000000010110
0000000011110010
1111110100000000
1111111101011011
1111101011101110
0000011100011100
0001011000100010
0000010111011111
1111100101011111
1111100001110011
1111101100101100
1111100111011110
1111101000010000
1111110101110001
1111100111011100
1111110000100100
1111111011110100
0000001011001000
0000000001000100
1111111110111101
1111111111000100
1111111110111111
1111111110100001
1111111001010110
1111100100100110
1111111100100101
0000000010001001
1111110011100001
0000000011001011
1111101010000000
1111101101111110
0000000111100100
0000001111101011
0001000000001110
0000111100000000
0000001111111011
1111100100101010
1111011100101000
0000001011000001
1111101100100101
1111111110010111
1111101101100000
1111100011000010
0000000011111100
0000000101000010
0000001000011100
0000000001111010
0000000000101011
1111111111010111
0000000000111010
0000000001010011
1111111001111010
1111101111101001
1111110010100110
0000000001101001
1111110001001011
1111100101000111
1111101110010011
0000000001000110
0000001100111111
0000010101101011
0000100000110110
0000011001101000
0000000100101010
1111010111111010
1111110000000010
1111101111111111
1111011100001011
1111101011100001
1111101110100001
1111100100100110
0000000000110010
0000001100110011
0000000101110110
1111111111100011
1111111111000100
1111111111100101
0000000011010010
0000000001000001
1111111011110101
1111110011100110
1111111100001110
0000000110111011
1111111011001001
1111110110000000
1111100110010001
1111110110000100
0000011111111110
0000010101101111
0000010111001010
0000100000101010
0000001111000111
1111110011110111
1111110100011111
1111100110110010
1111011100001111
1111101001111011
1111110011110110
1111100110111101
0000010000010101
0000011001011001
0000001000011110
1111111110110100
0000000000010100
1111111111110000
0000000001010110
0000000010111110
0000000101010000
1111110101111101
1111110001111100
1111111111100110
1111111101001111
1111111110110101
0000000101100111
1111111011111110
0000001111001011
0000011100110011
0000100101000000
0000100100010101
1111110011011111
1111100111001000
1111101001010111
1111110010111100
1111111010111000
1111101011011110
1111111010011011
0000000001100001
0000010111110110
0000010101000111
0000000101000100
0000000000110100
0000000000010111
0000000000000000
0000000000010010
0000000000001100
0000001101110010
1111111100100001
1111110110010100
1111111001011000
1111111001011111
1111101111110111
1111111101111000
1111111111101101
0000011101001011
0000011110110101
0000100011001111
0000001111110000
1111011000100000
1111010100110001
0000000100010000
1111101111110101
0000000010101011
0000000000111111
1111111000110010
1111111001000100
0000001101000101
0000000000111100
0000000001111000
1111111111010101
0000000000011101
1111111111010110
0000000000111001
1111111110011111
0000001111000001
0000000111100011
1111111011111111
0000000010100111
1111111100101010
1111110111111110
0000000110000110
1111111110111100
0000010001110001
0000001101010100
0000001011100111
1111111001111010
1111101100110101
1111100010111110
1111110110001100
1111101011101010
1111110000100011
1111111110011100
1111111000001100
1111111100010010
0000000111100000
1111111110010100
0000000011000001
1111111111111111
1111111111010101
1111111111101110
1111111111011100
1111111110110000
0000001111000000
0000001100111100
0000001110100000
0000001000100111
0000000011111001
0000000110110001
1111111000010001
1111110101111110
0000001100100001
0000011100111010
0000011011000110
1111111101000011
1111110100010111
1111111001010100
1111110101000100
0000000101100101
1111100110111110
0000001101011010
1111111110001110
0000000000010011
0000000000001000
1111111011011110
0000000000011101
0000000000011001
0000000000100010
0000000000010000
0000000000010101
1111111111100001
0000001001000001
0000010010001111
0000000011010100
0000011000001100
0000010110101100
0000010111101001
0000000101010001
1111111011011010
1111111101100001
0000001010100000
0000000101001101
0000001110111101
0000010110000000
1111111100010001
1111111001000000
1111111110100100
0000000000101111
0000010010001110
0000000100111111
1111111110101100
1111111111000111
1111110011111111
1111110111010100
0000000000000001
0000000000001011
0000000000101000
1111111111100000
0000000010001001
0000000111001000
0000001100100101
1111111110001100
0000001001000110
0000010001001111
0000001011010100
0000000010000011
1111111110000110
0000000100011010
1111110111000000
0000000011100111
0000011000111011
0000011000010010
1111110100010111
1111111010001100
0000010000001101
1111111111100010
0000001010010001
0000000001111010
0000000000101110
1111111101011100
1111110111000001
1111111101111001
1111111111010011
1111111111111000
0000000000100111
0000000000000000
0000000001000110
0000000100001011
0000001001010111
0000010101000000
0000011010000111
0000001000101010
1111101110110101
0000000011111011
0000000001111010
1111111000001110
1111110000110011
1111111101000000
0000100000010111
0000010000111111
0000010101101111
0000000101001101
0000001100100000
1111111100111101
1111111110100111
0000001000101010
0000000010011001
1111111111110001
1111111111101110
1111111111010010
0000000000100010
1111111111110010
1111111111111010
1111111111111000
0000000101101100
0000000101010110
0000001110001110
0000011111001100
0000100011001011
0000000010000010
1111111111101110
1111111110110111
1111111001011100
0000001001010111
1111110111110010
0000000100111101
0000000000010001
0000000100110000
0000100000101000
0000010010110011
0000001111111001
0000001010000000
0000000110000111
0000000110100000
0000000100100010
1111111110111100
1111111111111001
0000000001100011
0000000000010101
0000000000001001
0000000000100101
0000000000000001
0000000100011111
0000000101101011
0000001000011111
0000000111100101
0000000001110110
0000001101011101
0000001101101111
1111101011000110
1111110001001010
0000001010100010
0000001000001010
0000000110111110
0000010010111110
0000001101101010
0000001100010011
0000000111111101
0000001111010110
0000000011010010
1111111110110110
1111111101101101
1111111100100001
1111111011001101
0000000100100011
1111111111010110
1111111110111011
1111111111000001
1111111111110000
0000000000110100
1111111111111100
0000000000110010
1111111110111010
1111111111101000
1111111010000110
1111111101111110
0000000111011001
0000000100001010
0000011000100000
0000000100010001
1111110000000001
0000000101001010
1111101100111010
1111111011001110
1111111011110110
0000000001000010
1111111100100000
0000000100110110
1111111011101000
0000000010000010
0000001001001000
0000001001100000
0000000101101010
0000000000000001
0000000000011111
0000000000000111
0000000000110011
1111111111111101
0000000000100110
1111111111011011
1111111101011000
1111111010010010
1111110100101011
1111111011100000
1111111010111111
1111110100011101
0000000010001011
0000001000001011
0000000100010010
1111110011011000
1111110001011100
1111111011111010
0000000000111100
1111111001110011
1111111010100101
1111111101001001
1111111101101000
0000000001101010
0000000010001101
0000000000101010
1111111111111000
1111111111111001
0000000000001111
0000000000000010
0000000000000000
1111111111010010
1111111111110100
1111111111100100
0000000000001100
1111111111000011
1111111111110010
1111111111011011
1111111110010101
1111111110111001
0000000000000111
1111111111101010
1111111111010000
1111111111110110
1111111101010101
1111111100010000
1111111101000000
1111111101011001
1111111010111100
1111111101111001
1111111101011111
1111111101110110
1111111111100111
0000000000011001
1111111111101011
1111111111001101
1111111111111010
1111111111111000
