0000000000000100
0000000000010111
1111111111010000
1111111111001100
1111111111100101
1111111111101000
1111111111011001
0000000000110011
1111111111011111
0000000000100011
1111111110110110
1111111110110111
0000000000011101
0000000000101010
1111111111100110
0000000000001110
1111111111111000
1111111111110010
1111111111010010
1111111111011000
1111111110110100
0000000000010100
0000000000001100
1111111111010111
0000000000100011
0000000000010011
0000000001000000
0000000000000010
0000000000101000
1111111111001000
0000000000001000
1111111111100010
0000000000001000
1111111111101101
0000000000000011
1111111111011001
1111111110101100
1111111111011000
1111111111100001
1111111111011001
1111111110110011
1111111110110011
0000000000000110
0000000000111011
0000000000111011
1111111110111100
1111111111111000
0000000000001101
1111111111011101
1111111111111100
1111111111011000
0000000000010011
0000000000100011
1111111111111110
0000000000001110
1111111111101110
0000000000010000
1111111111000110
0000000000001011
1111111111101011
0000000000000100
0000000001001000
1111111111010000
1111111101110110
1111111110001111
1111111100001110
1111111001101111
1111111011101011
1111111000111011
1111110111100101
1111111001000101
0000000001100001
0000000001111100
1111111011000110
1111111010110110
1111111001101110
1111111100001101
1111111101100010
1111111110011111
1111111110111001
1111111111011011
1111111111001110
0000000000101111
0000000000001010
1111111111100100
1111111111000000
0000000000101111
0000000000100100
1111111111110111
1111111111101111
1111111110111001
1111111100000111
1111110101111000
1111101110101111
1111101111110100
1111101111010011
1111110101000011
1111110011011011
1111110010110011
0000000101101010
0000000100010010
0000000000011000
0000000001101110
1111111010101110
0000000000001000
1111111011100111
1111111010101100
1111111100010011
1111111101011101
1111111101011110
1111111101010110
0000000000111110
1111111111100110
1111111111110010
1111111111101110
0000000000111011
0000000000001011
0000000000000001
1111111011111000
1111110010100100
1111110010000011
1111101000100010
1111101100110110
1111111000010100
1111110100111010
1111111010011010
1111110010110011
0000000000011100
1111111000010011
1111110000100110
0000001011001001
0000001000100101
0000000111010000
0000000011000010
1111111111010000
1111110011001001
1111110110000110
1111111010110101
0000000000100101
1111111111101100
1111111111111110
1111111111110101
0000000000101101
0000000000100010
0000000100100110
0000001100111000
0000000011110001
1111111100111101
1111110110001111
1111111010010101
1111111011001100
1111101110100111
1111111000111000
1111110000110011
1111110100011010
1111110010001000
1111110100001101
1111101011011110
1111101101101011
0000001111001010
1111110110101011
1111101110011101
1111110111011010
1111110000011110
1111110110111110
1111111001100000
1111111110010000
1111111111100100
0000000000110110
0000000000110000
1111111111011001
0000000000001010
0000000101110010
0000001111101101
0000010000010101
1111111010010010
1111111101011001
0000001010001100
0000001011000101
1111111101110001
1111111101101001
0000000011111010
1111111110111000
1111110111110111
0000000110001000
0000000100010001
0000000111110001
0000010111010000
0000001110001110
1111111110110011
0000000110100001
1111111110010000
1111111001101001
1111111100111001
1111111110110001
1111111110010101
0000000000001101
1111111111111111
1111111110001001
0000000010001111
0000001100000110
0000010011101111
0000001111001010
0000000010000101
0000000100100111
0000000011100111
0000001011111000
1111111100010010
1111110111110001
1111111111110110
1111111110100111
0000010111101011
0000000111000011
0000001011110100
0000001110011110
0000100000011000
0000011000100111
1111111000100111
0000000101100010
0000000000011011
1111111000001000
1111110101110000
1111111111111000
1111111110110110
0000000000010011
1111111111011011
0000000000010000
0000000100110101
0000010011001111
0000010011101011
0000001100001110
0000000011001000
0000000111100111
0000000111001010
1111111011110010
1111111000010000
1111101110010111
1111110010001111
0000010000000110
0000100000110111
0000001100101101
0000001101101100
0000010110111101
0000000101110101
0000001100000000
0000000011000111
0000001110010000
1111111000001000
1111110110100001
1111111011101000
0000000011000000
0000000000001000
0000000000010011
0000000000110000
0000000000111100
0000000111010001
0000001100000111
0000000100110010
1111111111011111
0000000000000000
0000000110001111
0000000001110110
1111110111001100
1111110111101100
1111110001111001
1111111000111010
1111111101100110
1111111001011111
0000010001100110
0000000110010101
0000001100110000
0000001100001011
1111111101110100
0000001000000001
0000011000110001
0000000010000110
1111110110010011
0000001000000100
0000000011110111
0000000100111100
1111111111101100
1111111111011111
0000000001001110
0000000101011000
1111111001010011
1111101110011001
1111110010110001
0000000101000010
0000000110011101
0000001010011101
0000000110111011
1111111100010010
0000000000001000
1111110111001110
1111101001100110
1111110101010010
1111111111011000
0000000001011000
0000010100101100
0000001011100000
0000000011000011
1111111001010001
0000001111011010
0000000000110100
1111110101101010
0000000010101010
0000000010011100
0000000000000111
0000000000000101
0000000000001011
1111111111111010
0000000011110111
1111111010011001
1111110000110011
1111111010100100
0000000010001110
0000010110111000
0000001001101000
0000000000110010
1111110111111000
0000000101010010
1111111100001010
1111111000000011
1111110010101011
1111111010010110
0000000001110001
1111111011110100
1111101001011010
0000001001001110
1111111101001100
0000001110111000
1111111110110001
1111110001001100
1111110111010010
0000000001110101
0000000000011101
0000000000000011
1111111111011111
1111111111110110
1111111100100100
1111111001111011
1111111110001111
0000001100010010
0000001000110001
0000000111100110
1111111000010010
1111111011100110
1111101001110010
0000011001101111
0000101100010111
0000101001111010
0000100000110011
0000001011110101
1111101100001101
0000000101110100
0000000000110001
0000001000000000
0000000111000010
0000000110111001
1111111110000100
1111101111010110
1111111011110001
0000000001111001
1111111111100101
1111111111110101
0000000000110010
0000000001101000
1111111101101000
1111111111100100
1111111101001110
0000000101111111
1111110111000000
1111110101010101
1111110101011010
0000000000010001
0000000101000000
0000011001100101
0000101010010110
0000001100010010
0000011011111110
0000011011010000
0000001101011011
0000011101001101
0000000110101111
0000000010000100
0000000101111111
1111110100100000
1111110100110110
1111110100100100
1111111101101000
1111111110101010
1111111101110011
1111111111101110
0000000001110000
0000000001011000
1111111111011001
1111111001100110
0000000011011010
0000000011010110
0000000000101000
0000001001110101
1111110110010101
1111110111100001
1111101100101101
0000011001011001
0000011011100110
0000011110100110
0000010010110101
0000001110110111
0000010000111111
0000001100010111
0000001100111111
0000000000010100
1111111110010110
1111110110110101
1111110111000001
1111110011000001
1111111001111110
0000000000111110
1111111111101010
1111111111100101
0000000011010011
0000000010011101
0000000000000001
1111110111101011
1111111001111100
1111110001010001
1111111110001110
1111111000011001
1111101101101000
1111100110110110
1111110001000010
0000001111010111
0000010110010100
0000010111110010
0000001010011110
0000010001110110
0000001010111001
1111111000100100
1111111000111010
0000000011101001
0000000000001001
0000001111000101
1111111101010100
1111110110110010
1111110111001101
0000000000101110
1111111111111011
0000000000100010
0000000001001100
0000000011001100
0000000000011111
0000001000101100
1111101111001110
1111100011111010
1111111000111111
1111011111001111
1111100000001101
1111101011010100
1111011001111110
0000000010000010
0000010111000110
0000000010000011
0000010011110110
0000001001110110
0000000001000010
0000000010010100
0000000010011011
1111110011101000
1111110111100001
0000000110111011
1111110101001000
1111110001000100
1111110010111100
1111111111101101
0000000000010011
1111111111010111
1111111111101001
0000000011011100
0000000110010100
0000000010000001
1111101001111101
1111011000101011
1111101011110101
1111100101100101
1111100101011100
1111001101000110
1111001100000111
1111101010110001
0000000001111010
0000000010111100
1111110011001010
0000001001110110
0000001010001010
0000100001111101
0000000011000100
1111101010010010
1111111111111101
0000000110101111
0000000000010011
1111101001101111
1111110110101000
0000000000110110
1111111110111000
0000000000001101
1111111111000001
0000000010111111
0000000011100010
0000000000000010
1111101000001101
1111011101010101
1111100110111100
1111110111011010
1111101101111100
1111011101001101
1111011110010110
1111101001100100
0000000000011010
1111101101011111
1111101001010001
0000000000010100
0000010011100010
0000001111010101
0000000000110101
1111111011110110
0000000101001111
1111111001111111
1111110000101010
1111100111101101
1111111010111000
0000000000010100
1111111111110011
1111111111111010
0000000000010011
0000000000101010
1111111011001111
0000000001001100
0000000001101001
1111101011001100
1111111010111101
0000000010000010
1111110000011001
1111110011111000
1111111100011011
0000001101011000
1111110111101010
1111011101000110
1111100100111011
0000000011011111
0000010110001000
0000000010001010
0000000101000100
0000000111001001
0000001000110101
1111111000010111
1111101000000110
1111110110101001
1111111101110011
1111111111001011
1111111111010000
1111111111101111
0000000000000000
1111111101010000
1111110011100101
1111111011111100
1111111100011011
1111101110000011
1111111000100000
0000000100010111
1111011111111010
1111010001100000
0000001001011110
0000001011101010
0000001000011000
0000011001110111
1111101101010111
1111111100000100
1111111001101110
1111111101010100
0000001010110001
0000000111100011
1111110011001111
1111110100010011
1111101011001001
1111111010000111
1111111100100111
1111111111100110
0000000000000000
1111111111100110
0000000000001010
1111111011000000
1111110011010011
1111111011001101
1111111110001001
1111110100000001
1111110001011001
0000000000010111
1111011100010111
1111101110000000
1111111001011001
1111111010011010
0000001001001011
0000010100011100
1111110001110001
1111111100001101
1111110010001011
0000000010001010
0000001110000000
0000000010010100
1111101100011000
1111101010011111
1111100111000011
1111111100111101
1111111101011001
1111111110101111
0000000000001101
1111111111111011
0000000000001000
1111111010001100
1111110110001001
1111111110110001
0000000111101101
1111111110010111
1111110000101010
1111110001001010
1111100111101001
1111011110100011
1111100111101101
1111101100101000
0000000011110011
0000000001100101
1111111101111100
1111111110010000
0000001110111011
0000001001101100
0000010100000101
1111111011001101
1111110000010100
1111110001011111
1111101100101001
1111111001010010
1111111110110101
1111111111111011
1111111111111100
1111111111100110
0000000000100110
0000000000011001
1111111110100010
0000000111001100
0000001011110101
1111111110100010
0000000000000010
1111110111011010
1111110111010100
1111111010111010
0000000100011010
1111110111001100
1111111011101111
1111111100100000
0000000100010110
0000001001110011
0000010100100100
0000000001110000
1111110011000100
1111111110100111
1111111010011010
1111110000000011
1111110001011101
1111111010101011
1111111100110101
0000000000000110
0000000000000000
0000000000000101
0000000000010100
0000000001011010
0000000010001011
0000001010111100
0000001111111000
0000001000001100
0000001010101101
1111111101111100
1111111100110101
0000000101000110
0000000010010000
1111111111100101
1111111111010110
1111111000111011
1111111110011110
0000001010101011
0000011010101111
0000001101110111
0000000111011101
0000001001101010
0000000011001100
1111111001111010
1111111010011011
1111111000001011
1111111011101001
1111111110110010
0000000000000000
1111111111100111
1111111111111000
0000000000100000
0000000000010001
0000000011101101
0000000111010111
0000000101111011
0000001001000111
0000010001001111
0000011011101010
0000010010011011
0000010101001101
0000011111001111
0000010101101111
0000001111011100
0000001000100001
1111111100100011
1111111110111001
0000001000001001
0000001100110101
0000001001100101
0000000011111000
0000000010001110
1111111110101001
1111111110110100
1111111110100111
1111111110011111
0000000000011110
0000000000100100
1111111111101111
0000000000001111
1111111111111010
1111111111101001
0000000001000001
0000000001110011
0000000110000111
0000000100000110
0000001000100100
0000000111000000
0000000001011111
1111111011011111
0000000000101001
0000000110101000
0000000011001000
0000000011101010
1111111111010111
0000000110110101
0000000100110010
0000000001010001
0000000011011111
0000000010001010
0000000000000010
1111111111110010
1111111111110010
0000000000001010
1111111110111100
1111111111110000
0000000000001100
1111111111110111
1111111111110010
0000000000001100
1111111111111001
1111111111110100
1111111111011010
1111111111011001
0000000000000110
0000000000001111
1111111111110100
1111111111101110
0000000000001111
0000000000010111
0000000000011100
0000000010100101
0000000001000111
0000000010111000
0000000000100000
0000000000100000
0000000000001100
0000000000100011
0000000000011010
0000000000100001
1111111111010010
1111111111100110
0000000000010000
