1111111111110010
0000000000101101
1111111111101001
1111111111010101
1111111111000100
0000000000010011
0000000000000001
1111111111011111
0000000000000101
0000000000101110
1111111111010100
1111111111010100
1111111111100011
1111111111010111
0000000000000111
0000000000001011
1111111111111000
1111111111000110
0000000000010100
0000000000000101
0000000000010010
0000000000000000
1111111111111111
0000000000011111
1111111111001110
0000000000001010
0000000000001101
0000000000001011
0000000000101000
0000000000000100
0000000000001110
1111111111101000
0000000000011000
0000000000011101
1111111111111001
0000000000110010
0000000000111111
0000000000010001
1111111111101010
1111111110111101
0000000000000010
0000000000110011
0000000000000100
1111111111110111
0000000001001010
1111111111111100
1111111111100110
1111111111001101
0000000000010010
0000000000011001
1111111111110100
0000000000011110
0000000000001000
0000000001010000
0000000000111001
0000000000110111
0000000000000011
1111111111101111
0000000001010001
0000000000011001
0000000001000110
1111111111111011
1111111110001110
1111111110101001
1111111110001001
1111111100101110
1111111011011000
1111111010010100
1111111010111010
1111111010110100
1111111011101000
1111111011000000
1111111100101100
1111111011000101
1111111101001010
1111111011000001
1111111011100111
1111111011010101
1111111101101101
1111111110110110
0000000001101001
0000000001001001
0000000000000110
1111111111011100
1111111111110010
0000000000011111
1111111111100010
1111111111110100
1111111111010001
1111111110110001
1111111010111110
1111111010111000
1111111000011000
1111111001011100
0000000001101000
0000000100110001
0000000000001011
1111111111100000
1111111100110000
1111111111001111
0000000001000001
0000001011011000
0000001001110101
1111111111001011
1111110100100000
1111101110010101
1111101110111011
1111110011111101
1111111010001001
0000000000111001
1111111111010110
1111111111011011
1111111111100101
0000000000100010
1111111111111101
0000000000010100
1111111110100110
1111111111100011
1111111011001111
1111110101111111
1111110101101011
1111110101011111
1111111100011110
0000001000000101
1111101110101011
1111101001000011
1111101001010010
0000000011010001
0000000111111000
0000000111000101
0000000100010011
1111111100100001
1111111101011101
1111111011001010
1111110011111010
1111110110110101
1111111111010100
0000000100000000
0000000010111000
1111111111011100
0000000000011100
1111111111011001
0000000000010011
0000000010001101
1111111111010101
0000000001111110
1111110111100101
1111110100000001
1111110110100000
1111110100100111
1111110010101100
1111111111101000
1111100101101000
0000010111000100
0000010101010000
0000101111101011
0000100100111001
0000001100001001
1111111101011001
1111101110111001
1111011110011000
1111101101111001
1111110111101001
1111110101110011
1111111001101111
0000000001101001
1111111101111100
1111111111000100
1111111111110001
1111111111110001
0000000000110011
1111111111100111
0000000000111110
0000000111111110
1111110111011000
1111110001011010
1111110111101001
1111100110010011
0000001000001011
0000000010001110
1111110100100011
0000011101010110
0000100001110100
0001010001000001
0001001001000001
0000100100100110
1111110110001001
1111101010001001
1111110100100101
1111110001000110
1111111100110101
1111110010010010
1111110110110100
0000000001000111
1111111100001100
1111111101111100
1111111111100101
0000000001001000
0000000000110001
0000000011000101
0000000000100011
0000000000000010
1111110111111101
1111110101110110
1111101111010110
1111110001100111
1111110000011100
1111100100010101
1111011100000111
1111111100111011
0000101000010110
0001001110001000
0000110000101111
0000000100101101
1111111001110001
1111100001111110
1111111101110111
1111111010101101
1111110011110111
1111111111001001
1111111111001110
0000000101000110
1111111101000000
1111111111001000
1111111111100110
0000000000001110
0000000000001010
0000000100011001
0000000100000111
0000000011011011
1111111110101000
1111111111111010
0000001110011011
1111111001111111
1111111110100000
1111110010001000
1111101010111000
1111111010011010
0001000010111110
0001010110110010
0000010010001000
1111110101011100
1111111111011101
0000000000101110
1111111111011010
1111111111111111
1111111110101101
0000000010001101
0000001111010011
0000001000111110
0000000011111010
0000000000100001
0000000000100001
0000000000101101
1111111111111010
0000000101110001
0000000100111111
0000001001000000
0000000101010011
0000100011101010
0000001001010011
0000000100100001
0000011001011101
1111110001001000
1111011110100100
0000001001111001
0001010001110011
0000111110010001
1111111100010010
0000000101000111
0000000110110010
0000000101101001
1111111101001011
1111111111010010
0000001001110001
0000010011010100
0000001011001001
0000001010111010
0000000111010011
0000000000010000
1111111110111011
1111111111111111
0000000011110110
0000000111111100
0000001010111010
1111111001010111
0000010110100010
0000001011101101
1111111011100000
1111111111000010
0000010011101011
1111110011111111
1111111001100010
0000110100111000
0001011001100000
0000100111011010
1111111101101100
0000000010101110
1111111101100111
0000000011100001
1111111001100000
0000000011000001
0000010001000101
0000010110010101
0000000011100011
0000001001101000
0000000110010110
1111111110111010
0000000000100111
1111111111010111
0000000101010011
0000000101000110
0000001110010000
1111111100010101
0000100010010111
0000011010100000
0000010001000110
0000001100010110
0000010110000110
0000001010101001
1111111001011001
0000101000111001
0000011100011001
0000010100110101
1111110100011111
0000001010000101
1111101101001111
1111110111110000
1111111100001101
0000001111111011
0000000111001111
0000001110011100
0000001001010110
0000000001010110
0000000011111001
1111111111111011
1111111111110101
0000000000011101
0000000001111101
0000000001100110
0000010001011010
0000000100000111
0000001001001011
0000010000000001
1111110110101110
0000010010110110
1111101111110010
1111100010011111
1111100111000101
1111110110111110
1111111010100001
1111111101110011
1111110101000100
0000001000111001
1111111111110001
0000010000000010
1111111001001010
0000001011011001
0000001010010001
0000000010100100
0000000001010011
0000000010010111
0000000101100110
0000000001101010
1111111111111010
0000000000101101
0000000001010100
0000000011000011
0000001011000010
1111110101010011
1111111001011110
0000000000000100
1111001100011110
1111111001000110
1111100110100010
1111111110000111
0000000000100010
1111110100011101
0000001001010110
1111111000011111
1111111001000011
1111111011110100
0000001111000100
0000010010000011
0000000111110000
0000000010011110
0000000001111100
1111101110110010
1111111010010100
0000000100000010
0000000011011000
1111111110111011
0000000001001111
0000000000110110
0000000001000110
0000000011000000
1111111010001001
1111011011011111
1111110011000011
1111111111010000
1111111100110011
1111110001101111
1111111001111001
1111110011100100
1111111111011000
0000001001001000
1111110110101011
1111110100000000
1111110111011100
1111110000110001
1111111011111010
1111110011101010
1111110101000010
1111111110101011
1111101111101101
1111101010011101
1111110111110110
1111111110101000
0000000000110001
1111111111101011
1111111111101010
0000000000010100
0000000001001011
1111111010111111
1111111110110011
0000000010100010
1111101100110100
1111101000111001
1111111101111010
1111111100001000
1111110000110100
1111111100010101
0000000111101100
0000000100011010
1111101110001010
1111111110001011
1111110100110011
1111101111101110
1111101011101000
1111101101001110
1111111101110101
1111111110000011
1111110000000011
1111110010000101
0000000001100101
1111111001111100
0000000001101110
0000000000101100
1111111111101010
0000000001010001
0000000000101010
1111111001011101
0000000100110001
0000010010110111
1111111100011010
1111101110010111
1111101110110111
1111101010110110
0000000000011001
1111101011110111
1111111011100010
0000001001100110
1111110001001001
1111110000000101
0000000100010100
0000010110111111
1111111100000001
1111110010000011
1111110100100000
1111011111001001
1111111000010110
1111110010001001
1111111011110011
1111111000100001
1111111111111111
1111111111110001
1111111111100100
1111111111101010
1111111111001111
1111111101001101
0000000010111100
0000001101100101
1111111001010110
1111111101011001
0000000001101111
1111110100010111
1111111010011100
1111110010000010
0000000110100101
0000001100100011
0000000110111011
0000001010110001
0000000010101011
0000000110010110
1111111111010010
0000001011101111
1111110011000010
1111011100101001
1111101000111010
1111110111100101
1111111101010001
1111111011101001
0000000000001101
0000000001110111
0000000000110001
0000000000000001
0000000001000001
1111111001011100
1111110111100000
0000000110010011
0000001010010010
1111101011011110
1111100100011100
1111110101101100
0000000111011110
0000010010100101
1111111110111101
1111111100001111
1111011111010001
0000010001010001
0000000001110101
1111110010100110
1111111111101010
0000000111011101
1111111110100001
1111111011001011
1111110111010101
1111111010100010
1111111001010001
1111111100000111
0000000001000000
0000000000111111
0000000001000011
0000000000000011
0000000011011111
1111111100001000
1111111110110101
0000000111000110
0000001011001110
1111101111011110
1111101011111010
1111101101111111
0000000110110010
1111111111111100
0000001011001111
1111111101000011
1111111111011100
1111111111000011
0000001110001101
0000000011101100
0000001101110001
0000001101010001
1111111100100001
0000001100011101
0000000111010101
0000000110010011
0000000010001010
0000000001110101
0000000000111111
0000000000010111
0000000000010010
1111111111011100
0000000000101101
1111111101110011
1111111110011101
0000001010010001
0000010000110101
1111110110000010
1111110110110110
0000000001100101
0000000011000010
0000010001111000
1111111110100000
0000000000000000
0000001010110011
1111111110110001
1111111001011111
0000000100011101
0000001010000101
0000010010010111
0000000101110011
0000001000110111
0000010000100110
0000010000100100
0000001000111011
0000001000001000
0000000000001011
1111111111111001
1111111111010000
0000000000000010
0000000000111000
1111111111000011
1111111110110100
0000001001001011
0000001000100101
1111111001101100
1111101010000010
1111111100110000
0000000111110001
0000000100100001
0000000000011010
1111110011011010
1111111000100101
1111111100110100
1111111110011000
1111111101000101
0000000110111111
0000000111111101
1111111100110001
0000001011110010
0000001101110111
0000000100001110
0000001100001111
0000000101011100
0000000000001010
0000000000011011
0000000000010110
0000000000000000
0000000000100111
1111111111001100
1111111110010111
1111111111100001
0000000011110000
0000000100000100
0000000101111011
1111111000100100
1111110010011011
0000001010110111
0000001100000111
0000000001101010
0000000111100110
1111111110011000
0000000111110111
0000010010110000
0000001100011011
1111110011101000
1111111011111011
0000001001000010
0000001100011011
0000001010100110
0000000110011110
0000000000011000
1111111111100101
0000000000010100
0000000001001010
0000000000010010
1111111111110111
0000000000111110
1111111110110110
1111111110101011
0000000100110000
0000000110100111
0000001111000001
0000001101000011
0000000001011100
0000010100011100
0000010000010101
0000011110010010
0000001111100110
0000010000101110
0000000111111010
0000001111110001
1111111100000111
0000000110000110
0000010010100011
0000001011100010
0000001100111011
0000001011011000
0000001001101110
1111111111111010
1111111111011001
0000000000011111
1111111111110000
0000000000001100
0000000001000110
0000000000001010
0000000010001011
1111111111111101
0000000010011100
0000000001001010
0000000010001000
0000000001110011
0000000011100100
1111110110000010
1111110110011101
1111110011101001
0000000001110111
0000000111001110
1111111000011111
0000000011111010
0000000011011000
0000001110011011
0000011010111000
0000001011100011
0000000110101001
0000000110010010
0000000100100010
0000000000000111
1111111111000010
1111111111100010
0000000000000100
1111111111101001
1111111111110101
0000000000101010
0000000001011001
0000000001011111
0000000100101100
0000001100101111
0000000101110011
0000000101001110
1111111111010111
1111111101110001
1111111110010000
0000000011001111
0000001011000100
1111110111111100
1111110110100000
0000001011110111
0000000111111100
0000011110000110
0000010101110110
0000000100000011
0000000010011001
1111111100001101
1111111111100001
1111111111111111
0000000000110011
0000000000010011
0000000000011011
0000000000100001
0000000000010101
1111111110111111
0000000000101110
0000000011000010
0000000010010101
0000000010101000
1111111111010101
0000000001010010
0000001011000000
0000001111100101
0000001101110101
0000010000101111
0000011010001001
0000010010111000
0000010101100000
0000000100000100
0000001100001100
0000001011001101
0000000110011000
0000000000011010
0000000000000110
1111111111101111
0000000000000010
0000000000010101
1111111111001010
1111111111110000
1111111111101100
0000000000010000
0000000000001100
1111111111010100
0000000000011110
0000000000001101
0000000001000111
0000000011110101
0000000011100010
0000000000111110
0000000000010011
0000000001111111
0000000001100000
0000000000111100
0000000001101100
0000000001010001
0000000000111011
1111111111011100
0000000000010101
0000000000001111
0000000000010101
0000000001001111
0000000000000000
0000000000001100
1111111111001010
0000000000100000
0000000000000110
1111111111100110
