0000000000100110
0000000000111010
1111111111100011
0000000000010001
0000000000011110
0000000000001000
1111111111000001
0000000001010111
1111111111110011
1111111111101110
1111111111011010
1111111111110010
0000000000110000
0000000001010010
1111111111111111
0000000000001011
1111111111101110
1111111111110111
1111111111110101
0000000000000100
0000000000000101
0000000000110000
0000000000000010
1111111111100111
1111111111110011
0000000000100110
1111111111100101
1111111111101110
0000000000001100
1111111111010100
0000000000000111
0000000000000110
1111111111110000
1111111111010110
1111111111101110
0000000000011001
1111111111000100
1111111111101001
0000000000110000
1111111111110010
1111111110000100
1111111111100010
1111111111101110
1111111101010001
1111111110001000
1111111111110110
0000000000101011
1111111111100001
1111111111100000
1111111111001101
1111111111010001
1111111111111110
1111111111110001
1111111111101010
1111111111101010
0000000000111011
0000000000111101
0000000000001001
1111111111110110
1111111110111000
1111111111010100
1111111111001001
1111111111011101
1111111111101100
0000000000000000
1111111111100100
1111111110100000
1111111111000110
0000000010100000
0000000010110101
1111111110001111
1111111111010101
0000000001100110
1111111100001000
1111111011110010
1111111011011011
1111111100110011
1111111100011110
1111111110000110
1111111110101110
0000000001100101
0000000000111011
0000000000011001
0000000000101000
1111111111110010
1111111111110101
1111111111101110
1111111111011100
0000000000100111
0000000000111000
1111111111111101
0000000001111110
0000001000011100
0000000101111110
0000000111010100
0000000000010000
0000001000100110
0000000101100001
1111110001011000
1111110101111001
1111110111111000
1111110111010010
1111110110011100
1111110100111001
1111110010011011
1111110111000100
1111111000100101
1111111011000010
0000000001000000
0000000100000011
0000000000111001
1111111111011010
1111111111101011
1111111110110010
0000000000000000
1111111111110110
0000000001001100
0000000000111000
0000000001100101
0000001000001011
0000010010010001
0000010010111000
0000010000011010
0000001110101101
0000010100101100
0000000001000111
1111101111110011
1111101010111111
1111110110111010
1111111010101111
0000001011011011
1111111010100001
1111110000000011
1111110100100100
1111110110000010
0000000000110000
0000001110010001
0000001011111000
0000000100011000
0000000000011111
0000000000011101
0000000000100100
1111111111111011
0000000001000010
0000000000001110
1111111110110110
1111111110011001
0000000111001101
0000001010001100
0000001010011111
0000010011000001
0000010001101001
0000010001011000
0000000010101110
1111110011111010
1111111010001100
1111111011000011
1111111101110110
1111110011010000
1111101011001000
0000000000010000
1111111100100000
0000000110101010
0000001000000001
0000001000101001
0000001000101001
0000000001111001
0000000000101011
1111111111101011
0000000000011100
0000000000000001
0000000000110100
1111111100111101
1111111010010100
1111111110100010
0000000111010001
0000010001010000
0000011101101100
0000001111110101
0000010011000100
0000100001000110
0000001000001100
1111101110010010
1111111001011100
0000000110101001
0000010101011110
0000001011000011
0000000110000101
0000001110100001
0000001011101100
0000001111001000
0000001110010011
0000000111000000
0000000111011100
0000000011111011
0000000001101111
0000000000101101
0000000000011100
1111111111011011
1111111100100111
1111111001110101
1111110111101111
1111110101010000
0000000011100100
0000010100101110
0000001110000000
0000011010000011
0000000101110101
0000001111001101
1111101100100100
1111101001111001
1111110011011011
0000000011101001
1111110101011001
1111110011011011
0000001001000001
0000001011100100
0000000110100110
1111111110011100
1111111111111110
0000000011011010
0000000111111100
0000000100011111
0000000001100100
1111111111010111
0000000000011010
1111111101101001
1111111100100100
1111111010000011
1111111101011111
0000000010000111
0000010100010001
0000001011011000
0000000001111010
0000001100110011
0000010101101011
0000000111100101
1111110110011110
1111101011110100
1111111010001010
1111110100111110
1111110111000101
1111111100000101
0000011011010110
0000010011101100
0000000010000000
0000000101100101
0000000011101000
0000000111000110
0000010011000111
0000001000110110
0000000001000001
0000000000001011
0000000000001101
1111111101101110
1111111101111011
1111111100100011
1111111100100000
0000000011011001
0000000111010101
0000010000010011
0000000111101100
0000010100111111
0000100010001001
0000000110100000
1111100110110111
1111111010100100
0000010001110011
1111111101100001
1111111110001100
1111111100110100
1111111110010111
0000000001101001
1111111001000110
0000000100101111
1111111000000111
0000001001000000
0000010001010100
0000000110110010
0000000000111001
0000000000011000
0000000000000101
1111111100110011
1111111010010110
0000000010001000
0000000000100010
0000001011110000
0000001010100111
0000001011100001
0000011001010111
0000011100110010
0000010001101000
0000000100100100
1111111010100111
0000000011100010
0000010010101000
1111110100001001
1111101010111100
1111111001011101
1111111110010111
1111111011001010
1111110010000000
0000001000000101
0000001110011001
0000010000000110
0000000101000101
0000000101100110
0000000000001010
1111111111101100
1111111111110000
0000000000111010
1111111010111101
0000001011100001
0000001001110100
0000000001101111
1111111010101011
0000001011001011
0000001000010111
0000000000010101
0000011101011011
0000010101011000
1111101101111101
0000001111100010
0000010110011011
0000000100011101
1111111010111111
0000000001010011
0000001010011111
1111111011011000
1111110100011100
0000000111110101
0000001010010101
0000001010101010
0000000111010110
0000000111010011
1111111111101000
0000000000000100
1111111111110000
1111111110100010
1111111100100000
0000000100000010
1111110111011011
1111110011110110
0000000110010100
0000000110100100
0000000100000100
0000001110110010
0000001110111000
1111111001111001
1111111110100110
0000000111111000
0000100001011011
0000000100011101
0000001110001011
0000000000000010
0000011101001111
0000000110000110
1111111011010101
1111111110100100
1111111010011001
1111110101101011
0000000000101010
0000000011101001
0000000000000010
0000000000011010
1111111111100100
1111111111011111
0000000010000100
1111110110111100
1111111001001001
1111110010100101
1111110110010010
0000000110100101
0000000011010000
1111111111001000
0000011001010101
0000001001010000
0000000100111110
0000000001001010
0000110001010010
0000011011110000
0000000010110101
0000000000011100
0000010011001001
0000011101011011
0000000111100111
1111111100101001
1111111110011101
1111110101100010
1111111001001011
0000000001000110
0000000000101101
0000000000000001
1111111111110110
1111111110101100
0000000001101110
0000000001011001
1111101011100001
1111110001000111
1111101111000110
1111110011110110
1111111011101111
0000000010111000
0000001001001001
1111101101110000
0000000011101001
0000011010010110
0000101101000010
0000011111011001
0000001010001010
0000001101001001
0000000100111011
0000000011110101
1111111011000100
1111101110001111
1111111100101111
1111111101111100
1111111010101001
0000000100110100
0000000000000101
1111111111111000
0000000000001011
1111111110010001
0000000000111001
0000000010100010
1111111100000001
1111101101000100
1111011011101111
1111101101000010
1111111001001100
1111110111011011
0000000011011001
1111100111001101
0000000001100000
0000111010000011
0000101111010111
0000001001010101
1111111000111001
0000001010000101
1111111101010110
1111101001010000
1111101010010100
1111011101011110
1111110110001001
1111111101000100
0000000001110001
0000000111111101
1111111111011111
1111111111100111
1111111111011110
1111111110100101
0000000100110000
0000000011010000
1111110001100111
1111101111101100
1111011111001110
1111101110000010
1111101000100111
1111111010110111
1111101110000100
1111100101000111
1111101111101001
0000101000001010
0000101010100001
0000001010001001
1111110010000100
1111110010000110
1111100001001110
1111011011001000
1111111011100010
1111110101110010
1111110111000110
1111110101101000
0000000000010100
0000000011100011
0000000000011100
1111111111110111
1111111111101100
1111111101111000
0000001001110101
1111111011110111
1111111110000011
0000000101001001
1111110111001101
1111101110001111
1111101110011100
1111110001111000
1111110101100001
1111110010001110
0000001001000010
0000100000010100
0000011001001010
1111111010111101
1111101010100111
1111100001110110
1111100110101100
1111110001101011
0000001100110011
1111101110110010
1111110001010111
1111111010111100
0000000011000001
0000000000011101
1111111110101110
1111111111111000
0000000000000110
0000000000001101
0000001001101110
1111111011110101
0000000000010101
0000000111111100
0000001100110101
0000001000000110
1111111001111101
0000000111000111
0000001010111100
1111110111111100
0000000110001110
0000011011110111
1111110111101100
1111101110101100
1111011111011010
1111110101110110
1111110011000010
1111111100001000
1111110100001001
1111110001111100
1111111000010100
0000000001000101
0000000110110100
0000000000011101
1111111111010100
0000000000100110
0000000000010000
0000000000011010
0000000101000100
1111110111001011
1111111011001000
0000000011000110
0000001100001000
0000000110111110
1111111010101001
1111101111000111
1111110110110001
0000000000110100
0000001011011000
1111111011001100
1111111110001010
0000000010111010
1111111110110011
0000000101001111
1111111110010101
1111101110111010
1111101110110110
1111111101100000
0000000010111001
0000001000000100
0000001000110101
0000000000101011
1111111111101110
1111111111100011
1111111111011110
0000000000010010
0000000010110000
1111111001000100
1111111100100010
0000001011111011
1111110100101011
1111111011111100
1111111111101100
1111101001010011
0000000001100110
1111110100000101
1111110011011011
1111101010001001
1111110101011011
1111111101010001
0000000000111001
1111111111001110
1111110110101001
1111111000000000
1111111111100001
0000001111110100
0000010001111000
0000001001110100
0000001000010101
0000000000011110
1111111111111101
0000000000000110
1111111111100101
0000000000101111
1111111101110001
1111111100110000
1111111011100010
0000001000011000
0000000110010010
0000000001001110
0000000100101110
0000001110110101
0000011011100000
1111101010010101
1111100101010001
1111010111000101
1111101111100001
0000001000011001
0000001100101000
1111110111001110
1111111110001010
1111111011101011
0000000110110010
1111111110101101
0000001001000001
0000001010101001
0000000101100100
0000000000000111
0000000000011001
0000000000000101
0000000000010000
1111111111111111
1111111111111110
1111111100111010
1111110001011100
1111111010110101
0000010001101001
0000001100001010
0000000101001111
0000001000011010
0000001000010111
1111100011010110
1111101010110111
1111101110110011
1111101010101000
1111111101000111
1111101100011111
1111111101011110
1111111111101011
0000000001011101
1111111111110000
0000000000110011
0000000110110001
0000001001101000
0000000101000000
1111111111100110
1111111111001110
0000000000011000
1111111111101110
1111111111101000
0000000001001010
0000000010100010
1111110110100101
1111110100001100
0000000010010101
0000001100001011
0000010011100011
0000001100100001
0000000110010011
1111111110000110
0000000001100110
1111110101010010
1111101001000000
1111110001100100
1111110001110011
0000000011001010
0000001000011111
1111111011101110
1111111101010110
0000000100100110
0000001000010110
0000001001011100
0000000011111001
0000000000001000
1111111111100011
0000000000000001
1111111111100100
1111111111100010
0000000001011101
0000000000101100
1111111111000101
0000000110100000
0000001100101110
0000001101000000
0000001000100011
0000001000110000
0000000011010111
1111111101011001
0000000000010100
1111111010011101
1111100001111111
1111101000010101
1111111001110010
1111111110101110
0000000111000101
0000000110110010
0000000110101100
0000000110011111
0000000101101011
0000000100001010
0000000000011100
0000000000001110
1111111111111011
1111111111110111
0000000000001001
0000000000001010
0000000000011111
0000000000001011
0000000100101011
0000000100111000
0000000011110011
0000000000010100
1111111111011100
0000000010110000
1111111110101110
1111111110100100
0000010011101100
0000000100100101
0000000011001011
0000000111011011
0000000010101011
0000000101011000
0000001101011111
0000000111011000
0000000010101011
0000000101000000
0000000110011011
0000000011110000
0000000000101011
1111111111100111
1111111111101111
0000000001001100
1111111111110001
0000000000010100
1111111111110110
0000000000110010
0000000001001101
0000000000000010
1111111101011100
1111111001111011
1111110111000011
1111111010010001
0000000000110000
1111111101010100
0000000100101110
0000000110101000
0000000010000111
0000001000010001
0000000010110100
0000000101101101
0000000110100101
0000000100011100
1111111111010110
1111111110110010
1111111111110010
1111111111110011
0000000000001001
0000000001001010
0000000000000000
1111111111110011
0000000000000110
0000000000010100
0000000000000100
0000000000101010
0000000000010011
0000000000011110
0000000010010111
0000000001110011
1111111111101010
0000000000001000
1111111111000001
1111111111100011
0000000000010100
0000000001100101
0000000001100110
1111111111010001
1111111110110010
1111111110001000
1111111111110101
1111111111000001
1111111111111000
0000000000001101
0000000000000110
1111111111100110
1111111111110111
0000000000000011
1111111111100010
