1111111111101000
0000000000000101
1111111111101010
1111111111111000
1111111111001110
0000000000001110
1111111111101000
1111111111010011
0000000000011011
0000000000100001
0000000000000010
1111111111101001
1111111111110011
1111111111111011
0000000000101011
0000000000110100
0000000000111000
1111111111100001
0000000000101100
1111111111110111
1111111111111100
0000000000001111
1111111111111110
1111111111101110
1111111111011000
0000000000000111
1111111111000101
1111111111110111
1111111111111111
0000000000111101
0000000000010100
1111111111110000
0000000000110110
0000000000000000
1111111111011101
1111111101100000
1111111110000001
1111111111000111
1111111101110011
1111111101100111
1111111010110011
1111111100001100
1111111100011001
1111111010001011
1111111010011100
1111111100000001
1111111110000110
1111111101000011
1111111101101010
1111111111001010
1111111110101110
1111111110011100
1111111111111111
0000000000000101
1111111111110000
1111111111001111
0000000000010011
0000000000100001
0000000000101111
0000000000011111
1111111111000101
1111111111110101
1111111101001100
1111111011011100
1111111010110111
1111111010101000
1111111000011011
1111110100011001
1111110011111111
1111111110101111
1111110001111001
1111110111000110
1111110101100100
1111101110100001
1111110100100001
1111111000001001
1111111010110110
1111111000011100
1111111101001110
1111111110000110
1111111111100001
0000000000001110
0000000001011001
1111111111011111
0000000001000100
1111111111111010
0000000000001011
0000000000001000
1111111111000100
1111111110101010
1111111100011001
1111111000010101
1111110001001100
1111101100111111
1111110110001101
1111110100011111
1111111010000100
1111111001010010
1111111101111010
0000000010000010
1111111111010010
0000000111010100
0000001110000001
0000001000001001
1111111101100100
1111110110010010
1111111111011001
0000000001010011
0000000001011000
0000000011101111
0000000001000110
1111111111011011
1111111111100010
1111111111001011
1111111111100010
1111111111100111
1111111110000000
1111111101010110
1111111011110000
1111110100101001
1111101001001100
1111011101010100
1111101110000111
1111110110010010
1111111100010100
1111110111100001
1111110110000101
1111111001010110
1111111000110011
1111110100010110
0000000011101010
1111101110011011
1111111011011010
0000000001101001
0000001000011110
0000001001101001
0000000010101101
1111111110000100
1111111100110101
1111111101111100
1111111111101000
1111111111001010
0000000000001100
1111111111011001
1111111101111111
0000000011010101
1111111111011100
1111111010111001
1111110011101001
1111110000001111
1111101010001110
1111101011000101
1111101100001010
1111101100011010
1111100100001010
1111101100100000
1111110010001101
1111110100100111
0000001000011101
1111101101100011
0000000001111101
0000001011000001
0000001010010001
0000000101010110
1111111100001011
1111110000001001
1111111001000101
1111111101011101
0000000000100101
0000000000001110
0000000000101010
1111111111011111
1111111111010000
0000001100101001
0000010000111100
1111111111001010
1111111001100001
0000000100001100
1111111011110000
1111011110110101
1111110000000101
1111111100001100
1111111011100110
1111110011010011
1111110111101010
1111110100010011
0000000111100100
0000000001100101
0000001001011100
0000000111000111
0000000110001001
1111111110111001
0000001011111000
1111111111010010
0000000011111010
0000000000000111
0000000000000000
0000000001010011
0000000010000011
0000001000010001
0000001001010001
0000000110010100
0000001101100100
0000000011001011
1111111010000100
1111111100000010
0000000010111110
1111100111010000
1111111010000101
1111110100011101
0000000001110010
1111101101101100
0000000110110001
1111111011101001
1111111001100101
0000000011011000
0000000101000100
1111110100111010
1111110100111001
1111111101001101
0000001010101011
1111111100001101
0000000100110101
0000000000110001
1111111110100110
0000000010111001
0000000011111010
0000000010010110
0000000001001010
1111111110011001
1111110111100100
1111111000111110
0000001000111011
0000000000101101
1111110010101100
0000000010110101
0000010000111000
1111111011111011
1111110010010101
1111111000011000
0000000001110101
0000001001000011
0000001000101100
1111111010111010
0000001111111100
1111111110000100
0000000001110110
1111111110000010
1111111111010011
1111111000010110
0000000011101011
0000000000110001
1111111111111001
0000000100010010
0000000010011111
1111111101101101
1111111001110110
1111111000011000
0000000001110111
1111111000000000
0000001011000111
0000000111001000
0000000001001111
0000001101101011
0000000011000001
0000000100111001
0000000000110001
1111110111010110
0000000011100000
0000001110111010
0000000101011010
1111110100010111
0000010001011001
0000010000011111
0000000100011001
1111101011000001
1111111000011010
0000000001011001
0000000010000011
0000001010110110
0000000000010001
0000000011011110
0000000000001010
0000000110110010
1111111111101110
0000000101010001
0000001110100100
1111111000011101
1111110111010111
0000010011101111
0000010011000100
0000001111111000
1111111011011000
0000011111111110
1111101111111100
0000000110000001
0000010010010001
0000001110000100
0000001111101010
0000000100010100
0000001101001100
0000010101110010
0000000000101100
0000000000110111
0000000011001111
0000010000001010
0000000101010101
0000000010111000
1111111111100000
0000000001110010
0000000100010100
0000001100101010
0000001110010010
0000011001010001
0000010010101010
1111111101111101
0000000010100111
0000001110010000
0000000111110100
0000010101100001
1111101011001001
1111111111010111
0000000110011110
0000001101101010
1111110010010111
0000011001011011
0000000001010001
0000000001111010
0000001000100010
1111111101101000
0000000100111111
0000001000110111
0000000000010100
0000000110100111
0000000000010000
0000000000000100
0000000000110001
1111111111101110
0000000010011011
0000000111101100
0000000101011010
0000001000000110
0000000011110110
0000010110000110
0000100001000010
0000001011011100
0000001100001111
1111101110101010
1111011110010010
1111111100111111
1111111100010101
0000000001011011
0000000010010010
1111111011000000
1111111100000110
0000000111010110
1111111101101010
1111110110110100
0000001000100000
1111110110011110
1111111000000110
0000001001100100
0000000101010010
0000000001001011
0000000000010011
1111111111101100
0000000011001100
0000000100010110
0000000100010111
1111110110110011
0000000001111010
1111111101101001
1111101100110001
1111110000000100
1111100100011111
1111100011011000
1111110010110011
0000000001011101
0000001011011101
1111110100110000
0000000100011110
0000000111000111
1111111011001110
1111110011110100
0000000100100011
1111110110001111
1111111000101111
1111101101000100
1111111001101000
0000000001001101
0000000000010011
1111111111000101
0000000000011100
0000000000010111
0000000001010000
0000000010111010
0000001001110010
1111100110110100
1111101011110111
1111101000111110
1111011100111110
1111011011010110
1111101111110011
1111011101011010
1111111001110001
1111101010011000
1111110100110010
1111110000110011
0000000001001010
0000000000111010
1111101011101110
1111111100111011
0000001110110000
1111101111010010
1111110010001110
1111111000111111
1111110110100010
1111111010000101
0000000010000000
1111111111000111
0000000000000101
1111111111010100
1111111111011011
0000000100011000
0000001011100011
0000010001010001
0000000111010111
1111110101010011
1111101100111010
1111110010010000
1111011101011100
1111101001010010
1111110101011010
1111101110000110
1111101111101010
0000001110000111
1111110000111011
0000010011010111
0000001110111100
0000010010100010
0000000100111110
1111101010010111
1111101111011010
1111111100000111
1111110101100111
1111110101010101
0000000101111001
0000000000100000
0000000000011010
1111111111111111
0000000000001010
0000000100100001
0000010110101000
0000010100100111
0000000111011111
0000100111000000
0000110110111100
0000101111100110
0000000011100010
1111100101000010
0000000101010100
1111110101101010
1111101011100011
1111110011101111
1111011111110001
1111111010111110
0000001101011111
0000011111001010
0000001001010010
1111111111110000
1111111001011110
0000000001010101
1111110100100010
1111110110110110
0000000101010110
1111111111011001
1111111111110100
1111111111011100
0000000000100000
0000000001011001
0000001111001111
0000011110011010
0000100010001110
0000100000010001
0000110000001000
0001001001111111
0000101001110101
0000100100110010
0000100000110000
0000001110000011
1111111000111000
0000000100001110
1111111001100110
0000001110101001
0000010010101101
0000001000001100
0000000111101001
0000000010011011
1111110111010100
1111110000000100
1111101101001110
1111111110100000
0000000000100100
0000000000100111
0000000000011000
0000000000001010
0000000001101011
0000000001011000
0000000110101011
0000001110001001
0000001000011111
0000001110001010
0000001110111110
0000000101011001
0000101100000010
0000111110100000
0000100001010110
0000011100011110
0000010011010001
0000000100110011
0000000100010010
0000001010000011
0000000000010010
0000001000111000
0000010001110111
1111110100101111
1111101011010101
1111101011000110
1111101101111110
1111111111001101
1111111111000111
0000000000110111
0000000000100110
1111111111110001
0000000010000101
1111111000111011
1111110110100010
1111111010110110
1111110001110100
0000010001000001
1111101110101100
1111100011001111
1111101001100011
1111110001010100
1111111011110010
1111101110110001
1111101100111110
1111100101010111
0000000100111100
1111111001100110
1111110101100010
1111101111101001
0000000010111100
1111111000110111
1111101111001110
1111101101011111
1111111010101111
0000000010001001
1111111111010100
1111111111010001
1111111111111010
1111111111100001
1111111110010001
1111110100000101
1111101011000101
1111101111110001
1111101101101011
1111100111000010
1111100101000010
1111110011001011
1111011000100110
1111011110100111
1111011000001110
1111100010000110
1111100011101001
1111101101100111
1111110011100111
1111110101011010
1111101111001000
1111110101011100
1111111011101110
1111111101100100
1111111001110010
1111111001110100
1111111110101101
0000000001010010
0000000000001011
1111111111110001
1111111111010100
1111111111000011
1111111101110011
1111110101010001
1111101011011010
1111101011111110
1111100101110101
1111011001111111
1111100101000000
1111101110000000
1111110010011110
1111010100111101
1111100010100010
1111101010010100
0000000100100111
1111111101100110
1111111101010001
0000000111000011
0000000101000101
1111111000001000
1111111010100010
1111111111010111
1111111100101110
1111111001010101
0000000101010000
0000000000011010
1111111110011000
1111111111001100
1111111111011110
0000000000100101
1111111111000010
1111111010111110
1111110010000011
1111101110011111
1111101010101010
1111111110101111
1111111101000101
1111111011011110
1111111000111000
1111100010110001
1111111111001110
1111111110011110
1111111010000101
1111111010111111
1111110101010101
0000000001000100
1111111111001010
1111100001111010
1111101110010101
1111110110000110
1111111011011111
0000000010110011
0000000100010011
0000000001001010
1111111111100101
0000000001100000
1111111111101110
1111111111100010
1111111111000000
1111111110111010
1111111110111001
1111111100011010
1111111000101011
1111111100000011
1111110011101100
0000000110110111
1111110001001001
1111100011100111
1111100111100111
1111110001000011
0000001011010000
1111111101000001
1111101110100110
0000000100010000
1111111011011010
1111110011001100
1111110110110000
1111110110001011
1111111110000010
0000000110010011
0000000100001100
0000000000001100
0000000000011010
1111111111110000
0000000000001100
1111111111011110
1111111110111111
1111111111100011
0000000101111011
0000000011001010
0000000001101001
0000000100101111
0000000001101001
1111111011111110
1111111101101010
1111110111000101
1111110011011001
0000000100100001
0000000011010010
0000001010001110
1111110110101111
0000001110001001
0000000001111011
0000000010110111
0000001000100001
0000001000010101
0000000101011111
0000000111110111
0000000010001110
0000000000001010
0000000000001111
0000000000001100
1111111111111010
1111111111111011
0000000000001111
0000000000100011
0000001000010100
0000001001011010
0000001000111010
0000010000101000
0000001111011100
0000011000110010
0000000101101111
0000001111100111
0000011011110101
0000001100100110
0000000011001010
0000000101111101
0000010000101001
0000000010000001
0000010001011001
0000000100011001
0000000000011010
0000000010000110
0000000100001001
0000000110011100
0000000010101100
0000000000010100
0000000000000000
1111111111111011
0000000000011110
0000000000110111
1111111111000101
0000000000000000
1111111011000010
1111111111110111
0000000100011101
0000001010111111
0000001011101011
0000001001000111
1111111101110111
0000000011000001
1111111101010001
1111111010101011
0000000111000100
0000001100000011
0000010111100001
0000000010101001
0000000111110110
0000000101101011
0000000010011101
0000000110001011
0000000010111010
1111111111010001
1111111111101000
1111111111111100
0000000000010000
1111111111110000
1111111111111010
1111111111011101
1111111111110101
1111111111100010
0000000000110001
1111111111000011
1111111111101111
0000000000001000
0000000000010110
0000000001101100
0000000010101010
1111111111110010
1111111110110001
0000000000010100
0000000000100000
1111111010101011
1111111011100001
0000000000101011
0000000001101101
1111111111000010
0000000000101010
0000000001111011
0000000001110110
1111111111101010
0000000000000011
1111111111101110
1111111111110110
1111111111111011
