0001100111101011
1111110010101110
1111111010111100
0000111001110100
0000010110010010
1111001101010011
1110111110110000
1111111110100100
0000101100010011
1110111100010101
0000011011000101
1111100000010110
1110000001111101
0000111101101010
0001001010111000
1110001000111011
0000010110010000
1110101000111011
0000010101101011
0000101011000111
1100111001000101
1111101010001000
0000011111110010
0000000001011010
0000010111110011
0010001110101010
0001001001001100
0000111011010110
1111001111110010
1111111011101111
