0000100011010110
0001010100010001
0000011001010000
1110110101111001
1111110111111010
1111011010011010
0000101011010001
1111100110101010
0000011010000101
0000001111100110
0001010010010010
1111100000111011
0000000110010100
1111100101100110
1111101111111001
0000000100100001
0000100010110110
0000001110000000
1111101011001000
0000010111010001
1111001000101101
1110010110010001
1111101111100101
0001000001000111
1111111100111110
0000000110011000
0000010110011110
0000101101010110
1111110100100110
1111010000111001
