1111111111110111
0000100111111001
0000011001101110
1111110101000101
0010010000000101
1101111000100000
0000100001011010
1111101111001110
1111110010000100
0000100001000111
1111111100111010
1111000010010010
1111000011001101
1111111110000000
0000010011001000
1110101100000100
0001000000000111
0000010111011010
0001011101010010
1110100110001101
0000010110100100
1111110110100100
1110111001010011
0001000000011110
1111111010110000
0000100011101011
0001000001001100
0001001010011001
1111000111000101
0000101011101001
