1111100110101111
1111111000110110
0000101110001001
1111101011101101
1111110000001101
0000100111000001
1111111110000001
1111100001100011
1111111101110011
0000010010011011
0000000001101111
0000000100000011
0000001001010101
0000010001000000
0000010010010001
1111110001011110
1111101010010001
1111110001010101
0000001110011010
0000011001011000
1111110110110100
0000000111101101
0000010100111000
0000100111100000
0000001000101110
0000001101001100
0000001101011000
0000001000011001
0000001101101000
1111011111100111
