1111101010010001
1111000011100111
1111110111010000
0000101001011010
0001101101110110
1101111000100101
0000111011111110
0000000001000010
1111001011100111
1110101011111000
0000010110110101
1111100011100001
0000011000101111
1111011111010101
1111001101100101
0001010000100110
0000110011101011
0000101111011011
0000110111000010
1110101110110111
1111101111001011
1111011111110111
1110101011110101
1111101111101111
0000100001111111
1111001001011001
0000101010100101
0000010000110101
1111001001010110
0000000101011001
