1111000000101000
0000000100000111
1111010011110010
1111111011011010
0000101000011010
1111110000011010
1111110001101101
0000000011110101
1111011110011100
1111100101011010
1111011001100011
0001000010001000
0001011011000111
0000000101111100
1111101011010100
0001100101111110
0000110001001100
0000000001111101
1110101111100110
1111011011110010
0010000011001100
0000011011100011
1111100001011100
1111100101101110
1111110010101101
1111001110101000
1111111000101110
1110100110000110
1111000100111100
0001111100010111
