0000011110010001
1111110001011100
1111101101101001
0000001001011111
1111011001101100
0000000111100101
1111111110111000
1111100100001100
1111110101001010
1111110101010110
0000100010101011
0000001011010001
1111011110011111
1111111110101111
1111000111110110
1111010101011000
0000000100100100
0000010000011110
0000100111100011
0000001011010000
1111001110001001
1111110001010110
0000000011110111
1111011001111010
0000010010110011
0000000111101111
0000001010011001
1111100100101001
0000010111000111
1111100100100110
