1111011011001001
1111001101111010
0000010111000110
1111111010110010
1111001111001101
0001000100101111
1111101000000111
1111110001100000
1111110010010100
0000100010001100
1111110010001111
0000011000101011
0000010001010000
0000000000110110
1111110001001001
0000001000110000
1111001100100111
1111110001110101
1111110111011011
0000101000100111
0000010011001011
0000100000011000
0000000000111011
1111100110010111
1111111111000001
1111101110000011
1111001011110010
1111011101011000
0000101110110010
1111100010011011
