1111100010011010
1111100101001100
0000010011010000
0001000110011101
0000010011111101
0000010001101101
1111011101111101
0000010001010001
1110111110001000
1111001110111000
1110100111001110
0000000000010000
1111111110100000
0000000110101011
0001000101111110
0000001110000001
1111010101000100
1111110111011010
1111110100001011
1111010010111100
1111110011000010
0001001010011101
1111101000000100
0000010101100000
1111110101111110
1111101001011100
1111111011010110
0000001000000010
0000000101011101
0000100101011101
