1111101000110011
1110100110111000
0000101110110001
0000110000100110
0000011101111100
0000001111101111
1111011100110111
1111010100000001
1111111110101100
1110110100100011
1111100100001001
1110100011011010
1110111100001011
1110100100100111
0000010001011011
1110011000111001
1111000000010101
0001000001010011
0001001001111101
1111011010100010
1111111001011011
0000111011000011
1111101010100001
0000100001010101
0001100111100111
0001011100000000
0000001101000010
0000101101010101
0000111101010001
1110110011100010
