1110100010001101
1111111101111001
0001001011111001
0000000001111110
1111111101010101
0000000010101001
0000010000011010
1111100011001111
1111100010100001
0001010101111010
1111011101010010
1111100011000111
1111111000001011
1111011101100111
0000111111011110
0000010010110100
1110110100011111
1111101001010011
1111101000010110
0000000000010100
0001001111101010
0000101000010000
0000011100110001
0001001000001111
0000011000001100
1111010010100111
1111111111101000
0000101011100100
0000001110101001
1110101010100110
