1111110110101010
0010000111111100
1111101000101000
1111100100101111
1110110111111011
0000111100010110
1111110111110001
1111101011101010
1111100111100000
1111001100100100
0000000011001110
0001011101100010
0000111010100111
1111011100010111
1111011110010101
0000110001111001
0000000000100000
0000101000010000
1110001110110010
0000010001010111
0001000100011101
1111110111110100
0001010001010001
0000001010011000
0000010000101111
1110110101001110
0000100110110011
1110100100010001
1111010110111010
0001000010001011
