0000100001001011
0000001100010100
1111001001010110
1111111101011001
1111001011100010
0000100000010011
1111011010111110
0000010010101100
0000010101111010
1111101000000100
0000001000100001
0000010000011100
1111101110100101
1111101001100000
1111101010101101
1111100001111011
1111111111010011
1111111001011000
1111010000000110
0000000110000010
1111110100110010
0000010110000011
0000101001000100
1111011100000110
1111110111011111
0000000101110010
1111110110001000
1111010110001011
1111111110010101
0000010111001010
