0000010111001101
0000010001011101
1110111110111010
0000000010010100
0000001011011111
1111011110001010
1111011101001101
0000011011110110
0000100111110101
1111111100010100
0000001110011111
0000000111100101
1111010100100001
1111100111111010
1111110110101000
1111110001100111
0000001101110100
0000001011000100
1111100111011000
1111110111111110
0000101001000101
0000000111111110
0000100101110111
1111010000101101
0000000111111011
1111111110011001
1111110100110111
1111110010111011
1111100001001010
0000110011001010
