1110101100101100
1111001100001110
0000100111011011
0000010111000000
0000011101010110
1111010000001001
0010001010111011
0000010110001110
1111111000000100
1111111011111011
0000000010011101
1111010000010000
1111010101110110
1101010010001011
1111011100111111
0001010011001010
0000001010100110
0001000110000001
0000000110000000
1111100111100111
0001101000001110
0000110001011101
1110111110000101
0000011100110010
0010100101000110
0000011101110001
0000010010001010
0000111110010000
0000000100110111
1110100110101111
