0000111011111110
0000000101101010
1111001101010111
0000000010110110
1111000000100111
0000100011101110
1110110110000110
0001011101011000
0000100111111010
0000100010011010
1110111011110101
0000111011101100
1110100101001010
1111110010010101
0000101100110110
1110101101000101
1111011000000001
1111101001110100
1111110110100100
1111001010001110
1110111000000101
0000011110011101
0000100000000010
1111000001001001
1111101101000001
1111111000110010
1110100110100100
0000101000000010
0000011000110110
1111101100011101
