1111111011010001
0000001100001111
1111001011011011
1111100101001000
1111111000111010
1111101100111000
0000001111111110
0000011000000111
0000001101001110
0001011000000111
1111101111101110
0001000011011100
0000100100000010
0000000110000111
1111100111011001
0001000101101101
0000001011110101
1111101100011001
0000001001111110
0000100100000001
0000100011111011
0000001110001000
0000001100110100
1110111000010001
1111101100110010
1110011100100101
1110110010011111
1111110111101101
0000000000011011
0000010011111111
