0000000111111011
0000000000100011
0000011111100101
1111001001100111
1111111111000111
1111000101101000
0000110011111101
0000011101000100
0000110110110100
0001001100010011
0001010010111101
1110110010100110
1110010110011010
1110101110010010
1111111111110001
1110101100001111
0000010111111110
1111110000010000
0000001111100111
1111110111111110
1111110001101001
1111010110100001
0000000100110000
0000101111101000
0000001001001110
0000111101111100
0000010000000011
0001001011010000
0000000100101000
1110111101011101
