0000001101010011
0001010111011110
1111101110011100
1110001111110001
1111100100000100
1111001111100001
0001000100100000
1111010001000000
0000111110101101
0000111011000111
0010000000101011
0000011001110010
0000000010111010
1111111010111100
1110001001011100
0000000111101000
0001010001011111
0000101110011011
0000100110010101
0000110110100101
0000000010101011
1101110101100110
0000000001010001
1111110100110000
0000001011011001
1111110000001100
0000100111111000
1111110101100100
1111011101110010
1111001111100101
