1111110011010111
0000000000111001
0000110000111111
0000010100000101
1111001110100011
0000100000100110
1111011101010010
1111000101100110
1111011001111111
1111000100110010
0000001100001101
1111101010100001
0000011000000001
0000101100100011
0000000000100110
1111010101011011
1111101101101101
1111100111010110
0000000001111100
0000000011100100
1110011010011101
1111111101111110
0000000010010010
0001000011100011
1111101000011000
0001000000010010
0001001111111001
1111100010011010
0000001010111100
0000000001000101
