0000011011100001
0000111101010110
1111000110010111
1111011110011000
0000011100011111
1111001100001000
1111101010010000
0000011110000001
0000111010010100
0000001100100010
0000100101111011
0000000111100111
0000100010001110
0000110111010110
1111100001101111
0000000011010100
0000110110110000
1111110110100010
1111101100100100
0000001101001100
1111110000110010
1111000010011110
1111100111110101
1111011111110010
1110111100000010
0000011000111110
1111110101100010
1111100010001011
1111000101010011
0001100010011101
