0000100110000001
0000011100001010
0000100111001001
1110111001011111
1111011011011000
0000111110111000
1111011011011010
1111011110100001
0000011011010110
0001110111100110
0000100100000111
0000001010100101
0000101011010101
0001010111011000
1111110110110101
1111101100011111
1111100000101101
1111001001010011
0001000110010100
0001100111100111
1110111000111111
1111001111110001
0000101101011001
0000001000100101
1110111110010110
1111101101110000
1110111111001111
0000001001100011
0001000110101101
1111001101110001
