0001001111101111
0000011001111101
0000001100010000
0000011110111010
0000000110000001
1111101010010000
1111011111101000
0000001000011101
0000101011101010
1111010101011110
0000100010010001
1111101010100001
1111000010001101
0000111001000110
0000100111000111
1110101110000100
0000010010110100
1111000001011100
0000000001001001
0000100001001010
1101110000011001
1111011010001100
0000011001000111
0000011110011110
1111110001100000
0001111010101110
0001000011011101
0000011110111101
1111100000111101
1111111111001111
