0000100011000111
1110101100100001
1110101010100000
0000001011000011
1111111001100010
0000011111001011
1110011100111000
0001110110101111
0001011011000011
0001011110111011
1111011001011010
0000110100111101
0000001001110111
0000101110101111
1111111010010000
0000011010111100
1111010111110100
1111000110101111
0000010100101101
0000101110001110
1111101011110110
0001011110100000
0000000011000100
1110000101010111
1110100111111110
1110010100110001
1101010001100000
0000011100100011
0000111100001000
0000001000100110
