0000011100111110
0001111011101010
0000111100100101
1110101010101101
1111110101111010
1111010111010111
0001010110001110
1111001001101101
0000100011001011
0000011010000111
0001101101101011
1111101101100110
1111110101010000
1111100110000000
1111101000000010
0000001001010000
0000101111100110
0000011101111110
1111111111101110
0000100011010101
1111010110011011
1101111111100000
1111111111100111
0001011110100111
0000010100101111
0000010110111110
0001000100100000
0000110101101000
1111111011000110
1110110111110110
