1110110010101011
0000100001100011
0001011000010010
0001001111010111
0001001011100110
1111011010000011
0000001100011111
1111001000001010
1110100011000001
1111101110101000
1110110001111100
1111010000000000
0000110101011000
1111101101011011
0001001011000011
0001001000001001
1111011011000100
1111111111101010
1111011101010010
1110111000100011
0000110000010011
0000101001001011
1111010110000011
0001110001110110
0000000001110000
1110111000011010
0000011001110000
0000000001101110
1111100111101011
0000110100110100
