1111010001001011
0000000000010001
0001010000000001
0001001010001101
1111100110010111
0001011110101000
1111110100000010
1111000010100011
1110011001100001
1110011111100101
1110010110010100
0000000000100100
0000101011100100
0000101000101010
0010010001110000
0000011001101110
1110100011101101
1111010111100000
1110110001101111
0000001110001111
0000001011011000
0001000100111100
0000100001100011
0001111011010111
1111100110110010
0000010000000011
0000010110001011
1111010110001001
0000001011011100
0000000101101001
