1111101011100100
1110100110010010
0001111011100110
0001101101100001
1110101000011011
1101000011110111
0000000110110001
1111010011011010
0000100101101101
0000101001101001
0000100100011111
1110110001010111
0000100000100111
0001001000110110
1111010010010000
1110101101000111
1111010011110111
1110001001011000
1110010111110100
0000111001110011
0000001001110100
0000011010000100
1111111000010011
0001100011011100
0001010000000011
1110101100000110
0001000000110011
0000101010011001
0000000000100100
0000101101011100
