0001001010100100
0001001001111110
1110011111100000
0000000100100000
0000110010001010
1111100111010110
1100111000000101
1111010100011101
0001100111100010
1101101000010011
0001101110111110
0001101000101000
1110010001011010
1111000110110101
0001000100110101
0000111100101111
1111001000010110
1111011010100110
0000010111111100
0000000000100001
0000001000111110
1111101010100100
1111111101001011
1111111000111110
1111000001000100
0000011011001010
0000110010010101
1101010101101011
0000010001110110
0000110101111100
