0010001011011110
0001000001101110
1101111111100100
1111101101111100
1111010110001001
0001011010011100
0000010111010010
0001001101011110
1111010100110111
1111011011011101
1111100100011100
0001011011000000
1111111110001011
1101011100011011
0001011100101000
1111110010010010
1111010010111001
0000101100100111
0000000011101000
1111101010000011
0000010001111001
1111101101100101
1111001011000001
0001101011001011
0000111001111001
1111000110110110
0010100110011100
1110010011000111
1111100101110000
0000010010000010
