0000010101011001
1111001011011101
0001100101111100
1111011111010001
1111111011010110
0000111010111010
0000101010101001
1110011101111010
1110000011011100
0010010111010110
0000011110011110
1110010101001010
0001111011010101
0001100110000111
0000100110100011
0001000110011101
0000010101000011
0001100010010100
1101110010001010
0001110000001000
1111110001100011
0000001101100000
1111100011100001
1111100001001010
1111000100111110
1111000110010100
1110000011001100
1110101010111100
0000001011101101
1110110001110100
