0000100100011001
0000010101111101
1111010110010110
0001001011101001
1111110110100001
1110100101110111
1111000010111101
1111110110110100
1110011001010101
1110011101010110
0010010001100100
0000000100001011
1110111011001100
0001000001001010
1111110011110000
1110100111110110
0000010001111001
1110101011011011
1110111011000111
0001001001000100
1111011010100010
0001001111011101
1111010011000000
1110010011010110
0000010001001100
0001001110110101
0001100100110010
0000011000001111
0000001101011110
1111110000110101
