0001001101010111
0000000110011110
0000110001100111
1110100110101100
0001001110000110
1111111110100110
0000001000001000
0000100001000101
0000001101100000
0001000001010010
1111110110101011
0000111100101100
0000110111001111
0000101000110001
0000000100001000
0001000100001110
1111110010101111
0000010010001011
1111001100110101
0000101010100111
1111111111110101
1111111001011111
0000010110110001
0001000001000110
1111010000110101
0000100110011100
1111110100101101
1101101000110110
1111110001100000
1111110011001010
