1101111001000010
1110111110010010
0001011100101111
1111110111011001
1111111001110101
0001011011000111
0001010100000011
0001100000011010
0000101110000110
1111111100110111
1110001101000111
0000111000101011
0000000110100100
1111100110101110
1100101101111010
1111111011000011
0000000000011111
0000011011011110
0001000101000111
1111110011111110
1111101110001101
0000100010010110
0001000010011101
0000111100110110
1110110110001101
0001000100010011
0001000101111010
1110111111110001
0000111010110011
0000010101110110
