0001000111010010
0000100010001110
1111000101111010
1110110011111011
0000100011011000
0000001110110101
0000100010111100
1111110100111110
1110110001100000
1111001010011010
0001111100100011
0000001100011011
1111001100010111
0001010010011010
0000101000001110
1111110111000100
0000101111011000
1111110001101011
0001110110101011
1111111011111100
1111101100001010
0000111000100000
1111111100011001
1101011101111100
1111110110101101
0001110011001110
1110100000011101
0010001010010100
0000010011101100
1111011000001100
