WIDTH=16;
DEPTH=784;
ADDRESS_RADIX=UNS;
DATA_RADIX=BIN;
CONTENT BEGIN
  0 : 1111111111100000;
  1 : 1111111111110101;
  2 : 1111111111111110;
  3 : 1111111111011101;
  4 : 1111111111101101;
  5 : 1111111111111110;
  6 : 1111111111110010;
  7 : 1111111111110111;
  8 : 1111111111111101;
  9 : 1111111111110100;
  10 : 1111111111110101;
  11 : 1111111111101000;
  12 : 1111111111001001;
  13 : 1111111111111100;
  14 : 1111111111111101;
  15 : 0000000000000000;
  16 : 1111111111101000;
  17 : 1111111111111101;
  18 : 1111111111111100;
  19 : 1111111111010011;
  20 : 1111111111011110;
  21 : 1111111111111101;
  22 : 1111111111110110;
  23 : 1111111111111110;
  24 : 1111111110111110;
  25 : 1111111111101001;
  26 : 1111111111110000;
  27 : 1111111111110000;
  28 : 1111111111100011;
  29 : 1111111111000101;
  30 : 1111111111111110;
  31 : 1111111111010101;
  32 : 1111111111010100;
  33 : 1111111111101110;
  34 : 1111111111101010;
  35 : 1111111111111101;
  36 : 1111111111010000;
  37 : 1111111111110101;
  38 : 1111111111100110;
  39 : 1111111111100100;
  40 : 1111111111111110;
  41 : 1111111111111110;
  42 : 1111111111101101;
  43 : 1111111110000001;
  44 : 1111111110110110;
  45 : 1111111111110001;
  46 : 1111111111100011;
  47 : 1111111111111011;
  48 : 1111111111101000;
  49 : 1111111111110001;
  50 : 1111111111111000;
  51 : 1111111111000011;
  52 : 1111111111111111;
  53 : 1111111111100100;
  54 : 1111111111110000;
  55 : 1111111111100101;
  56 : 1111111111110011;
  57 : 1111111111111111;
  58 : 1111111111111001;
  59 : 1111111111001100;
  60 : 1111111111111001;
  61 : 1111111111110110;
  62 : 1111111111111111;
  63 : 1111111111111111;
  64 : 1111111111111101;
  65 : 1111111111111110;
  66 : 1111111111111100;
  67 : 1111111111100000;
  68 : 1111111111001010;
  69 : 1111111111000000;
  70 : 1111111110101000;
  71 : 1111110001001101;
  72 : 1111111111010000;
  73 : 1111111110001101;
  74 : 1111111100100011;
  75 : 1111111100100100;
  76 : 1111111100001101;
  77 : 1111111110001100;
  78 : 1111111111101101;
  79 : 1111111111101100;
  80 : 1111111111110100;
  81 : 1111111111101101;
  82 : 1111111111100001;
  83 : 1111111111110010;
  84 : 1111111111111101;
  85 : 1111111111111110;
  86 : 1111111111000110;
  87 : 1111111111111100;
  88 : 1111111111110011;
  89 : 1111111111110101;
  90 : 1111111111111010;
  91 : 1111111111011011;
  92 : 1111111111111111;
  93 : 1111111111110001;
  94 : 1111110001001101;
  95 : 1111101101010110;
  96 : 1111110011010010;
  97 : 1111110100101011;
  98 : 1111110011011111;
  99 : 1111111001010110;
  100 : 1111111111111010;
  101 : 1111111010101000;
  102 : 1111111001001000;
  103 : 1111110010001101;
  104 : 1111111111000111;
  105 : 1111111111001010;
  106 : 1111111100000010;
  107 : 1111111110100101;
  108 : 1111111101010111;
  109 : 1111111111101000;
  110 : 1111111111101110;
  111 : 1111111111010111;
  112 : 1111111111110001;
  113 : 1111111111100010;
  114 : 1111111111111101;
  115 : 1111111111111000;
  116 : 1111111111101001;
  117 : 1111111100111111;
  118 : 1111111011010110;
  119 : 1111111000110010;
  120 : 1111110111101011;
  121 : 1111101101101011;
  122 : 1111100001110111;
  123 : 1111100010110000;
  124 : 1111110001001001;
  125 : 1111111000111110;
  126 : 1111110010101101;
  127 : 1111101000111010;
  128 : 1111111010100111;
  129 : 1111111010110011;
  130 : 1111110101111000;
  131 : 1111111111000110;
  132 : 1111111100011111;
  133 : 1111110111011010;
  134 : 1111110111011110;
  135 : 1111111101000111;
  136 : 1111111010111111;
  137 : 1111111011111000;
  138 : 1111111110001111;
  139 : 1111111111111011;
  140 : 1111111111110001;
  141 : 1111111111110100;
  142 : 1111111111100100;
  143 : 1111111111101011;
  144 : 1111111101000000;
  145 : 1111110011101110;
  146 : 1111110000011000;
  147 : 1111110010110011;
  148 : 1111111001100100;
  149 : 1111101101110110;
  150 : 1111101100011000;
  151 : 1111100111111001;
  152 : 1111101110000011;
  153 : 1111100101101010;
  154 : 1111100101010011;
  155 : 1111111011000011;
  156 : 1111101101110010;
  157 : 1111100111001100;
  158 : 1111100101010111;
  159 : 1111111001101101;
  160 : 1111111000100000;
  161 : 1111111000100010;
  162 : 1111110100010100;
  163 : 1111111010001101;
  164 : 1111111100110010;
  165 : 1111111010110011;
  166 : 1111111111100010;
  167 : 1111111111011101;
  168 : 1111111111011101;
  169 : 1111111111010101;
  170 : 1111111111110011;
  171 : 1111111111000101;
  172 : 1111111010111011;
  173 : 1111101100010111;
  174 : 1111100111010101;
  175 : 1111101011001111;
  176 : 1111011111110010;
  177 : 1111100000100011;
  178 : 1111100110100101;
  179 : 1111010111001110;
  180 : 1111100100110010;
  181 : 1111011110000011;
  182 : 1111101100000111;
  183 : 1111110100111111;
  184 : 1111101010111110;
  185 : 1111111011001101;
  186 : 1111101111001010;
  187 : 1111111101010110;
  188 : 1111111111111100;
  189 : 1111111100011000;
  190 : 1111111000111001;
  191 : 1111111011111101;
  192 : 1111111111011111;
  193 : 1111111111010100;
  194 : 1111111111111001;
  195 : 1111111111110100;
  196 : 1111111111000110;
  197 : 1111111111010110;
  198 : 1111111111110001;
  199 : 1111111011100100;
  200 : 1111111101011011;
  201 : 1111111010110100;
  202 : 1111101000010011;
  203 : 1111100101101011;
  204 : 1111100000101111;
  205 : 1111101011111011;
  206 : 1111100011110110;
  207 : 1111011100010100;
  208 : 1111011000110110;
  209 : 1111011011000111;
  210 : 1111111101011011;
  211 : 1111101011010000;
  212 : 1111111111101101;
  213 : 1111111111011011;
  214 : 1111111011010001;
  215 : 1111110111011110;
  216 : 1111111111101100;
  217 : 1111111100001011;
  218 : 1111111111001001;
  219 : 1111111111100000;
  220 : 1111111111011001;
  221 : 1111111101110101;
  222 : 1111111111000001;
  223 : 1111111111111100;
  224 : 1111111111111110;
  225 : 1111111111010110;
  226 : 1111111110100111;
  227 : 1111111011001101;
  228 : 1111111010010010;
  229 : 1111111100001011;
  230 : 1111111100111010;
  231 : 1111110010111011;
  232 : 1111101111011100;
  233 : 1111110110000111;
  234 : 1111110001101010;
  235 : 1111010010101011;
  236 : 1111001110001011;
  237 : 1111110010000100;
  238 : 1111011111111110;
  239 : 1111010001000111;
  240 : 1111111110110000;
  241 : 1111111111001100;
  242 : 1111011000111000;
  243 : 1111110011111010;
  244 : 1111100100101001;
  245 : 1111110011100010;
  246 : 1111111011100100;
  247 : 1111111101100000;
  248 : 1111111010101010;
  249 : 1111111100010111;
  250 : 1111111111110100;
  251 : 1111111111110011;
  252 : 1111111111111110;
  253 : 1111111110111101;
  254 : 1111111111001011;
  255 : 1111111001010101;
  256 : 1111111110011101;
  257 : 1111111101101101;
  258 : 1111111010011011;
  259 : 1111111111101111;
  260 : 1111111101100001;
  261 : 1111111100011101;
  262 : 1111111110110111;
  263 : 1111110100101101;
  264 : 1111011110000111;
  265 : 1111101101000011;
  266 : 1111010110100011;
  267 : 1111000111110100;
  268 : 1111110101001111;
  269 : 1111011111001100;
  270 : 1111010011111110;
  271 : 1111101100111010;
  272 : 1111100011111101;
  273 : 1111111110011010;
  274 : 1111110111011000;
  275 : 1111111101000011;
  276 : 1111111111100101;
  277 : 1111111111111001;
  278 : 1111111111101000;
  279 : 1111111111110101;
  280 : 1111111111111001;
  281 : 1111111111100000;
  282 : 1111111110101111;
  283 : 1111111101011100;
  284 : 1111111011001110;
  285 : 1111110010011100;
  286 : 1111110111100000;
  287 : 1111100001001111;
  288 : 1111111010101101;
  289 : 1111101000011101;
  290 : 1111111110011100;
  291 : 1111111110011111;
  292 : 1111111100101101;
  293 : 1111111001101101;
  294 : 1111101001010011;
  295 : 1111001101010011;
  296 : 1111101001101100;
  297 : 1111101100110110;
  298 : 1111111011101101;
  299 : 1111111100010110;
  300 : 1111111000001101;
  301 : 1111111001000100;
  302 : 1111101111100110;
  303 : 1111111101011011;
  304 : 1111111101101110;
  305 : 1111111100101110;
  306 : 1111111111111011;
  307 : 1111111111110110;
  308 : 1111111111110110;
  309 : 1111111111110110;
  310 : 1111111111110000;
  311 : 1111111110000010;
  312 : 1111110101011011;
  313 : 1111100001001001;
  314 : 1111100001111110;
  315 : 1111100101011111;
  316 : 1111100001111001;
  317 : 1111100011110111;
  318 : 1111100101000111;
  319 : 1111111011011001;
  320 : 1111111110100011;
  321 : 1111110000001011;
  322 : 1111100111011111;
  323 : 1111111111101100;
  324 : 1111111111011010;
  325 : 1111111010100000;
  326 : 1111111011111011;
  327 : 1111111101111000;
  328 : 1111111010101000;
  329 : 1111111101111010;
  330 : 1111110111010101;
  331 : 1111111000001010;
  332 : 1111111111111000;
  333 : 1111111100000000;
  334 : 1111111110001101;
  335 : 1111111111111101;
  336 : 1111111111000101;
  337 : 1111111111011011;
  338 : 1111111111111100;
  339 : 1111111111011010;
  340 : 1111111000001100;
  341 : 1111111101010011;
  342 : 1111111010100111;
  343 : 1111111101011100;
  344 : 1111111010101000;
  345 : 1111100101111110;
  346 : 1111111110000100;
  347 : 1111100001001000;
  348 : 1111111100000001;
  349 : 1111111101100010;
  350 : 1111111010011111;
  351 : 1111110011111100;
  352 : 1111111110011001;
  353 : 1111111101000111;
  354 : 1111110101111011;
  355 : 1111111001110001;
  356 : 1111111001011111;
  357 : 1111111110101011;
  358 : 1111111110001110;
  359 : 1111111010010101;
  360 : 1111111111000010;
  361 : 1111111011110110;
  362 : 1111111111110101;
  363 : 1111111111110001;
  364 : 1111111111110101;
  365 : 1111111111011010;
  366 : 1111111110100001;
  367 : 1111111101110011;
  368 : 1111111111101011;
  369 : 1111111010101010;
  370 : 1111111000110000;
  371 : 1111111100001111;
  372 : 1111111001100100;
  373 : 1111111001001000;
  374 : 1111111100000111;
  375 : 1111111000001110;
  376 : 1111111111111110;
  377 : 1111111000101111;
  378 : 1111100011000101;
  379 : 1111111111110001;
  380 : 1111111110000100;
  381 : 1111111101011111;
  382 : 1111111000011010;
  383 : 1111111111000101;
  384 : 1111111111101100;
  385 : 1111111111111001;
  386 : 1111110001111110;
  387 : 1111111100101111;
  388 : 1111111110100111;
  389 : 1111111100101011;
  390 : 1111111111111000;
  391 : 1111111111101110;
  392 : 1111111111110010;
  393 : 1111111111110011;
  394 : 1111111110100110;
  395 : 1111111100001100;
  396 : 1111111111110011;
  397 : 1111111110001010;
  398 : 1111110010111001;
  399 : 1111110011101111;
  400 : 1111111101010000;
  401 : 1111110101010010;
  402 : 1111111000101111;
  403 : 1111111110010100;
  404 : 1111111001001100;
  405 : 1111111100111010;
  406 : 1111111010011110;
  407 : 1111110101010100;
  408 : 1111110100111001;
  409 : 1111111110011010;
  410 : 1111111110101100;
  411 : 1111111110011000;
  412 : 1111111110111110;
  413 : 1111111100111010;
  414 : 1111110111101100;
  415 : 1111111001011010;
  416 : 1111111111110011;
  417 : 1111111111110001;
  418 : 1111111111111000;
  419 : 1111111111111000;
  420 : 1111111111011100;
  421 : 1111111111111010;
  422 : 1111111110001001;
  423 : 1111111100001101;
  424 : 1111111001111101;
  425 : 1111111010111011;
  426 : 1111111001001010;
  427 : 1111111101011100;
  428 : 1111110010100110;
  429 : 1111111101010111;
  430 : 1111111110000010;
  431 : 1111111011000000;
  432 : 1111111000111001;
  433 : 1111111001010000;
  434 : 1111110001010100;
  435 : 1111111000110001;
  436 : 1111110101000101;
  437 : 1111111111000011;
  438 : 1111111001000110;
  439 : 1111110101100101;
  440 : 1111111100111100;
  441 : 1111111000100011;
  442 : 1111111100101010;
  443 : 1111111101100000;
  444 : 1111111111100111;
  445 : 1111111110110111;
  446 : 1111111110001001;
  447 : 1111111111111111;
  448 : 1111111111110111;
  449 : 1111111111011011;
  450 : 1111111111000101;
  451 : 1111111110010101;
  452 : 1111110101100011;
  453 : 1111111111101111;
  454 : 1111110000011011;
  455 : 1111111101100101;
  456 : 1111110011000001;
  457 : 1111111111001011;
  458 : 1111110101110100;
  459 : 1111110010000101;
  460 : 1111110010011100;
  461 : 1111111001110011;
  462 : 1111111101001111;
  463 : 1111111100101000;
  464 : 1111111001010000;
  465 : 1111111000111101;
  466 : 1111111101010100;
  467 : 1111111101110100;
  468 : 1111110111100010;
  469 : 1111110011010010;
  470 : 1111111100101111;
  471 : 1111111000010100;
  472 : 1111111111111101;
  473 : 1111111111100001;
  474 : 1111111111111101;
  475 : 1111111111100011;
  476 : 1111111111100011;
  477 : 1111111111100111;
  478 : 1111111111000111;
  479 : 1111111000110100;
  480 : 1111110010100001;
  481 : 1111111110001111;
  482 : 1111111100100101;
  483 : 1111111101110100;
  484 : 1111110101011011;
  485 : 1111111111110101;
  486 : 1111110100100000;
  487 : 1111111001001101;
  488 : 1111110100101011;
  489 : 1111111110101100;
  490 : 1111111001000111;
  491 : 1111110110000110;
  492 : 1111111111011001;
  493 : 1111110011011100;
  494 : 1111111100110100;
  495 : 1111110000100100;
  496 : 1111111110000011;
  497 : 1111111010010101;
  498 : 1111111011100000;
  499 : 1111111100001011;
  500 : 1111111100001001;
  501 : 1111111100010001;
  502 : 1111111110100111;
  503 : 1111111111111000;
  504 : 1111111111111011;
  505 : 1111111111111000;
  506 : 1111111111110010;
  507 : 1111111011011101;
  508 : 1111111001001100;
  509 : 1111111111111001;
  510 : 1111111000100110;
  511 : 1111111010010100;
  512 : 1111111111110101;
  513 : 1111110011101110;
  514 : 1111111111110000;
  515 : 1111111100101110;
  516 : 1111110100110101;
  517 : 1111111101000010;
  518 : 1111111011111111;
  519 : 1111111000101010;
  520 : 1111101100100000;
  521 : 1111111100100100;
  522 : 1111111111111011;
  523 : 1111111011111110;
  524 : 1111111011011111;
  525 : 1111111111101110;
  526 : 1111111100111110;
  527 : 1111111101110100;
  528 : 1111111111100100;
  529 : 1111111101100111;
  530 : 1111111101100011;
  531 : 1111111111011100;
  532 : 1111111111111100;
  533 : 1111111111100001;
  534 : 1111111111000010;
  535 : 1111111110010111;
  536 : 1111111111101110;
  537 : 1111111111010110;
  538 : 1111111001001011;
  539 : 1111111100010101;
  540 : 1111111110111101;
  541 : 1111110000110011;
  542 : 1111110011001011;
  543 : 1111110011100100;
  544 : 1111110001110010;
  545 : 1111111110100011;
  546 : 1111111100010010;
  547 : 1111111000111011;
  548 : 1111111000110000;
  549 : 1111110010101110;
  550 : 1111110111001010;
  551 : 1111111111111111;
  552 : 1111111110011001;
  553 : 1111111111101111;
  554 : 1111111101111111;
  555 : 1111111101010111;
  556 : 1111111110110111;
  557 : 1111111111110000;
  558 : 1111111111110011;
  559 : 1111111111101011;
  560 : 1111111111100010;
  561 : 1111111111000001;
  562 : 1111111111111111;
  563 : 1111111010011011;
  564 : 1111111101100001;
  565 : 1111111010100111;
  566 : 1111110100011110;
  567 : 1111100111110101;
  568 : 1111110101000100;
  569 : 1111111111110100;
  570 : 1111110110101000;
  571 : 1111111111011001;
  572 : 1111111101011111;
  573 : 1111110000001011;
  574 : 1111111101110000;
  575 : 1111111111011010;
  576 : 1111100101000110;
  577 : 1111111010101100;
  578 : 1111111000100100;
  579 : 1111110100001100;
  580 : 1111111101011001;
  581 : 1111111011111110;
  582 : 1111111111111111;
  583 : 1111111100001100;
  584 : 1111111100111110;
  585 : 1111111111111101;
  586 : 1111111111000110;
  587 : 1111111111110101;
  588 : 1111111111111111;
  589 : 1111111111111100;
  590 : 1111111111100010;
  591 : 1111111101000111;
  592 : 1111111111101000;
  593 : 1111111111110100;
  594 : 1111110011110010;
  595 : 1111100101110100;
  596 : 1111100000110101;
  597 : 1111110010001000;
  598 : 1111110100111011;
  599 : 1111110101000011;
  600 : 1111101100100101;
  601 : 1111111000110000;
  602 : 1111111000100011;
  603 : 1111110010101110;
  604 : 1111110101101101;
  605 : 1111111000010010;
  606 : 1111111011111110;
  607 : 1111110100000011;
  608 : 1111111011000101;
  609 : 1111111111001101;
  610 : 1111111111001110;
  611 : 1111111100011101;
  612 : 1111111111101101;
  613 : 1111111111010001;
  614 : 1111111111101111;
  615 : 0000000000000000;
  616 : 1111111111110110;
  617 : 1111111111111100;
  618 : 1111111111111011;
  619 : 1111111110010011;
  620 : 1111111110101110;
  621 : 1111111011101100;
  622 : 1111101010111111;
  623 : 1111100100101001;
  624 : 1111011111110110;
  625 : 1111101110001110;
  626 : 1111111110101001;
  627 : 1111111010000000;
  628 : 1111111000010101;
  629 : 1111111111111011;
  630 : 1111110111100011;
  631 : 1111111000100100;
  632 : 1111111111100100;
  633 : 1111111000000010;
  634 : 1111111110000000;
  635 : 1111111111101001;
  636 : 1111111100110010;
  637 : 1111111111011011;
  638 : 1111111110111001;
  639 : 1111111110101010;
  640 : 1111111111111110;
  641 : 1111111111111101;
  642 : 1111111111110111;
  643 : 1111111111111110;
  644 : 1111111111111111;
  645 : 1111111110111110;
  646 : 1111111111111001;
  647 : 1111111111010100;
  648 : 1111111110111100;
  649 : 1111111111100010;
  650 : 1111110111100010;
  651 : 1111110001111000;
  652 : 1111111110010101;
  653 : 1111111100111001;
  654 : 1111111001000011;
  655 : 1111011011000100;
  656 : 1111110110000010;
  657 : 1111111010001011;
  658 : 1111111111100000;
  659 : 1111111111111001;
  660 : 1111110111011110;
  661 : 1111111000000111;
  662 : 1111111111100100;
  663 : 1111111101111001;
  664 : 1111110001010010;
  665 : 1111111111101111;
  666 : 1111111111000111;
  667 : 1111111101100110;
  668 : 1111111111101001;
  669 : 1111111111101110;
  670 : 1111111111001010;
  671 : 1111111111100111;
  672 : 0000000000000000;
  673 : 1111111111111100;
  674 : 1111111111110001;
  675 : 1111111111010010;
  676 : 1111111100010011;
  677 : 1111110011111100;
  678 : 1111110100101100;
  679 : 1111110101111011;
  680 : 1111111111110010;
  681 : 1111110101100111;
  682 : 1111110000101101;
  683 : 1111111111100100;
  684 : 1111111111001011;
  685 : 1111110100000100;
  686 : 1111111011101011;
  687 : 1111111110111010;
  688 : 1111111101011000;
  689 : 1111111110110111;
  690 : 1111111111111100;
  691 : 1111110101010100;
  692 : 1111111110111010;
  693 : 1111111000010010;
  694 : 1111111111010110;
  695 : 1111111100101100;
  696 : 1111111111010111;
  697 : 1111111111110001;
  698 : 1111111111100111;
  699 : 1111111111111011;
  700 : 1111111111101010;
  701 : 1111111111010110;
  702 : 1111111111111100;
  703 : 1111111111110110;
  704 : 1111111100011010;
  705 : 1111111011101000;
  706 : 1111111101001011;
  707 : 1111111101001111;
  708 : 1111110100110001;
  709 : 1111101110101111;
  710 : 1111101100100100;
  711 : 1111111000110100;
  712 : 1111111011101000;
  713 : 1111111111001010;
  714 : 1111111111110110;
  715 : 1111111001001011;
  716 : 1111111110100010;
  717 : 1111111111001100;
  718 : 1111111001001101;
  719 : 1111111111111101;
  720 : 1111111001001111;
  721 : 1111111000111100;
  722 : 1111111111110101;
  723 : 1111111111111011;
  724 : 1111111111110100;
  725 : 1111111111111110;
  726 : 1111111110110001;
  727 : 1111111111111001;
  728 : 1111111111101110;
  729 : 1111111111100010;
  730 : 1111111111111101;
  731 : 1111111111111110;
  732 : 1111111111101111;
  733 : 1111111110110000;
  734 : 1111111111111010;
  735 : 1111111100000100;
  736 : 1111110010001110;
  737 : 1111110010010100;
  738 : 1111110010000100;
  739 : 1111111101011001;
  740 : 1111111111111101;
  741 : 1111111111011011;
  742 : 1111111111111000;
  743 : 1111111111101111;
  744 : 1111111001001110;
  745 : 1111111110101000;
  746 : 1111110111110110;
  747 : 1111111101000010;
  748 : 1111111111110011;
  749 : 1111111110011011;
  750 : 1111111111111010;
  751 : 1111111111111110;
  752 : 1111111111100101;
  753 : 1111111111111000;
  754 : 1111111111100111;
  755 : 1111111111000110;
  756 : 1111111111111111;
  757 : 1111111111110001;
  758 : 1111111111111100;
  759 : 1111111111111101;
  760 : 1111111111010000;
  761 : 1111111111011000;
  762 : 1111111111010001;
  763 : 1111111111111000;
  764 : 1111111111110100;
  765 : 1111111110110011;
  766 : 1111111111101100;
  767 : 1111111111110001;
  768 : 1111111111110010;
  769 : 1111111111100011;
  770 : 1111111111011111;
  771 : 1111111111100110;
  772 : 1111111101111010;
  773 : 1111111111000111;
  774 : 1111111110000000;
  775 : 1111111111000000;
  776 : 1111111111110101;
  777 : 1111111111111110;
  778 : 1111111111010010;
  779 : 0000000000000000;
  780 : 1111111111011111;
  781 : 1111111111111100;
  782 : 1111111111100111;
  783 : 1111111111111000;
END;
