WIDTH=16;
DEPTH=784;
ADDRESS_RADIX=UNS;
DATA_RADIX=BIN;
CONTENT BEGIN
  0 : 1111111111110011;
  1 : 1111111111111110;
  2 : 1111111111110001;
  3 : 1111111111111011;
  4 : 1111111111110110;
  5 : 1111111111111001;
  6 : 1111111111001111;
  7 : 1111111111011000;
  8 : 1111111111101011;
  9 : 1111111111001010;
  10 : 1111111111100010;
  11 : 1111111111111111;
  12 : 1111111111101000;
  13 : 1111111111111011;
  14 : 1111111111100010;
  15 : 1111111111111001;
  16 : 1111111111010111;
  17 : 1111111111111001;
  18 : 1111111111111111;
  19 : 1111111111100000;
  20 : 1111111111101000;
  21 : 1111111111111110;
  22 : 1111111111111101;
  23 : 1111111111111101;
  24 : 1111111111111000;
  25 : 1111111111111100;
  26 : 1111111111010000;
  27 : 1111111111111001;
  28 : 1111111111111100;
  29 : 1111111111111110;
  30 : 1111111111111101;
  31 : 1111111111110010;
  32 : 1111111111111111;
  33 : 1111111111111101;
  34 : 1111111111111001;
  35 : 1111111111110100;
  36 : 1111111110100000;
  37 : 1111111111011001;
  38 : 1111111110111101;
  39 : 1111111111010101;
  40 : 1111111110100000;
  41 : 1111111111101101;
  42 : 1111111111101111;
  43 : 1111111111000001;
  44 : 1111111101111110;
  45 : 1111111110111000;
  46 : 1111111110111111;
  47 : 1111111111111111;
  48 : 1111111111100101;
  49 : 1111111111110001;
  50 : 1111111111100001;
  51 : 1111111111010111;
  52 : 1111111111111000;
  53 : 1111111111111001;
  54 : 1111111111110001;
  55 : 1111111111110011;
  56 : 1111111111101110;
  57 : 1111111111110010;
  58 : 1111111111101001;
  59 : 1111111111100001;
  60 : 1111111111100100;
  61 : 1111111111110000;
  62 : 1111111111001011;
  63 : 1111111100100011;
  64 : 1111111011000100;
  65 : 1111111101000001;
  66 : 1111111010111010;
  67 : 1111111001100100;
  68 : 1111111001111100;
  69 : 1111111100000000;
  70 : 1111111101100000;
  71 : 1111111011001100;
  72 : 1111110011001111;
  73 : 1111110011100100;
  74 : 1111110110011110;
  75 : 1111111010101110;
  76 : 1111111011110110;
  77 : 1111111110010001;
  78 : 1111111110111011;
  79 : 1111111110111011;
  80 : 1111111110101100;
  81 : 1111111110111100;
  82 : 1111111111100100;
  83 : 1111111111101001;
  84 : 1111111111111101;
  85 : 1111111111011100;
  86 : 1111111111111110;
  87 : 1111111111100100;
  88 : 1111111111100110;
  89 : 1111111111111100;
  90 : 1111111100001100;
  91 : 1111111010010011;
  92 : 1111110010001100;
  93 : 1111110011110101;
  94 : 1111110011001111;
  95 : 1111110001110100;
  96 : 1111101110000000;
  97 : 1111101110100001;
  98 : 1111110010000010;
  99 : 1111100111100101;
  100 : 1111011010101111;
  101 : 1111100110101010;
  102 : 1111101011011000;
  103 : 1111111010111111;
  104 : 1111111111000100;
  105 : 1111111100110000;
  106 : 1111111011010111;
  107 : 1111111011110100;
  108 : 1111111101001101;
  109 : 1111111111010010;
  110 : 1111111111010000;
  111 : 1111111111100100;
  112 : 1111111111111100;
  113 : 1111111111001010;
  114 : 1111111111110001;
  115 : 1111111111000111;
  116 : 1111111110011111;
  117 : 1111111111011101;
  118 : 1111111101011011;
  119 : 1111110101111110;
  120 : 1111110110110101;
  121 : 1111101110110010;
  122 : 1111101101001110;
  123 : 1111100111100111;
  124 : 1111101101100000;
  125 : 1111110110001101;
  126 : 1111110100010000;
  127 : 1111011000100001;
  128 : 1111011000000011;
  129 : 1111100011100110;
  130 : 1111101101001011;
  131 : 1111111111000000;
  132 : 1111111111110001;
  133 : 1111111101101101;
  134 : 1111111011001101;
  135 : 1111111100111000;
  136 : 1111111101011100;
  137 : 1111111000111110;
  138 : 1111111110001100;
  139 : 1111111111100011;
  140 : 1111111111100101;
  141 : 1111111111101101;
  142 : 1111111111100010;
  143 : 1111111110111100;
  144 : 1111111111001000;
  145 : 1111111111010101;
  146 : 1111111010110101;
  147 : 1111111110111001;
  148 : 1111110000110011;
  149 : 1111111101101010;
  150 : 1111111110001100;
  151 : 1111101011101001;
  152 : 1111110010111000;
  153 : 1111101101111001;
  154 : 1111110001101111;
  155 : 1111101001101111;
  156 : 1111100110100101;
  157 : 1111100110101100;
  158 : 1111110100000011;
  159 : 1111100010000101;
  160 : 1111101110110010;
  161 : 1111101110101001;
  162 : 1111111111111101;
  163 : 1111111101000010;
  164 : 1111111100100000;
  165 : 1111111010001100;
  166 : 1111111101011110;
  167 : 1111111111111011;
  168 : 1111111111110011;
  169 : 1111111111111010;
  170 : 1111111101011000;
  171 : 1111111100111001;
  172 : 1111110111110111;
  173 : 1111111110000001;
  174 : 1111100001010100;
  175 : 1111110011011000;
  176 : 1111110111110000;
  177 : 1111111110011010;
  178 : 1111111111101100;
  179 : 1111111111110010;
  180 : 1111111000111000;
  181 : 1111110011000111;
  182 : 1111111110010011;
  183 : 1111111011101101;
  184 : 1111111101100100;
  185 : 1111110000010100;
  186 : 1111110000010011;
  187 : 1111101111011010;
  188 : 1111110000101000;
  189 : 1111111110001010;
  190 : 1111110111100101;
  191 : 1111101010001110;
  192 : 1111110110011111;
  193 : 1111110011001100;
  194 : 1111111111001101;
  195 : 1111111111011110;
  196 : 1111111111000110;
  197 : 1111111101011100;
  198 : 1111111111011010;
  199 : 1111111111110001;
  200 : 1111110100010001;
  201 : 1111110100110100;
  202 : 1111110101010110;
  203 : 1111111110100011;
  204 : 1111111001000111;
  205 : 1111111000101110;
  206 : 1111110001110110;
  207 : 1111111000001110;
  208 : 1111111011101000;
  209 : 1111110110011100;
  210 : 1111110010110101;
  211 : 1111111011110101;
  212 : 1111111100100011;
  213 : 1111110010010011;
  214 : 1111101101110011;
  215 : 1111111111011110;
  216 : 1111111111000111;
  217 : 1111111000111100;
  218 : 1111110011110001;
  219 : 1111111111100010;
  220 : 1111111100010011;
  221 : 1111111100001101;
  222 : 1111111100100100;
  223 : 1111111111101001;
  224 : 1111111111001001;
  225 : 1111111111101111;
  226 : 1111111100110110;
  227 : 1111111111000011;
  228 : 1111101101010011;
  229 : 1111111001100111;
  230 : 1111111100011010;
  231 : 1111111100001010;
  232 : 1111110100101011;
  233 : 1111111110011010;
  234 : 1111111111010010;
  235 : 1111111011000010;
  236 : 1111110100000111;
  237 : 1111110001010110;
  238 : 1111111000000101;
  239 : 1111111110010001;
  240 : 1111101100010110;
  241 : 1111111010000011;
  242 : 1111111110110100;
  243 : 1111111100001000;
  244 : 1111111101111101;
  245 : 1111111000011000;
  246 : 1111111110011001;
  247 : 1111111000110010;
  248 : 1111111101100101;
  249 : 1111111111011101;
  250 : 1111111101000111;
  251 : 1111111111111111;
  252 : 1111111111101000;
  253 : 1111111111111101;
  254 : 1111111100000011;
  255 : 1111111100101101;
  256 : 1111110010001011;
  257 : 1111111010111110;
  258 : 1111111011010111;
  259 : 1111111111100110;
  260 : 1111111111111001;
  261 : 1111111111000000;
  262 : 1111110101111111;
  263 : 1111111000010100;
  264 : 1111111011100000;
  265 : 1111111111111000;
  266 : 1111110110000101;
  267 : 1111110100111101;
  268 : 1111110010010010;
  269 : 1111111011111010;
  270 : 1111110111010010;
  271 : 1111111111010101;
  272 : 1111111111011110;
  273 : 1111111101001001;
  274 : 1111111111001001;
  275 : 1111110001100000;
  276 : 1111101111001101;
  277 : 1111101110110111;
  278 : 1111111001100111;
  279 : 1111111111101000;
  280 : 1111111111011010;
  281 : 1111111111000111;
  282 : 1111111111111111;
  283 : 1111111010101011;
  284 : 1111110000101011;
  285 : 1111111111111010;
  286 : 1111111111010001;
  287 : 1111111111101110;
  288 : 1111110111000110;
  289 : 1111111110010111;
  290 : 1111100100110011;
  291 : 1111111111101100;
  292 : 1111110111110110;
  293 : 1111111111111110;
  294 : 1111111000111101;
  295 : 1111111001111010;
  296 : 1111110011111010;
  297 : 1111110001111111;
  298 : 1111111100100100;
  299 : 1111111001100010;
  300 : 1111110110010011;
  301 : 1111110011011001;
  302 : 1111110111000000;
  303 : 1111100001001101;
  304 : 1111101000110010;
  305 : 1111111011110010;
  306 : 1111111001010001;
  307 : 1111111111110001;
  308 : 1111111111101101;
  309 : 1111111111111001;
  310 : 1111111110101001;
  311 : 1111111110010001;
  312 : 1111101001010101;
  313 : 1111100111101101;
  314 : 1111110101110101;
  315 : 1111111000010100;
  316 : 1111111001000100;
  317 : 1111110110000010;
  318 : 1111111111101010;
  319 : 1111111000110011;
  320 : 1111111101011101;
  321 : 1111111100010110;
  322 : 1111110000001000;
  323 : 1111100001010000;
  324 : 1111110111110011;
  325 : 1111111010111000;
  326 : 1111110100000101;
  327 : 1111110010101001;
  328 : 1111111010100100;
  329 : 1111111011101110;
  330 : 1111110010111000;
  331 : 1111101010001101;
  332 : 1111100100101010;
  333 : 1111111000000001;
  334 : 1111111000111011;
  335 : 1111111111110111;
  336 : 0000000000000000;
  337 : 1111111111110000;
  338 : 1111111110000110;
  339 : 1111111110010010;
  340 : 1111110100001001;
  341 : 1111101111000101;
  342 : 1111111010100011;
  343 : 1111110110010001;
  344 : 1111110100111011;
  345 : 1111111110010110;
  346 : 1111111111000101;
  347 : 1111111101010000;
  348 : 1111110110101011;
  349 : 1111101010100010;
  350 : 1111101100001001;
  351 : 1111100101101110;
  352 : 1111100100010110;
  353 : 1111111110011010;
  354 : 1111111010100101;
  355 : 1111100010001001;
  356 : 1111111111000101;
  357 : 1111111110110010;
  358 : 1111111111100010;
  359 : 1111100100001001;
  360 : 1111101010111001;
  361 : 1111111011001001;
  362 : 1111111110001100;
  363 : 1111111111010000;
  364 : 0000000000000000;
  365 : 1111111111111010;
  366 : 1111111110000101;
  367 : 1111111000011111;
  368 : 1111111110100001;
  369 : 1111111111010110;
  370 : 1111111001011101;
  371 : 1111110010001101;
  372 : 1111111111111000;
  373 : 1111111111000101;
  374 : 1111100110011010;
  375 : 1111111111111110;
  376 : 1111101110101001;
  377 : 1111101011101111;
  378 : 1111111101011101;
  379 : 1111111001001111;
  380 : 1111110110101101;
  381 : 1111111110110011;
  382 : 1111111110010100;
  383 : 1111111110110010;
  384 : 1111111000111010;
  385 : 1111110101110011;
  386 : 1111101111110110;
  387 : 1111100000111101;
  388 : 1111111011010001;
  389 : 1111111110011100;
  390 : 1111111101010000;
  391 : 1111111111110010;
  392 : 1111111111111000;
  393 : 1111111111100111;
  394 : 1111111111101110;
  395 : 1111111010001101;
  396 : 1111111111111101;
  397 : 1111111010100001;
  398 : 1111111101001111;
  399 : 1111111100100011;
  400 : 1111111101100001;
  401 : 1111111001001011;
  402 : 1111111110001100;
  403 : 1111111111010110;
  404 : 1111110101101000;
  405 : 1111110011010101;
  406 : 1111111111001010;
  407 : 1111111100011101;
  408 : 1111110001101001;
  409 : 1111110011110101;
  410 : 1111110001100101;
  411 : 1111100000010010;
  412 : 1111111011001110;
  413 : 1111111111110010;
  414 : 1111111101000101;
  415 : 1111111101001010;
  416 : 1111111010101011;
  417 : 1111111101001110;
  418 : 1111111111011101;
  419 : 1111111111100011;
  420 : 1111111111100110;
  421 : 1111111111011100;
  422 : 1111111111110110;
  423 : 1111111101001011;
  424 : 1111111110001110;
  425 : 1111111000001111;
  426 : 1111111001000110;
  427 : 1111111101111001;
  428 : 1111111001100011;
  429 : 1111111001000101;
  430 : 1111111011111010;
  431 : 1111101100001111;
  432 : 1111100111100101;
  433 : 1111110010010010;
  434 : 1111111111111110;
  435 : 1111111011000111;
  436 : 1111111111010110;
  437 : 1111110100010110;
  438 : 1111111011011010;
  439 : 1111110110100100;
  440 : 1111111110001011;
  441 : 1111111110101000;
  442 : 1111111111111001;
  443 : 1111111110001110;
  444 : 1111111011100000;
  445 : 1111111100110011;
  446 : 1111111111000001;
  447 : 1111111111010010;
  448 : 1111111111111011;
  449 : 1111111111111101;
  450 : 1111111111101101;
  451 : 1111111101100001;
  452 : 1111111110000100;
  453 : 1111111000101110;
  454 : 1111111100000101;
  455 : 1111110001100011;
  456 : 1111111110101110;
  457 : 1111110101110101;
  458 : 1111111100011101;
  459 : 1111111010110100;
  460 : 1111111100111010;
  461 : 1111110010001001;
  462 : 1111110010000111;
  463 : 1111111001101011;
  464 : 1111111110111101;
  465 : 1111111011100011;
  466 : 1111100101110110;
  467 : 1111111100011101;
  468 : 1111111111001111;
  469 : 1111101000101000;
  470 : 1111101100000010;
  471 : 1111110111000111;
  472 : 1111110011100110;
  473 : 1111111100101011;
  474 : 0000000000000000;
  475 : 1111111111101011;
  476 : 1111111111110100;
  477 : 1111111111111111;
  478 : 1111111111001101;
  479 : 1111111111110110;
  480 : 1111111111011000;
  481 : 1111111111111011;
  482 : 1111111100101101;
  483 : 1111111100000011;
  484 : 1111111111011111;
  485 : 1111101110101110;
  486 : 1111101111000110;
  487 : 1111111101110001;
  488 : 1111111010101001;
  489 : 1111110101001000;
  490 : 1111111001111111;
  491 : 1111111011001101;
  492 : 1111110111010101;
  493 : 1111101000000111;
  494 : 1111100000100000;
  495 : 1111100111010101;
  496 : 1111110001100111;
  497 : 1111111111011110;
  498 : 1111111111010010;
  499 : 1111111101101111;
  500 : 1111111110111100;
  501 : 1111111111010010;
  502 : 1111111111111100;
  503 : 1111111111110010;
  504 : 1111111111100000;
  505 : 1111111111111111;
  506 : 1111111111101011;
  507 : 1111111100000100;
  508 : 1111111001001000;
  509 : 1111111111001010;
  510 : 1111110000111001;
  511 : 1111110001111001;
  512 : 1111111110111001;
  513 : 1111111111101010;
  514 : 1111111001010011;
  515 : 1111110110001010;
  516 : 1111110000101101;
  517 : 1111111100011010;
  518 : 1111100110011010;
  519 : 1111111110010111;
  520 : 1111111001101110;
  521 : 1111111000001010;
  522 : 1111110110010101;
  523 : 1111101111000100;
  524 : 1111111001111010;
  525 : 1111111111111010;
  526 : 1111111111001101;
  527 : 1111110111101001;
  528 : 1111111111100010;
  529 : 1111111111000001;
  530 : 1111111110101000;
  531 : 1111111111011111;
  532 : 1111111111101100;
  533 : 1111111111110111;
  534 : 1111111110011110;
  535 : 1111111010110000;
  536 : 1111111111000110;
  537 : 1111111010111111;
  538 : 1111111101001001;
  539 : 1111111110100010;
  540 : 1111111000000110;
  541 : 1111111101100010;
  542 : 1111110010101101;
  543 : 1111111100000010;
  544 : 1111111010111011;
  545 : 1111111101101101;
  546 : 1111111111110001;
  547 : 1111111110100010;
  548 : 1111111010111100;
  549 : 1111101100110001;
  550 : 1111110010011000;
  551 : 1111111011000111;
  552 : 1111111110100100;
  553 : 1111111100000110;
  554 : 1111011110010111;
  555 : 1111100111110111;
  556 : 1111111010111101;
  557 : 1111111111111101;
  558 : 1111111111111000;
  559 : 1111111111101001;
  560 : 1111111111111011;
  561 : 1111111111111011;
  562 : 1111111101000010;
  563 : 1111110101011101;
  564 : 1111111001101111;
  565 : 1111110101001101;
  566 : 1111110010110000;
  567 : 1111101100101101;
  568 : 1111100101001111;
  569 : 1111110001010101;
  570 : 1111110101110101;
  571 : 1111111000110111;
  572 : 1111110100110011;
  573 : 1111011111000011;
  574 : 1111011100101111;
  575 : 1111010010010101;
  576 : 1111100111010000;
  577 : 1111010101111111;
  578 : 1111100001000000;
  579 : 1111011111110110;
  580 : 1111010100011101;
  581 : 1111001011110001;
  582 : 1111010001111011;
  583 : 1111101011001011;
  584 : 1111111110101001;
  585 : 1111111111001110;
  586 : 1111111111101111;
  587 : 1111111110101010;
  588 : 1111111111000011;
  589 : 1111111111110001;
  590 : 1111111011101001;
  591 : 1111110000100101;
  592 : 1111111010111100;
  593 : 1111110100101011;
  594 : 1111101010010010;
  595 : 1111011111001001;
  596 : 1111001100101010;
  597 : 1111011101011001;
  598 : 1111010111001111;
  599 : 1111001011010100;
  600 : 1111010000101101;
  601 : 1111001101000110;
  602 : 1111001001000010;
  603 : 1111000100010001;
  604 : 1111110001001101;
  605 : 1111011000001000;
  606 : 1111001100111101;
  607 : 1111101110000111;
  608 : 1111100111011011;
  609 : 1111100000110101;
  610 : 1111100101100100;
  611 : 1111101100010100;
  612 : 1111111111111000;
  613 : 1111111111110010;
  614 : 1111111111100100;
  615 : 1111111111001111;
  616 : 1111111111110101;
  617 : 1111111111111110;
  618 : 1111111100010000;
  619 : 1111110101001110;
  620 : 1111110101111001;
  621 : 1111110000000001;
  622 : 1111110011001001;
  623 : 1111110110001010;
  624 : 1111110111100001;
  625 : 1111100001011110;
  626 : 1111100101011001;
  627 : 1111011101001011;
  628 : 1111011101011111;
  629 : 1111100010100110;
  630 : 1111111011110001;
  631 : 1111100110011011;
  632 : 1111100001100111;
  633 : 1111100110101001;
  634 : 1111100111111110;
  635 : 1111101111010000;
  636 : 1111110100000010;
  637 : 1111101010110100;
  638 : 1111110101101101;
  639 : 1111110010001000;
  640 : 1111111011100001;
  641 : 1111111101101100;
  642 : 1111111111101110;
  643 : 1111111111110010;
  644 : 1111111111110100;
  645 : 1111111111111110;
  646 : 1111111100101000;
  647 : 1111110011011011;
  648 : 1111101111111010;
  649 : 1111110011101101;
  650 : 1111111111110110;
  651 : 1111111111010100;
  652 : 1111111010010000;
  653 : 1111110001000110;
  654 : 1111110101001111;
  655 : 1111110101110101;
  656 : 1111101011100110;
  657 : 1111100010010010;
  658 : 1111110100000110;
  659 : 1111100110010011;
  660 : 1111100110111011;
  661 : 1111100010010001;
  662 : 1111011111001010;
  663 : 1111110110110100;
  664 : 1111101111101010;
  665 : 1111110010101011;
  666 : 1111110010010111;
  667 : 1111110000110110;
  668 : 1111111010000101;
  669 : 1111111101100101;
  670 : 1111111111001001;
  671 : 1111111111100100;
  672 : 1111111111111001;
  673 : 1111111111111111;
  674 : 1111111111111101;
  675 : 1111111011111111;
  676 : 1111111111111110;
  677 : 1111110001100100;
  678 : 1111111111100001;
  679 : 1111111101111100;
  680 : 1111111001100101;
  681 : 1111101010011001;
  682 : 1111011001111001;
  683 : 1111110100010000;
  684 : 1111100011010010;
  685 : 1111100010101010;
  686 : 1111011111101010;
  687 : 1111101010101100;
  688 : 1111011100000111;
  689 : 1111110010100111;
  690 : 1111100101011010;
  691 : 1111100110010100;
  692 : 1111110111010000;
  693 : 1111111010101011;
  694 : 1111111110011000;
  695 : 1111111101111101;
  696 : 1111110110011010;
  697 : 1111111110000100;
  698 : 1111111111111011;
  699 : 1111111111101010;
  700 : 1111111111110111;
  701 : 0000000000000000;
  702 : 1111111111100011;
  703 : 1111111111101011;
  704 : 1111111000000101;
  705 : 1111111110011110;
  706 : 1111110101110000;
  707 : 1111111000110111;
  708 : 1111101011111001;
  709 : 1111100111001110;
  710 : 1111011110011011;
  711 : 1111111001000101;
  712 : 1111101001100100;
  713 : 1111110000010010;
  714 : 1111111101001011;
  715 : 1111110010100110;
  716 : 1111110111101001;
  717 : 1111110010010111;
  718 : 1111101000111110;
  719 : 1111100001011111;
  720 : 1111111001000101;
  721 : 1111111101000100;
  722 : 1111111101010111;
  723 : 1111111110010111;
  724 : 1111111011111111;
  725 : 1111111111100101;
  726 : 1111111111111010;
  727 : 1111111111110000;
  728 : 1111111111011101;
  729 : 1111111111111000;
  730 : 1111111111011011;
  731 : 1111111111111011;
  732 : 1111111111111111;
  733 : 1111111111011011;
  734 : 1111111111100111;
  735 : 1111111111011000;
  736 : 1111111111001010;
  737 : 1111111011101000;
  738 : 1111111101000110;
  739 : 1111111111101100;
  740 : 1111111010101100;
  741 : 1111111000100011;
  742 : 1111110000001010;
  743 : 1111111111001010;
  744 : 1111111000011010;
  745 : 1111110101001010;
  746 : 1111111110000110;
  747 : 1111111111110110;
  748 : 1111111111110010;
  749 : 1111111111011001;
  750 : 1111111110111101;
  751 : 1111111111111000;
  752 : 1111111111110001;
  753 : 1111111111111110;
  754 : 1111111111010101;
  755 : 1111111110111110;
  756 : 1111111111111110;
  757 : 1111111111100111;
  758 : 1111111111111001;
  759 : 1111111111101110;
  760 : 1111111111100000;
  761 : 1111111111111111;
  762 : 1111111111101001;
  763 : 1111111111111100;
  764 : 1111111111101001;
  765 : 1111111111010011;
  766 : 1111111111111100;
  767 : 1111111111111001;
  768 : 1111111111110111;
  769 : 1111111111000100;
  770 : 1111111110011010;
  771 : 1111111110100101;
  772 : 1111111111011010;
  773 : 1111111110011111;
  774 : 1111111100010001;
  775 : 1111111111010001;
  776 : 1111111111000000;
  777 : 1111111110000101;
  778 : 1111111110010010;
  779 : 1111111111100110;
  780 : 1111111111011100;
  781 : 1111111111111100;
  782 : 1111111111110111;
  783 : 1111111111110110;
END;
