WIDTH=16;
DEPTH=784;
ADDRESS_RADIX=UNS;
DATA_RADIX=BIN;
CONTENT BEGIN
  0 : 1111111111110110;
  1 : 1111111111011101;
  2 : 1111111111011011;
  3 : 1111111111111111;
  4 : 1111111111101000;
  5 : 1111111111110101;
  6 : 1111111111101000;
  7 : 1111111111110110;
  8 : 1111111111010101;
  9 : 1111111111010011;
  10 : 1111111111111111;
  11 : 1111111111110101;
  12 : 0000000000000000;
  13 : 1111111111100000;
  14 : 1111111111011101;
  15 : 1111111111110011;
  16 : 1111111111111010;
  17 : 1111111111101101;
  18 : 1111111111001111;
  19 : 1111111111110111;
  20 : 1111111111100111;
  21 : 1111111111111011;
  22 : 1111111111111010;
  23 : 1111111111110010;
  24 : 1111111111111111;
  25 : 1111111111101001;
  26 : 1111111111011101;
  27 : 1111111111111010;
  28 : 1111111111110011;
  29 : 1111111111010110;
  30 : 1111111111101001;
  31 : 1111111111101111;
  32 : 1111111111100111;
  33 : 1111111111101011;
  34 : 1111111111111111;
  35 : 1111111111100100;
  36 : 1111111111101111;
  37 : 1111111111111000;
  38 : 1111111111111011;
  39 : 1111111111111111;
  40 : 1111111111111110;
  41 : 1111111111111101;
  42 : 1111111111111101;
  43 : 1111111111111001;
  44 : 1111111101011110;
  45 : 1111111111011101;
  46 : 1111111111100001;
  47 : 1111111111111100;
  48 : 1111111111111011;
  49 : 1111111111101000;
  50 : 1111111111111110;
  51 : 1111111111111111;
  52 : 1111111110111111;
  53 : 1111111111111111;
  54 : 1111111111110010;
  55 : 1111111111010000;
  56 : 1111111111111111;
  57 : 1111111111111110;
  58 : 1111111111111000;
  59 : 1111111111011111;
  60 : 1111111111111100;
  61 : 1111111111111011;
  62 : 1111111111110111;
  63 : 1111111111011011;
  64 : 1111111111111001;
  65 : 1111111111100101;
  66 : 1111111111100010;
  67 : 1111111111110011;
  68 : 1111111111101111;
  69 : 1111111111101110;
  70 : 1111111111011111;
  71 : 1111111110001110;
  72 : 1111111010100001;
  73 : 1111111101011001;
  74 : 1111111010110001;
  75 : 1111111111111000;
  76 : 1111111110011000;
  77 : 1111111111111010;
  78 : 1111111111110110;
  79 : 1111111111101111;
  80 : 1111111111111001;
  81 : 1111111111110010;
  82 : 1111111111111101;
  83 : 1111111111011101;
  84 : 1111111111100100;
  85 : 1111111111110001;
  86 : 1111111111110100;
  87 : 1111111110101000;
  88 : 1111111111100010;
  89 : 1111111111111010;
  90 : 1111111111010100;
  91 : 1111111110011110;
  92 : 1111111011100011;
  93 : 1111111010011001;
  94 : 1111110110010110;
  95 : 1111111110000000;
  96 : 1111111100000010;
  97 : 1111111011011101;
  98 : 1111111101101001;
  99 : 1111111111111100;
  100 : 1111111111110111;
  101 : 1111111001100111;
  102 : 1111101011110011;
  103 : 1111110000010111;
  104 : 1111111000000111;
  105 : 1111111111000001;
  106 : 1111111111010001;
  107 : 1111111110110011;
  108 : 1111111100011110;
  109 : 1111111111111110;
  110 : 1111111111100000;
  111 : 1111111111110001;
  112 : 1111111111100011;
  113 : 1111111111111100;
  114 : 1111111111110111;
  115 : 1111111111111010;
  116 : 1111111111100000;
  117 : 1111111110100100;
  118 : 1111111111010111;
  119 : 1111111111111111;
  120 : 1111111100101000;
  121 : 1111111010001011;
  122 : 1111111101011011;
  123 : 1111110001110111;
  124 : 1111111011001101;
  125 : 1111111111011101;
  126 : 1111111101100001;
  127 : 1111111111011000;
  128 : 1111111100001100;
  129 : 1111111000110100;
  130 : 1111100011101000;
  131 : 1111110010100001;
  132 : 1111111011011101;
  133 : 1111111110011101;
  134 : 1111111110110101;
  135 : 1111111100111110;
  136 : 1111111011011010;
  137 : 1111111111111111;
  138 : 1111111111011110;
  139 : 1111111111111010;
  140 : 1111111111101111;
  141 : 1111111111110011;
  142 : 1111111111101001;
  143 : 1111111111010011;
  144 : 1111111111100101;
  145 : 1111111111010111;
  146 : 1111111110010110;
  147 : 1111111111001010;
  148 : 1111111111101010;
  149 : 1111110110101001;
  150 : 1111111100101010;
  151 : 1111101000011000;
  152 : 1111110100111100;
  153 : 1111110011010010;
  154 : 1111110011111100;
  155 : 1111110101001001;
  156 : 1111110010101000;
  157 : 1111110001111111;
  158 : 1111100000111100;
  159 : 1111100010100010;
  160 : 1111100111110111;
  161 : 1111111000110001;
  162 : 1111111111010100;
  163 : 1111110011001001;
  164 : 1111111110000100;
  165 : 1111111111000000;
  166 : 1111111111110001;
  167 : 1111111111100110;
  168 : 1111111111010000;
  169 : 1111111110111110;
  170 : 1111111110010000;
  171 : 1111111110010111;
  172 : 1111111111111101;
  173 : 1111111111111011;
  174 : 1111111111110011;
  175 : 1111111011101101;
  176 : 1111111011011011;
  177 : 1111111111101110;
  178 : 1111111000111100;
  179 : 1111110011100001;
  180 : 1111111100011010;
  181 : 0000000000000000;
  182 : 1111111001100000;
  183 : 1111101001010101;
  184 : 1111100111100000;
  185 : 1111110001000100;
  186 : 1111101010101001;
  187 : 1111111111111111;
  188 : 1111111101100001;
  189 : 1111111101110101;
  190 : 1111111101110110;
  191 : 1111111111010001;
  192 : 1111111110111100;
  193 : 1111111101001010;
  194 : 1111111101010111;
  195 : 0000000000000000;
  196 : 1111111111111001;
  197 : 1111111111111010;
  198 : 1111111111001000;
  199 : 1111111110101001;
  200 : 1111111111001010;
  201 : 1111111010100110;
  202 : 1111111001111110;
  203 : 1111111110110000;
  204 : 1111111111100000;
  205 : 1111111001000010;
  206 : 1111111000010010;
  207 : 1111111101011101;
  208 : 1111111011100100;
  209 : 1111111111101000;
  210 : 1111111111111001;
  211 : 1111111001111110;
  212 : 1111011010111100;
  213 : 1111011110110010;
  214 : 1111100001000001;
  215 : 1111110110011110;
  216 : 1111111110010000;
  217 : 1111111010000000;
  218 : 1111111011111010;
  219 : 1111110001001101;
  220 : 1111111101011111;
  221 : 1111111111110111;
  222 : 1111111100000000;
  223 : 1111111111100111;
  224 : 1111111111100110;
  225 : 1111111111111101;
  226 : 1111111111001101;
  227 : 1111111110010110;
  228 : 1111111001101001;
  229 : 1111111011110010;
  230 : 1111111010110011;
  231 : 1111111111110000;
  232 : 1111111110010100;
  233 : 1111111111101000;
  234 : 1111111100011111;
  235 : 1111111001010011;
  236 : 1111110010010111;
  237 : 1111110101010000;
  238 : 1111111110011001;
  239 : 1111110100001000;
  240 : 1111101001010011;
  241 : 1111001010111001;
  242 : 1111011000100000;
  243 : 1111101001100110;
  244 : 1111111111000101;
  245 : 1111111100010011;
  246 : 1111111011111010;
  247 : 1111111111101110;
  248 : 1111111111000100;
  249 : 1111110011010011;
  250 : 1111111011111101;
  251 : 1111111110111111;
  252 : 1111111111010110;
  253 : 1111111111111101;
  254 : 1111111111111001;
  255 : 1111111111111110;
  256 : 1111111110101101;
  257 : 1111111100111111;
  258 : 1111111111100001;
  259 : 1111111100110011;
  260 : 1111111101111100;
  261 : 1111111100101110;
  262 : 1111111101100001;
  263 : 1111110100010110;
  264 : 1111101001000111;
  265 : 1111101011110100;
  266 : 1111111110110100;
  267 : 1111101001000010;
  268 : 1111111011001111;
  269 : 1111111110010110;
  270 : 1111101010110101;
  271 : 1111100001001111;
  272 : 1111111001100111;
  273 : 1111111110000111;
  274 : 1111111010000010;
  275 : 1111111101110100;
  276 : 1111110001001000;
  277 : 1111110011100110;
  278 : 1111110111011001;
  279 : 1111111101110100;
  280 : 1111111111111111;
  281 : 1111111111100110;
  282 : 1111111111101110;
  283 : 1111111111101000;
  284 : 1111111111010011;
  285 : 1111111110101111;
  286 : 1111111000100110;
  287 : 1111111001011010;
  288 : 1111111101000001;
  289 : 1111111101110010;
  290 : 1111111011000111;
  291 : 1111110001101101;
  292 : 1111100111000110;
  293 : 1111101100110100;
  294 : 1111011110010100;
  295 : 1111100111000010;
  296 : 1111111111010011;
  297 : 1111111010100110;
  298 : 1111111011111111;
  299 : 1111101111101000;
  300 : 1111100001100011;
  301 : 1111111101001001;
  302 : 1111110111001101;
  303 : 1111100110110001;
  304 : 1111100100110001;
  305 : 1111110100000000;
  306 : 1111111000100010;
  307 : 1111111111110011;
  308 : 1111111111101001;
  309 : 1111111111000111;
  310 : 1111111101111111;
  311 : 1111111111101111;
  312 : 1111111010110011;
  313 : 1111111111000001;
  314 : 1111110010101110;
  315 : 1111111111010101;
  316 : 1111101111110100;
  317 : 1111110000100000;
  318 : 1111110001000111;
  319 : 1111110001111001;
  320 : 1111111110111001;
  321 : 1111111000111000;
  322 : 1111111000010101;
  323 : 1111111000111011;
  324 : 1111111100101011;
  325 : 1111111010100000;
  326 : 1111110001100001;
  327 : 1111111011001000;
  328 : 1111101001101001;
  329 : 1111111010010101;
  330 : 1111111000000001;
  331 : 1111100010011000;
  332 : 1111011000001011;
  333 : 1111110000000111;
  334 : 1111111011010111;
  335 : 1111111111001001;
  336 : 1111111111111001;
  337 : 1111111111110100;
  338 : 1111111111010101;
  339 : 1111111000110101;
  340 : 1111111110010110;
  341 : 1111111110010011;
  342 : 1111111111001101;
  343 : 1111111110010000;
  344 : 1111111111000000;
  345 : 1111111111101000;
  346 : 1111111111100001;
  347 : 1111111100101101;
  348 : 1111110001011100;
  349 : 1111110101001100;
  350 : 1111011100100011;
  351 : 1111111110001110;
  352 : 1111100011000100;
  353 : 1111110111000111;
  354 : 1111111001000000;
  355 : 1111111011001100;
  356 : 1111110011111100;
  357 : 1111111111110010;
  358 : 1111111101011010;
  359 : 1111110000111111;
  360 : 1111111000111011;
  361 : 1111111000101111;
  362 : 1111111101010100;
  363 : 1111111111111101;
  364 : 1111111111111000;
  365 : 1111111111011101;
  366 : 1111111111001010;
  367 : 1111111000010110;
  368 : 1111111000001010;
  369 : 1111111101011110;
  370 : 1111111100000011;
  371 : 1111111000000100;
  372 : 1111111001001010;
  373 : 1111111110100100;
  374 : 1111110111000001;
  375 : 1111110010001010;
  376 : 1111101111000111;
  377 : 1111011100011111;
  378 : 1111111011010011;
  379 : 1111111011011011;
  380 : 1111111000111110;
  381 : 1111111011001011;
  382 : 1111111000010110;
  383 : 1111111010111111;
  384 : 1111111100111010;
  385 : 1111111111010001;
  386 : 1111110010110011;
  387 : 1111111101011010;
  388 : 1111111110100110;
  389 : 1111111110011111;
  390 : 1111111111111011;
  391 : 1111111111110010;
  392 : 1111111111111100;
  393 : 1111111110000110;
  394 : 1111111111111000;
  395 : 1111111000100001;
  396 : 1111111100101100;
  397 : 1111111010110111;
  398 : 1111111111110011;
  399 : 1111111000100011;
  400 : 1111111111001011;
  401 : 1111111101111101;
  402 : 1111110000010111;
  403 : 1111111001111010;
  404 : 1111100010100010;
  405 : 1111101111100111;
  406 : 1111110101011101;
  407 : 1111111010111001;
  408 : 1111111101001101;
  409 : 1111110010001000;
  410 : 1111111000110100;
  411 : 1111110100101110;
  412 : 1111111001110111;
  413 : 1111111111111101;
  414 : 1111110000000001;
  415 : 1111111100111101;
  416 : 1111111001011010;
  417 : 1111111001010001;
  418 : 1111111111001111;
  419 : 1111111111111100;
  420 : 1111111110111011;
  421 : 1111111101000001;
  422 : 1111111110000000;
  423 : 1111111101111101;
  424 : 1111111100011000;
  425 : 1111110111000100;
  426 : 1111101110011111;
  427 : 1111111111111101;
  428 : 1111111111111111;
  429 : 1111111100110110;
  430 : 1111111000010011;
  431 : 1111101000100011;
  432 : 1111001110101001;
  433 : 1111111110000010;
  434 : 1111100010001001;
  435 : 1111101110110100;
  436 : 1111111100000101;
  437 : 1111111111001100;
  438 : 1111111000110110;
  439 : 1111111100000010;
  440 : 1111111010000111;
  441 : 1111111110110000;
  442 : 1111111001001101;
  443 : 1111110111011001;
  444 : 1111111111010000;
  445 : 1111111111101101;
  446 : 1111111111110100;
  447 : 1111111111111001;
  448 : 1111111111111110;
  449 : 1111111111100010;
  450 : 1111111100110101;
  451 : 1111111111001101;
  452 : 1111111111110011;
  453 : 1111111011001011;
  454 : 1111111011000000;
  455 : 1111111111010111;
  456 : 1111111110011101;
  457 : 1111111111010011;
  458 : 1111100111000011;
  459 : 1111010011000111;
  460 : 1111111000000110;
  461 : 1111101011000011;
  462 : 1111111111010100;
  463 : 1111110111110101;
  464 : 1111111011010001;
  465 : 1111111000110000;
  466 : 1111111000010011;
  467 : 1111111111111001;
  468 : 1111110011111110;
  469 : 1111111111100110;
  470 : 1111101001010011;
  471 : 1111111001101011;
  472 : 1111111101001000;
  473 : 1111111110101011;
  474 : 1111111111001001;
  475 : 0000000000000000;
  476 : 1111111111111110;
  477 : 1111111111000101;
  478 : 1111111100110000;
  479 : 1111111010001100;
  480 : 1111111110110000;
  481 : 1111111011100101;
  482 : 1111110111001100;
  483 : 1111111110010000;
  484 : 1111111111011010;
  485 : 1111110100011001;
  486 : 1111101001001111;
  487 : 1111100110001001;
  488 : 1111111101000100;
  489 : 1111101011010111;
  490 : 1111111111110010;
  491 : 1111111100011100;
  492 : 1111111111010110;
  493 : 1111110001010011;
  494 : 1111111000000000;
  495 : 1111110101000110;
  496 : 1111111111111100;
  497 : 1111111110001010;
  498 : 1111111111100110;
  499 : 1111111111011100;
  500 : 1111111100011111;
  501 : 1111111000000010;
  502 : 1111111110100111;
  503 : 1111111111101101;
  504 : 1111111111111011;
  505 : 1111111111110000;
  506 : 1111111101110110;
  507 : 1111111101110000;
  508 : 1111111100101010;
  509 : 1111111010010001;
  510 : 1111110011000010;
  511 : 1111111001111101;
  512 : 1111110011101110;
  513 : 1111010110011000;
  514 : 1111011010001110;
  515 : 1111111000011010;
  516 : 1111111111111010;
  517 : 1111110001101110;
  518 : 1111111111100001;
  519 : 1111111000100100;
  520 : 1111111010001101;
  521 : 1111111111011000;
  522 : 1111111100000000;
  523 : 1111110101101111;
  524 : 1111101111111101;
  525 : 1111110110011100;
  526 : 1111110100110110;
  527 : 1111101100101001;
  528 : 1111111110000111;
  529 : 1111111111111101;
  530 : 1111111110000011;
  531 : 1111111111101101;
  532 : 1111111111100110;
  533 : 1111111111100110;
  534 : 1111111111101101;
  535 : 1111111101000000;
  536 : 1111111001101101;
  537 : 1111111011101110;
  538 : 1111110100110101;
  539 : 1111111111101001;
  540 : 1111101111011001;
  541 : 1111100111100011;
  542 : 1111101110111111;
  543 : 1111111111111011;
  544 : 1111111111000001;
  545 : 1111111001011011;
  546 : 1111111111100110;
  547 : 1111111111110011;
  548 : 1111111011110011;
  549 : 1111111110001110;
  550 : 1111111011001100;
  551 : 1111111010001111;
  552 : 1111111100100000;
  553 : 1111110011000010;
  554 : 1111101001011001;
  555 : 1111101001010011;
  556 : 1111111101110101;
  557 : 1111111110100100;
  558 : 1111111111111111;
  559 : 1111111111100110;
  560 : 1111111111110110;
  561 : 1111111111001111;
  562 : 1111111111110110;
  563 : 1111111100011001;
  564 : 1111111111000000;
  565 : 1111111111100100;
  566 : 1111101110010010;
  567 : 1111110001110101;
  568 : 1111100110001100;
  569 : 1111011010100101;
  570 : 1111110001000001;
  571 : 1111111111000111;
  572 : 1111110000010110;
  573 : 1111111110011000;
  574 : 1111111111000101;
  575 : 1111111111100011;
  576 : 1111110111110010;
  577 : 1111111000100010;
  578 : 1111111110111001;
  579 : 1111111001001011;
  580 : 1111111111000111;
  581 : 1111101101011000;
  582 : 1111011110010111;
  583 : 1111101011111000;
  584 : 1111111110110001;
  585 : 1111111111001001;
  586 : 1111111111111100;
  587 : 1111111111110100;
  588 : 1111111111111111;
  589 : 1111111111111110;
  590 : 1111111110011100;
  591 : 1111111011100111;
  592 : 1111111101011000;
  593 : 1111111001110111;
  594 : 1111101101100010;
  595 : 1111101001101001;
  596 : 1111110011111101;
  597 : 1111110000111101;
  598 : 1111110000010101;
  599 : 1111111001100001;
  600 : 1111111100001111;
  601 : 1111110010100010;
  602 : 1111111110001010;
  603 : 1111111110110001;
  604 : 1111111101111000;
  605 : 1111111011110110;
  606 : 1111111011001111;
  607 : 1111110101011010;
  608 : 1111110111001111;
  609 : 1111101110100101;
  610 : 1111101101101011;
  611 : 1111111111000100;
  612 : 1111111111010001;
  613 : 1111111110100110;
  614 : 1111111111101000;
  615 : 1111111111100100;
  616 : 1111111111110001;
  617 : 1111111111111101;
  618 : 1111111110101000;
  619 : 1111111011101111;
  620 : 1111111000000010;
  621 : 1111110001111001;
  622 : 1111101100111010;
  623 : 1111111000010001;
  624 : 1111111010010011;
  625 : 1111111000001000;
  626 : 1111110000101010;
  627 : 1111110111100011;
  628 : 1111110100101101;
  629 : 1111101111110100;
  630 : 1111111100010100;
  631 : 1111111010011100;
  632 : 1111111111100011;
  633 : 1111111110110100;
  634 : 1111111110100100;
  635 : 1111111110101100;
  636 : 1111111001101011;
  637 : 1111111011101101;
  638 : 1111110110111111;
  639 : 1111111010101101;
  640 : 1111111100111011;
  641 : 1111111110011111;
  642 : 1111111111111100;
  643 : 1111111111101011;
  644 : 1111111111111101;
  645 : 1111111111100100;
  646 : 1111111110011100;
  647 : 1111111010010011;
  648 : 1111110100111100;
  649 : 1111110101001111;
  650 : 1111111010000001;
  651 : 1111111101010001;
  652 : 1111110110010000;
  653 : 1111101110011010;
  654 : 1111101001101111;
  655 : 1111101001001001;
  656 : 1111110110001101;
  657 : 1111100110111101;
  658 : 1111111100010101;
  659 : 1111110110000101;
  660 : 1111111110011010;
  661 : 1111111000111001;
  662 : 1111111111001110;
  663 : 1111111100101110;
  664 : 1111111100000010;
  665 : 1111111111111111;
  666 : 1111111010111111;
  667 : 1111111011001000;
  668 : 1111111010000001;
  669 : 1111111111111000;
  670 : 1111111111011100;
  671 : 1111111111011111;
  672 : 1111111111001100;
  673 : 1111111111011010;
  674 : 1111111101111110;
  675 : 1111111010001111;
  676 : 1111111101100000;
  677 : 1111111111000001;
  678 : 1111111111111010;
  679 : 1111110000111111;
  680 : 1111110111000000;
  681 : 1111110110000011;
  682 : 1111110000100101;
  683 : 1111110001000011;
  684 : 1111101011111100;
  685 : 1111110100010011;
  686 : 1111111000110101;
  687 : 1111111110110010;
  688 : 1111111110010010;
  689 : 1111110110110111;
  690 : 1111111111100001;
  691 : 1111111111011110;
  692 : 1111111111101101;
  693 : 1111111110101001;
  694 : 1111111101101001;
  695 : 1111111111110110;
  696 : 1111111111001111;
  697 : 1111111110101000;
  698 : 1111111111101100;
  699 : 1111111111110010;
  700 : 1111111111110110;
  701 : 1111111111110101;
  702 : 1111111110110110;
  703 : 1111111111100111;
  704 : 1111111110001010;
  705 : 1111111101111110;
  706 : 1111111011111010;
  707 : 1111110111110001;
  708 : 1111110111110111;
  709 : 1111111001101110;
  710 : 1111111111111001;
  711 : 1111111110101010;
  712 : 1111111100110010;
  713 : 1111111110010000;
  714 : 1111111111100100;
  715 : 1111111101111111;
  716 : 1111110110001001;
  717 : 1111101101011111;
  718 : 1111110101101110;
  719 : 1111110011000111;
  720 : 1111111001011101;
  721 : 1111111010010010;
  722 : 1111111011100101;
  723 : 1111111110011111;
  724 : 1111111111010100;
  725 : 1111111111110000;
  726 : 1111111111000001;
  727 : 1111111111101001;
  728 : 1111111111101000;
  729 : 1111111111110010;
  730 : 1111111111010100;
  731 : 1111111111100111;
  732 : 1111111101110101;
  733 : 1111111100101011;
  734 : 1111111011111000;
  735 : 1111110111110101;
  736 : 1111111000101110;
  737 : 1111110011001001;
  738 : 1111101001111001;
  739 : 1111110001101100;
  740 : 1111110001001010;
  741 : 1111100111001101;
  742 : 1111101100000100;
  743 : 1111111001100111;
  744 : 1111111110100000;
  745 : 1111110111100101;
  746 : 1111111011001010;
  747 : 1111111110000011;
  748 : 1111110111100000;
  749 : 1111110101111001;
  750 : 1111111110100111;
  751 : 1111111111101000;
  752 : 1111111111000101;
  753 : 1111111111010111;
  754 : 1111111111111110;
  755 : 1111111111011001;
  756 : 1111111111101110;
  757 : 1111111111111010;
  758 : 0000000000000000;
  759 : 1111111111111110;
  760 : 1111111111111101;
  761 : 1111111111110000;
  762 : 1111111111010100;
  763 : 1111111101100000;
  764 : 1111111101010110;
  765 : 1111111111000001;
  766 : 1111111101100010;
  767 : 1111111101111010;
  768 : 1111111101001000;
  769 : 1111111111100110;
  770 : 1111111101111001;
  771 : 1111111110011010;
  772 : 1111111111011010;
  773 : 1111111111110100;
  774 : 1111111100011110;
  775 : 1111111111111010;
  776 : 1111111111011100;
  777 : 1111111111110010;
  778 : 1111111111100101;
  779 : 1111111111011111;
  780 : 1111111111110010;
  781 : 1111111111110001;
  782 : 1111111111100010;
  783 : 1111111110111110;
END;
