WIDTH=16;
DEPTH=784;
ADDRESS_RADIX=UNS;
DATA_RADIX=BIN;
CONTENT BEGIN
  0 : 1111111111011010;
  1 : 1111111111111010;
  2 : 1111111111111111;
  3 : 1111111111111100;
  4 : 1111111111101101;
  5 : 1111111111011000;
  6 : 1111111111110001;
  7 : 1111111111111110;
  8 : 1111111111101110;
  9 : 1111111111110101;
  10 : 1111111111011100;
  11 : 1111111111100010;
  12 : 1111111111111010;
  13 : 1111111111001001;
  14 : 1111111111011011;
  15 : 1111111111010100;
  16 : 0000000000000000;
  17 : 1111111111111111;
  18 : 1111111111111110;
  19 : 1111111111100011;
  20 : 1111111111110010;
  21 : 1111111111110010;
  22 : 1111111111011110;
  23 : 1111111111110011;
  24 : 1111111111110001;
  25 : 1111111111111011;
  26 : 1111111111111110;
  27 : 0000000000000000;
  28 : 1111111111111011;
  29 : 1111111111101000;
  30 : 1111111111111101;
  31 : 1111111111111011;
  32 : 1111111111110110;
  33 : 1111111111111110;
  34 : 1111111111110111;
  35 : 1111111111101110;
  36 : 1111111111100000;
  37 : 0000000000000000;
  38 : 1111111111111111;
  39 : 1111111111100100;
  40 : 1111111111100111;
  41 : 1111111111000111;
  42 : 1111111110111110;
  43 : 1111111111110010;
  44 : 1111111111111001;
  45 : 0000000000000000;
  46 : 0000000000000000;
  47 : 1111111111101010;
  48 : 1111111111100000;
  49 : 1111111111111111;
  50 : 1111111110111101;
  51 : 1111111111111111;
  52 : 1111111111111010;
  53 : 1111111111110101;
  54 : 1111111110100101;
  55 : 1111111111111101;
  56 : 1111111111111000;
  57 : 1111111111110100;
  58 : 1111111111111110;
  59 : 1111111111100011;
  60 : 1111111111111011;
  61 : 1111111111111110;
  62 : 1111111111111011;
  63 : 1111111111110100;
  64 : 1111111111111011;
  65 : 1111111111011011;
  66 : 1111111110010101;
  67 : 1111111011110010;
  68 : 1111111010101010;
  69 : 1111110111010101;
  70 : 1111111011000011;
  71 : 1111111100101100;
  72 : 1111111111111111;
  73 : 1111111110011010;
  74 : 1111111111000000;
  75 : 1111111100101100;
  76 : 1111111111010000;
  77 : 1111111111011110;
  78 : 1111111111110101;
  79 : 1111111111111000;
  80 : 1111111111010111;
  81 : 1111111111110111;
  82 : 1111111111111101;
  83 : 1111111111010111;
  84 : 1111111111111111;
  85 : 1111111111110100;
  86 : 1111111111111001;
  87 : 1111111110110100;
  88 : 1111111111111000;
  89 : 1111111111111011;
  90 : 1111111111110011;
  91 : 1111111111011010;
  92 : 1111111100111010;
  93 : 1111111100001010;
  94 : 1111111111111101;
  95 : 1111110001010001;
  96 : 1111111001000011;
  97 : 1111111110011111;
  98 : 1111111010111000;
  99 : 1111111101110011;
  100 : 1111111000101011;
  101 : 1111110011010010;
  102 : 1111111010110101;
  103 : 1111111010110000;
  104 : 1111111101000001;
  105 : 1111111001010100;
  106 : 1111110011101001;
  107 : 1111111010001101;
  108 : 1111111111011010;
  109 : 1111111111100101;
  110 : 1111111111111001;
  111 : 1111111111111110;
  112 : 1111111111101111;
  113 : 1111111111111101;
  114 : 1111111111000101;
  115 : 1111111111111001;
  116 : 1111111111010101;
  117 : 1111111110001110;
  118 : 1111111110010101;
  119 : 1111111111100101;
  120 : 1111110000001010;
  121 : 1111101110101000;
  122 : 1111110001101100;
  123 : 1111111001100010;
  124 : 1111111100011001;
  125 : 1111101011100000;
  126 : 1111110010011100;
  127 : 1111111000111010;
  128 : 1111111110010010;
  129 : 1111101110100100;
  130 : 1111111001010001;
  131 : 1111111111111010;
  132 : 1111111010010100;
  133 : 1111111100100111;
  134 : 1111111110001111;
  135 : 1111111111111100;
  136 : 1111111101110111;
  137 : 1111111111011111;
  138 : 1111111111111111;
  139 : 1111111111100011;
  140 : 1111111111001011;
  141 : 1111111111111110;
  142 : 1111111111111000;
  143 : 1111111110111110;
  144 : 1111111111110110;
  145 : 1111110001001000;
  146 : 1111111100101100;
  147 : 1111111101001110;
  148 : 1111111000011000;
  149 : 1111110001110101;
  150 : 1111111001000111;
  151 : 1111110010001001;
  152 : 1111111010011011;
  153 : 1111111110001101;
  154 : 1111101101100011;
  155 : 1111101111011011;
  156 : 1111111011011100;
  157 : 1111111011011001;
  158 : 1111111110010001;
  159 : 1111111111111001;
  160 : 1111111100010000;
  161 : 1111111000110011;
  162 : 1111111101101000;
  163 : 1111111100000010;
  164 : 1111111010110101;
  165 : 1111111111111100;
  166 : 1111111111110111;
  167 : 0000000000000000;
  168 : 1111111111111100;
  169 : 0000000000000000;
  170 : 1111111111100110;
  171 : 1111111111110001;
  172 : 1111111111111001;
  173 : 1111111000100000;
  174 : 1111110011001010;
  175 : 1111111001111000;
  176 : 1111111110000010;
  177 : 1111111011011110;
  178 : 1111111011101000;
  179 : 1111111111100011;
  180 : 1111111110010000;
  181 : 1111110100111100;
  182 : 1111111101010010;
  183 : 1111110101100000;
  184 : 1111111111101110;
  185 : 1111111100011111;
  186 : 1111111100011011;
  187 : 1111111111100000;
  188 : 1111111110100000;
  189 : 1111111110000111;
  190 : 1111110010110011;
  191 : 1111110110100110;
  192 : 1111110011110111;
  193 : 1111111101101101;
  194 : 1111111100110110;
  195 : 1111111111110011;
  196 : 1111111111001101;
  197 : 1111111111111010;
  198 : 1111111111100100;
  199 : 1111111111101001;
  200 : 1111111000110100;
  201 : 1111110011110000;
  202 : 1111111111001011;
  203 : 1111111111110111;
  204 : 1111111111110010;
  205 : 1111111111111111;
  206 : 1111111110100001;
  207 : 1111111101010001;
  208 : 1111111111100110;
  209 : 1111110001000011;
  210 : 1111111100000001;
  211 : 1111111011101000;
  212 : 1111111010100111;
  213 : 1111110010111000;
  214 : 1111110100010011;
  215 : 1111110001111011;
  216 : 1111100111110110;
  217 : 1111110111100001;
  218 : 1111111100010111;
  219 : 1111111100000010;
  220 : 1111110101111101;
  221 : 1111111111111010;
  222 : 1111111101001001;
  223 : 1111111111100111;
  224 : 1111111111100001;
  225 : 1111111111111101;
  226 : 1111111110111111;
  227 : 1111111110100010;
  228 : 1111110110001110;
  229 : 1111111110000001;
  230 : 1111110011001001;
  231 : 1111111010010101;
  232 : 1111101111110110;
  233 : 1111111000010110;
  234 : 1111111100110011;
  235 : 1111111111001010;
  236 : 1111111010101000;
  237 : 1111111010010101;
  238 : 1111111001001111;
  239 : 1111111010110000;
  240 : 1111110010000010;
  241 : 1111111100001111;
  242 : 1111110100001011;
  243 : 1111111010011111;
  244 : 1111111111001100;
  245 : 1111110100000101;
  246 : 1111111000101100;
  247 : 1111111110010001;
  248 : 1111111111111100;
  249 : 1111111101101000;
  250 : 1111111111100001;
  251 : 1111111111110011;
  252 : 1111111111001110;
  253 : 1111111111101110;
  254 : 1111111111110000;
  255 : 1111111010101101;
  256 : 1111111111101011;
  257 : 1111111111100000;
  258 : 1111111000010111;
  259 : 1111111111111010;
  260 : 1111111111110011;
  261 : 1111111111100101;
  262 : 1111111100100110;
  263 : 1111111111010110;
  264 : 1111111110100001;
  265 : 1111010110011101;
  266 : 1111001111111110;
  267 : 1111011001001001;
  268 : 1111011110110100;
  269 : 1111010110010100;
  270 : 1111100100000111;
  271 : 1111011011010001;
  272 : 1111011000110100;
  273 : 1111010010000100;
  274 : 1111011101000111;
  275 : 1111100011011101;
  276 : 1111111001110111;
  277 : 1111111110001011;
  278 : 1111111110001110;
  279 : 1111111111111010;
  280 : 1111111110111001;
  281 : 1111111111111011;
  282 : 1111111111110110;
  283 : 1111111011000101;
  284 : 1111111111010010;
  285 : 1111111100101101;
  286 : 1111111110011100;
  287 : 1111110110011010;
  288 : 1111111100001101;
  289 : 1111111011101101;
  290 : 1111111100011100;
  291 : 1111111110101011;
  292 : 1111111101010110;
  293 : 1111100010110001;
  294 : 1111000111111101;
  295 : 1111000000111110;
  296 : 1110111100001010;
  297 : 1110101010000011;
  298 : 1110101000000110;
  299 : 1110100011110101;
  300 : 1110111110010000;
  301 : 1111001111100000;
  302 : 1111001100101000;
  303 : 1111001000010100;
  304 : 1111101101111110;
  305 : 1111111101111111;
  306 : 1111111111111011;
  307 : 1111111111101110;
  308 : 1111111111111111;
  309 : 1111111111010011;
  310 : 1111111111110111;
  311 : 1111111010101011;
  312 : 1111111100100111;
  313 : 1111111101100001;
  314 : 1111111110000000;
  315 : 1111101101110000;
  316 : 1111111110000101;
  317 : 1111111111100111;
  318 : 1111111110111111;
  319 : 1111110110011111;
  320 : 1111111110011110;
  321 : 1111111100100110;
  322 : 1111111101001110;
  323 : 1111110010110100;
  324 : 1111111111101111;
  325 : 1111110010101001;
  326 : 1111101010101111;
  327 : 1111100011101000;
  328 : 1111010000110110;
  329 : 1111011110100111;
  330 : 1111001111111110;
  331 : 1111011011111100;
  332 : 1111101010001111;
  333 : 1111111011110001;
  334 : 1111111111101111;
  335 : 1111111111011111;
  336 : 1111111111011010;
  337 : 1111111111011001;
  338 : 1111111111100011;
  339 : 1111111011101111;
  340 : 1111111001110000;
  341 : 1111111101000100;
  342 : 1111111111111100;
  343 : 1111111110101101;
  344 : 1111111001111111;
  345 : 1111111000010101;
  346 : 1111111001010010;
  347 : 1111110000101000;
  348 : 1111111111100101;
  349 : 1111111110011010;
  350 : 1111111111000100;
  351 : 1111111000001010;
  352 : 1111111101001110;
  353 : 1111101000010101;
  354 : 1111111111111010;
  355 : 1111111100101110;
  356 : 1111110111100011;
  357 : 1111110011100101;
  358 : 1111101100100111;
  359 : 1111101001111111;
  360 : 1111101011100100;
  361 : 1111111100010100;
  362 : 1111111111001010;
  363 : 1111111111100000;
  364 : 1111111111011110;
  365 : 1111111111110110;
  366 : 1111111111111000;
  367 : 1111111110100110;
  368 : 1111111111010011;
  369 : 1111110100101001;
  370 : 1111111101001111;
  371 : 1111111011001011;
  372 : 1111111011100110;
  373 : 1111110000011000;
  374 : 1111111011011101;
  375 : 1111111010010100;
  376 : 1111110111111000;
  377 : 1111111111000010;
  378 : 1111111111011001;
  379 : 1111111000001001;
  380 : 1111110001101111;
  381 : 1111111101100100;
  382 : 1111101111001011;
  383 : 1111110101111001;
  384 : 1111110010111100;
  385 : 1111110011000100;
  386 : 1111110111111000;
  387 : 1111111111111100;
  388 : 1111111111011110;
  389 : 1111111100100110;
  390 : 1111111111010111;
  391 : 1111111111111101;
  392 : 1111111111110101;
  393 : 1111111111001101;
  394 : 1111111111010101;
  395 : 1111111110011010;
  396 : 1111111100001001;
  397 : 1111111110011111;
  398 : 1111111111110010;
  399 : 1111111011010000;
  400 : 1111111010110100;
  401 : 1111111101000111;
  402 : 1111111100011010;
  403 : 1111111100010000;
  404 : 1111111111011001;
  405 : 1111110110010010;
  406 : 1111111110111100;
  407 : 1111111010111000;
  408 : 1111101000100101;
  409 : 1111110000101110;
  410 : 1111111110010110;
  411 : 1111111000000010;
  412 : 1111111001001101;
  413 : 1111101000101010;
  414 : 1111111100111111;
  415 : 1111111101101000;
  416 : 1111111011100000;
  417 : 1111111110101001;
  418 : 1111111111110000;
  419 : 1111111110010001;
  420 : 1111111111000110;
  421 : 1111111111111010;
  422 : 1111111101111100;
  423 : 1111111011101010;
  424 : 1111111100110011;
  425 : 1111111010111110;
  426 : 1111111010001111;
  427 : 1111111001011001;
  428 : 1111111101101000;
  429 : 1111111010101010;
  430 : 1111111101001100;
  431 : 1111110011011101;
  432 : 1111111001100011;
  433 : 1111111100100110;
  434 : 1111101100011011;
  435 : 1111110100001100;
  436 : 1111110111100001;
  437 : 1111111111101011;
  438 : 1111111100010000;
  439 : 1111111100101111;
  440 : 1111111001100000;
  441 : 1111111011101011;
  442 : 1111101101101011;
  443 : 1111111010000110;
  444 : 1111110010010001;
  445 : 1111111111111100;
  446 : 1111111111111101;
  447 : 1111111111111101;
  448 : 1111111111111011;
  449 : 1111111111101111;
  450 : 1111111110111100;
  451 : 1111111100101011;
  452 : 1111111010100011;
  453 : 1111110011010111;
  454 : 1111100011101111;
  455 : 1111100101011000;
  456 : 1111110001101000;
  457 : 1111101101011101;
  458 : 1111111111001010;
  459 : 1111110110100001;
  460 : 1111111111110100;
  461 : 1111111011010001;
  462 : 1111111101000101;
  463 : 1111111111110011;
  464 : 1111111111100001;
  465 : 1111111011100001;
  466 : 1111111011110000;
  467 : 1111111111001001;
  468 : 1111111101100011;
  469 : 1111111111101010;
  470 : 1111110011010011;
  471 : 1111110011101101;
  472 : 1111111110011101;
  473 : 1111111111011110;
  474 : 1111111111001111;
  475 : 1111111111000001;
  476 : 1111111111110110;
  477 : 1111111111100011;
  478 : 1111111110011011;
  479 : 1111111111010111;
  480 : 1111111111111100;
  481 : 1111110001001000;
  482 : 1111101101111110;
  483 : 1111100101011101;
  484 : 1111101110000100;
  485 : 1111100110110110;
  486 : 1111111000111101;
  487 : 1111110010001111;
  488 : 1111101111110110;
  489 : 1111111011011101;
  490 : 1111110110000101;
  491 : 1111101110110001;
  492 : 1111011110000110;
  493 : 1111110100101110;
  494 : 1111111011010011;
  495 : 1111111010011011;
  496 : 1111111100110101;
  497 : 1111111100010010;
  498 : 1111111101010010;
  499 : 1111111101111101;
  500 : 1111111111110001;
  501 : 1111111111000001;
  502 : 1111111111101011;
  503 : 1111111111101001;
  504 : 1111111111111111;
  505 : 1111111111101100;
  506 : 1111111110011000;
  507 : 1111111111111101;
  508 : 1111110100100101;
  509 : 1111111111010010;
  510 : 1111110001111011;
  511 : 1111111100001100;
  512 : 1111100100010001;
  513 : 1111101111010010;
  514 : 1111101010000011;
  515 : 1111010000100001;
  516 : 1111010101000110;
  517 : 1111010001001110;
  518 : 1111010100101101;
  519 : 1111101101111110;
  520 : 1111111111010101;
  521 : 1111111000100011;
  522 : 1111110111000101;
  523 : 1111111010000110;
  524 : 1111111100011100;
  525 : 1111111001101100;
  526 : 1111110100010100;
  527 : 1111111110010111;
  528 : 1111111010110010;
  529 : 1111111111101011;
  530 : 1111111110110111;
  531 : 1111111111111101;
  532 : 1111111111111111;
  533 : 1111111111101100;
  534 : 1111111111100001;
  535 : 1111111111100001;
  536 : 1111110110000101;
  537 : 1111111110011111;
  538 : 1111110101010001;
  539 : 1111101110110000;
  540 : 1111111000111000;
  541 : 1111100101001010;
  542 : 1111101011100010;
  543 : 1111111101011100;
  544 : 1111111101000100;
  545 : 1111100000111101;
  546 : 1111111101111010;
  547 : 1111101101100111;
  548 : 1111111101101100;
  549 : 1111111100010110;
  550 : 1111111111010110;
  551 : 1111111110111010;
  552 : 1111110011100100;
  553 : 1111111101111010;
  554 : 1111110111100101;
  555 : 1111111111100000;
  556 : 1111110100101011;
  557 : 1111111100111000;
  558 : 1111111111011110;
  559 : 1111111111110100;
  560 : 0000000000000000;
  561 : 1111111111101100;
  562 : 1111111111110101;
  563 : 1111111110100000;
  564 : 1111110100011010;
  565 : 1111111101000000;
  566 : 1111111010110000;
  567 : 1111011011100100;
  568 : 1111111101110001;
  569 : 1111111101110010;
  570 : 1111111100010111;
  571 : 1111111100011100;
  572 : 1111111111000010;
  573 : 1111110000010100;
  574 : 1111111001111101;
  575 : 1111111111101001;
  576 : 1111111111101000;
  577 : 1111111111100011;
  578 : 1111111110111110;
  579 : 1111111011011001;
  580 : 1111111010010110;
  581 : 1111111111111111;
  582 : 1111111100100110;
  583 : 1111110111011000;
  584 : 1111111111110001;
  585 : 1111111100101100;
  586 : 1111111111011100;
  587 : 0000000000000000;
  588 : 1111111111111101;
  589 : 1111111110100110;
  590 : 1111111100100000;
  591 : 1111111101100110;
  592 : 1111110010011010;
  593 : 1111100001001010;
  594 : 1111111111110101;
  595 : 1111111110001101;
  596 : 1111111110000011;
  597 : 1111111101001010;
  598 : 1111110001011011;
  599 : 1111111110100101;
  600 : 1111111010011001;
  601 : 1111111100100111;
  602 : 1111110011111111;
  603 : 1111111111011010;
  604 : 1111111110101000;
  605 : 1111110001110111;
  606 : 1111111100110110;
  607 : 1111111110101000;
  608 : 1111111011011001;
  609 : 1111110000000000;
  610 : 1111111100111011;
  611 : 1111111010000010;
  612 : 1111111100000100;
  613 : 1111111100011111;
  614 : 1111111111010111;
  615 : 1111111111110110;
  616 : 1111111111110100;
  617 : 1111111111001011;
  618 : 1111111111011000;
  619 : 1111111111001101;
  620 : 1111111011111001;
  621 : 1111111000101010;
  622 : 1111111111100000;
  623 : 1111110110001000;
  624 : 1111111011011000;
  625 : 1111111010111001;
  626 : 1111111011111100;
  627 : 1111111111110100;
  628 : 1111111010100000;
  629 : 1111100100111011;
  630 : 1111111110010111;
  631 : 1111111100111101;
  632 : 1111111110000110;
  633 : 1111111111011111;
  634 : 1111111000010110;
  635 : 1111111110001001;
  636 : 1111111111100101;
  637 : 1111111100010011;
  638 : 1111111010111101;
  639 : 1111110010110011;
  640 : 1111111111111000;
  641 : 1111111110111100;
  642 : 1111111111101011;
  643 : 1111111110101011;
  644 : 1111111111111000;
  645 : 1111111111011101;
  646 : 1111111111111101;
  647 : 1111111110010110;
  648 : 1111111111010111;
  649 : 1111111100010101;
  650 : 1111111110101110;
  651 : 1111101111100111;
  652 : 1111111111101101;
  653 : 1111111110110101;
  654 : 1111111010111001;
  655 : 1111111101001110;
  656 : 1111111100101101;
  657 : 1111111100101100;
  658 : 1111111001011111;
  659 : 1111111011110110;
  660 : 1111111000011010;
  661 : 1111110011101101;
  662 : 1111101001000111;
  663 : 1111110111001111;
  664 : 1111111101101010;
  665 : 1111111111110010;
  666 : 1111111110001001;
  667 : 1111111110111111;
  668 : 1111111100010000;
  669 : 1111111111011100;
  670 : 1111111111111011;
  671 : 1111111111111100;
  672 : 1111111111111001;
  673 : 1111111111101010;
  674 : 1111111111101110;
  675 : 1111111111101001;
  676 : 1111111100111100;
  677 : 1111111111010101;
  678 : 1111111011100000;
  679 : 1111111110100011;
  680 : 1111111110110101;
  681 : 1111111000011011;
  682 : 1111111110001100;
  683 : 1111111111110100;
  684 : 1111111100100101;
  685 : 1111111010010001;
  686 : 1111111000001100;
  687 : 1111111110110100;
  688 : 1111111010011110;
  689 : 1111111110000111;
  690 : 1111110110001011;
  691 : 1111111000100110;
  692 : 1111111001000011;
  693 : 1111111111100001;
  694 : 1111111100101101;
  695 : 1111111111111001;
  696 : 1111111111001101;
  697 : 1111111111111000;
  698 : 1111111111110101;
  699 : 1111111111101000;
  700 : 1111111111110011;
  701 : 1111111111101011;
  702 : 1111111111111000;
  703 : 1111111111100010;
  704 : 1111111100101100;
  705 : 1111111010111100;
  706 : 1111111000000110;
  707 : 1111110001000000;
  708 : 1111110101011001;
  709 : 1111111100000000;
  710 : 1111110111101100;
  711 : 1111111111101000;
  712 : 1111111000110011;
  713 : 1111111110110100;
  714 : 1111111111111001;
  715 : 1111111101100100;
  716 : 1111111111110011;
  717 : 1111111000001101;
  718 : 1111111110111001;
  719 : 1111110001011001;
  720 : 1111111000100010;
  721 : 1111111111110011;
  722 : 1111111000011101;
  723 : 1111111111000010;
  724 : 1111111110001000;
  725 : 1111111111111111;
  726 : 1111111111111011;
  727 : 1111111111011111;
  728 : 1111111111101101;
  729 : 1111111110101011;
  730 : 1111111111100010;
  731 : 1111111111111000;
  732 : 1111111111110111;
  733 : 1111111111010001;
  734 : 1111111110100101;
  735 : 1111111110010100;
  736 : 1111111110010100;
  737 : 1111111010100110;
  738 : 1111111100011001;
  739 : 1111111110000111;
  740 : 1111111100100100;
  741 : 1111111101011011;
  742 : 1111111101101110;
  743 : 1111111001110110;
  744 : 1111111001011010;
  745 : 1111111101110111;
  746 : 1111111101111000;
  747 : 1111111111100101;
  748 : 1111111110011011;
  749 : 1111111101011101;
  750 : 1111111110100111;
  751 : 1111111111111011;
  752 : 1111111111111101;
  753 : 1111111111101000;
  754 : 1111111111110110;
  755 : 1111111111111001;
  756 : 1111111111111011;
  757 : 1111111111101100;
  758 : 1111111111111011;
  759 : 1111111111111100;
  760 : 1111111111111111;
  761 : 1111111111111011;
  762 : 1111111111111110;
  763 : 1111111111101001;
  764 : 1111111110111000;
  765 : 1111111111100110;
  766 : 1111111111110001;
  767 : 1111111111111001;
  768 : 1111111111001001;
  769 : 1111111111101111;
  770 : 0000000000000000;
  771 : 1111111111111100;
  772 : 1111111111101000;
  773 : 1111111111111000;
  774 : 1111111111011111;
  775 : 1111111111111111;
  776 : 1111111111011110;
  777 : 1111111110101001;
  778 : 1111111111111111;
  779 : 1111111111011011;
  780 : 1111111111111011;
  781 : 1111111111110100;
  782 : 1111111111101111;
  783 : 1111111111110101;
END;
