WIDTH=16;
DEPTH=784;
ADDRESS_RADIX=UNS;
DATA_RADIX=BIN;
CONTENT BEGIN
  0 : 1111111111101011;
  1 : 1111111111110100;
  2 : 1111111110111000;
  3 : 1111111111101000;
  4 : 1111111111111110;
  5 : 1111111111111101;
  6 : 1111111111110001;
  7 : 1111111111111010;
  8 : 1111111111010000;
  9 : 1111111111111000;
  10 : 1111111111111100;
  11 : 1111111111110001;
  12 : 1111111111111010;
  13 : 1111111111100101;
  14 : 1111111111111001;
  15 : 1111111111111011;
  16 : 1111111111111100;
  17 : 1111111111111100;
  18 : 1111111111111100;
  19 : 1111111111111100;
  20 : 1111111111111011;
  21 : 1111111111110010;
  22 : 1111111111100010;
  23 : 0000000000000000;
  24 : 1111111111111100;
  25 : 1111111111111000;
  26 : 1111111111111100;
  27 : 1111111111101101;
  28 : 1111111111010111;
  29 : 1111111111111001;
  30 : 1111111111111111;
  31 : 1111111111100000;
  32 : 1111111111100111;
  33 : 1111111111100110;
  34 : 1111111111110010;
  35 : 1111111111111110;
  36 : 1111111111110011;
  37 : 1111111111100001;
  38 : 1111111111101100;
  39 : 1111111111111010;
  40 : 1111111111100000;
  41 : 1111111111111111;
  42 : 1111111111110010;
  43 : 1111111111111111;
  44 : 1111111111010110;
  45 : 1111111111111101;
  46 : 1111111111101011;
  47 : 1111111111000101;
  48 : 1111111111110111;
  49 : 1111111111110101;
  50 : 1111111111110000;
  51 : 1111111111111110;
  52 : 1111111111100010;
  53 : 1111111111101001;
  54 : 1111111111100011;
  55 : 1111111110111011;
  56 : 1111111111110010;
  57 : 1111111111110111;
  58 : 1111111111100110;
  59 : 1111111111001101;
  60 : 1111111111111011;
  61 : 1111111111111001;
  62 : 1111111111101110;
  63 : 1111111111111011;
  64 : 1111111111110110;
  65 : 1111111111001111;
  66 : 1111111111100001;
  67 : 1111111111101111;
  68 : 1111111110001110;
  69 : 1111111111010100;
  70 : 1111111111100100;
  71 : 1111111111000000;
  72 : 1111111111010000;
  73 : 1111111111000000;
  74 : 1111111101000110;
  75 : 1111111111110010;
  76 : 1111111111111110;
  77 : 1111111111111000;
  78 : 1111111111111101;
  79 : 1111111111001011;
  80 : 1111111111110011;
  81 : 1111111111111001;
  82 : 1111111111111110;
  83 : 1111111111100101;
  84 : 1111111111111001;
  85 : 1111111111101010;
  86 : 1111111111000111;
  87 : 1111111111111001;
  88 : 1111111111111100;
  89 : 1111111111101000;
  90 : 1111111111110000;
  91 : 1111111111110100;
  92 : 1111111111100000;
  93 : 1111111111101000;
  94 : 1111111110100111;
  95 : 1111111111001101;
  96 : 1111111111111110;
  97 : 1111111101011000;
  98 : 1111111110010000;
  99 : 1111110000000011;
  100 : 1111110001011110;
  101 : 1111111111000100;
  102 : 1111111100111100;
  103 : 1111111111100100;
  104 : 1111111101010011;
  105 : 1111111110010100;
  106 : 1111111110110000;
  107 : 1111111110110000;
  108 : 1111111110011010;
  109 : 1111111111111111;
  110 : 1111111111110010;
  111 : 1111111111110010;
  112 : 1111111111110111;
  113 : 1111111111011110;
  114 : 1111111111110000;
  115 : 1111111111101001;
  116 : 1111111111111001;
  117 : 1111111110010111;
  118 : 1111111111001000;
  119 : 1111111111010011;
  120 : 1111111110111110;
  121 : 1111111100100010;
  122 : 1111110001101000;
  123 : 1111111111011101;
  124 : 1111110111101110;
  125 : 1111110100000111;
  126 : 1111111100001111;
  127 : 1111111001111011;
  128 : 1111110000001010;
  129 : 1111111111110000;
  130 : 1111111010101010;
  131 : 1111111101010111;
  132 : 1111110100010011;
  133 : 1111111111000001;
  134 : 1111111001110011;
  135 : 1111111010010111;
  136 : 1111111010100100;
  137 : 1111111111001101;
  138 : 1111111111111101;
  139 : 1111111111110011;
  140 : 1111111111001011;
  141 : 1111111111101010;
  142 : 0000000000000000;
  143 : 1111111111100011;
  144 : 1111111111101101;
  145 : 1111111111011110;
  146 : 1111111000111010;
  147 : 1111111011100011;
  148 : 1111111000101100;
  149 : 1111110001000011;
  150 : 1111110010000101;
  151 : 1111101100010010;
  152 : 1111111000100101;
  153 : 1111110010110010;
  154 : 1111111000101101;
  155 : 1111110101110010;
  156 : 1111111110010111;
  157 : 1111111110010100;
  158 : 1111110101110100;
  159 : 1111111110011111;
  160 : 1111111111011000;
  161 : 1111111101001111;
  162 : 1111111001010101;
  163 : 1111111111011000;
  164 : 1111111111100010;
  165 : 1111111111110010;
  166 : 1111111111110010;
  167 : 1111111111111110;
  168 : 1111111111101101;
  169 : 1111111111000000;
  170 : 1111111111010100;
  171 : 1111111111100001;
  172 : 1111111111110101;
  173 : 1111111110000000;
  174 : 1111111111110111;
  175 : 1111111111101011;
  176 : 1111111101010100;
  177 : 1111111000011111;
  178 : 1111111100001100;
  179 : 1111111001011110;
  180 : 1111111100000010;
  181 : 1111111111001110;
  182 : 1111110000100000;
  183 : 1111110001100000;
  184 : 1111111111100011;
  185 : 1111111111000101;
  186 : 1111111010010100;
  187 : 1111111111111100;
  188 : 1111111000100000;
  189 : 1111111011000101;
  190 : 1111111001111111;
  191 : 1111111110011100;
  192 : 1111111110000001;
  193 : 1111111110100010;
  194 : 1111111111101001;
  195 : 1111111111100101;
  196 : 1111111111111110;
  197 : 1111111111110111;
  198 : 1111111011011001;
  199 : 1111111111001011;
  200 : 1111111010001101;
  201 : 1111111111110100;
  202 : 1111110100111110;
  203 : 1111111011101111;
  204 : 1111111111011100;
  205 : 1111111111000100;
  206 : 1111110011100001;
  207 : 1111111010001001;
  208 : 1111110101001001;
  209 : 1111111001111010;
  210 : 1111110000110000;
  211 : 1111111110110111;
  212 : 1111111110110111;
  213 : 1111111001010110;
  214 : 1111111110111110;
  215 : 1111110011000001;
  216 : 1111111011100000;
  217 : 1111111111101011;
  218 : 1111111111010010;
  219 : 1111111101011011;
  220 : 1111111101000110;
  221 : 1111111110101011;
  222 : 1111111111001010;
  223 : 1111111111111110;
  224 : 1111111111110000;
  225 : 1111111111000011;
  226 : 1111111011011111;
  227 : 1111111011011110;
  228 : 1111110100101110;
  229 : 1111111111101000;
  230 : 1111111010001001;
  231 : 1111110001101101;
  232 : 1111111111010100;
  233 : 1111111000000001;
  234 : 1111111011000111;
  235 : 1111111000000001;
  236 : 1111111100000100;
  237 : 1111111001111011;
  238 : 1111110011011000;
  239 : 1111111110110101;
  240 : 1111111110010000;
  241 : 1111111000011110;
  242 : 1111101011110110;
  243 : 1111110101000110;
  244 : 1111110010000001;
  245 : 1111110100111010;
  246 : 1111110011010110;
  247 : 1111111110101101;
  248 : 1111111000111000;
  249 : 1111111001101001;
  250 : 1111111100111101;
  251 : 1111111111111010;
  252 : 1111111111111111;
  253 : 1111111111101101;
  254 : 1111111101111001;
  255 : 1111111011111101;
  256 : 1111111010100011;
  257 : 1111110011110111;
  258 : 1111111100000000;
  259 : 1111110110110101;
  260 : 1111111110011001;
  261 : 1111101101001010;
  262 : 1111111111111110;
  263 : 1111111111001100;
  264 : 1111111001000010;
  265 : 1111111100001100;
  266 : 1111111001101001;
  267 : 1111110111011110;
  268 : 1111111101101000;
  269 : 1111111001111001;
  270 : 1111101010110110;
  271 : 1111101001011101;
  272 : 1111101110100101;
  273 : 1111110001011010;
  274 : 1111111010000001;
  275 : 1111111111110010;
  276 : 1111111100101101;
  277 : 1111111100110001;
  278 : 1111111110011001;
  279 : 1111111111110101;
  280 : 1111111111111001;
  281 : 1111111111111111;
  282 : 1111111110011101;
  283 : 1111111010100100;
  284 : 1111111011101000;
  285 : 1111110110111011;
  286 : 1111111000000000;
  287 : 1111111100100001;
  288 : 1111111110001100;
  289 : 1111110010101011;
  290 : 1111111011000000;
  291 : 1111101101101101;
  292 : 1111111111110110;
  293 : 1111100000100100;
  294 : 1111110000110101;
  295 : 1111110011100010;
  296 : 1111111010100000;
  297 : 1111011110011010;
  298 : 1111111001111010;
  299 : 1111110010010011;
  300 : 1111111011001000;
  301 : 1111111010110001;
  302 : 1111111110011010;
  303 : 1111111001110001;
  304 : 1111111111100101;
  305 : 1111111100111001;
  306 : 1111111111101011;
  307 : 1111111111011101;
  308 : 1111111111100111;
  309 : 1111111111110010;
  310 : 1111111101111011;
  311 : 1111110111100010;
  312 : 1111111110100101;
  313 : 1111111001111000;
  314 : 1111110000010000;
  315 : 1111110001011111;
  316 : 1111111100011100;
  317 : 1111111100111101;
  318 : 1111101000011101;
  319 : 1111111011000001;
  320 : 1111111010100010;
  321 : 1111111100110100;
  322 : 1111111111001000;
  323 : 1111100011011001;
  324 : 1111101111001010;
  325 : 1111011110010011;
  326 : 1111111111000101;
  327 : 1111110000010101;
  328 : 1111101010000010;
  329 : 1111110111010110;
  330 : 1111110011011100;
  331 : 1111110111101101;
  332 : 1111111111000100;
  333 : 1111111001010001;
  334 : 1111111110111011;
  335 : 1111111111111111;
  336 : 1111111111111110;
  337 : 0000000000000000;
  338 : 1111111110000111;
  339 : 1111111001100000;
  340 : 1111110110100110;
  341 : 1111110010110011;
  342 : 1111111000111010;
  343 : 1111111111001101;
  344 : 1111111111110110;
  345 : 1111111111110010;
  346 : 1111110100000000;
  347 : 1111111101011011;
  348 : 1111101011101110;
  349 : 1111111100011100;
  350 : 1111011000100010;
  351 : 1111110111011111;
  352 : 1111100101011111;
  353 : 1111100001110011;
  354 : 1111101100101100;
  355 : 1111100111011110;
  356 : 1111101000010000;
  357 : 1111110101110001;
  358 : 1111100111011100;
  359 : 1111110000100100;
  360 : 1111111011110100;
  361 : 1111111011001000;
  362 : 1111111111000100;
  363 : 1111111110111101;
  364 : 1111111111000100;
  365 : 1111111110111111;
  366 : 1111111110100001;
  367 : 1111111001010110;
  368 : 1111100100100110;
  369 : 1111111100100101;
  370 : 1111111110001001;
  371 : 1111110011100001;
  372 : 1111111111001011;
  373 : 1111101010000000;
  374 : 1111101101111110;
  375 : 1111111111100100;
  376 : 1111111111101011;
  377 : 1111000000001110;
  378 : 1111111100000000;
  379 : 1111111111111011;
  380 : 1111100100101010;
  381 : 1111011100101000;
  382 : 1111111011000001;
  383 : 1111101100100101;
  384 : 1111111110010111;
  385 : 1111101101100000;
  386 : 1111100011000010;
  387 : 1111111111111100;
  388 : 1111111101000010;
  389 : 1111111000011100;
  390 : 1111111111111010;
  391 : 1111111111101011;
  392 : 1111111111010111;
  393 : 1111111111111010;
  394 : 1111111111010011;
  395 : 1111111001111010;
  396 : 1111101111101001;
  397 : 1111110010100110;
  398 : 1111111111101001;
  399 : 1111110001001011;
  400 : 1111100101000111;
  401 : 1111101110010011;
  402 : 1111111111000110;
  403 : 1111111100111111;
  404 : 1111110101101011;
  405 : 1111100000110110;
  406 : 1111111001101000;
  407 : 1111111100101010;
  408 : 1111010111111010;
  409 : 1111110000000010;
  410 : 1111101111111111;
  411 : 1111011100001011;
  412 : 1111101011100001;
  413 : 1111101110100001;
  414 : 1111100100100110;
  415 : 1111111111110010;
  416 : 1111111100110011;
  417 : 1111111101110110;
  418 : 1111111111100011;
  419 : 1111111111000100;
  420 : 1111111111100101;
  421 : 1111111111010010;
  422 : 1111111111000001;
  423 : 1111111011110101;
  424 : 1111110011100110;
  425 : 1111111100001110;
  426 : 1111111110111011;
  427 : 1111111011001001;
  428 : 1111110110000000;
  429 : 1111100110010001;
  430 : 1111110110000100;
  431 : 1111111111111110;
  432 : 1111110101101111;
  433 : 1111110111001010;
  434 : 1111100000101010;
  435 : 1111111111000111;
  436 : 1111110011110111;
  437 : 1111110100011111;
  438 : 1111100110110010;
  439 : 1111011100001111;
  440 : 1111101001111011;
  441 : 1111110011110110;
  442 : 1111100110111101;
  443 : 1111110000010101;
  444 : 1111111001011001;
  445 : 1111111000011110;
  446 : 1111111110110100;
  447 : 1111111111110100;
  448 : 1111111111110000;
  449 : 1111111111010110;
  450 : 1111111110111110;
  451 : 1111111101010000;
  452 : 1111110101111101;
  453 : 1111110001111100;
  454 : 1111111111100110;
  455 : 1111111101001111;
  456 : 1111111110110101;
  457 : 1111111101100111;
  458 : 1111111011111110;
  459 : 1111111111001011;
  460 : 1111111100110011;
  461 : 1111100101000000;
  462 : 1111100100010101;
  463 : 1111110011011111;
  464 : 1111100111001000;
  465 : 1111101001010111;
  466 : 1111110010111100;
  467 : 1111111010111000;
  468 : 1111101011011110;
  469 : 1111111010011011;
  470 : 1111111111100001;
  471 : 1111110111110110;
  472 : 1111110101000111;
  473 : 1111111101000100;
  474 : 1111111111110100;
  475 : 1111111111110111;
  476 : 0000000000000000;
  477 : 1111111111110010;
  478 : 1111111111111100;
  479 : 1111111101110010;
  480 : 1111111100100001;
  481 : 1111110110010100;
  482 : 1111111001011000;
  483 : 1111111001011111;
  484 : 1111101111110111;
  485 : 1111111101111000;
  486 : 1111111111101101;
  487 : 1111111101001011;
  488 : 1111111110110101;
  489 : 1111100011001111;
  490 : 1111111111110000;
  491 : 1111011000100000;
  492 : 1111010100110001;
  493 : 1111111100010000;
  494 : 1111101111110101;
  495 : 1111111110101011;
  496 : 1111111111111111;
  497 : 1111111000110010;
  498 : 1111111001000100;
  499 : 1111111101000101;
  500 : 1111111111111100;
  501 : 1111111111111000;
  502 : 1111111111010101;
  503 : 1111111111111101;
  504 : 1111111111010110;
  505 : 1111111111111001;
  506 : 1111111110011111;
  507 : 1111111111000001;
  508 : 1111111111100011;
  509 : 1111111011111111;
  510 : 1111111110100111;
  511 : 1111111100101010;
  512 : 1111110111111110;
  513 : 1111111110000110;
  514 : 1111111110111100;
  515 : 1111110001110001;
  516 : 1111111101010100;
  517 : 1111111011100111;
  518 : 1111111001111010;
  519 : 1111101100110101;
  520 : 1111100010111110;
  521 : 1111110110001100;
  522 : 1111101011101010;
  523 : 1111110000100011;
  524 : 1111111110011100;
  525 : 1111111000001100;
  526 : 1111111100010010;
  527 : 1111111111100000;
  528 : 1111111110010100;
  529 : 1111111111000001;
  530 : 1111111111111111;
  531 : 1111111111010101;
  532 : 1111111111101110;
  533 : 1111111111011100;
  534 : 1111111110110000;
  535 : 1111111111000000;
  536 : 1111111100111100;
  537 : 1111111110100000;
  538 : 1111111000100111;
  539 : 1111111111111001;
  540 : 1111111110110001;
  541 : 1111111000010001;
  542 : 1111110101111110;
  543 : 1111111100100001;
  544 : 1111111100111010;
  545 : 1111111011000110;
  546 : 1111111101000011;
  547 : 1111110100010111;
  548 : 1111111001010100;
  549 : 1111110101000100;
  550 : 1111111101100101;
  551 : 1111100110111110;
  552 : 1111111101011010;
  553 : 1111111110001110;
  554 : 1111111111110011;
  555 : 1111111111111000;
  556 : 1111111011011110;
  557 : 1111111111111101;
  558 : 1111111111111001;
  559 : 1111111111100010;
  560 : 1111111111110000;
  561 : 1111111111110101;
  562 : 1111111111100001;
  563 : 1111111001000001;
  564 : 1111110010001111;
  565 : 1111111111010100;
  566 : 1111111000001100;
  567 : 1111110110101100;
  568 : 1111110111101001;
  569 : 1111111101010001;
  570 : 1111111011011010;
  571 : 1111111101100001;
  572 : 1111111010100000;
  573 : 1111111101001101;
  574 : 1111111110111101;
  575 : 1111110110000000;
  576 : 1111111100010001;
  577 : 1111111001000000;
  578 : 1111111110100100;
  579 : 1111111111101111;
  580 : 1111110010001110;
  581 : 1111111100111111;
  582 : 1111111110101100;
  583 : 1111111111000111;
  584 : 1111110011111111;
  585 : 1111110111010100;
  586 : 1111111111111111;
  587 : 1111111111111011;
  588 : 1111111111101000;
  589 : 1111111111100000;
  590 : 1111111110001001;
  591 : 1111111111001000;
  592 : 1111111100100101;
  593 : 1111111110001100;
  594 : 1111111001000110;
  595 : 1111110001001111;
  596 : 1111111011010100;
  597 : 1111111110000011;
  598 : 1111111110000110;
  599 : 1111111100011010;
  600 : 1111110111000000;
  601 : 1111111111100111;
  602 : 1111111000111011;
  603 : 1111111000010010;
  604 : 1111110100010111;
  605 : 1111111010001100;
  606 : 1111110000001101;
  607 : 1111111111100010;
  608 : 1111111010010001;
  609 : 1111111111111010;
  610 : 1111111111101110;
  611 : 1111111101011100;
  612 : 1111110111000001;
  613 : 1111111101111001;
  614 : 1111111111010011;
  615 : 1111111111111000;
  616 : 1111111111100111;
  617 : 0000000000000000;
  618 : 1111111111000110;
  619 : 1111111100001011;
  620 : 1111111001010111;
  621 : 1111110101000000;
  622 : 1111111010000111;
  623 : 1111111000101010;
  624 : 1111101110110101;
  625 : 1111111111111011;
  626 : 1111111111111010;
  627 : 1111111000001110;
  628 : 1111110000110011;
  629 : 1111111101000000;
  630 : 1111100000010111;
  631 : 1111110000111111;
  632 : 1111110101101111;
  633 : 1111111101001101;
  634 : 1111111100100000;
  635 : 1111111100111101;
  636 : 1111111110100111;
  637 : 1111111000101010;
  638 : 1111111110011001;
  639 : 1111111111110001;
  640 : 1111111111101110;
  641 : 1111111111010010;
  642 : 1111111111100010;
  643 : 1111111111110010;
  644 : 1111111111111010;
  645 : 1111111111111000;
  646 : 1111111101101100;
  647 : 1111111101010110;
  648 : 1111111110001110;
  649 : 1111111111001100;
  650 : 1111100011001011;
  651 : 1111111110000010;
  652 : 1111111111101110;
  653 : 1111111110110111;
  654 : 1111111001011100;
  655 : 1111111001010111;
  656 : 1111110111110010;
  657 : 1111111100111101;
  658 : 1111111111110001;
  659 : 1111111100110000;
  660 : 1111100000101000;
  661 : 1111110010110011;
  662 : 1111111111111001;
  663 : 1111111010000000;
  664 : 1111111110000111;
  665 : 1111111110100000;
  666 : 1111111100100010;
  667 : 1111111110111100;
  668 : 1111111111111001;
  669 : 1111111111100011;
  670 : 1111111111110101;
  671 : 1111111111111001;
  672 : 1111111111100101;
  673 : 1111111111111111;
  674 : 1111111100011111;
  675 : 1111111101101011;
  676 : 1111111000011111;
  677 : 1111111111100101;
  678 : 1111111111110110;
  679 : 1111111101011101;
  680 : 1111111101101111;
  681 : 1111101011000110;
  682 : 1111110001001010;
  683 : 1111111010100010;
  684 : 1111111000001010;
  685 : 1111111110111110;
  686 : 1111110010111110;
  687 : 1111111101101010;
  688 : 1111111100010011;
  689 : 1111111111111101;
  690 : 1111111111010110;
  691 : 1111111111010010;
  692 : 1111111110110110;
  693 : 1111111101101101;
  694 : 1111111100100001;
  695 : 1111111011001101;
  696 : 1111111100100011;
  697 : 1111111111010110;
  698 : 1111111110111011;
  699 : 1111111111000001;
  700 : 1111111111110000;
  701 : 1111111111110100;
  702 : 1111111111111100;
  703 : 1111111111110010;
  704 : 1111111110111010;
  705 : 1111111111101000;
  706 : 1111111010000110;
  707 : 1111111101111110;
  708 : 1111111111011001;
  709 : 1111111100001010;
  710 : 1111111000100000;
  711 : 1111111100010001;
  712 : 1111110000000001;
  713 : 1111111101001010;
  714 : 1111101100111010;
  715 : 1111111011001110;
  716 : 1111111011110110;
  717 : 1111111111000010;
  718 : 1111111100100000;
  719 : 1111111100110110;
  720 : 1111111011101000;
  721 : 1111111110000010;
  722 : 1111111001001000;
  723 : 1111111001100000;
  724 : 1111111101101010;
  725 : 1111111111111111;
  726 : 1111111111111111;
  727 : 1111111111111111;
  728 : 1111111111110011;
  729 : 1111111111111101;
  730 : 1111111111100110;
  731 : 1111111111011011;
  732 : 1111111101011000;
  733 : 1111111010010010;
  734 : 1111110100101011;
  735 : 1111111011100000;
  736 : 1111111010111111;
  737 : 1111110100011101;
  738 : 1111111110001011;
  739 : 1111111000001011;
  740 : 1111111100010010;
  741 : 1111110011011000;
  742 : 1111110001011100;
  743 : 1111111011111010;
  744 : 1111111111111100;
  745 : 1111111001110011;
  746 : 1111111010100101;
  747 : 1111111101001001;
  748 : 1111111101101000;
  749 : 1111111111101010;
  750 : 1111111110001101;
  751 : 1111111111101010;
  752 : 1111111111111000;
  753 : 1111111111111001;
  754 : 1111111111111111;
  755 : 1111111111111110;
  756 : 0000000000000000;
  757 : 1111111111010010;
  758 : 1111111111110100;
  759 : 1111111111100100;
  760 : 1111111111111100;
  761 : 1111111111000011;
  762 : 1111111111110010;
  763 : 1111111111011011;
  764 : 1111111110010101;
  765 : 1111111110111001;
  766 : 1111111111111111;
  767 : 1111111111101010;
  768 : 1111111111010000;
  769 : 1111111111110110;
  770 : 1111111101010101;
  771 : 1111111100010000;
  772 : 1111111101000000;
  773 : 1111111101011001;
  774 : 1111111010111100;
  775 : 1111111101111001;
  776 : 1111111101011111;
  777 : 1111111101110110;
  778 : 1111111111100111;
  779 : 1111111111111001;
  780 : 1111111111101011;
  781 : 1111111111001101;
  782 : 1111111111111010;
  783 : 1111111111111000;
END;
