WIDTH=16;
DEPTH=784;
ADDRESS_RADIX=UNS;
DATA_RADIX=BIN;
CONTENT BEGIN
  0 : 1111111111110010;
  1 : 1111111111101101;
  2 : 1111111111101001;
  3 : 1111111111010101;
  4 : 1111111111000100;
  5 : 1111111111110011;
  6 : 1111111111111111;
  7 : 1111111111011111;
  8 : 1111111111111101;
  9 : 1111111111101110;
  10 : 1111111111010100;
  11 : 1111111111010100;
  12 : 1111111111100011;
  13 : 1111111111010111;
  14 : 1111111111111111;
  15 : 1111111111111011;
  16 : 1111111111111000;
  17 : 1111111111000110;
  18 : 1111111111110100;
  19 : 1111111111111101;
  20 : 1111111111110010;
  21 : 0000000000000000;
  22 : 1111111111111111;
  23 : 1111111111111111;
  24 : 1111111111001110;
  25 : 1111111111111010;
  26 : 1111111111111101;
  27 : 1111111111111011;
  28 : 1111111111101000;
  29 : 1111111111111100;
  30 : 1111111111111110;
  31 : 1111111111101000;
  32 : 1111111111111000;
  33 : 1111111111111101;
  34 : 1111111111111001;
  35 : 1111111111110010;
  36 : 1111111111111111;
  37 : 1111111111110001;
  38 : 1111111111101010;
  39 : 1111111110111101;
  40 : 1111111111111110;
  41 : 1111111111110011;
  42 : 1111111111111100;
  43 : 1111111111110111;
  44 : 1111111111001010;
  45 : 1111111111111100;
  46 : 1111111111100110;
  47 : 1111111111001101;
  48 : 1111111111110010;
  49 : 1111111111111001;
  50 : 1111111111110100;
  51 : 1111111111111110;
  52 : 1111111111111000;
  53 : 1111111111010000;
  54 : 1111111111111001;
  55 : 1111111111110111;
  56 : 1111111111111111;
  57 : 1111111111101111;
  58 : 1111111111010001;
  59 : 1111111111111001;
  60 : 1111111111000110;
  61 : 1111111111111011;
  62 : 1111111110001110;
  63 : 1111111110101001;
  64 : 1111111110001001;
  65 : 1111111100101110;
  66 : 1111111011011000;
  67 : 1111111010010100;
  68 : 1111111010111010;
  69 : 1111111010110100;
  70 : 1111111011101000;
  71 : 1111111011000000;
  72 : 1111111100101100;
  73 : 1111111011000101;
  74 : 1111111101001010;
  75 : 1111111011000001;
  76 : 1111111011100111;
  77 : 1111111011010101;
  78 : 1111111101101101;
  79 : 1111111110110110;
  80 : 1111111111101001;
  81 : 1111111111001001;
  82 : 1111111111111110;
  83 : 1111111111011100;
  84 : 1111111111110010;
  85 : 1111111111111111;
  86 : 1111111111100010;
  87 : 1111111111110100;
  88 : 1111111111010001;
  89 : 1111111110110001;
  90 : 1111111010111110;
  91 : 1111111010111000;
  92 : 1111111000011000;
  93 : 1111111001011100;
  94 : 1111111111101000;
  95 : 1111111100110001;
  96 : 1111111111111011;
  97 : 1111111111100000;
  98 : 1111111100110000;
  99 : 1111111111001111;
  100 : 1111111111000001;
  101 : 1111111011011000;
  102 : 1111111001110101;
  103 : 1111111111001011;
  104 : 1111110100100000;
  105 : 1111101110010101;
  106 : 1111101110111011;
  107 : 1111110011111101;
  108 : 1111111010001001;
  109 : 1111111111111001;
  110 : 1111111111010110;
  111 : 1111111111011011;
  112 : 1111111111100101;
  113 : 1111111111100010;
  114 : 1111111111111101;
  115 : 1111111111110100;
  116 : 1111111110100110;
  117 : 1111111111100011;
  118 : 1111111011001111;
  119 : 1111110101111111;
  120 : 1111110101101011;
  121 : 1111110101011111;
  122 : 1111111100011110;
  123 : 1111111000000101;
  124 : 1111101110101011;
  125 : 1111101001000011;
  126 : 1111101001010010;
  127 : 1111111111010001;
  128 : 1111111111111000;
  129 : 1111111111000101;
  130 : 1111111100010011;
  131 : 1111111100100001;
  132 : 1111111101011101;
  133 : 1111111011001010;
  134 : 1111110011111010;
  135 : 1111110110110101;
  136 : 1111111111010100;
  137 : 1111111100000000;
  138 : 1111111110111000;
  139 : 1111111111011100;
  140 : 1111111111111100;
  141 : 1111111111011001;
  142 : 1111111111110011;
  143 : 1111111110001101;
  144 : 1111111111010101;
  145 : 1111111111111110;
  146 : 1111110111100101;
  147 : 1111110100000001;
  148 : 1111110110100000;
  149 : 1111110100100111;
  150 : 1111110010101100;
  151 : 1111111111101000;
  152 : 1111100101101000;
  153 : 1111110111000100;
  154 : 1111110101010000;
  155 : 1111101111101011;
  156 : 1111100100111001;
  157 : 1111111100001001;
  158 : 1111111101011001;
  159 : 1111101110111001;
  160 : 1111011110011000;
  161 : 1111101101111001;
  162 : 1111110111101001;
  163 : 1111110101110011;
  164 : 1111111001101111;
  165 : 1111111111101001;
  166 : 1111111101111100;
  167 : 1111111111000100;
  168 : 1111111111110001;
  169 : 1111111111110001;
  170 : 1111111111110011;
  171 : 1111111111100111;
  172 : 1111111111111110;
  173 : 1111111111111110;
  174 : 1111110111011000;
  175 : 1111110001011010;
  176 : 1111110111101001;
  177 : 1111100110010011;
  178 : 1111111000001011;
  179 : 1111111110001110;
  180 : 1111110100100011;
  181 : 1111111101010110;
  182 : 1111100001110100;
  183 : 1111010001000001;
  184 : 1111001001000001;
  185 : 1111100100100110;
  186 : 1111110110001001;
  187 : 1111101010001001;
  188 : 1111110100100101;
  189 : 1111110001000110;
  190 : 1111111100110101;
  191 : 1111110010010010;
  192 : 1111110110110100;
  193 : 1111111111000111;
  194 : 1111111100001100;
  195 : 1111111101111100;
  196 : 1111111111100101;
  197 : 1111111111001000;
  198 : 1111111111110001;
  199 : 1111111111000101;
  200 : 1111111111100011;
  201 : 1111111111111110;
  202 : 1111110111111101;
  203 : 1111110101110110;
  204 : 1111101111010110;
  205 : 1111110001100111;
  206 : 1111110000011100;
  207 : 1111100100010101;
  208 : 1111011100000111;
  209 : 1111111100111011;
  210 : 1111101000010110;
  211 : 1111001110001000;
  212 : 1111110000101111;
  213 : 1111111100101101;
  214 : 1111111001110001;
  215 : 1111100001111110;
  216 : 1111111101110111;
  217 : 1111111010101101;
  218 : 1111110011110111;
  219 : 1111111111001001;
  220 : 1111111111001110;
  221 : 1111111101000110;
  222 : 1111111101000000;
  223 : 1111111111001000;
  224 : 1111111111100110;
  225 : 1111111111111110;
  226 : 1111111111111010;
  227 : 1111111100011001;
  228 : 1111111100000111;
  229 : 1111111111011011;
  230 : 1111111110101000;
  231 : 1111111111111010;
  232 : 1111111110011011;
  233 : 1111111001111111;
  234 : 1111111110100000;
  235 : 1111110010001000;
  236 : 1111101010111000;
  237 : 1111111010011010;
  238 : 1111000010111110;
  239 : 1111010110110010;
  240 : 1111110010001000;
  241 : 1111110101011100;
  242 : 1111111111011101;
  243 : 1111111111101110;
  244 : 1111111111011010;
  245 : 1111111111111111;
  246 : 1111111110101101;
  247 : 1111111110001101;
  248 : 1111111111010011;
  249 : 1111111000111110;
  250 : 1111111111111010;
  251 : 1111111111100001;
  252 : 1111111111100001;
  253 : 1111111111101101;
  254 : 1111111111111010;
  255 : 1111111101110001;
  256 : 1111111100111111;
  257 : 1111111001000000;
  258 : 1111111101010011;
  259 : 1111100011101010;
  260 : 1111111001010011;
  261 : 1111111100100001;
  262 : 1111111001011101;
  263 : 1111110001001000;
  264 : 1111011110100100;
  265 : 1111111001111001;
  266 : 1111010001110011;
  267 : 1111111110010001;
  268 : 1111111100010010;
  269 : 1111111101000111;
  270 : 1111111110110010;
  271 : 1111111101101001;
  272 : 1111111101001011;
  273 : 1111111111010010;
  274 : 1111111001110001;
  275 : 1111110011010100;
  276 : 1111111011001001;
  277 : 1111111010111010;
  278 : 1111111111010011;
  279 : 1111111111110000;
  280 : 1111111110111011;
  281 : 1111111111111111;
  282 : 1111111111110110;
  283 : 1111111111111100;
  284 : 1111111010111010;
  285 : 1111111001010111;
  286 : 1111110110100010;
  287 : 1111111011101101;
  288 : 1111111011100000;
  289 : 1111111111000010;
  290 : 1111110011101011;
  291 : 1111110011111111;
  292 : 1111111001100010;
  293 : 1111110100111000;
  294 : 1111011001100000;
  295 : 1111100111011010;
  296 : 1111111101101100;
  297 : 1111111110101110;
  298 : 1111111101100111;
  299 : 1111111111100001;
  300 : 1111111001100000;
  301 : 1111111111000001;
  302 : 1111110001000101;
  303 : 1111110110010101;
  304 : 1111111111100011;
  305 : 1111111001101000;
  306 : 1111111110010110;
  307 : 1111111110111010;
  308 : 1111111111100111;
  309 : 1111111111010111;
  310 : 1111111101010011;
  311 : 1111111101000110;
  312 : 1111111110010000;
  313 : 1111111100010101;
  314 : 1111100010010111;
  315 : 1111111010100000;
  316 : 1111110001000110;
  317 : 1111111100010110;
  318 : 1111110110000110;
  319 : 1111111010101001;
  320 : 1111111001011001;
  321 : 1111101000111001;
  322 : 1111111100011001;
  323 : 1111110100110101;
  324 : 1111110100011111;
  325 : 1111111010000101;
  326 : 1111101101001111;
  327 : 1111110111110000;
  328 : 1111111100001101;
  329 : 1111111111111011;
  330 : 1111111111001111;
  331 : 1111111110011100;
  332 : 1111111001010110;
  333 : 1111111111010110;
  334 : 1111111111111001;
  335 : 1111111111111011;
  336 : 1111111111110101;
  337 : 1111111111111101;
  338 : 1111111111111101;
  339 : 1111111111100110;
  340 : 1111110001011010;
  341 : 1111111100000111;
  342 : 1111111001001011;
  343 : 1111110000000001;
  344 : 1111110110101110;
  345 : 1111110010110110;
  346 : 1111101111110010;
  347 : 1111100010011111;
  348 : 1111100111000101;
  349 : 1111110110111110;
  350 : 1111111010100001;
  351 : 1111111101110011;
  352 : 1111110101000100;
  353 : 1111111000111001;
  354 : 1111111111110001;
  355 : 1111110000000010;
  356 : 1111111001001010;
  357 : 1111111011011001;
  358 : 1111111010010001;
  359 : 1111111110100100;
  360 : 1111111111010011;
  361 : 1111111110010111;
  362 : 1111111101100110;
  363 : 1111111111101010;
  364 : 1111111111111010;
  365 : 1111111111101101;
  366 : 1111111111010100;
  367 : 1111111111000011;
  368 : 1111111011000010;
  369 : 1111110101010011;
  370 : 1111111001011110;
  371 : 1111111111111100;
  372 : 1111001100011110;
  373 : 1111111001000110;
  374 : 1111100110100010;
  375 : 1111111110000111;
  376 : 1111111111100010;
  377 : 1111110100011101;
  378 : 1111111001010110;
  379 : 1111111000011111;
  380 : 1111111001000011;
  381 : 1111111011110100;
  382 : 1111111111000100;
  383 : 1111110010000011;
  384 : 1111111111110000;
  385 : 1111111110011110;
  386 : 1111111111111100;
  387 : 1111101110110010;
  388 : 1111111010010100;
  389 : 1111111100000010;
  390 : 1111111111011000;
  391 : 1111111110111011;
  392 : 1111111111001111;
  393 : 1111111111110110;
  394 : 1111111111000110;
  395 : 1111111111000000;
  396 : 1111111010001001;
  397 : 1111011011011111;
  398 : 1111110011000011;
  399 : 1111111111010000;
  400 : 1111111100110011;
  401 : 1111110001101111;
  402 : 1111111001111001;
  403 : 1111110011100100;
  404 : 1111111111011000;
  405 : 1111111001001000;
  406 : 1111110110101011;
  407 : 1111110100000000;
  408 : 1111110111011100;
  409 : 1111110000110001;
  410 : 1111111011111010;
  411 : 1111110011101010;
  412 : 1111110101000010;
  413 : 1111111110101011;
  414 : 1111101111101101;
  415 : 1111101010011101;
  416 : 1111110111110110;
  417 : 1111111110101000;
  418 : 1111111111110001;
  419 : 1111111111101011;
  420 : 1111111111101010;
  421 : 1111111111110100;
  422 : 1111111111001011;
  423 : 1111111010111111;
  424 : 1111111110110011;
  425 : 1111111110100010;
  426 : 1111101100110100;
  427 : 1111101000111001;
  428 : 1111111101111010;
  429 : 1111111100001000;
  430 : 1111110000110100;
  431 : 1111111100010101;
  432 : 1111111111101100;
  433 : 1111111100011010;
  434 : 1111101110001010;
  435 : 1111111110001011;
  436 : 1111110100110011;
  437 : 1111101111101110;
  438 : 1111101011101000;
  439 : 1111101101001110;
  440 : 1111111101110101;
  441 : 1111111110000011;
  442 : 1111110000000011;
  443 : 1111110010000101;
  444 : 1111111111100101;
  445 : 1111111001111100;
  446 : 1111111111101110;
  447 : 1111111111101100;
  448 : 1111111111101010;
  449 : 1111111111010001;
  450 : 1111111111101010;
  451 : 1111111001011101;
  452 : 1111111100110001;
  453 : 1111110010110111;
  454 : 1111111100011010;
  455 : 1111101110010111;
  456 : 1111101110110111;
  457 : 1111101010110110;
  458 : 1111111111111001;
  459 : 1111101011110111;
  460 : 1111111011100010;
  461 : 1111111001100110;
  462 : 1111110001001001;
  463 : 1111110000000101;
  464 : 1111111100010100;
  465 : 1111110110111111;
  466 : 1111111100000001;
  467 : 1111110010000011;
  468 : 1111110100100000;
  469 : 1111011111001001;
  470 : 1111111000010110;
  471 : 1111110010001001;
  472 : 1111111011110011;
  473 : 1111111000100001;
  474 : 1111111111111111;
  475 : 1111111111110001;
  476 : 1111111111100100;
  477 : 1111111111101010;
  478 : 1111111111001111;
  479 : 1111111101001101;
  480 : 1111111110111100;
  481 : 1111111101100101;
  482 : 1111111001010110;
  483 : 1111111101011001;
  484 : 1111111111101111;
  485 : 1111110100010111;
  486 : 1111111010011100;
  487 : 1111110010000010;
  488 : 1111111110100101;
  489 : 1111111100100011;
  490 : 1111111110111011;
  491 : 1111111010110001;
  492 : 1111111110101011;
  493 : 1111111110010110;
  494 : 1111111111010010;
  495 : 1111111011101111;
  496 : 1111110011000010;
  497 : 1111011100101001;
  498 : 1111101000111010;
  499 : 1111110111100101;
  500 : 1111111101010001;
  501 : 1111111011101001;
  502 : 1111111111111101;
  503 : 1111111111110111;
  504 : 1111111111110001;
  505 : 1111111111111111;
  506 : 1111111111000001;
  507 : 1111111001011100;
  508 : 1111110111100000;
  509 : 1111111110010011;
  510 : 1111111010010010;
  511 : 1111101011011110;
  512 : 1111100100011100;
  513 : 1111110101101100;
  514 : 1111111111011110;
  515 : 1111110010100101;
  516 : 1111111110111101;
  517 : 1111111100001111;
  518 : 1111011111010001;
  519 : 1111110001010001;
  520 : 1111111111110101;
  521 : 1111110010100110;
  522 : 1111111111101010;
  523 : 1111111111011101;
  524 : 1111111110100001;
  525 : 1111111011001011;
  526 : 1111110111010101;
  527 : 1111111010100010;
  528 : 1111111001010001;
  529 : 1111111100000111;
  530 : 1111111111000000;
  531 : 1111111111111111;
  532 : 1111111111000011;
  533 : 1111111111111111;
  534 : 1111111111011111;
  535 : 1111111100001000;
  536 : 1111111110110101;
  537 : 1111111111000110;
  538 : 1111111011001110;
  539 : 1111101111011110;
  540 : 1111101011111010;
  541 : 1111101101111111;
  542 : 1111111110110010;
  543 : 1111111111111100;
  544 : 1111111011001111;
  545 : 1111111101000011;
  546 : 1111111111011100;
  547 : 1111111111000011;
  548 : 1111111110001101;
  549 : 1111111111101100;
  550 : 1111111101110001;
  551 : 1111111101010001;
  552 : 1111111100100001;
  553 : 1111111100011101;
  554 : 1111111111010101;
  555 : 1111111110010011;
  556 : 1111111110001010;
  557 : 1111111111110101;
  558 : 1111111111111111;
  559 : 1111111111110111;
  560 : 1111111111110010;
  561 : 1111111111011100;
  562 : 1111111111101101;
  563 : 1111111101110011;
  564 : 1111111110011101;
  565 : 1111111010010001;
  566 : 1111110000110101;
  567 : 1111110110000010;
  568 : 1111110110110110;
  569 : 1111111111100101;
  570 : 1111111111000010;
  571 : 1111110001111000;
  572 : 1111111110100000;
  573 : 0000000000000000;
  574 : 1111111010110011;
  575 : 1111111110110001;
  576 : 1111111001011111;
  577 : 1111111100011101;
  578 : 1111111010000101;
  579 : 1111110010010111;
  580 : 1111111101110011;
  581 : 1111111000110111;
  582 : 1111110000100110;
  583 : 1111110000100100;
  584 : 1111111000111011;
  585 : 1111111000001000;
  586 : 1111111111111011;
  587 : 1111111111111001;
  588 : 1111111111010000;
  589 : 1111111111111110;
  590 : 1111111111111000;
  591 : 1111111111000011;
  592 : 1111111110110100;
  593 : 1111111001001011;
  594 : 1111111000100101;
  595 : 1111111001101100;
  596 : 1111101010000010;
  597 : 1111111100110000;
  598 : 1111111111110001;
  599 : 1111111100100001;
  600 : 1111111111111010;
  601 : 1111110011011010;
  602 : 1111111000100101;
  603 : 1111111100110100;
  604 : 1111111110011000;
  605 : 1111111101000101;
  606 : 1111111110111111;
  607 : 1111111111111101;
  608 : 1111111100110001;
  609 : 1111111011110010;
  610 : 1111111101110111;
  611 : 1111111100001110;
  612 : 1111111100001111;
  613 : 1111111101011100;
  614 : 1111111111111010;
  615 : 1111111111111011;
  616 : 1111111111110110;
  617 : 0000000000000000;
  618 : 1111111111100111;
  619 : 1111111111001100;
  620 : 1111111110010111;
  621 : 1111111111100001;
  622 : 1111111111110000;
  623 : 1111111100000100;
  624 : 1111111101111011;
  625 : 1111111000100100;
  626 : 1111110010011011;
  627 : 1111111010110111;
  628 : 1111111100000111;
  629 : 1111111111101010;
  630 : 1111111111100110;
  631 : 1111111110011000;
  632 : 1111111111110111;
  633 : 1111110010110000;
  634 : 1111111100011011;
  635 : 1111110011101000;
  636 : 1111111011111011;
  637 : 1111111001000010;
  638 : 1111111100011011;
  639 : 1111111010100110;
  640 : 1111111110011110;
  641 : 1111111111111000;
  642 : 1111111111100101;
  643 : 1111111111110100;
  644 : 1111111111001010;
  645 : 1111111111110010;
  646 : 1111111111110111;
  647 : 1111111111111110;
  648 : 1111111110110110;
  649 : 1111111110101011;
  650 : 1111111100110000;
  651 : 1111111110100111;
  652 : 1111111111000001;
  653 : 1111111101000011;
  654 : 1111111111011100;
  655 : 1111110100011100;
  656 : 1111110000010101;
  657 : 1111111110010010;
  658 : 1111111111100110;
  659 : 1111110000101110;
  660 : 1111111111111010;
  661 : 1111111111110001;
  662 : 1111111100000111;
  663 : 1111111110000110;
  664 : 1111110010100011;
  665 : 1111111011100010;
  666 : 1111111100111011;
  667 : 1111111011011000;
  668 : 1111111001101110;
  669 : 1111111111111010;
  670 : 1111111111011001;
  671 : 1111111111111111;
  672 : 1111111111110000;
  673 : 1111111111111100;
  674 : 1111111111000110;
  675 : 1111111111111010;
  676 : 1111111110001011;
  677 : 1111111111111101;
  678 : 1111111110011100;
  679 : 1111111111001010;
  680 : 1111111110001000;
  681 : 1111111111110011;
  682 : 1111111111100100;
  683 : 1111110110000010;
  684 : 1111110110011101;
  685 : 1111110011101001;
  686 : 1111111111110111;
  687 : 1111111111001110;
  688 : 1111111000011111;
  689 : 1111111111111010;
  690 : 1111111111011000;
  691 : 1111111110011011;
  692 : 1111111010111000;
  693 : 1111111011100011;
  694 : 1111111110101001;
  695 : 1111111110010010;
  696 : 1111111100100010;
  697 : 1111111111111111;
  698 : 1111111111000010;
  699 : 1111111111100010;
  700 : 1111111111111100;
  701 : 1111111111101001;
  702 : 1111111111110101;
  703 : 1111111111101010;
  704 : 1111111111011001;
  705 : 1111111111011111;
  706 : 1111111100101100;
  707 : 1111111100101111;
  708 : 1111111101110011;
  709 : 1111111101001110;
  710 : 1111111111010111;
  711 : 1111111101110001;
  712 : 1111111110010000;
  713 : 1111111111001111;
  714 : 1111111011000100;
  715 : 1111110111111100;
  716 : 1111110110100000;
  717 : 1111111011110111;
  718 : 1111111111111100;
  719 : 1111111110000110;
  720 : 1111110101110110;
  721 : 1111111100000011;
  722 : 1111111110011001;
  723 : 1111111100001101;
  724 : 1111111111100001;
  725 : 1111111111111111;
  726 : 1111111111110011;
  727 : 1111111111110011;
  728 : 1111111111111011;
  729 : 1111111111100001;
  730 : 1111111111110101;
  731 : 1111111110111111;
  732 : 1111111111101110;
  733 : 1111111111000010;
  734 : 1111111110010101;
  735 : 1111111110101000;
  736 : 1111111111010101;
  737 : 1111111111010010;
  738 : 1111111011000000;
  739 : 1111111111100101;
  740 : 1111111101110101;
  741 : 1111110000101111;
  742 : 1111111010001001;
  743 : 1111110010111000;
  744 : 1111110101100000;
  745 : 1111111100000100;
  746 : 1111111100001100;
  747 : 1111111011001101;
  748 : 1111111110011000;
  749 : 1111111111111010;
  750 : 1111111111111110;
  751 : 1111111111101111;
  752 : 1111111111111110;
  753 : 1111111111110101;
  754 : 1111111111001010;
  755 : 1111111111110000;
  756 : 1111111111101100;
  757 : 1111111111110000;
  758 : 1111111111111100;
  759 : 1111111111010100;
  760 : 1111111111111110;
  761 : 1111111111111101;
  762 : 1111111111000111;
  763 : 1111111111110101;
  764 : 1111111111100010;
  765 : 1111111111111110;
  766 : 1111111111110011;
  767 : 1111111111111111;
  768 : 1111111111100000;
  769 : 1111111111111100;
  770 : 1111111111101100;
  771 : 1111111111010001;
  772 : 1111111111111011;
  773 : 1111111111011100;
  774 : 1111111111110101;
  775 : 1111111111111111;
  776 : 1111111111110101;
  777 : 1111111111001111;
  778 : 0000000000000000;
  779 : 1111111111111100;
  780 : 1111111111001010;
  781 : 1111111111100000;
  782 : 1111111111111110;
  783 : 1111111111100110;
END;
