WIDTH=16;
DEPTH=784;
ADDRESS_RADIX=UNS;
DATA_RADIX=BIN;
CONTENT BEGIN
  0 : 1111111111110001;
  1 : 1111111111011000;
  2 : 1111111111110000;
  3 : 1111111110101011;
  4 : 1111111111101011;
  5 : 0000000000000000;
  6 : 1111111111111110;
  7 : 1111111111110110;
  8 : 1111111111001101;
  9 : 1111111111010001;
  10 : 1111111111010001;
  11 : 1111111111111100;
  12 : 1111111111111111;
  13 : 1111111111111110;
  14 : 1111111111110100;
  15 : 1111111111110101;
  16 : 1111111111111111;
  17 : 1111111111111000;
  18 : 1111111111010001;
  19 : 1111111111111101;
  20 : 1111111111111101;
  21 : 1111111111110010;
  22 : 1111111111111100;
  23 : 1111111111110010;
  24 : 1111111111110100;
  25 : 0000000000000000;
  26 : 1111111111101010;
  27 : 1111111111101010;
  28 : 1111111111100101;
  29 : 1111111111111010;
  30 : 1111111111111100;
  31 : 1111111111010101;
  32 : 1111111111100110;
  33 : 1111111111101101;
  34 : 1111111111011111;
  35 : 1111111111100111;
  36 : 1111111111110010;
  37 : 1111111111111100;
  38 : 1111111111101010;
  39 : 1111111111101001;
  40 : 1111111111011010;
  41 : 1111111111111000;
  42 : 1111111111100110;
  43 : 1111111110001100;
  44 : 1111111111111110;
  45 : 0000000000000000;
  46 : 1111111111110000;
  47 : 1111111111101011;
  48 : 1111111111101101;
  49 : 1111111111110001;
  50 : 1111111111111100;
  51 : 1111111111111111;
  52 : 1111111111110110;
  53 : 1111111111111111;
  54 : 1111111111111111;
  55 : 1111111111110101;
  56 : 1111111111011010;
  57 : 1111111111000011;
  58 : 1111111111110110;
  59 : 1111111111101111;
  60 : 1111111111110011;
  61 : 1111111111011111;
  62 : 1111111111111000;
  63 : 1111111111111001;
  64 : 1111111110011111;
  65 : 1111111101101110;
  66 : 1111111111010010;
  67 : 1111111110010110;
  68 : 1111111110111000;
  69 : 1111111111011010;
  70 : 1111111110100100;
  71 : 1111111100101011;
  72 : 1111111001110110;
  73 : 1111111111101010;
  74 : 1111111111000001;
  75 : 1111111110111011;
  76 : 1111111111000010;
  77 : 1111111110111100;
  78 : 1111111111101001;
  79 : 1111111110110000;
  80 : 1111111111101111;
  81 : 1111111111111101;
  82 : 1111111111001110;
  83 : 1111111111111011;
  84 : 1111111111100010;
  85 : 1111111111110001;
  86 : 1111111111001000;
  87 : 1111111111000110;
  88 : 1111111111001011;
  89 : 1111111101101000;
  90 : 1111111111000111;
  91 : 1111111111111100;
  92 : 1111111111000100;
  93 : 1111111011100010;
  94 : 1111111001010010;
  95 : 1111110011100001;
  96 : 1111111110111111;
  97 : 1111111101001101;
  98 : 1111101100101110;
  99 : 1111111101101111;
  100 : 1111111111011100;
  101 : 1111111111110110;
  102 : 1111111011101011;
  103 : 1111111011000011;
  104 : 1111111100001011;
  105 : 1111111010000001;
  106 : 1111111111101000;
  107 : 1111111111001001;
  108 : 1111111111110101;
  109 : 1111111111100011;
  110 : 1111111111110001;
  111 : 1111111111111111;
  112 : 1111111111101100;
  113 : 1111111111101110;
  114 : 1111111111110101;
  115 : 1111111111110011;
  116 : 1111111111110111;
  117 : 1111111110001101;
  118 : 1111111101001010;
  119 : 1111111001101011;
  120 : 1111110111001000;
  121 : 1111110011010100;
  122 : 1111101101111111;
  123 : 1111110100100100;
  124 : 1111110110101100;
  125 : 1111111011100101;
  126 : 1111101100110010;
  127 : 1111111010001001;
  128 : 1111110111010101;
  129 : 1111110110101000;
  130 : 1111110010001110;
  131 : 1111110010000111;
  132 : 1111111111111100;
  133 : 1111111101110101;
  134 : 1111111111101001;
  135 : 1111111100001011;
  136 : 1111111111000100;
  137 : 1111111110111000;
  138 : 1111111100101100;
  139 : 1111111110101011;
  140 : 1111111111100100;
  141 : 1111111111111100;
  142 : 1111111111100000;
  143 : 1111111111111110;
  144 : 1111111111111011;
  145 : 1111111111100101;
  146 : 1111111001111110;
  147 : 1111110010110110;
  148 : 1111101101011011;
  149 : 1111101011000011;
  150 : 1111100101001100;
  151 : 1111110000010010;
  152 : 1111110011111110;
  153 : 1111111110000010;
  154 : 1111101110101001;
  155 : 1111111110011100;
  156 : 1111111011111010;
  157 : 1111101101111000;
  158 : 1111101010000010;
  159 : 1111111000000001;
  160 : 1111111110110010;
  161 : 1111110010101111;
  162 : 1111111111100101;
  163 : 1111110001001001;
  164 : 1111111110010100;
  165 : 1111111011010010;
  166 : 1111111110101111;
  167 : 1111111111010001;
  168 : 1111111111111111;
  169 : 1111111111100111;
  170 : 1111111111111110;
  171 : 1111111111111110;
  172 : 1111111110111111;
  173 : 1111111101101000;
  174 : 1111110101011010;
  175 : 1111100100000000;
  176 : 1111010111010100;
  177 : 1111100001100100;
  178 : 1111110111001001;
  179 : 1111110111010110;
  180 : 1111111111101111;
  181 : 1111111111101011;
  182 : 1111111100101001;
  183 : 1111101100111111;
  184 : 1111101110110010;
  185 : 1111110110010010;
  186 : 1111111001111001;
  187 : 1111111101011000;
  188 : 1111110100100000;
  189 : 1111111100110110;
  190 : 1111111100111001;
  191 : 1111110100110111;
  192 : 1111110010101100;
  193 : 1111111101110000;
  194 : 1111111101001011;
  195 : 1111111111101100;
  196 : 1111111111111101;
  197 : 1111111111111000;
  198 : 1111111111101110;
  199 : 1111111111100100;
  200 : 1111111111110101;
  201 : 1111111011010111;
  202 : 1111110011111100;
  203 : 1111101101110000;
  204 : 1111101000110010;
  205 : 1111110100110001;
  206 : 1111111100111100;
  207 : 1111101111010110;
  208 : 1111110100101101;
  209 : 1111101010110001;
  210 : 1111110100111010;
  211 : 1111110001000100;
  212 : 1111110111001010;
  213 : 1111111001100101;
  214 : 1111110011100111;
  215 : 1111110010101110;
  216 : 1111110010010111;
  217 : 1111111111011000;
  218 : 1111111000110100;
  219 : 1111111011100011;
  220 : 1111111010001111;
  221 : 1111111111100110;
  222 : 1111111101100000;
  223 : 1111111111111100;
  224 : 1111111111001000;
  225 : 1111111111111111;
  226 : 1111111111010001;
  227 : 1111111111000010;
  228 : 1111111110000111;
  229 : 1111110111110001;
  230 : 1111110111011101;
  231 : 1111110111111100;
  232 : 1111110110001100;
  233 : 1111111101110011;
  234 : 1111101100011111;
  235 : 1111110001001110;
  236 : 1111111111001010;
  237 : 1111111100100111;
  238 : 1111111101100101;
  239 : 1111111110110110;
  240 : 1111111110100111;
  241 : 1111111011100100;
  242 : 1111111101110000;
  243 : 1111111101100001;
  244 : 1111111011001000;
  245 : 1111110101110001;
  246 : 1111110010000011;
  247 : 1111111110100111;
  248 : 1111111001101010;
  249 : 1111111001100000;
  250 : 1111111111110001;
  251 : 1111111111111100;
  252 : 1111111111110101;
  253 : 1111111111110110;
  254 : 1111111111001001;
  255 : 1111111111110001;
  256 : 1111111110101000;
  257 : 1111111001010101;
  258 : 1111111110111000;
  259 : 1111111110101111;
  260 : 1111110000110001;
  261 : 1111110000110101;
  262 : 1111111111100110;
  263 : 1111111110010001;
  264 : 1111110111100011;
  265 : 1111111110101000;
  266 : 1111110110101001;
  267 : 1111111011011110;
  268 : 1111111111100010;
  269 : 1111111011111011;
  270 : 1111111110010110;
  271 : 1111111101000010;
  272 : 1111111101010111;
  273 : 1111110100100000;
  274 : 1111111110011001;
  275 : 1111111001100001;
  276 : 1111100010000001;
  277 : 1111111000011100;
  278 : 1111111111110010;
  279 : 1111111111111101;
  280 : 1111111111101101;
  281 : 1111111111100000;
  282 : 1111111111111111;
  283 : 1111111111100100;
  284 : 1111111110011000;
  285 : 1111111011101010;
  286 : 1111111011101011;
  287 : 1111111111000110;
  288 : 1111101110100111;
  289 : 1111110110001011;
  290 : 1111111100100101;
  291 : 1111110010011001;
  292 : 1111110010110000;
  293 : 1111111010010011;
  294 : 1111111000000101;
  295 : 1111110010100100;
  296 : 1111110011000100;
  297 : 1111110000101000;
  298 : 1111111111111001;
  299 : 1111111011000010;
  300 : 1111111100000000;
  301 : 1111111001111100;
  302 : 1111111101100111;
  303 : 1111110000110010;
  304 : 1111100111100110;
  305 : 1111100010001111;
  306 : 1111111110011001;
  307 : 1111111111111111;
  308 : 1111111111110110;
  309 : 1111111111110110;
  310 : 1111111111110000;
  311 : 1111111111110111;
  312 : 1111111111111000;
  313 : 1111111101001001;
  314 : 1111110011010000;
  315 : 1111110100111111;
  316 : 1111101101001000;
  317 : 1111101101001100;
  318 : 1111110001001110;
  319 : 1111110100010101;
  320 : 1111110010000010;
  321 : 1111101010101011;
  322 : 1111111110010101;
  323 : 1111101100110001;
  324 : 1111101000001011;
  325 : 1111011111110110;
  326 : 1111100100110001;
  327 : 1111101101010110;
  328 : 1111111011110000;
  329 : 1111111110100111;
  330 : 1111111101101000;
  331 : 1111111101110001;
  332 : 1111111001101110;
  333 : 1111110111111111;
  334 : 1111111110111110;
  335 : 1111111111000011;
  336 : 1111111111110101;
  337 : 1111111111001110;
  338 : 1111111111111000;
  339 : 1111111111111110;
  340 : 1111111010111011;
  341 : 1111110110011010;
  342 : 1111110010110110;
  343 : 1111110101111110;
  344 : 1111111000101101;
  345 : 1111111111111010;
  346 : 1111111111101111;
  347 : 1111111001111010;
  348 : 1111111111111101;
  349 : 1111111110110010;
  350 : 1111110100100100;
  351 : 1111011101001000;
  352 : 1111010100101101;
  353 : 1111000000111110;
  354 : 1110101110011000;
  355 : 1110111010001000;
  356 : 1111011100001111;
  357 : 1111011100010111;
  358 : 1111100111001010;
  359 : 1111100100110100;
  360 : 1111101001111110;
  361 : 1111111111010001;
  362 : 1111111111111111;
  363 : 1111111111110000;
  364 : 1111111111111001;
  365 : 1111111111111101;
  366 : 1111111111110100;
  367 : 1111111111010111;
  368 : 1111111001011010;
  369 : 1111111000000110;
  370 : 1111110100101101;
  371 : 1111111101101111;
  372 : 1111111001101010;
  373 : 1111111100101010;
  374 : 1111111101111001;
  375 : 1111111111000000;
  376 : 1111111100011110;
  377 : 1111111111000101;
  378 : 1111110000001011;
  379 : 1111100101111100;
  380 : 1111111000001100;
  381 : 1111100010111110;
  382 : 1111001000101011;
  383 : 1111000100100010;
  384 : 1111010101100010;
  385 : 1111010100110100;
  386 : 1111010111101101;
  387 : 1111011110110111;
  388 : 1111100110100000;
  389 : 1111111001110101;
  390 : 1111111111111110;
  391 : 1111111111010101;
  392 : 1111111111100011;
  393 : 1111111111100101;
  394 : 1111111111001100;
  395 : 1111111111010011;
  396 : 1111111111101111;
  397 : 1111111101101110;
  398 : 1111110101010111;
  399 : 1111111001101100;
  400 : 1111110101011010;
  401 : 1111111111000001;
  402 : 1111110111110011;
  403 : 1111100101110111;
  404 : 1111110010000000;
  405 : 1111101001110110;
  406 : 1111110011001110;
  407 : 1111111111111001;
  408 : 1111111010011000;
  409 : 1111111110011110;
  410 : 1111110101001100;
  411 : 1111010100000001;
  412 : 1111011110100100;
  413 : 1111100101001111;
  414 : 1111100010101000;
  415 : 1111100010101100;
  416 : 1111101000110010;
  417 : 1111111010001110;
  418 : 0000000000000000;
  419 : 1111111111001010;
  420 : 1111111111011010;
  421 : 1111111111111110;
  422 : 1111111111100000;
  423 : 1111111111001111;
  424 : 1111111111011011;
  425 : 1111111001110110;
  426 : 1111110001101110;
  427 : 1111111110101101;
  428 : 1111111110011100;
  429 : 1111110000001001;
  430 : 1111111110001000;
  431 : 1111101100110100;
  432 : 1111110011100110;
  433 : 1111111010000000;
  434 : 1111111111100101;
  435 : 1111111111001000;
  436 : 1111110111101100;
  437 : 1111110000000100;
  438 : 1111111111000100;
  439 : 1111100110001000;
  440 : 1111100110010101;
  441 : 1111101010111110;
  442 : 1111100010110111;
  443 : 1111101010101100;
  444 : 1111101110001010;
  445 : 1111111100111111;
  446 : 1111111111111011;
  447 : 1111111111011100;
  448 : 1111111111111000;
  449 : 1111111111110010;
  450 : 1111111111100111;
  451 : 1111111111111000;
  452 : 1111111100110100;
  453 : 1111111011100101;
  454 : 1111111000111000;
  455 : 1111111010111100;
  456 : 1111111110011110;
  457 : 1111101101000100;
  458 : 1111101111100100;
  459 : 1111111101011011;
  460 : 1111111100010000;
  461 : 1111111111100101;
  462 : 1111110111100111;
  463 : 1111110110010100;
  464 : 1111101101100011;
  465 : 1111111100100001;
  466 : 1111110110111111;
  467 : 1111110011010001;
  468 : 1111110001100101;
  469 : 1111101110101101;
  470 : 1111101011000001;
  471 : 1111101100000010;
  472 : 1111110010001010;
  473 : 1111111101100111;
  474 : 1111111111101111;
  475 : 1111111111010111;
  476 : 1111111111101000;
  477 : 1111111111111000;
  478 : 1111111111001010;
  479 : 1111111111100111;
  480 : 1111111111011001;
  481 : 1111111110000010;
  482 : 1111111111010001;
  483 : 1111111110011111;
  484 : 1111111111011101;
  485 : 1111111111010101;
  486 : 1111110011101110;
  487 : 1111101101111111;
  488 : 1111110100110011;
  489 : 1111111110000111;
  490 : 1111110011110010;
  491 : 1111111101111001;
  492 : 1111111011111110;
  493 : 1111111111001100;
  494 : 1111111110001110;
  495 : 1111111000000110;
  496 : 1111111011101100;
  497 : 1111101100110011;
  498 : 1111110001010000;
  499 : 1111110101111111;
  500 : 1111110110100111;
  501 : 1111111100101010;
  502 : 1111111111000001;
  503 : 1111111111001111;
  504 : 1111111111111111;
  505 : 1111111111011010;
  506 : 1111111111001111;
  507 : 1111111101100000;
  508 : 1111111111111111;
  509 : 1111110101011101;
  510 : 1111111111011101;
  511 : 1111111011100011;
  512 : 1111111111110110;
  513 : 1111110100011100;
  514 : 1111111010001101;
  515 : 1111111100001100;
  516 : 1111111000010001;
  517 : 1111111101000100;
  518 : 1111111100111010;
  519 : 1111111110001001;
  520 : 1111111010101101;
  521 : 1111111111000000;
  522 : 1111111001011100;
  523 : 1111111110001011;
  524 : 1111111000100101;
  525 : 1111101110011101;
  526 : 1111101101010100;
  527 : 1111101110000110;
  528 : 1111110110101001;
  529 : 1111111111111101;
  530 : 1111111111011101;
  531 : 1111111111010101;
  532 : 1111111111100100;
  533 : 1111111111101111;
  534 : 1111111111111011;
  535 : 1111111011001101;
  536 : 1111111100101011;
  537 : 1111111111000000;
  538 : 1111111100101001;
  539 : 1111111111001010;
  540 : 1111111101100101;
  541 : 1111111010011110;
  542 : 1111111010010111;
  543 : 1111111100001010;
  544 : 1111111111110000;
  545 : 1111110101001111;
  546 : 1111110100110111;
  547 : 1111110000100111;
  548 : 1111110101110001;
  549 : 1111111111110101;
  550 : 1111110000001100;
  551 : 1111110001111010;
  552 : 1111111101110011;
  553 : 1111101011101010;
  554 : 1111110100111011;
  555 : 1111111101011110;
  556 : 1111111111101001;
  557 : 1111111110111110;
  558 : 1111111111010101;
  559 : 1111111111111110;
  560 : 1111111111100101;
  561 : 1111111111110000;
  562 : 1111111111110011;
  563 : 1111111000001110;
  564 : 1111101111110000;
  565 : 1111111111110001;
  566 : 1111111100101110;
  567 : 1111111111011111;
  568 : 1111111101110010;
  569 : 1111111101000101;
  570 : 1111111110101010;
  571 : 1111111100111111;
  572 : 1111111000000111;
  573 : 1111111110101001;
  574 : 1111111010000100;
  575 : 1111111101010010;
  576 : 1111111010100100;
  577 : 1111111110101100;
  578 : 1111111101111001;
  579 : 1111111111100001;
  580 : 1111111110101110;
  581 : 1111100111111001;
  582 : 1111111010101011;
  583 : 1111111110011111;
  584 : 1111111111101111;
  585 : 1111111111010010;
  586 : 1111111111110000;
  587 : 1111111111110001;
  588 : 1111111111110111;
  589 : 1111111111111110;
  590 : 1111111111100011;
  591 : 1111110101101101;
  592 : 1111110011100000;
  593 : 1111111101010101;
  594 : 1111111000001101;
  595 : 1111111101010111;
  596 : 1111111011101111;
  597 : 1111111100001000;
  598 : 1111111111111101;
  599 : 1111111111100000;
  600 : 1111111101000000;
  601 : 1111111111110000;
  602 : 1111111100001000;
  603 : 1111111011011001;
  604 : 1111110010011010;
  605 : 1111111100100101;
  606 : 1111111000000000;
  607 : 1111110011010101;
  608 : 1111111111101010;
  609 : 1111110101010100;
  610 : 1111111010000101;
  611 : 1111111000111100;
  612 : 1111111101001011;
  613 : 1111111110110110;
  614 : 1111111111110101;
  615 : 1111111111011000;
  616 : 1111111111101010;
  617 : 1111111111100101;
  618 : 1111111111110111;
  619 : 1111111100101000;
  620 : 1111111000011110;
  621 : 1111110111110110;
  622 : 1111111101010001;
  623 : 1111101111001011;
  624 : 1111111100101001;
  625 : 1111111000001101;
  626 : 1111111111000000;
  627 : 1111111010010111;
  628 : 1111111001001110;
  629 : 1111111101110110;
  630 : 1111111110100100;
  631 : 1111111111101001;
  632 : 1111111111111001;
  633 : 1111110100001000;
  634 : 1111111000111010;
  635 : 1111111110110110;
  636 : 1111111010100110;
  637 : 1111111100010110;
  638 : 1111111100101100;
  639 : 1111111101011001;
  640 : 1111111111011100;
  641 : 1111111111101111;
  642 : 1111111111110011;
  643 : 1111111111111101;
  644 : 1111111111100110;
  645 : 1111111111110010;
  646 : 1111111111011101;
  647 : 1111111111000001;
  648 : 1111111110111100;
  649 : 1111111100001011;
  650 : 1111110101010000;
  651 : 1111110000110000;
  652 : 1111111100110110;
  653 : 1111111110100100;
  654 : 1111111111010001;
  655 : 1111111100111010;
  656 : 1111111110000011;
  657 : 1111101011101101;
  658 : 1111111010110111;
  659 : 1111111110110011;
  660 : 1111111101110011;
  661 : 1111111111011011;
  662 : 1111111110101100;
  663 : 1111111111010010;
  664 : 1111111110001011;
  665 : 1111111111111110;
  666 : 1111111011011110;
  667 : 1111111100110110;
  668 : 1111111111111100;
  669 : 1111111111010100;
  670 : 1111111111010001;
  671 : 1111111111111110;
  672 : 1111111111100101;
  673 : 1111111111100001;
  674 : 1111111111110110;
  675 : 1111111111100100;
  676 : 1111111110001101;
  677 : 1111111001000000;
  678 : 1111111001100110;
  679 : 1111111111010011;
  680 : 1111111110100100;
  681 : 1111111001011001;
  682 : 1111111110010100;
  683 : 1111111100010000;
  684 : 1111111011101100;
  685 : 1111111100011100;
  686 : 1111111111101011;
  687 : 1111110110011110;
  688 : 1111111000111100;
  689 : 1111111101001000;
  690 : 1111111010100111;
  691 : 1111111111011111;
  692 : 1111111111010100;
  693 : 1111111011101010;
  694 : 1111111110111010;
  695 : 1111111111110010;
  696 : 1111111111111011;
  697 : 1111111101111100;
  698 : 1111111111110010;
  699 : 1111111111110101;
  700 : 1111111111101010;
  701 : 1111111110101010;
  702 : 1111111111110000;
  703 : 1111111111110011;
  704 : 1111111100111101;
  705 : 1111111100010000;
  706 : 1111111000010010;
  707 : 1111111000010010;
  708 : 1111110111111010;
  709 : 1111111110111111;
  710 : 1111111110000111;
  711 : 1111111101010100;
  712 : 1111110000001011;
  713 : 1111111101011011;
  714 : 1111110110010000;
  715 : 1111110011010011;
  716 : 1111111100010110;
  717 : 1111110000100111;
  718 : 1111111110111110;
  719 : 1111111111101011;
  720 : 1111111110001111;
  721 : 1111111111101110;
  722 : 1111111111000100;
  723 : 1111111111000100;
  724 : 1111111111100010;
  725 : 1111111111010011;
  726 : 1111111111111001;
  727 : 1111111111111110;
  728 : 1111111111111110;
  729 : 1111111111111000;
  730 : 1111111111100011;
  731 : 1111111111110101;
  732 : 1111111110111111;
  733 : 1111111111111111;
  734 : 1111111111111110;
  735 : 1111111111111010;
  736 : 1111111011000111;
  737 : 1111111001011011;
  738 : 1111111110101111;
  739 : 1111111101000000;
  740 : 1111111101100010;
  741 : 1111111110101111;
  742 : 1111111010100011;
  743 : 1111111101110000;
  744 : 1111111110011101;
  745 : 1111111101011110;
  746 : 1111111101000101;
  747 : 1111111111100100;
  748 : 1111111111110101;
  749 : 1111111110000110;
  750 : 1111111111110100;
  751 : 1111111111110000;
  752 : 1111111111110000;
  753 : 1111111111100011;
  754 : 1111111111111111;
  755 : 1111111111111111;
  756 : 1111111111101011;
  757 : 1111111111111001;
  758 : 1111111111101000;
  759 : 1111111111111110;
  760 : 0000000000000000;
  761 : 1111111111000110;
  762 : 1111111111111010;
  763 : 1111111111000111;
  764 : 1111111111011110;
  765 : 0000000000000000;
  766 : 1111111111100100;
  767 : 1111111111001110;
  768 : 1111111111111000;
  769 : 1111111111110011;
  770 : 1111111111111010;
  771 : 1111111111100000;
  772 : 1111111111111000;
  773 : 1111111111011110;
  774 : 1111111101111110;
  775 : 1111111111100001;
  776 : 1111111111111011;
  777 : 1111111111110101;
  778 : 1111111111000010;
  779 : 1111111111111100;
  780 : 1111111111110111;
  781 : 1111111111111100;
  782 : 1111111111000010;
  783 : 1111111110111001;
END;
