WIDTH=16;
DEPTH=784;
ADDRESS_RADIX=UNS;
DATA_RADIX=BIN;
CONTENT BEGIN
  0 : 1111111111010010;
  1 : 1111111111111100;
  2 : 0000000000000000;
  3 : 1111111111000010;
  4 : 1111111111101111;
  5 : 1111111111111100;
  6 : 1111111111111111;
  7 : 1111111111000001;
  8 : 1111111111111010;
  9 : 1111111111111111;
  10 : 1111111111110011;
  11 : 1111111111110010;
  12 : 1111111111101100;
  13 : 1111111111111011;
  14 : 1111111111100010;
  15 : 1111111111111101;
  16 : 1111111111100001;
  17 : 1111111111010011;
  18 : 1111111111110101;
  19 : 1111111111110000;
  20 : 1111111111111111;
  21 : 1111111111111110;
  22 : 1111111111101001;
  23 : 1111111111111101;
  24 : 1111111111111010;
  25 : 1111111111111011;
  26 : 1111111111111100;
  27 : 1111111111010111;
  28 : 1111111111101011;
  29 : 1111111111111011;
  30 : 1111111111001001;
  31 : 1111111111110101;
  32 : 0000000000000000;
  33 : 1111111111011110;
  34 : 1111111110111111;
  35 : 1111111110100000;
  36 : 1111111101111101;
  37 : 1111111110111011;
  38 : 1111111111110100;
  39 : 1111111110001110;
  40 : 1111111101100110;
  41 : 1111111110011010;
  42 : 1111111111110011;
  43 : 1111111101101100;
  44 : 1111111001010010;
  45 : 1111111011110101;
  46 : 1111111111011011;
  47 : 1111111101001111;
  48 : 1111111101100001;
  49 : 1111111111111111;
  50 : 1111111111010100;
  51 : 1111111110101110;
  52 : 1111111111111011;
  53 : 1111111111000111;
  54 : 1111111111011010;
  55 : 1111111111101000;
  56 : 1111111111110100;
  57 : 1111111111110011;
  58 : 1111111111101001;
  59 : 1111111111100111;
  60 : 1111111111111111;
  61 : 1111111111110001;
  62 : 1111111111110100;
  63 : 1111111011011010;
  64 : 1111111000110011;
  65 : 1111111000101101;
  66 : 1111111000110000;
  67 : 1111110110001111;
  68 : 1111111000110011;
  69 : 1111111111100011;
  70 : 1111111001001111;
  71 : 1111111110001110;
  72 : 1111111010000101;
  73 : 1111110101011111;
  74 : 1111110110001111;
  75 : 1111111011111110;
  76 : 1111111011011101;
  77 : 1111111101011101;
  78 : 0000000000000000;
  79 : 1111111101101111;
  80 : 1111111101010110;
  81 : 1111111111111111;
  82 : 1111111111110011;
  83 : 1111111111110111;
  84 : 1111111111110010;
  85 : 1111111111111111;
  86 : 1111111111110000;
  87 : 1111111111001100;
  88 : 1111111111010101;
  89 : 1111111111010100;
  90 : 1111110010110110;
  91 : 1111110010101010;
  92 : 1111101101000010;
  93 : 1111101110111110;
  94 : 1111110110110011;
  95 : 1111110011101111;
  96 : 1111100110111001;
  97 : 1111100000111011;
  98 : 1111101010101100;
  99 : 1111111010100011;
  100 : 1111111001000101;
  101 : 1111111001100101;
  102 : 1111110011011001;
  103 : 1111111110000000;
  104 : 1111110100100100;
  105 : 1111110100101100;
  106 : 1111111111000101;
  107 : 1111111100011101;
  108 : 1111111111001101;
  109 : 1111111111100010;
  110 : 1111111110100101;
  111 : 1111111111111000;
  112 : 1111111111000110;
  113 : 1111111111111010;
  114 : 1111111111111111;
  115 : 1111111111001001;
  116 : 1111111110010111;
  117 : 1111111110010010;
  118 : 1111110011100111;
  119 : 1111101101011110;
  120 : 1111101110001101;
  121 : 1111110011001000;
  122 : 1111101011100110;
  123 : 1111111111100001;
  124 : 1111110010001001;
  125 : 1111111010110000;
  126 : 1111111111100100;
  127 : 1111111010100011;
  128 : 1111111101011010;
  129 : 1111110001110111;
  130 : 1111111110001011;
  131 : 1111110111101011;
  132 : 1111111110011101;
  133 : 1111111101011000;
  134 : 1111111111100010;
  135 : 1111110100100100;
  136 : 1111111110010010;
  137 : 1111111111100100;
  138 : 1111111110101010;
  139 : 1111111111101001;
  140 : 1111111111111101;
  141 : 1111111111110101;
  142 : 1111111111111001;
  143 : 1111111111100110;
  144 : 1111111111010100;
  145 : 1111111110011101;
  146 : 1111111110101000;
  147 : 1111110100100000;
  148 : 1111111111011100;
  149 : 1111111001000110;
  150 : 1111111111111111;
  151 : 1111111111111011;
  152 : 1111110000100111;
  153 : 1111110111011001;
  154 : 1111111011111001;
  155 : 1111111110111011;
  156 : 1111111101111110;
  157 : 1111111110110100;
  158 : 1111110000010011;
  159 : 1111111101101011;
  160 : 1111111001000110;
  161 : 1111110100101101;
  162 : 1111100001111110;
  163 : 1111110011100100;
  164 : 1111111010010011;
  165 : 1111111111101110;
  166 : 1111111111100100;
  167 : 1111111111100010;
  168 : 1111111111111000;
  169 : 1111111111111011;
  170 : 1111111110001111;
  171 : 1111111101001001;
  172 : 1111111111001111;
  173 : 1111111110100011;
  174 : 1111111111010100;
  175 : 1111111010111100;
  176 : 1111110011101000;
  177 : 1111111111100111;
  178 : 1111110110000101;
  179 : 1111110100001111;
  180 : 1111111000001101;
  181 : 1111111001101100;
  182 : 1111111110111000;
  183 : 1111110100001101;
  184 : 1111110110010000;
  185 : 1111110110011000;
  186 : 1111110101000010;
  187 : 1111111010111010;
  188 : 1111110010111100;
  189 : 1111110100010101;
  190 : 1111100000001111;
  191 : 1111100101011100;
  192 : 1111110011111000;
  193 : 1111111101010011;
  194 : 1111111111111010;
  195 : 1111111111111110;
  196 : 1111111111101110;
  197 : 1111111111011010;
  198 : 1111111111100100;
  199 : 1111111111101001;
  200 : 1111111101001001;
  201 : 1111110100001001;
  202 : 1111111010000100;
  203 : 1111111110001101;
  204 : 1111111111010011;
  205 : 1111111111110100;
  206 : 1111111111110111;
  207 : 1111111111111100;
  208 : 1111111101010001;
  209 : 1111111011000111;
  210 : 1111111001100101;
  211 : 1111111010111001;
  212 : 1111111110101010;
  213 : 1111111100100111;
  214 : 1111110001011010;
  215 : 1111110000100100;
  216 : 1111110001011000;
  217 : 1111111100000100;
  218 : 1111110100100100;
  219 : 1111101001011110;
  220 : 1111111101011111;
  221 : 1111111110101011;
  222 : 1111111101001010;
  223 : 1111111111000001;
  224 : 1111111111100110;
  225 : 1111111111101011;
  226 : 1111111111101001;
  227 : 1111111100001010;
  228 : 1111111001000001;
  229 : 1111111111000110;
  230 : 1111111010110110;
  231 : 1111111110101010;
  232 : 1111111111010000;
  233 : 1111111111000000;
  234 : 1111110000100011;
  235 : 1111111110101010;
  236 : 1111110000111100;
  237 : 1111111100010011;
  238 : 1111111111101000;
  239 : 1111110110000111;
  240 : 1111111110010101;
  241 : 1111111010101001;
  242 : 1111100001000000;
  243 : 1111111010110000;
  244 : 1111110110101001;
  245 : 1111111111111110;
  246 : 1111110000100100;
  247 : 1111110010111000;
  248 : 1111110001100100;
  249 : 1111111001101010;
  250 : 1111111100000010;
  251 : 1111111111101000;
  252 : 1111111111111000;
  253 : 1111111111111110;
  254 : 1111111111111111;
  255 : 1111111110010001;
  256 : 1111111111000010;
  257 : 1111111111110011;
  258 : 1111110101110000;
  259 : 1111111010101101;
  260 : 1111111110111100;
  261 : 1111111110000010;
  262 : 1111111001001100;
  263 : 1111111000000010;
  264 : 1111111100111110;
  265 : 1111111101010000;
  266 : 1111100111001011;
  267 : 1111111000110010;
  268 : 1111111011000000;
  269 : 1111111111011011;
  270 : 1111111101000010;
  271 : 1111111011111111;
  272 : 1111101111001000;
  273 : 1111111000110001;
  274 : 1111111100010101;
  275 : 1111110001011111;
  276 : 1111111101111110;
  277 : 1111110001110001;
  278 : 1111111100111000;
  279 : 1111111011110011;
  280 : 1111111111011101;
  281 : 1111111111110010;
  282 : 1111111111001010;
  283 : 1111111110000000;
  284 : 1111110111010100;
  285 : 1111111000101001;
  286 : 1111111101001000;
  287 : 1111111001100111;
  288 : 1111111011010101;
  289 : 1111111110101001;
  290 : 1111110101100011;
  291 : 1111111001011001;
  292 : 1111111001101110;
  293 : 1111111101010010;
  294 : 1111101101010101;
  295 : 1111111111011110;
  296 : 1111110011011111;
  297 : 1111111100110110;
  298 : 1111111110010110;
  299 : 1111100000100111;
  300 : 1111111100100011;
  301 : 1111110001101111;
  302 : 1111111111000010;
  303 : 1111111100001000;
  304 : 1111111010101000;
  305 : 1111100001111011;
  306 : 1111111101000001;
  307 : 1111111110110110;
  308 : 1111111111101001;
  309 : 1111111111110101;
  310 : 1111111111000100;
  311 : 1111111111101101;
  312 : 1111111110010100;
  313 : 1111111110000000;
  314 : 1111111110110110;
  315 : 1111101111010110;
  316 : 1111101110110110;
  317 : 1111111110100010;
  318 : 1111111111110001;
  319 : 1111111010111010;
  320 : 1111111011110011;
  321 : 1111111100100101;
  322 : 1111110010001101;
  323 : 1111110110111101;
  324 : 1111111111001110;
  325 : 1111111000101111;
  326 : 1111111111100110;
  327 : 1111111000110111;
  328 : 1111110001010000;
  329 : 1111111110100011;
  330 : 1111111111101011;
  331 : 1111110001111001;
  332 : 1111110100001110;
  333 : 1111110111110111;
  334 : 1111111111001111;
  335 : 1111111111110011;
  336 : 1111111111111000;
  337 : 1111111111111000;
  338 : 1111111110100101;
  339 : 1111111110110001;
  340 : 1111111100000110;
  341 : 1111111110101000;
  342 : 1111111100100110;
  343 : 1111111101010100;
  344 : 1111111010100100;
  345 : 1111110100010000;
  346 : 1111111001110101;
  347 : 1111111100010011;
  348 : 1111111011111011;
  349 : 1111111011011110;
  350 : 1111111110110110;
  351 : 1111111010001010;
  352 : 1111110100101000;
  353 : 1111101100011100;
  354 : 1111111111011010;
  355 : 1111111000110100;
  356 : 1111110001010111;
  357 : 1111110011101101;
  358 : 1111110001001111;
  359 : 1111101110000101;
  360 : 1111101110000100;
  361 : 1111111010001100;
  362 : 1111111111011100;
  363 : 1111111111001010;
  364 : 1111111111110010;
  365 : 1111111111100010;
  366 : 1111111111010010;
  367 : 1111111110110111;
  368 : 1111110011001000;
  369 : 1111111110111011;
  370 : 1111111010000110;
  371 : 1111111111010011;
  372 : 1111110001001110;
  373 : 1111111100111111;
  374 : 1111110011110110;
  375 : 1111111110011011;
  376 : 1111111110001000;
  377 : 1111101010101100;
  378 : 1111111100101110;
  379 : 1111110010011100;
  380 : 1111100111011110;
  381 : 1111110001000101;
  382 : 1111110111011100;
  383 : 1111101100111011;
  384 : 1111111000010000;
  385 : 1111101110001000;
  386 : 1111110000110110;
  387 : 1111101100001101;
  388 : 1111110111110110;
  389 : 1111110000101110;
  390 : 1111111101001000;
  391 : 1111111100001001;
  392 : 1111111111010100;
  393 : 1111111111110001;
  394 : 1111111111110110;
  395 : 1111111100010001;
  396 : 1111111000001110;
  397 : 1111111100111001;
  398 : 1111110000110111;
  399 : 1111111111110110;
  400 : 1111111111111010;
  401 : 1111110101001110;
  402 : 1111110100000000;
  403 : 1111111111101101;
  404 : 1111111110001101;
  405 : 1111101000100110;
  406 : 1111111000101101;
  407 : 1111110101100000;
  408 : 1111100000011001;
  409 : 1111111010001111;
  410 : 1111011100110001;
  411 : 1111111110110111;
  412 : 1111110010101101;
  413 : 1111110101001011;
  414 : 1111100110001001;
  415 : 1111101010010010;
  416 : 1111110011100000;
  417 : 1111111100100110;
  418 : 1111111010010010;
  419 : 1111111111101111;
  420 : 1111111111011010;
  421 : 1111111111101011;
  422 : 1111111111101101;
  423 : 1111111111111010;
  424 : 1111110011010010;
  425 : 1111111101101100;
  426 : 1111111010111010;
  427 : 1111110110100010;
  428 : 1111111010000010;
  429 : 1111111110111001;
  430 : 1111111000111001;
  431 : 1111110010110111;
  432 : 1111111010111000;
  433 : 1111011011000111;
  434 : 1111111111101010;
  435 : 1111110010000111;
  436 : 1111110100011111;
  437 : 1111111001011110;
  438 : 1111110001011100;
  439 : 1111110010000001;
  440 : 1111101000011111;
  441 : 1111111111110011;
  442 : 1111111110001110;
  443 : 1111111110010000;
  444 : 1111111101010010;
  445 : 1111110010001100;
  446 : 1111111110111101;
  447 : 1111111101100010;
  448 : 1111111111111001;
  449 : 1111111111110011;
  450 : 1111111110111010;
  451 : 1111110110001001;
  452 : 1111111000111101;
  453 : 1111111100011000;
  454 : 1111110111111101;
  455 : 1111111100000010;
  456 : 1111111001111101;
  457 : 1111111110001110;
  458 : 1111110000010011;
  459 : 1111111010000111;
  460 : 1111110010001000;
  461 : 1111111111010010;
  462 : 1111101001101001;
  463 : 1111111001011000;
  464 : 1111100101111100;
  465 : 1111100010111001;
  466 : 1111111111110111;
  467 : 1111110011100111;
  468 : 1111111010110011;
  469 : 1111110110101010;
  470 : 1111111111101100;
  471 : 1111111111100111;
  472 : 1111110001110111;
  473 : 1111100111110000;
  474 : 1111111110110010;
  475 : 1111111111111100;
  476 : 1111111111010011;
  477 : 1111111111111011;
  478 : 1111111111011001;
  479 : 1111110101001000;
  480 : 1111110100011101;
  481 : 1111111000010111;
  482 : 1111111111111111;
  483 : 1111111110110111;
  484 : 1111111110001110;
  485 : 1111111101001111;
  486 : 1111101111010101;
  487 : 1111111101110101;
  488 : 1111111110000010;
  489 : 1111111100111010;
  490 : 1111111100000000;
  491 : 1111101101110001;
  492 : 1111110110010101;
  493 : 1111111011011110;
  494 : 1111111000101010;
  495 : 1111111011101110;
  496 : 1111111011000000;
  497 : 1111110100111000;
  498 : 1111110111111001;
  499 : 1111111011001010;
  500 : 1111110001010000;
  501 : 1111101111110111;
  502 : 1111111111010001;
  503 : 1111111111001110;
  504 : 1111111111111101;
  505 : 1111111111010100;
  506 : 1111111111100110;
  507 : 1111110011000101;
  508 : 1111111001101000;
  509 : 1111111011001010;
  510 : 1111111110110111;
  511 : 1111111100010001;
  512 : 1111111001011000;
  513 : 1111111000110110;
  514 : 1111110101110100;
  515 : 1111111011101100;
  516 : 1111110101110100;
  517 : 1111110000010110;
  518 : 1111100101011011;
  519 : 1111110011000100;
  520 : 1111101001010011;
  521 : 1111101110001011;
  522 : 1111110100111110;
  523 : 1111110100101101;
  524 : 1111110101000001;
  525 : 1111110011110001;
  526 : 1111111110101111;
  527 : 1111111111110001;
  528 : 1111110011001100;
  529 : 1111101100101011;
  530 : 1111111110000010;
  531 : 1111111111000011;
  532 : 1111111111010011;
  533 : 1111111111111110;
  534 : 1111111110000110;
  535 : 1111111001111001;
  536 : 1111101101010001;
  537 : 1111110101110111;
  538 : 1111111111000111;
  539 : 1111111111101110;
  540 : 1111111100011101;
  541 : 1111111110010001;
  542 : 1111110010100101;
  543 : 1111100010111010;
  544 : 1111101110000010;
  545 : 1111110000000110;
  546 : 1111100101110000;
  547 : 1111101001100011;
  548 : 1111110111100000;
  549 : 1111101100100000;
  550 : 1111111101101001;
  551 : 1111111110100000;
  552 : 1111111101010101;
  553 : 1111111101000011;
  554 : 1111110001111110;
  555 : 1111110110101011;
  556 : 1111111001011000;
  557 : 1111110011001110;
  558 : 1111111100101000;
  559 : 1111111111111111;
  560 : 1111111111110111;
  561 : 1111111111111100;
  562 : 1111111110011000;
  563 : 1111110101111010;
  564 : 1111101111101001;
  565 : 1111101011100111;
  566 : 1111111100001000;
  567 : 1111111111011001;
  568 : 1111111110101101;
  569 : 1111111101001100;
  570 : 1111101011111001;
  571 : 1111011111010000;
  572 : 1111111011001101;
  573 : 1111110101100110;
  574 : 1111110110100111;
  575 : 1111111001001011;
  576 : 1111111001001100;
  577 : 1111111000110000;
  578 : 1111101011111000;
  579 : 1111111111101111;
  580 : 1111111111010111;
  581 : 1111111111111010;
  582 : 1111111101011000;
  583 : 1111111110000101;
  584 : 1111110010001010;
  585 : 1111111110011010;
  586 : 1111111111100111;
  587 : 1111111111111001;
  588 : 1111111111001000;
  589 : 1111111111111110;
  590 : 1111111001100011;
  591 : 1111111000110010;
  592 : 1111111111111111;
  593 : 1111110100101000;
  594 : 1111110111111110;
  595 : 1111111000001010;
  596 : 1111111010110001;
  597 : 1111111111011011;
  598 : 1111110010100100;
  599 : 1111111111011110;
  600 : 1111111011001110;
  601 : 1111110011100111;
  602 : 1111111111000011;
  603 : 1111111001100110;
  604 : 1111110010001111;
  605 : 1111111110100000;
  606 : 1111110100001110;
  607 : 1111100110001110;
  608 : 1111100100101101;
  609 : 1111110101010011;
  610 : 1111110111110110;
  611 : 1111110101010100;
  612 : 1111111010010011;
  613 : 1111111110000111;
  614 : 1111111110001101;
  615 : 1111111111111010;
  616 : 1111111111100100;
  617 : 1111111111101001;
  618 : 1111111111010111;
  619 : 1111111111000010;
  620 : 1111110000110010;
  621 : 1111111101001100;
  622 : 1111110100101001;
  623 : 1111110111111010;
  624 : 1111100101000110;
  625 : 1111110101000000;
  626 : 1111111111110010;
  627 : 1111100110101111;
  628 : 1111110101010011;
  629 : 1111110010001010;
  630 : 1111111111011100;
  631 : 1111110100101101;
  632 : 1111101010010011;
  633 : 1111100000111011;
  634 : 1111111111011110;
  635 : 1111100100011010;
  636 : 1111110111001011;
  637 : 1111100001000000;
  638 : 1111111101100000;
  639 : 1111111110001000;
  640 : 1111111110101010;
  641 : 1111111111100011;
  642 : 1111111110101010;
  643 : 1111111111110100;
  644 : 1111111111111000;
  645 : 1111111111110000;
  646 : 1111111110101011;
  647 : 1111111110011000;
  648 : 1111110110010001;
  649 : 1111111000110001;
  650 : 1111111111010100;
  651 : 1111100111011000;
  652 : 1111101100000001;
  653 : 1111101000011100;
  654 : 1111100000100000;
  655 : 1111110000011010;
  656 : 1111100101110011;
  657 : 1111101110110101;
  658 : 1111111001010001;
  659 : 1111111001111010;
  660 : 1111110111011010;
  661 : 1111111001101001;
  662 : 1111101110101011;
  663 : 1111111100001100;
  664 : 1111111110111111;
  665 : 1111111011100100;
  666 : 1111111100001000;
  667 : 1111111101111011;
  668 : 1111111011010011;
  669 : 1111111111110110;
  670 : 1111111111011110;
  671 : 1111111111111111;
  672 : 1111111111011010;
  673 : 1111111111100110;
  674 : 1111111111110010;
  675 : 1111111111111100;
  676 : 1111111000100101;
  677 : 1111110001011000;
  678 : 1111111001000111;
  679 : 1111100001100100;
  680 : 1111100100011101;
  681 : 1111101010101000;
  682 : 1111100000111000;
  683 : 1111100011010001;
  684 : 1111100110011011;
  685 : 1111110110110011;
  686 : 1111101010101110;
  687 : 1111100011000010;
  688 : 1111110010000000;
  689 : 1111110000000101;
  690 : 1111110011010011;
  691 : 1111111101111111;
  692 : 1111111111110001;
  693 : 1111111110000101;
  694 : 1111111001111111;
  695 : 1111111011110010;
  696 : 1111111111010001;
  697 : 1111111100111010;
  698 : 1111111111000001;
  699 : 1111111111010010;
  700 : 1111111111100111;
  701 : 1111111111111110;
  702 : 1111111111111111;
  703 : 1111111111011000;
  704 : 1111111101000000;
  705 : 1111111101011011;
  706 : 1111111111010110;
  707 : 1111111010000000;
  708 : 1111110000001010;
  709 : 1111110111100010;
  710 : 1111111100100110;
  711 : 1111111010011001;
  712 : 1111111011110111;
  713 : 1111110000000010;
  714 : 1111111110010100;
  715 : 1111111101011001;
  716 : 1111111100110001;
  717 : 1111111111100010;
  718 : 1111111001111001;
  719 : 1111111000100011;
  720 : 1111111111101110;
  721 : 1111111100111011;
  722 : 1111111110010010;
  723 : 1111111111100001;
  724 : 1111111111111010;
  725 : 1111111111010011;
  726 : 1111111110010010;
  727 : 1111111111111001;
  728 : 1111111111110100;
  729 : 1111111111000111;
  730 : 1111111111111010;
  731 : 1111111111110001;
  732 : 1111111111100101;
  733 : 1111111110011101;
  734 : 1111111111010011;
  735 : 1111111110101011;
  736 : 1111111111000011;
  737 : 1111111010001111;
  738 : 1111111111100000;
  739 : 1111111111011101;
  740 : 1111111110001111;
  741 : 1111111110010001;
  742 : 1111111110000010;
  743 : 1111111111011111;
  744 : 1111111101110110;
  745 : 1111110011110010;
  746 : 1111110110011010;
  747 : 1111110011100000;
  748 : 1111111101011011;
  749 : 1111111111100110;
  750 : 1111111111110100;
  751 : 1111111111111111;
  752 : 1111111111110011;
  753 : 1111111111101101;
  754 : 1111111111100001;
  755 : 1111111111110000;
  756 : 1111111111110100;
  757 : 1111111111111011;
  758 : 1111111111110101;
  759 : 1111111111111100;
  760 : 1111111111101111;
  761 : 1111111111011010;
  762 : 1111111111110010;
  763 : 1111111111110011;
  764 : 1111111111011000;
  765 : 1111111111010101;
  766 : 1111111111101011;
  767 : 1111111111101001;
  768 : 1111111111111101;
  769 : 1111111111111011;
  770 : 1111111111111111;
  771 : 1111111111111110;
  772 : 1111111111000001;
  773 : 1111111111111001;
  774 : 1111111110110000;
  775 : 1111111111010001;
  776 : 1111111111000011;
  777 : 1111111111110100;
  778 : 1111111111101101;
  779 : 1111111111011010;
  780 : 1111111111111110;
  781 : 1111111111100011;
  782 : 1111111111110101;
  783 : 1111111111011001;
END;
