WIDTH=16;
DEPTH=784;
ADDRESS_RADIX=UNS;
DATA_RADIX=BIN;
CONTENT BEGIN
  0 : 1111111111011111;
  1 : 1111111110101001;
  2 : 1111111111111101;
  3 : 1111111111110011;
  4 : 1111111111111101;
  5 : 1111111111111011;
  6 : 1111111111110101;
  7 : 1111111111111001;
  8 : 1111111111111111;
  9 : 0000000000000000;
  10 : 1111111111100101;
  11 : 1111111111111000;
  12 : 1111111111011110;
  13 : 1111111111100010;
  14 : 1111111111001011;
  15 : 1111111111110000;
  16 : 1111111111111010;
  17 : 1111111111100011;
  18 : 1111111111111001;
  19 : 1111111111111110;
  20 : 1111111111111011;
  21 : 1111111111111111;
  22 : 1111111111110011;
  23 : 1111111111100000;
  24 : 1111111111111110;
  25 : 1111111111111111;
  26 : 1111111111110010;
  27 : 1111111111111101;
  28 : 1111111111001010;
  29 : 1111111111101000;
  30 : 1111111111111101;
  31 : 1111111111111101;
  32 : 1111111111110111;
  33 : 1111111111111100;
  34 : 1111111111110101;
  35 : 1111111111101001;
  36 : 1111111111110110;
  37 : 1111111111111101;
  38 : 1111111111111110;
  39 : 1111111111111101;
  40 : 1111111111100111;
  41 : 1111111111111001;
  42 : 1111111111111010;
  43 : 1111111111000001;
  44 : 1111111111110001;
  45 : 1111111111011100;
  46 : 1111111111111010;
  47 : 1111111111111101;
  48 : 1111111111000100;
  49 : 1111111111110100;
  50 : 1111111111111110;
  51 : 1111111111110101;
  52 : 1111111111011101;
  53 : 1111111111110011;
  54 : 1111111111111111;
  55 : 1111111111110001;
  56 : 0000000000000000;
  57 : 1111111111111001;
  58 : 1111111111110100;
  59 : 1111111111111101;
  60 : 1111111111111101;
  61 : 1111111111111101;
  62 : 1111111111110011;
  63 : 1111111111110011;
  64 : 1111111111111110;
  65 : 1111111111011001;
  66 : 1111111111010101;
  67 : 1111111111000110;
  68 : 1111111111111010;
  69 : 1111111101000110;
  70 : 1111111111001011;
  71 : 1111111100101101;
  72 : 1111111101101001;
  73 : 1111111100001100;
  74 : 1111111100101110;
  75 : 1111111111010101;
  76 : 1111111111100111;
  77 : 1111111111100010;
  78 : 1111111111110000;
  79 : 1111111111111001;
  80 : 1111111111100100;
  81 : 1111111111111111;
  82 : 1111111111111001;
  83 : 1111111111001100;
  84 : 1111111111110000;
  85 : 1111111111111011;
  86 : 1111111111100101;
  87 : 1111111111101111;
  88 : 1111111111100010;
  89 : 1111111110011011;
  90 : 1111111110011011;
  91 : 1111111100011000;
  92 : 1111111011011111;
  93 : 1111111111011011;
  94 : 1111111111100011;
  95 : 1111111000010101;
  96 : 1111111010001100;
  97 : 1111110010010011;
  98 : 1111111100111101;
  99 : 1111111101000010;
  100 : 1111110001001111;
  101 : 1111111100110110;
  102 : 1111111111110101;
  103 : 1111111010110000;
  104 : 1111111111010001;
  105 : 1111111111000010;
  106 : 1111111111010011;
  107 : 1111111111010110;
  108 : 1111111111110101;
  109 : 1111111111001010;
  110 : 1111111111101000;
  111 : 1111111111111111;
  112 : 1111111111100001;
  113 : 1111111110110001;
  114 : 1111111111110110;
  115 : 1111111111110101;
  116 : 1111111111011000;
  117 : 1111111110101100;
  118 : 1111111000001111;
  119 : 1111111011111101;
  120 : 1111110010110101;
  121 : 1111111010100000;
  122 : 1111110000001001;
  123 : 1111111001111001;
  124 : 1111111101110000;
  125 : 1111110000001011;
  126 : 1111111100100010;
  127 : 1111111110010100;
  128 : 1111111011000110;
  129 : 1111111101010001;
  130 : 1111111100000100;
  131 : 1111110101110111;
  132 : 1111111111111101;
  133 : 1111110001010001;
  134 : 1111111111101011;
  135 : 1111111100111101;
  136 : 1111111011111100;
  137 : 1111111110001111;
  138 : 1111111111111111;
  139 : 1111111111111011;
  140 : 1111111111111011;
  141 : 1111111111011000;
  142 : 1111111111100001;
  143 : 1111111111101011;
  144 : 1111111100100100;
  145 : 1111111011011001;
  146 : 1111110001011000;
  147 : 1111111010100011;
  148 : 1111111101010101;
  149 : 1111111110110101;
  150 : 1111111001000110;
  151 : 1111110010101011;
  152 : 1111111101011000;
  153 : 1111111011101010;
  154 : 1111111011010001;
  155 : 1111111011101110;
  156 : 1111110001100110;
  157 : 1111100100111101;
  158 : 1111111110110010;
  159 : 1111101000011001;
  160 : 1111111111101101;
  161 : 1111111100111011;
  162 : 1111111101111011;
  163 : 1111111100001111;
  164 : 1111111110101001;
  165 : 1111111111111110;
  166 : 1111111111100110;
  167 : 1111111111010001;
  168 : 1111111111111111;
  169 : 1111111111111000;
  170 : 1111111110011110;
  171 : 1111111111011110;
  172 : 1111111101001010;
  173 : 1111111111111110;
  174 : 1111110010101000;
  175 : 1111111111110000;
  176 : 1111110000000010;
  177 : 1111110110100000;
  178 : 1111110010100010;
  179 : 1111111001011011;
  180 : 1111110100111100;
  181 : 1111111000011100;
  182 : 1111111011100001;
  183 : 1111110111001100;
  184 : 1111110010110111;
  185 : 1111101111101101;
  186 : 1111100011001101;
  187 : 1111111011101111;
  188 : 1111111001101000;
  189 : 1111110011101100;
  190 : 1111110100010011;
  191 : 1111111011000000;
  192 : 1111111101101111;
  193 : 1111111110100000;
  194 : 1111111111110111;
  195 : 1111111111000011;
  196 : 1111111111011011;
  197 : 1111111111110000;
  198 : 1111111101011011;
  199 : 1111111101110110;
  200 : 1111111111011111;
  201 : 1111111110100011;
  202 : 1111111100110010;
  203 : 1111111011010010;
  204 : 1111111000011111;
  205 : 1111111001111110;
  206 : 1111110110101011;
  207 : 1111110010111011;
  208 : 1111101110101000;
  209 : 1111100101000010;
  210 : 1111101011101110;
  211 : 1111111000100110;
  212 : 1111111111110001;
  213 : 1111101001001101;
  214 : 1111110001110110;
  215 : 1111101101001011;
  216 : 1111100100001000;
  217 : 1111100010010010;
  218 : 1111100111001100;
  219 : 1111101101111100;
  220 : 1111111010100001;
  221 : 1111111011110101;
  222 : 1111111011100000;
  223 : 1111111111110100;
  224 : 1111111111111111;
  225 : 1111111111101101;
  226 : 1111111100101011;
  227 : 1111111101110100;
  228 : 1111111111111000;
  229 : 1111111110011111;
  230 : 1111111111110000;
  231 : 1111110110000000;
  232 : 1111111100111110;
  233 : 1111111101100111;
  234 : 1111100101010101;
  235 : 1111110000000010;
  236 : 1111110100110101;
  237 : 1111111111011101;
  238 : 1111111111111011;
  239 : 1111101101111001;
  240 : 1111011010100111;
  241 : 1111100001000101;
  242 : 1111101010011000;
  243 : 1111111111001011;
  244 : 1111101000011111;
  245 : 1111110100111001;
  246 : 1111110101010000;
  247 : 1111101000010100;
  248 : 1111101010100000;
  249 : 1111111100000110;
  250 : 1111111111101100;
  251 : 1111111111000010;
  252 : 1111111111111100;
  253 : 1111111111010011;
  254 : 1111111110111011;
  255 : 1111111110001011;
  256 : 1111111100001111;
  257 : 1111111111110111;
  258 : 1111111111000000;
  259 : 1111111110111001;
  260 : 1111111111100011;
  261 : 1111111111000100;
  262 : 1111101101101100;
  263 : 1111111100000101;
  264 : 1111110101000100;
  265 : 1111011110011101;
  266 : 1111100011000011;
  267 : 1111100000100010;
  268 : 1111010011101001;
  269 : 1111101101001110;
  270 : 1111101101111111;
  271 : 1111111001001111;
  272 : 1111101101001111;
  273 : 1111110111111000;
  274 : 1111111110100001;
  275 : 1111101010100110;
  276 : 1111101110000111;
  277 : 1111111100001011;
  278 : 0000000000000000;
  279 : 1111111111000100;
  280 : 1111111111110010;
  281 : 1111111111100000;
  282 : 1111111111111001;
  283 : 1111111111001011;
  284 : 1111111111110101;
  285 : 1111111111100011;
  286 : 1111111100101011;
  287 : 1111101110101011;
  288 : 1111101100010000;
  289 : 1111100110010010;
  290 : 1111100001100001;
  291 : 1111101010010000;
  292 : 1111011111100100;
  293 : 1111110001000001;
  294 : 1111110000101111;
  295 : 1111100100010100;
  296 : 1111111100111111;
  297 : 1111111100010001;
  298 : 1111111011001000;
  299 : 1111111101010100;
  300 : 1111111111001100;
  301 : 1111111111111011;
  302 : 1111111111011010;
  303 : 1111110010000010;
  304 : 1111110010000110;
  305 : 1111111100100110;
  306 : 0000000000000000;
  307 : 1111111111010001;
  308 : 1111111111100001;
  309 : 1111111111110001;
  310 : 1111111111100011;
  311 : 1111111111111110;
  312 : 1111111111011110;
  313 : 1111111000101110;
  314 : 1111111010001100;
  315 : 1111101011001101;
  316 : 1111100100110110;
  317 : 1111100000010111;
  318 : 1111100110100011;
  319 : 1111110101111011;
  320 : 1111100111100111;
  321 : 1111111101101100;
  322 : 1111110100000011;
  323 : 1111111111000010;
  324 : 1111111110011111;
  325 : 1111111010101100;
  326 : 1111111101101100;
  327 : 1111110100000110;
  328 : 1111110111100111;
  329 : 1111111111010110;
  330 : 1111111100111100;
  331 : 1111111111101011;
  332 : 1111111110011001;
  333 : 1111111111001110;
  334 : 1111111101000101;
  335 : 1111111111101001;
  336 : 1111111111111010;
  337 : 0000000000000000;
  338 : 1111111110101101;
  339 : 1111111110110001;
  340 : 1111111001011011;
  341 : 1111111111010111;
  342 : 1111111111000001;
  343 : 1111110111101001;
  344 : 1111101010000110;
  345 : 1111101001011111;
  346 : 1111110001100010;
  347 : 1111100110000011;
  348 : 1111100000000010;
  349 : 1111110111000000;
  350 : 1111111001010011;
  351 : 1111111111101110;
  352 : 1111111110110111;
  353 : 1111111000101001;
  354 : 1111111000010010;
  355 : 1111110011100011;
  356 : 1111110010101011;
  357 : 1111110001010000;
  358 : 1111110100101011;
  359 : 1111111100110010;
  360 : 1111111110001000;
  361 : 1111111111110101;
  362 : 1111111111010000;
  363 : 1111111111100101;
  364 : 1111111111111011;
  365 : 1111111111110110;
  366 : 1111111110000001;
  367 : 1111111101110011;
  368 : 1111111001001001;
  369 : 1111111000000011;
  370 : 1111111111100000;
  371 : 1111111010101010;
  372 : 1111111010101010;
  373 : 1111111111000011;
  374 : 1111011111110001;
  375 : 1111011011110010;
  376 : 1111100101010111;
  377 : 1111111111111000;
  378 : 1111111110001001;
  379 : 1111111111111000;
  380 : 1111110000111100;
  381 : 1111111011011000;
  382 : 1111111111011101;
  383 : 1111110010111100;
  384 : 1111111001001101;
  385 : 1111110100110110;
  386 : 1111110110010000;
  387 : 1111111111111000;
  388 : 1111111010001000;
  389 : 1111110111111010;
  390 : 1111111101000010;
  391 : 1111111111111111;
  392 : 1111111110111010;
  393 : 1111111110111010;
  394 : 1111111110000100;
  395 : 1111111111110001;
  396 : 1111111100010110;
  397 : 1111101110011000;
  398 : 1111111011001101;
  399 : 1111111000100001;
  400 : 1111101110101000;
  401 : 1111101011000110;
  402 : 1111100111101111;
  403 : 1111010010110001;
  404 : 1111010111010110;
  405 : 1111111100010110;
  406 : 1111111001100110;
  407 : 1111111100100000;
  408 : 1111111000110110;
  409 : 1111101001011011;
  410 : 1111111111101101;
  411 : 1111111100100000;
  412 : 1111111010111010;
  413 : 1111111010100001;
  414 : 1111110001010100;
  415 : 1111111010100000;
  416 : 1111111111110011;
  417 : 1111111111010110;
  418 : 1111111111111101;
  419 : 1111111111111010;
  420 : 1111111111010011;
  421 : 1111111111101010;
  422 : 1111111101101111;
  423 : 1111111111011000;
  424 : 1111111111101100;
  425 : 1111111110111110;
  426 : 1111111010000111;
  427 : 1111111100100100;
  428 : 1111111100101111;
  429 : 1111110011100110;
  430 : 1111101100000001;
  431 : 1111111111111000;
  432 : 1111011101011111;
  433 : 1111111110010100;
  434 : 1111110011100110;
  435 : 1111111110100000;
  436 : 1111111011011100;
  437 : 1111110111100101;
  438 : 1111111111110011;
  439 : 1111111110000011;
  440 : 1111110101100110;
  441 : 1111111110001101;
  442 : 1111111111110110;
  443 : 1111111100001111;
  444 : 1111111111100111;
  445 : 1111111110100101;
  446 : 1111111100101010;
  447 : 1111111111101011;
  448 : 1111111111101111;
  449 : 1111111111111111;
  450 : 0000000000000000;
  451 : 1111111110000000;
  452 : 1111111010100001;
  453 : 1111111101011010;
  454 : 1111111111110010;
  455 : 1111111000001110;
  456 : 1111110100000010;
  457 : 1111111101000010;
  458 : 1111111111100000;
  459 : 1111111011001010;
  460 : 1111101110011000;
  461 : 1111111110110101;
  462 : 1111111011110100;
  463 : 1111111100111110;
  464 : 1111110011111110;
  465 : 1111100011100110;
  466 : 1111111001010010;
  467 : 1111110100100111;
  468 : 1111111001000111;
  469 : 1111111111110000;
  470 : 1111111100111010;
  471 : 1111111001101001;
  472 : 1111111111011101;
  473 : 1111111111011110;
  474 : 1111111100101111;
  475 : 1111111111110011;
  476 : 1111111111111101;
  477 : 1111111110111111;
  478 : 1111111111110100;
  479 : 1111111011011101;
  480 : 1111111100001101;
  481 : 1111111110010100;
  482 : 1111111110101101;
  483 : 1111111111011101;
  484 : 1111110100100111;
  485 : 1111100100110111;
  486 : 1111110100110011;
  487 : 1111111001101011;
  488 : 1111111111111010;
  489 : 1111111001101010;
  490 : 1111111110010101;
  491 : 1111111011100101;
  492 : 1111101110100000;
  493 : 1111111111101000;
  494 : 1111111100111001;
  495 : 1111110010011101;
  496 : 1111110100010001;
  497 : 1111111111111111;
  498 : 1111110001101110;
  499 : 1111110100100111;
  500 : 1111110101111010;
  501 : 1111111101000100;
  502 : 1111111101101110;
  503 : 1111111111110100;
  504 : 0000000000000000;
  505 : 1111111111111101;
  506 : 1111111111010100;
  507 : 1111111101000001;
  508 : 1111111010001001;
  509 : 1111111010010101;
  510 : 1111111111010110;
  511 : 1111111111110100;
  512 : 1111111111111100;
  513 : 1111110100100010;
  514 : 1111101011101100;
  515 : 1111111000001000;
  516 : 1111111010010011;
  517 : 1111111010010101;
  518 : 1111111101111101;
  519 : 1111111010101001;
  520 : 1111110010010010;
  521 : 1111111110110100;
  522 : 1111111110011100;
  523 : 1111111000111101;
  524 : 1111111101110001;
  525 : 1111111011110010;
  526 : 1111111110100110;
  527 : 1111111111000000;
  528 : 1111111101001110;
  529 : 1111111111110011;
  530 : 1111111110010001;
  531 : 1111111111111101;
  532 : 1111111111000100;
  533 : 1111111111100111;
  534 : 1111111111111000;
  535 : 1111111000100110;
  536 : 1111111000001111;
  537 : 1111111001100110;
  538 : 1111111101010100;
  539 : 1111110010010011;
  540 : 1111111010111101;
  541 : 1111111111011111;
  542 : 1111111111100011;
  543 : 1111111001110000;
  544 : 1111111101100011;
  545 : 1111110110100000;
  546 : 1111110000010011;
  547 : 1111111100000101;
  548 : 1111111000110011;
  549 : 1111111000000000;
  550 : 1111111110000101;
  551 : 1111111110010101;
  552 : 1111111100101110;
  553 : 1111111011010110;
  554 : 1111111011011010;
  555 : 1111111110100111;
  556 : 1111111101100110;
  557 : 1111111111011010;
  558 : 1111111111100001;
  559 : 1111111111111001;
  560 : 1111111111011111;
  561 : 1111111111111111;
  562 : 1111111111010000;
  563 : 1111111111101010;
  564 : 1111111000100001;
  565 : 1111111111010110;
  566 : 1111111111111000;
  567 : 1111110000110100;
  568 : 1111100100000010;
  569 : 1111111001010101;
  570 : 1111111010100101;
  571 : 1111111101110001;
  572 : 1111111011111010;
  573 : 1111111111101101;
  574 : 1111111100011111;
  575 : 1111111111010000;
  576 : 1111111010111111;
  577 : 1111110001100100;
  578 : 1111111010111110;
  579 : 1111110000000001;
  580 : 1111111101110100;
  581 : 1111111101100101;
  582 : 1111110011001111;
  583 : 1111111001100101;
  584 : 1111111110000011;
  585 : 1111111111100110;
  586 : 1111111111111000;
  587 : 1111111111111000;
  588 : 1111111111110101;
  589 : 1111111111111101;
  590 : 1111111111100110;
  591 : 1111111000100010;
  592 : 1111111110100001;
  593 : 1111111000101100;
  594 : 1111111001001110;
  595 : 1111111100100000;
  596 : 1111111000110001;
  597 : 1111111011110001;
  598 : 1111111101000010;
  599 : 1111111100100011;
  600 : 1111111101000000;
  601 : 1111111100111000;
  602 : 1111111000100010;
  603 : 1111111111000100;
  604 : 1111111011111110;
  605 : 1111111111011111;
  606 : 1111111111100101;
  607 : 1111111101110011;
  608 : 1111110000111010;
  609 : 1111111110001111;
  610 : 1111111110111011;
  611 : 1111111010101011;
  612 : 1111111001100011;
  613 : 1111111111010111;
  614 : 1111111110101011;
  615 : 1111111111101011;
  616 : 1111111111101101;
  617 : 1111111111111001;
  618 : 1111111111111100;
  619 : 1111111111101111;
  620 : 1111111111100011;
  621 : 1111111111101101;
  622 : 1111111011001010;
  623 : 1111110000000001;
  624 : 1111111011111010;
  625 : 1111110111101100;
  626 : 1111111111011110;
  627 : 1111101110110110;
  628 : 1111101110010111;
  629 : 1111111101101110;
  630 : 1111110111111110;
  631 : 1111111111111100;
  632 : 1111110111001100;
  633 : 1111111100000101;
  634 : 1111111111111101;
  635 : 1111111101000011;
  636 : 1111110011111101;
  637 : 1111111101011010;
  638 : 1111111111011000;
  639 : 1111111100000100;
  640 : 1111111000000100;
  641 : 1111111111001001;
  642 : 1111111111111001;
  643 : 1111111111111001;
  644 : 1111111111110001;
  645 : 1111111111111111;
  646 : 1111111111110110;
  647 : 1111111111111110;
  648 : 1111111010000101;
  649 : 1111111111100101;
  650 : 1111111110101011;
  651 : 1111111101111001;
  652 : 1111111010100111;
  653 : 1111111001010110;
  654 : 1111111111010100;
  655 : 1111101101100000;
  656 : 1111111000101101;
  657 : 1111111111100100;
  658 : 1111111000011111;
  659 : 1111111111111000;
  660 : 1111110001101101;
  661 : 1111111010101001;
  662 : 1111111000000100;
  663 : 1111111110000011;
  664 : 1111111101010010;
  665 : 1111111111111010;
  666 : 1111111001010111;
  667 : 1111111000110110;
  668 : 1111111110010011;
  669 : 1111111111111101;
  670 : 1111111111111000;
  671 : 1111111111000010;
  672 : 1111111111110110;
  673 : 1111111111101101;
  674 : 1111111111000000;
  675 : 1111111111111001;
  676 : 1111111111010100;
  677 : 1111111110001011;
  678 : 1111110011111101;
  679 : 1111110111101100;
  680 : 1111110001110011;
  681 : 1111111110111100;
  682 : 1111111110011001;
  683 : 1111111000001010;
  684 : 1111111111110010;
  685 : 1111111110110010;
  686 : 1111111111010011;
  687 : 1111111010000110;
  688 : 1111111111111000;
  689 : 1111111111111110;
  690 : 1111111110010100;
  691 : 1111111100001101;
  692 : 1111111100101010;
  693 : 1111111100010110;
  694 : 1111111011011100;
  695 : 1111111100001001;
  696 : 1111111110010010;
  697 : 1111111111111000;
  698 : 1111111111001001;
  699 : 1111111111110010;
  700 : 1111111111111001;
  701 : 1111111111100011;
  702 : 1111111111111111;
  703 : 1111111111010001;
  704 : 1111111111111110;
  705 : 1111111101100111;
  706 : 1111111011010001;
  707 : 1111111011010100;
  708 : 1111110001010111;
  709 : 1111111000001010;
  710 : 1111111110100010;
  711 : 1111111001001101;
  712 : 1111111010101111;
  713 : 1111111101100010;
  714 : 1111111101100101;
  715 : 1111111010001111;
  716 : 1111111011001100;
  717 : 1111111111110010;
  718 : 1111111111110000;
  719 : 1111110011010001;
  720 : 1111111000010010;
  721 : 1111111111010101;
  722 : 1111111100001010;
  723 : 1111111111111001;
  724 : 1111111111100000;
  725 : 1111111111111111;
  726 : 1111111111111010;
  727 : 1111111111010110;
  728 : 1111111111110110;
  729 : 1111111111101101;
  730 : 1111111111110101;
  731 : 1111111111100011;
  732 : 1111111111110101;
  733 : 1111111111011000;
  734 : 1111111111101011;
  735 : 1111111100110100;
  736 : 1111111011111111;
  737 : 1111111101001010;
  738 : 1111111111111000;
  739 : 1111111101100110;
  740 : 1111111101100001;
  741 : 1111111111101000;
  742 : 1111111110110101;
  743 : 1111111010100111;
  744 : 1111111101011111;
  745 : 1111111101100110;
  746 : 1111111010111100;
  747 : 1111111011010111;
  748 : 1111111111111001;
  749 : 1111111111111110;
  750 : 1111111111111011;
  751 : 1111111111101011;
  752 : 1111111111110010;
  753 : 1111111111101000;
  754 : 1111111111111110;
  755 : 1111111111110011;
  756 : 1111111111110110;
  757 : 1111111111100010;
  758 : 1111111111010011;
  759 : 1111111111111010;
  760 : 1111111111101100;
  761 : 1111111111011010;
  762 : 1111111111101101;
  763 : 1111111111111110;
  764 : 1111111111110011;
  765 : 1111111111100011;
  766 : 1111111110101100;
  767 : 1111111111010001;
  768 : 1111111111110111;
  769 : 1111111111100011;
  770 : 1111111111100000;
  771 : 1111111111111101;
  772 : 1111111111100110;
  773 : 1111111111111110;
  774 : 1111111111110011;
  775 : 1111111111110100;
  776 : 1111111111110111;
  777 : 1111111111001110;
  778 : 1111111111100111;
  779 : 1111111111011010;
  780 : 1111111111110000;
  781 : 1111111111111000;
  782 : 1111111111110011;
  783 : 1111111111101011;
END;
