WIDTH=16;
DEPTH=784;
ADDRESS_RADIX=UNS;
DATA_RADIX=BIN;
CONTENT BEGIN
  0 : 1111111111111110;
  1 : 1111111111111111;
  2 : 1111111111011011;
  3 : 1111111111100000;
  4 : 1111111111101010;
  5 : 1111111111100001;
  6 : 1111111111111111;
  7 : 1111111110011011;
  8 : 1111111111111010;
  9 : 1111111111101000;
  10 : 1111111111101101;
  11 : 1111111111111001;
  12 : 1111111111011001;
  13 : 1111111111111111;
  14 : 1111111111101010;
  15 : 1111111111100010;
  16 : 1111111111010001;
  17 : 1111111110111010;
  18 : 1111111111100001;
  19 : 1111111111101000;
  20 : 1111111111110011;
  21 : 1111111111100111;
  22 : 1111111111110000;
  23 : 1111111111101000;
  24 : 1111111111111100;
  25 : 1111111111111110;
  26 : 1111111111111110;
  27 : 1111111111100100;
  28 : 1111111111110000;
  29 : 1111111111111000;
  30 : 1111111111111110;
  31 : 1111111111101110;
  32 : 1111111111101110;
  33 : 1111111111101110;
  34 : 1111111111110101;
  35 : 1111111111110010;
  36 : 1111111111111011;
  37 : 1111111111011111;
  38 : 1111111111001111;
  39 : 1111111111110100;
  40 : 1111111111111100;
  41 : 1111111111100001;
  42 : 1111111111110011;
  43 : 1111111110011110;
  44 : 1111111111110111;
  45 : 1111111111101110;
  46 : 1111111111111010;
  47 : 1111111111011111;
  48 : 1111111111101111;
  49 : 1111111111110100;
  50 : 1111111110110101;
  51 : 1111111111111111;
  52 : 1111111111110010;
  53 : 1111111111111100;
  54 : 1111111111101100;
  55 : 1111111111101010;
  56 : 1111111111111110;
  57 : 1111111111110110;
  58 : 0000000000000000;
  59 : 1111111111100000;
  60 : 1111111111100110;
  61 : 1111111111101010;
  62 : 1111111111000101;
  63 : 1111111111010111;
  64 : 1111111110101011;
  65 : 1111111110001110;
  66 : 1111111101010100;
  67 : 1111111010010100;
  68 : 1111111000101101;
  69 : 1111111001011100;
  70 : 1111111010001001;
  71 : 1111111001110100;
  72 : 1111111011001011;
  73 : 1111111100011010;
  74 : 1111111101000011;
  75 : 1111111111001000;
  76 : 1111111111110101;
  77 : 1111111111110000;
  78 : 1111111111111010;
  79 : 1111111111101101;
  80 : 1111111111100101;
  81 : 1111111111111010;
  82 : 1111111111110011;
  83 : 1111111111100001;
  84 : 1111111111111111;
  85 : 1111111111100100;
  86 : 1111111111111111;
  87 : 1111111111101101;
  88 : 1111111111100101;
  89 : 1111111111100001;
  90 : 1111111110011010;
  91 : 1111111101000111;
  92 : 1111111000100001;
  93 : 1111111010010111;
  94 : 1111111101010010;
  95 : 1111110101100010;
  96 : 1111101101010101;
  97 : 1111101100000101;
  98 : 1111110100100010;
  99 : 1111111000100010;
  100 : 1111110111000100;
  101 : 1111110011100000;
  102 : 1111101101110110;
  103 : 1111110110001000;
  104 : 1111111101111000;
  105 : 1111111101110110;
  106 : 1111111100110100;
  107 : 1111111111110100;
  108 : 1111111111110001;
  109 : 1111111111100101;
  110 : 1111111111101010;
  111 : 1111111111001000;
  112 : 1111111111110100;
  113 : 1111111111110110;
  114 : 1111111111100100;
  115 : 1111111111011001;
  116 : 1111111110110011;
  117 : 1111111110011110;
  118 : 1111111111111111;
  119 : 1111111011110110;
  120 : 1111110011011101;
  121 : 1111111011111001;
  122 : 1111111100000101;
  123 : 1111111010011110;
  124 : 1111101001011000;
  125 : 1111101110101011;
  126 : 1111100101110001;
  127 : 1111101011111001;
  128 : 1111110000110000;
  129 : 1111111111111101;
  130 : 1111111110001011;
  131 : 1111110001010010;
  132 : 1111110010001010;
  133 : 1111110111010101;
  134 : 1111111110100111;
  135 : 1111111110000001;
  136 : 0000000000000000;
  137 : 1111111111010000;
  138 : 1111111111010001;
  139 : 1111111111111101;
  140 : 1111111111111100;
  141 : 1111111111111111;
  142 : 1111111111111111;
  143 : 1111111111101101;
  144 : 1111111111111000;
  145 : 1111111111001101;
  146 : 1111111111000010;
  147 : 1111111010100000;
  148 : 1111111110010010;
  149 : 1111111111000000;
  150 : 1111111110110101;
  151 : 1111110010010001;
  152 : 1111111011010111;
  153 : 1111111001100111;
  154 : 1111111000000010;
  155 : 1111101110100010;
  156 : 1111110100110001;
  157 : 1111111010111010;
  158 : 1111111001101100;
  159 : 1111110110111001;
  160 : 1111101010000011;
  161 : 1111110100000100;
  162 : 1111111111011101;
  163 : 1111111110011101;
  164 : 1111111000101011;
  165 : 1111111101100010;
  166 : 1111111110111010;
  167 : 1111111111101111;
  168 : 1111111111111011;
  169 : 1111111111010001;
  170 : 1111111111100010;
  171 : 1111111111110011;
  172 : 1111111111001111;
  173 : 1111111001101010;
  174 : 1111111111101110;
  175 : 1111111111010101;
  176 : 1111110110011101;
  177 : 1111110011011011;
  178 : 1111110100110101;
  179 : 1111111110000101;
  180 : 1111110010101010;
  181 : 1111111101000101;
  182 : 1111111100111101;
  183 : 1111011100001100;
  184 : 1111101010000100;
  185 : 1111111110001111;
  186 : 1111111001010110;
  187 : 1111111110110011;
  188 : 1111100011010101;
  189 : 1111111111111101;
  190 : 1111111111010010;
  191 : 1111110110010010;
  192 : 1111110000111000;
  193 : 1111110101100011;
  194 : 1111111101111101;
  195 : 1111111111011101;
  196 : 1111111111010101;
  197 : 1111111111100010;
  198 : 1111111111110001;
  199 : 1111111101011101;
  200 : 1111111111001010;
  201 : 1111111110111001;
  202 : 1111110110000001;
  203 : 1111111000101010;
  204 : 1111111101011010;
  205 : 1111100110011010;
  206 : 1111111110100110;
  207 : 1111111110001110;
  208 : 1111111110111011;
  209 : 1111111011101110;
  210 : 1111110110010101;
  211 : 1111011011101010;
  212 : 1111101110100010;
  213 : 1111111011100100;
  214 : 1111110001101011;
  215 : 1111111010101010;
  216 : 1111110001011010;
  217 : 1111101001101100;
  218 : 1111111110000100;
  219 : 1111110101111011;
  220 : 1111111001000010;
  221 : 1111111001110011;
  222 : 1111111111001000;
  223 : 1111111111100110;
  224 : 1111111111100101;
  225 : 1111111111111101;
  226 : 1111111111001101;
  227 : 1111111111000101;
  228 : 1111111111100110;
  229 : 1111111110110110;
  230 : 1111111110010111;
  231 : 1111111010110011;
  232 : 1111101011110001;
  233 : 1111101100011101;
  234 : 1111111101111100;
  235 : 1111111101100001;
  236 : 1111100001011101;
  237 : 1111111010111110;
  238 : 1111110000100011;
  239 : 1111111101011110;
  240 : 1111011101010100;
  241 : 1111111111000101;
  242 : 1111111110000010;
  243 : 1111111100100101;
  244 : 1111111101010101;
  245 : 1111111011000101;
  246 : 1111111100101110;
  247 : 1111111010100001;
  248 : 1111111111000010;
  249 : 1111111110001100;
  250 : 1111111111111100;
  251 : 1111111111011111;
  252 : 1111111111110011;
  253 : 1111111111110101;
  254 : 1111111111111100;
  255 : 1111111100101010;
  256 : 1111111101111001;
  257 : 1111110100001101;
  258 : 1111110110001001;
  259 : 1111110111011101;
  260 : 1111111100110011;
  261 : 1111111101100110;
  262 : 1111110100011110;
  263 : 1111111011011001;
  264 : 1111111010100111;
  265 : 1111110010011001;
  266 : 1111101011001010;
  267 : 1111110110000110;
  268 : 1111110001110100;
  269 : 1111111111100000;
  270 : 1111111011101010;
  271 : 1111111111101011;
  272 : 1111111110011010;
  273 : 1111111001001001;
  274 : 1111110110011011;
  275 : 1111110001100100;
  276 : 1111111111110111;
  277 : 1111111001010001;
  278 : 1111110111110011;
  279 : 1111111111111111;
  280 : 1111111111100101;
  281 : 1111111111111000;
  282 : 1111111111111100;
  283 : 1111111111111110;
  284 : 1111111110010000;
  285 : 1111111110111110;
  286 : 1111110011111101;
  287 : 1111111111101001;
  288 : 1111111011001011;
  289 : 1111111011101110;
  290 : 1111100110010011;
  291 : 1111110000100101;
  292 : 1111110101110000;
  293 : 1111110011101010;
  294 : 1111110011111111;
  295 : 1111111110100000;
  296 : 1111111001100100;
  297 : 1111100100011111;
  298 : 1111111000101001;
  299 : 1111111110111000;
  300 : 1111111001110001;
  301 : 1111111101010010;
  302 : 1111111110111101;
  303 : 1111111111111110;
  304 : 1111101100000011;
  305 : 1111110010111000;
  306 : 1111111010111010;
  307 : 0000000000000000;
  308 : 1111111111010001;
  309 : 1111111111101010;
  310 : 1111111110101001;
  311 : 1111111111110000;
  312 : 1111111110100010;
  313 : 1111111000111110;
  314 : 1111111101010001;
  315 : 1111110001000010;
  316 : 1111101111111000;
  317 : 1111111001001010;
  318 : 1111111111010111;
  319 : 1111110100000010;
  320 : 1111110101010000;
  321 : 1111100001110001;
  322 : 1110111011010000;
  323 : 1111111011111101;
  324 : 1111111101101101;
  325 : 1111111001001000;
  326 : 1111110011000010;
  327 : 1111111101010110;
  328 : 1111111111111111;
  329 : 1111111100001001;
  330 : 1111111100101010;
  331 : 1111110101111100;
  332 : 1111110110000101;
  333 : 1111111100011010;
  334 : 1111111111111111;
  335 : 1111111111110010;
  336 : 1111111111100001;
  337 : 1111111110110000;
  338 : 1111111111010111;
  339 : 1111111110111101;
  340 : 1111110110011000;
  341 : 1111110101100111;
  342 : 1111111110011110;
  343 : 1111110001111110;
  344 : 1111110011111010;
  345 : 1111111111110101;
  346 : 1111111100010100;
  347 : 1111110101110111;
  348 : 1111111110101011;
  349 : 1111000100011011;
  350 : 1110101000110000;
  351 : 1111110001001100;
  352 : 1111111011011010;
  353 : 1111111111101110;
  354 : 1111111111110000;
  355 : 1111110111001010;
  356 : 1111111101010111;
  357 : 1111111011100011;
  358 : 1111111111110010;
  359 : 1111110010111111;
  360 : 1111111111111111;
  361 : 1111111111111001;
  362 : 1111111111101111;
  363 : 1111111111101110;
  364 : 1111111111111111;
  365 : 1111111111100011;
  366 : 1111111111100001;
  367 : 1111111101001010;
  368 : 1111100101011111;
  369 : 1111111000011110;
  370 : 1111111100011111;
  371 : 1111110111100101;
  372 : 1111111100100010;
  373 : 1111111110001100;
  374 : 1111101111111000;
  375 : 1111111010111101;
  376 : 1111001011011111;
  377 : 1110110010010010;
  378 : 1111000110001100;
  379 : 1111000111010001;
  380 : 1111110100000011;
  381 : 1111111011001110;
  382 : 1111111110111000;
  383 : 1111101110011110;
  384 : 1111110010000000;
  385 : 1111111111100111;
  386 : 1111110100010010;
  387 : 1111110010101101;
  388 : 1111111110001010;
  389 : 1111111111111010;
  390 : 1111111110111110;
  391 : 1111111111111101;
  392 : 1111111111100010;
  393 : 0000000000000000;
  394 : 1111111101111011;
  395 : 1111111101110100;
  396 : 1111101000111101;
  397 : 1111110001001110;
  398 : 1111111101010011;
  399 : 1111111111100110;
  400 : 1111111101000110;
  401 : 1111111000001010;
  402 : 1111101010110111;
  403 : 1111111110010000;
  404 : 1111000010111101;
  405 : 1110110110110111;
  406 : 1111100110010010;
  407 : 1111100111111001;
  408 : 1111110100110010;
  409 : 1111101011011101;
  410 : 1111111101110000;
  411 : 1111111010110011;
  412 : 1111111010101000;
  413 : 1111111001001110;
  414 : 1111110111000110;
  415 : 1111111111111001;
  416 : 1111111010010101;
  417 : 1111111110000110;
  418 : 1111111111000101;
  419 : 1111111110110010;
  420 : 1111111111111111;
  421 : 1111111111011110;
  422 : 1111111101100110;
  423 : 1111111110100101;
  424 : 1111110110001111;
  425 : 1111111100001111;
  426 : 1111111001110000;
  427 : 1111110011001110;
  428 : 1111111011101000;
  429 : 1111110110001001;
  430 : 1111111000100100;
  431 : 1111010011010000;
  432 : 1110011110101011;
  433 : 1111000100000110;
  434 : 1111101010001110;
  435 : 1111101111110110;
  436 : 1111011100101000;
  437 : 1111100101000110;
  438 : 1111110101101001;
  439 : 1111110011101010;
  440 : 1111101011001101;
  441 : 1111110010010011;
  442 : 1111111101101100;
  443 : 1111111110111101;
  444 : 1111111110001010;
  445 : 1111111111000000;
  446 : 1111111111110000;
  447 : 1111111111110110;
  448 : 1111111111111110;
  449 : 1111111111111110;
  450 : 1111111111100001;
  451 : 1111111111111010;
  452 : 1111111010101011;
  453 : 1111110001011101;
  454 : 1111110111110011;
  455 : 1111111000001001;
  456 : 1111111001110000;
  457 : 1111011100101011;
  458 : 1111101010101111;
  459 : 1110101010000001;
  460 : 1110111101100011;
  461 : 1111100110000111;
  462 : 1111110001001100;
  463 : 1111111111111001;
  464 : 1111111001100101;
  465 : 1111100110101010;
  466 : 1111100110101100;
  467 : 1111111101010011;
  468 : 1111110101110011;
  469 : 1111111000101000;
  470 : 1111111111011000;
  471 : 1111111101110101;
  472 : 1111111100011001;
  473 : 1111111010100101;
  474 : 1111111110010001;
  475 : 1111111111111101;
  476 : 1111111111101010;
  477 : 1111111111111000;
  478 : 1111111111000011;
  479 : 1111111000111010;
  480 : 1111111001100100;
  481 : 1111110100101001;
  482 : 1111101110011000;
  483 : 1111101000110000;
  484 : 1111101001100010;
  485 : 1111011010001100;
  486 : 1111011101100111;
  487 : 1111010110010010;
  488 : 1111100110000110;
  489 : 1111111111110001;
  490 : 1111111111100100;
  491 : 1111111100100010;
  492 : 1111101110000110;
  493 : 1111111110111001;
  494 : 1111111100010010;
  495 : 1111111110010101;
  496 : 1111111100011111;
  497 : 1111111010111111;
  498 : 1111111010010110;
  499 : 1111110000000010;
  500 : 1111111011111010;
  501 : 1111111010111000;
  502 : 1111111111111111;
  503 : 1111111111111000;
  504 : 1111111111101100;
  505 : 1111111111001001;
  506 : 1111111111001100;
  507 : 1111111000110100;
  508 : 1111110110001101;
  509 : 1111101111010000;
  510 : 1111100011111101;
  511 : 1111100101011001;
  512 : 1111101001111100;
  513 : 1111100010111101;
  514 : 1111100100110000;
  515 : 1111111110010100;
  516 : 1111110010000101;
  517 : 1111111111011110;
  518 : 1111111110100110;
  519 : 1111101111000001;
  520 : 1111100101101000;
  521 : 1111110011010011;
  522 : 1111110010010001;
  523 : 1111111011011011;
  524 : 1111111100000110;
  525 : 1111110100110111;
  526 : 1111111110100001;
  527 : 1111111010011100;
  528 : 1111111110100000;
  529 : 1111111110001110;
  530 : 1111111111100100;
  531 : 1111111111100111;
  532 : 1111111111011110;
  533 : 1111111111111011;
  534 : 1111111111110101;
  535 : 1111111011010100;
  536 : 1111111011101011;
  537 : 1111111110110101;
  538 : 1111101011011101;
  539 : 1111101001000100;
  540 : 1111101100010011;
  541 : 1111100011001111;
  542 : 1111111111110000;
  543 : 1111110100101101;
  544 : 1111101101100110;
  545 : 1111101111010101;
  546 : 1111111110100010;
  547 : 1111101011001100;
  548 : 1111111001011101;
  549 : 1111111110000101;
  550 : 1111111000000110;
  551 : 1111111000101110;
  552 : 1111111111011100;
  553 : 1111111100010101;
  554 : 1111111111011010;
  555 : 1111111011101100;
  556 : 1111111100000111;
  557 : 1111111111110100;
  558 : 1111111111100010;
  559 : 1111111111001010;
  560 : 1111111111111110;
  561 : 1111111111101001;
  562 : 1111111111111010;
  563 : 1111111101101011;
  564 : 1111111101111111;
  565 : 1111111000101101;
  566 : 1111110001010010;
  567 : 1111110010100011;
  568 : 1111111000101101;
  569 : 1111110010011110;
  570 : 1111111011000111;
  571 : 1111110010011011;
  572 : 1111111111000001;
  573 : 1111110010100001;
  574 : 1111111110001111;
  575 : 1111111110101111;
  576 : 1111111000110100;
  577 : 1111100110001101;
  578 : 1111100111110011;
  579 : 1111101101001011;
  580 : 1111110100011001;
  581 : 1111111011101000;
  582 : 1111111111111011;
  583 : 1111111110100110;
  584 : 1111111011101001;
  585 : 1111111000010111;
  586 : 1111111111111000;
  587 : 1111111111110111;
  588 : 1111111111111110;
  589 : 1111111111011011;
  590 : 1111111111101001;
  591 : 1111111011000111;
  592 : 1111111001101000;
  593 : 1111110110001001;
  594 : 1111111000100001;
  595 : 1111101111001101;
  596 : 1111111000011110;
  597 : 1111111111110110;
  598 : 1111110010010101;
  599 : 1111110110111100;
  600 : 1111111100110001;
  601 : 1111111100111110;
  602 : 1111110111111010;
  603 : 1111111011110110;
  604 : 1111111011000001;
  605 : 1111111111101000;
  606 : 1111111101101101;
  607 : 1111110110001100;
  608 : 1111111111101001;
  609 : 1111111111110111;
  610 : 1111111111001111;
  611 : 1111111001110100;
  612 : 1111111111111001;
  613 : 1111111111011100;
  614 : 1111111111110100;
  615 : 1111111111011010;
  616 : 1111111111111110;
  617 : 1111111111100011;
  618 : 1111111111011011;
  619 : 1111111011010101;
  620 : 1111111001110010;
  621 : 1111111110001000;
  622 : 1111111111100001;
  623 : 1111111100000101;
  624 : 1111110000101011;
  625 : 1111110100000111;
  626 : 1111111111100100;
  627 : 1111101101011011;
  628 : 1111101111110001;
  629 : 1111111111100101;
  630 : 1111111000110101;
  631 : 1111111001100000;
  632 : 1111110011000101;
  633 : 1111111011111111;
  634 : 1111110011000011;
  635 : 1111110110100111;
  636 : 1111111000111011;
  637 : 1111111000111100;
  638 : 1111111110000111;
  639 : 1111111110111010;
  640 : 1111111111111110;
  641 : 1111111111101010;
  642 : 1111111111100101;
  643 : 1111111111111001;
  644 : 1111111111111110;
  645 : 1111111111111010;
  646 : 1111111111111001;
  647 : 1111111011001110;
  648 : 1111111101010100;
  649 : 1111111100000101;
  650 : 1111111101110111;
  651 : 1111111001111101;
  652 : 1111111111011000;
  653 : 1111110100111001;
  654 : 1111111110001001;
  655 : 1111111111110011;
  656 : 1111111111000101;
  657 : 1111111000101001;
  658 : 1111111111011110;
  659 : 1111110000011110;
  660 : 1111111111100011;
  661 : 1111111110110011;
  662 : 1111111111001111;
  663 : 1111111110100001;
  664 : 1111110011111100;
  665 : 1111111110010110;
  666 : 1111111001001110;
  667 : 1111111010110111;
  668 : 1111111010101011;
  669 : 1111111111100101;
  670 : 1111111111110110;
  671 : 1111111110111000;
  672 : 1111111111101000;
  673 : 1111111111100110;
  674 : 1111111110011010;
  675 : 1111111110001101;
  676 : 1111111110100100;
  677 : 1111111010001101;
  678 : 1111111011001001;
  679 : 1111111111010010;
  680 : 1111111011001100;
  681 : 1111111111010111;
  682 : 1111110010000010;
  683 : 1111111111011011;
  684 : 1111111011110001;
  685 : 1111111001001001;
  686 : 1111101111101011;
  687 : 1111111111101010;
  688 : 1111111111000001;
  689 : 1111111101011000;
  690 : 1111111101000011;
  691 : 1111111100101110;
  692 : 1111111101101110;
  693 : 1111111111110110;
  694 : 1111111110000011;
  695 : 1111111000010110;
  696 : 1111111101110001;
  697 : 1111111111111011;
  698 : 1111111111011001;
  699 : 1111111111100100;
  700 : 1111111111110110;
  701 : 1111111111110111;
  702 : 1111111111100100;
  703 : 1111111111111111;
  704 : 1111111111111010;
  705 : 1111111110001011;
  706 : 1111111101010111;
  707 : 0000000000000000;
  708 : 1111111111001111;
  709 : 1111110000000011;
  710 : 1111111111110001;
  711 : 1111111101110000;
  712 : 1111100011011001;
  713 : 1111111110011101;
  714 : 1111111011000011;
  715 : 1111111101111011;
  716 : 1111111001010001;
  717 : 1111111111100101;
  718 : 1111111110110111;
  719 : 1111111001111110;
  720 : 1111111110001011;
  721 : 1111111001000111;
  722 : 1111111101010110;
  723 : 1111111101010101;
  724 : 1111111111111000;
  725 : 1111111110101100;
  726 : 1111111111100011;
  727 : 1111111111001000;
  728 : 1111111111110000;
  729 : 1111111111111001;
  730 : 1111111111111111;
  731 : 1111111111100011;
  732 : 1111110111010011;
  733 : 1111110110110100;
  734 : 1111111001000011;
  735 : 1111111011011111;
  736 : 1111111110010100;
  737 : 1111111101110111;
  738 : 1111111111111001;
  739 : 1111111110000101;
  740 : 1111111110000001;
  741 : 1111110100000110;
  742 : 1111111110000111;
  743 : 1111111111111111;
  744 : 1111111100100011;
  745 : 1111111100100010;
  746 : 1111110101101110;
  747 : 1111110111110100;
  748 : 1111111000000110;
  749 : 1111111111010100;
  750 : 1111111111110110;
  751 : 1111111111101100;
  752 : 1111111111111010;
  753 : 1111111111010010;
  754 : 1111111111010011;
  755 : 1111111111101010;
  756 : 1111111111111111;
  757 : 1111111111111111;
  758 : 1111111111001000;
  759 : 1111111111111100;
  760 : 1111111111110000;
  761 : 1111111111110010;
  762 : 1111111111000001;
  763 : 1111111111101101;
  764 : 1111111111111110;
  765 : 1111111111111111;
  766 : 1111111111111111;
  767 : 1111111101011111;
  768 : 1111111011111001;
  769 : 1111111111110000;
  770 : 1111111111110010;
  771 : 1111110101110110;
  772 : 1111110110010100;
  773 : 1111111111010101;
  774 : 1111111110000000;
  775 : 1111111110010110;
  776 : 1111111111110101;
  777 : 1111111110010100;
  778 : 1111111111101001;
  779 : 1111111111100011;
  780 : 1111111111111001;
  781 : 1111111111111111;
  782 : 1111111111100100;
  783 : 1111111111111000;
END;
