WIDTH=16;
DEPTH=784;
ADDRESS_RADIX=UNS;
DATA_RADIX=BIN;
CONTENT BEGIN
  0 : 1111111111101101;
  1 : 1111111111101000;
  2 : 1111111111110111;
  3 : 1111111111101001;
  4 : 1111111111111100;
  5 : 1111111111110101;
  6 : 1111111111101011;
  7 : 1111111111111100;
  8 : 1111111111001100;
  9 : 1111111111110000;
  10 : 1111111111111111;
  11 : 1111111111110010;
  12 : 1111111111100101;
  13 : 1111111111110001;
  14 : 1111111111100000;
  15 : 1111111111110001;
  16 : 1111111111110101;
  17 : 1111111111111100;
  18 : 0000000000000000;
  19 : 0000000000000000;
  20 : 1111111111111111;
  21 : 1111111111110010;
  22 : 1111111111100010;
  23 : 1111111111110100;
  24 : 1111111111111100;
  25 : 1111111111110111;
  26 : 1111111111111010;
  27 : 1111111111110001;
  28 : 1111111111101011;
  29 : 1111111111001111;
  30 : 1111111111011101;
  31 : 1111111111110100;
  32 : 1111111111001111;
  33 : 1111111111100000;
  34 : 1111111111111111;
  35 : 1111111111101111;
  36 : 1111111111101011;
  37 : 1111111111110101;
  38 : 1111111111111100;
  39 : 1111111111111110;
  40 : 1111111101011011;
  41 : 1111111111000101;
  42 : 1111111111110011;
  43 : 1111111111000110;
  44 : 1111111100111001;
  45 : 1111111110001111;
  46 : 1111111111111100;
  47 : 1111111111101111;
  48 : 1111111111101101;
  49 : 1111111111100010;
  50 : 1111111111111110;
  51 : 1111111111111011;
  52 : 1111111111111000;
  53 : 1111111111110110;
  54 : 1111111111111100;
  55 : 1111111111101011;
  56 : 1111111110110100;
  57 : 0000000000000000;
  58 : 0000000000000000;
  59 : 1111111111111001;
  60 : 1111111111100010;
  61 : 1111111111111100;
  62 : 1111111111111111;
  63 : 1111111111011010;
  64 : 1111111110001101;
  65 : 1111111100011100;
  66 : 1111111101110011;
  67 : 1111111101001011;
  68 : 1111111101000101;
  69 : 1111111110000100;
  70 : 1111111101011110;
  71 : 1111111100111001;
  72 : 1111111101100100;
  73 : 1111111100000100;
  74 : 1111111111111100;
  75 : 1111111111100100;
  76 : 1111111111100000;
  77 : 1111111111010111;
  78 : 1111111111010011;
  79 : 1111111111111000;
  80 : 1111111111010111;
  81 : 1111111111010001;
  82 : 1111111111010100;
  83 : 1111111111011101;
  84 : 1111111111100011;
  85 : 1111111111100010;
  86 : 1111111111010100;
  87 : 1111111111010010;
  88 : 1111111111111100;
  89 : 1111111101110101;
  90 : 1111111111110000;
  91 : 1111111110000110;
  92 : 1111111110011010;
  93 : 1111111111100100;
  94 : 1111111100000000;
  95 : 1111111111000111;
  96 : 1111111101100100;
  97 : 1111111111011000;
  98 : 1111111111000100;
  99 : 1111111110000101;
  100 : 1111111100000100;
  101 : 1111110101100010;
  102 : 1111111110111100;
  103 : 1111111110000000;
  104 : 1111111111110101;
  105 : 1111111100111000;
  106 : 1111111110000011;
  107 : 1111111111110110;
  108 : 1111111111000010;
  109 : 1111111111101111;
  110 : 1111111111100100;
  111 : 1111111111101001;
  112 : 1111111111110110;
  113 : 1111111111111100;
  114 : 1111111111110011;
  115 : 1111111110011100;
  116 : 1111111110111111;
  117 : 1111111101100010;
  118 : 1111111101000011;
  119 : 1111111101000001;
  120 : 1111111011110101;
  121 : 1111111111111111;
  122 : 1111111110101000;
  123 : 1111110010011100;
  124 : 1111111100101110;
  125 : 1111111110111100;
  126 : 1111111111000101;
  127 : 1111111000001011;
  128 : 1111111100011111;
  129 : 1111111111100101;
  130 : 1111111111010110;
  131 : 1111111010111111;
  132 : 1111111011110001;
  133 : 1111111110100100;
  134 : 1111111110000010;
  135 : 1111111000000001;
  136 : 1111111000110100;
  137 : 1111111101001110;
  138 : 1111111111001001;
  139 : 1111111111111000;
  140 : 1111111111111110;
  141 : 1111111111000110;
  142 : 1111111111111010;
  143 : 1111111101000001;
  144 : 1111111111111110;
  145 : 1111111101010010;
  146 : 1111110111111111;
  147 : 1111110011111101;
  148 : 1111111011000000;
  149 : 1111110100001100;
  150 : 1111111010110000;
  151 : 1111111110000010;
  152 : 1111110100110001;
  153 : 1111111111010110;
  154 : 1111111110101001;
  155 : 1111111011000011;
  156 : 1111110001001111;
  157 : 1111110000110010;
  158 : 1111110001001110;
  159 : 1111111110010110;
  160 : 1111111010110111;
  161 : 1111110110100010;
  162 : 1111111000100111;
  163 : 1111110110011001;
  164 : 1111111000011000;
  165 : 1111111011010011;
  166 : 1111111111111111;
  167 : 1111111111100010;
  168 : 1111111111111111;
  169 : 1111111111101110;
  170 : 1111111111110101;
  171 : 1111111011111011;
  172 : 1111111101110110;
  173 : 1111110010110000;
  174 : 1111110010000101;
  175 : 1111110110011101;
  176 : 1111101010010000;
  177 : 1111100110100000;
  178 : 1111111010110101;
  179 : 1111111000010111;
  180 : 1111111111110010;
  181 : 1111110011011100;
  182 : 1111110011001101;
  183 : 1111110101011101;
  184 : 1111110101011011;
  185 : 1111101101101001;
  186 : 1111100110110000;
  187 : 1111010101100111;
  188 : 1111010100101111;
  189 : 1111110110011010;
  190 : 1111110110101111;
  191 : 1111110000100110;
  192 : 1111110110010011;
  193 : 1111111011011101;
  194 : 1111111111111111;
  195 : 1111111111110010;
  196 : 1111111111111011;
  197 : 1111111111110101;
  198 : 1111111111100111;
  199 : 1111111010111010;
  200 : 1111111100011011;
  201 : 1111110101011011;
  202 : 1111111001110010;
  203 : 1111111011110001;
  204 : 1111101011011000;
  205 : 1111011010101110;
  206 : 1111110000111000;
  207 : 1111111110011010;
  208 : 1111110111110001;
  209 : 1111111011000001;
  210 : 1111100001100110;
  211 : 1111111101001000;
  212 : 1111111111110011;
  213 : 1111110111000010;
  214 : 1111100111100101;
  215 : 1111010001000111;
  216 : 1111101110001010;
  217 : 1111100101010110;
  218 : 1111111000100010;
  219 : 1111110110100110;
  220 : 1111111110000111;
  221 : 1111111110011001;
  222 : 1111111111100001;
  223 : 1111111111101010;
  224 : 1111111110111101;
  225 : 1111111111100101;
  226 : 1111111111100110;
  227 : 1111111001001000;
  228 : 1111110000101010;
  229 : 1111110101011001;
  230 : 1111111010011000;
  231 : 1111111101111100;
  232 : 1111110000100100;
  233 : 1111100010110000;
  234 : 1111111111111111;
  235 : 1111101110000110;
  236 : 1111100000001010;
  237 : 1111111000111100;
  238 : 1111111110000100;
  239 : 1111100000110000;
  240 : 1111100111000101;
  241 : 1111101011100101;
  242 : 1111100100101111;
  243 : 1111111010010100;
  244 : 1111110000100000;
  245 : 1111100111010011;
  246 : 1111111000010010;
  247 : 1111111100101100;
  248 : 1111111100110110;
  249 : 1111111111000001;
  250 : 1111111111111100;
  251 : 1111111110111111;
  252 : 1111111111100000;
  253 : 1111111111110011;
  254 : 1111111111111111;
  255 : 1111111001101111;
  256 : 1111110001110101;
  257 : 1111111010011010;
  258 : 1111101100100011;
  259 : 1111111011101111;
  260 : 1111101110001011;
  261 : 1111101010100100;
  262 : 1111101111100110;
  263 : 1111100110110010;
  264 : 1111110111011101;
  265 : 1111111100111101;
  266 : 1111111011001101;
  267 : 1111111001101111;
  268 : 1111011100111011;
  269 : 1111110100111011;
  270 : 1111101010101101;
  271 : 1111110111010111;
  272 : 1111111001101111;
  273 : 1111110010000000;
  274 : 1111111100111010;
  275 : 1111111111110111;
  276 : 1111111001010011;
  277 : 1111110110111100;
  278 : 1111111100111101;
  279 : 1111111111111110;
  280 : 1111111111110000;
  281 : 1111111111110001;
  282 : 1111111101101011;
  283 : 1111111010101010;
  284 : 1111111101010011;
  285 : 1111111111111100;
  286 : 1111111000100010;
  287 : 1111110111110111;
  288 : 1111110111010100;
  289 : 1111110001010110;
  290 : 1111110011101101;
  291 : 1111111011101101;
  292 : 1111111100001001;
  293 : 1111111100010010;
  294 : 1111111111100111;
  295 : 1111111010011010;
  296 : 1111100101101010;
  297 : 1111110011100111;
  298 : 1111101110010101;
  299 : 1111111000001000;
  300 : 1111111111100111;
  301 : 1111111101111000;
  302 : 1111111111100001;
  303 : 1111110101010011;
  304 : 1111110011100110;
  305 : 1111110110101000;
  306 : 1111111111011101;
  307 : 1111111111111000;
  308 : 1111111111000111;
  309 : 1111111111001011;
  310 : 1111111101011000;
  311 : 1111111100101000;
  312 : 1111111100111100;
  313 : 1111111111111111;
  314 : 1111111001101111;
  315 : 1111111111100001;
  316 : 1111111001011011;
  317 : 1111111101001111;
  318 : 1111111000011000;
  319 : 1111110100000010;
  320 : 1111111111101110;
  321 : 1111101100111101;
  322 : 1111100110001000;
  323 : 1111100100011111;
  324 : 1111101101111110;
  325 : 1111100100101000;
  326 : 1111110001010001;
  327 : 1111111011110101;
  328 : 1111110110111111;
  329 : 1111111111101111;
  330 : 1111111111000100;
  331 : 1111110001101010;
  332 : 1111100100111001;
  333 : 1111111101011010;
  334 : 1111111011101100;
  335 : 1111111111011100;
  336 : 1111111111101111;
  337 : 1111111111000100;
  338 : 1111111101110100;
  339 : 1111111101010000;
  340 : 1111110100000011;
  341 : 1111111001110010;
  342 : 1111101101001100;
  343 : 1111111001000010;
  344 : 1111110110010111;
  345 : 1111111010011111;
  346 : 1111111111000111;
  347 : 1111111010000001;
  348 : 1111111011000100;
  349 : 1111110101111111;
  350 : 1111111000100010;
  351 : 1111110001011101;
  352 : 1111111100001010;
  353 : 1111100010011011;
  354 : 1111111000000001;
  355 : 1111111001110011;
  356 : 1111101000101110;
  357 : 1111111110010010;
  358 : 1111111110011001;
  359 : 1111101000011111;
  360 : 1111110011100100;
  361 : 1111111110011010;
  362 : 1111111101001110;
  363 : 1111111111111110;
  364 : 1111111111010100;
  365 : 1111111111000111;
  366 : 1111111110111100;
  367 : 1111111100110111;
  368 : 1111101111111101;
  369 : 1111101111111111;
  370 : 1111111101110110;
  371 : 1111110111111010;
  372 : 1111111110110110;
  373 : 1111111110000000;
  374 : 1111111000111010;
  375 : 1111111100110010;
  376 : 1111110011000110;
  377 : 1111111111100110;
  378 : 1111111001010010;
  379 : 1111110111000110;
  380 : 1111101111100101;
  381 : 1111111001000101;
  382 : 1111111001000010;
  383 : 1111110001010110;
  384 : 1111110010001010;
  385 : 1111110111100110;
  386 : 1111100111100000;
  387 : 1111111001101111;
  388 : 1111111000100111;
  389 : 1111111100110000;
  390 : 1111111100010110;
  391 : 1111111100010100;
  392 : 1111111111111010;
  393 : 1111111110011011;
  394 : 1111111101110010;
  395 : 1111111110100011;
  396 : 1111111011000101;
  397 : 1111110011100100;
  398 : 1111111000001100;
  399 : 1111111000101001;
  400 : 1111111111110101;
  401 : 1111111110100111;
  402 : 1111110010011000;
  403 : 1111110111101001;
  404 : 1111110001100011;
  405 : 1111111101110110;
  406 : 1111111110101001;
  407 : 1111111100011000;
  408 : 1111111001011000;
  409 : 1111100000111000;
  410 : 1111111011101101;
  411 : 1111100111100101;
  412 : 1111111010101001;
  413 : 1111111001010000;
  414 : 1111111011000000;
  415 : 1111111010110000;
  416 : 1111111100011100;
  417 : 1111111000100111;
  418 : 1111111101011010;
  419 : 1111111111111010;
  420 : 1111111111111000;
  421 : 1111111100111100;
  422 : 1111111110110100;
  423 : 1111111101011100;
  424 : 1111111011000110;
  425 : 1111110000001010;
  426 : 1111111011000000;
  427 : 1111111101011101;
  428 : 1111111110100011;
  429 : 1111111110001001;
  430 : 1111111110010100;
  431 : 1111111111101010;
  432 : 1111110001111101;
  433 : 1111111110101011;
  434 : 1111110101011010;
  435 : 1111111100110100;
  436 : 1111111011000111;
  437 : 1111110101000000;
  438 : 1111110010110100;
  439 : 1111111010001100;
  440 : 1111110101011001;
  441 : 1111111111001111;
  442 : 1111111001000101;
  443 : 1111110011000011;
  444 : 1111111001011111;
  445 : 1111111110001000;
  446 : 1111111111001100;
  447 : 1111111111101010;
  448 : 1111111111111111;
  449 : 1111111110100001;
  450 : 1111111011110011;
  451 : 1111111110110100;
  452 : 1111111101110001;
  453 : 1111111111110111;
  454 : 1111110000011000;
  455 : 1111110111010001;
  456 : 1111111010100010;
  457 : 1111100100111101;
  458 : 1111111100111100;
  459 : 1111111101011000;
  460 : 1111110110000100;
  461 : 1111110100010001;
  462 : 1111111101001001;
  463 : 1111111010001011;
  464 : 1111111111100010;
  465 : 1111101011011011;
  466 : 1111111101001000;
  467 : 1111111000111010;
  468 : 1111111111110100;
  469 : 1111110011100100;
  470 : 1111111101101001;
  471 : 1111111101010110;
  472 : 1111111110000011;
  473 : 1111110111100001;
  474 : 1111111001100100;
  475 : 1111111111100111;
  476 : 1111111111101010;
  477 : 1111111110110111;
  478 : 1111111011010001;
  479 : 1111111011111101;
  480 : 1111111010101111;
  481 : 1111111010100010;
  482 : 1111111111010001;
  483 : 1111111001100011;
  484 : 1111110110011101;
  485 : 1111111100011101;
  486 : 1111111000000001;
  487 : 1111101100010111;
  488 : 1111110110001111;
  489 : 1111111010000011;
  490 : 1111111010100110;
  491 : 1111111100101001;
  492 : 1111111111010001;
  493 : 1111111110001101;
  494 : 1111110100000101;
  495 : 1111111110110101;
  496 : 1111111000011101;
  497 : 1111111111101000;
  498 : 1111111110111101;
  499 : 1111111110111011;
  500 : 1111111111111100;
  501 : 1111110000110010;
  502 : 1111111111110001;
  503 : 1111111110110111;
  504 : 1111111111101000;
  505 : 1111111111001010;
  506 : 1111111101000011;
  507 : 1111111110101000;
  508 : 1111111011111101;
  509 : 1111111000110001;
  510 : 1111111101010110;
  511 : 1111111111010011;
  512 : 1111111101101011;
  513 : 1111111111110110;
  514 : 1111110010011010;
  515 : 1111111001110100;
  516 : 1111110101111000;
  517 : 1111100000111111;
  518 : 1111100011101110;
  519 : 1111111011110110;
  520 : 1111111111110010;
  521 : 1111110111010111;
  522 : 1111111001110010;
  523 : 1111100000101101;
  524 : 1111110000011000;
  525 : 1111111101000011;
  526 : 1111111100001111;
  527 : 1111110011010101;
  528 : 1111110100010001;
  529 : 1111111111000111;
  530 : 1111111111001000;
  531 : 1111111110110000;
  532 : 1111111111111010;
  533 : 1111111111111110;
  534 : 1111111110101010;
  535 : 1111111111110001;
  536 : 1111111111000000;
  537 : 1111111101101110;
  538 : 1111111011101111;
  539 : 1111111111110110;
  540 : 1111111000100000;
  541 : 1111111110011110;
  542 : 1111101001010111;
  543 : 1111111011110011;
  544 : 1111111110111100;
  545 : 1111110101110101;
  546 : 1111111110000010;
  547 : 1111101011111010;
  548 : 1111111010001111;
  549 : 1111111010010010;
  550 : 1111111011111100;
  551 : 1111111101000010;
  552 : 1111110100110101;
  553 : 1111111100111010;
  554 : 1111110110010011;
  555 : 1111110110110011;
  556 : 1111110000001100;
  557 : 1111111011101011;
  558 : 1111111110011011;
  559 : 1111111111100001;
  560 : 1111111111100100;
  561 : 1111111111110000;
  562 : 1111111111011111;
  563 : 1111111111000010;
  564 : 1111111110100101;
  565 : 1111111111110010;
  566 : 1111111101001111;
  567 : 1111111001110000;
  568 : 1111111111111001;
  569 : 1111110010101110;
  570 : 1111101011100001;
  571 : 1111111000001010;
  572 : 1111110100101001;
  573 : 1111101000000110;
  574 : 1111110110000100;
  575 : 1111111100110001;
  576 : 1111111100111000;
  577 : 1111111011000001;
  578 : 1111111001111111;
  579 : 1111111100100011;
  580 : 1111100011110011;
  581 : 1111100001000101;
  582 : 1111110011101110;
  583 : 1111111111000001;
  584 : 1111111010001111;
  585 : 1111111100010101;
  586 : 1111111110101011;
  587 : 1111111111000011;
  588 : 1111111111111110;
  589 : 1111111111111100;
  590 : 1111111111111011;
  591 : 1111111111101100;
  592 : 1111111011100111;
  593 : 1111111101011111;
  594 : 1111111011000101;
  595 : 1111111001001011;
  596 : 1111111011000011;
  597 : 1111110001011011;
  598 : 1111111001111110;
  599 : 1111110000111001;
  600 : 1111110100010010;
  601 : 1111110011010010;
  602 : 1111111000110000;
  603 : 1111101110111100;
  604 : 1111111011010001;
  605 : 1111110010011100;
  606 : 1111100111000001;
  607 : 1111111000100010;
  608 : 1111111101101010;
  609 : 1111110100000111;
  610 : 1111111011001111;
  611 : 1111110010010011;
  612 : 1111111111001010;
  613 : 1111111111111110;
  614 : 1111111111100001;
  615 : 1111111111000100;
  616 : 1111111111111100;
  617 : 1111111111111110;
  618 : 1111111110010101;
  619 : 1111111110111111;
  620 : 1111111101101110;
  621 : 1111111110001001;
  622 : 1111111000001000;
  623 : 1111111111000101;
  624 : 1111111110101010;
  625 : 1111111111010001;
  626 : 1111110110100001;
  627 : 1111110000001010;
  628 : 1111111000000010;
  629 : 1111110111000010;
  630 : 1111100101110010;
  631 : 1111101111101001;
  632 : 1111111101000000;
  633 : 1111110001001011;
  634 : 1111111100100011;
  635 : 1111110001110011;
  636 : 1111111100101100;
  637 : 1111111101111011;
  638 : 1111110010110001;
  639 : 1111111011110001;
  640 : 1111111100111001;
  641 : 1111111111011100;
  642 : 0000000000000000;
  643 : 0000000000000000;
  644 : 1111111111111111;
  645 : 1111111111110100;
  646 : 1111111111100010;
  647 : 1111111111110111;
  648 : 1111111110100100;
  649 : 1111111100001011;
  650 : 1111111011111101;
  651 : 1111111001101110;
  652 : 1111110010010010;
  653 : 1111111101001011;
  654 : 1111111010100010;
  655 : 1111111110010110;
  656 : 1111110100111011;
  657 : 1111101000010100;
  658 : 1111100110110101;
  659 : 1111100010111100;
  660 : 1111100001001001;
  661 : 1111011010101010;
  662 : 1111101011000000;
  663 : 1111101111001011;
  664 : 1111111111010010;
  665 : 1111111010110011;
  666 : 1111110000111110;
  667 : 1111111011110101;
  668 : 1111111010100111;
  669 : 1111111111111001;
  670 : 1111111111001101;
  671 : 1111111111111111;
  672 : 1111111111111100;
  673 : 1111111111110000;
  674 : 1111111111101111;
  675 : 1111111111100011;
  676 : 1111111111111011;
  677 : 1111111111001001;
  678 : 1111111110100110;
  679 : 1111111000011111;
  680 : 1111111111000101;
  681 : 1111111011011100;
  682 : 1111111110010011;
  683 : 1111111001010111;
  684 : 1111101001111000;
  685 : 1111010101100010;
  686 : 1111100111100111;
  687 : 1111110001111100;
  688 : 1111011110110000;
  689 : 1111010110010111;
  690 : 1111011101001101;
  691 : 1111101110001011;
  692 : 1111100110101110;
  693 : 1111110100011110;
  694 : 1111110001111000;
  695 : 1111110011100110;
  696 : 1111111111100011;
  697 : 1111111111010010;
  698 : 1111111111111100;
  699 : 1111111111110000;
  700 : 1111111111101101;
  701 : 1111111111100010;
  702 : 1111111111001001;
  703 : 1111111111111101;
  704 : 1111111110101001;
  705 : 1111111100110010;
  706 : 1111111100111111;
  707 : 1111111011001110;
  708 : 1111111100011011;
  709 : 1111111011010101;
  710 : 1111111100100001;
  711 : 1111111000011111;
  712 : 1111100101110111;
  713 : 1111011111011000;
  714 : 1111100100010000;
  715 : 1111110100010101;
  716 : 1111010010101100;
  717 : 1111011101111101;
  718 : 1111011010001010;
  719 : 1111011000010000;
  720 : 1111100111101111;
  721 : 1111110101000001;
  722 : 1111111110010101;
  723 : 1111111100100010;
  724 : 1111111111000001;
  725 : 1111111111010110;
  726 : 1111111111010000;
  727 : 1111111111111001;
  728 : 1111111111001000;
  729 : 1111111111100010;
  730 : 1111111111011000;
  731 : 1111111111111010;
  732 : 1111111110110111;
  733 : 1111111101101001;
  734 : 1111111101001001;
  735 : 1111111010111011;
  736 : 1111111011100010;
  737 : 1111110101000001;
  738 : 1111111000100010;
  739 : 1111111001100001;
  740 : 1111110110011011;
  741 : 1111110110001101;
  742 : 1111110011110000;
  743 : 1111111011111010;
  744 : 1111111000100011;
  745 : 1111110111101110;
  746 : 1111110101100111;
  747 : 1111110111111010;
  748 : 1111110111111011;
  749 : 1111111101000011;
  750 : 1111111110100011;
  751 : 1111111111100100;
  752 : 1111111111011001;
  753 : 1111111111110001;
  754 : 1111111111110110;
  755 : 1111111111111101;
  756 : 1111111111100000;
  757 : 1111111111110000;
  758 : 1111111111110001;
  759 : 1111111111100100;
  760 : 1111111111111101;
  761 : 1111111111111101;
  762 : 1111111111111111;
  763 : 1111111111000101;
  764 : 1111111111010000;
  765 : 0000000000000000;
  766 : 1111111110010110;
  767 : 1111111111111000;
  768 : 1111111110010010;
  769 : 1111111111001001;
  770 : 1111111110010000;
  771 : 1111111111001111;
  772 : 1111111111110010;
  773 : 1111111111001100;
  774 : 1111111101010100;
  775 : 1111111111111101;
  776 : 1111111111111100;
  777 : 1111111111100110;
  778 : 1111111111100011;
  779 : 1111111111100001;
  780 : 1111111111111111;
  781 : 1111111111111111;
  782 : 1111111111111101;
  783 : 1111111111111010;
END;
