WIDTH=16;
DEPTH=784;
ADDRESS_RADIX=UNS;
DATA_RADIX=BIN;
CONTENT BEGIN
  0 : 1111111111111101;
  1 : 1111111111101010;
  2 : 1111111111011111;
  3 : 1111111111101101;
  4 : 1111111111101110;
  5 : 1111111111110101;
  6 : 1111111111110011;
  7 : 1111111111111011;
  8 : 1111111111111100;
  9 : 1111111111100101;
  10 : 1111111111100000;
  11 : 1111111111101111;
  12 : 1111111111111101;
  13 : 1111111111100001;
  14 : 1111111111111110;
  15 : 1111111111010100;
  16 : 1111111111111111;
  17 : 1111111111111110;
  18 : 1111111111000101;
  19 : 1111111111111101;
  20 : 1111111111001000;
  21 : 1111111111100110;
  22 : 1111111111100001;
  23 : 1111111111010100;
  24 : 1111111111110111;
  25 : 1111111111111110;
  26 : 0000000000000000;
  27 : 1111111111100000;
  28 : 1111111111111100;
  29 : 1111111110111100;
  30 : 1111111111011000;
  31 : 1111111111100110;
  32 : 1111111111101001;
  33 : 1111111111011010;
  34 : 1111111111110000;
  35 : 1111111111111111;
  36 : 1111111111110011;
  37 : 1111111111111010;
  38 : 0000000000000000;
  39 : 1111111111000110;
  40 : 1111111111010010;
  41 : 1111111110100100;
  42 : 1111111111001010;
  43 : 1111111111101100;
  44 : 1111111111111111;
  45 : 1111111111010001;
  46 : 1111111111110011;
  47 : 1111111111000111;
  48 : 1111111111010111;
  49 : 1111111110110001;
  50 : 1111111111001101;
  51 : 1111111110101001;
  52 : 1111111111101000;
  53 : 1111111111110000;
  54 : 1111111111011000;
  55 : 1111111111011001;
  56 : 1111111111100101;
  57 : 1111111111101111;
  58 : 1111111111111100;
  59 : 1111111111110111;
  60 : 1111111111111011;
  61 : 1111111111111111;
  62 : 1111111111110001;
  63 : 1111111110101100;
  64 : 1111111111110100;
  65 : 1111111110010010;
  66 : 1111111111110110;
  67 : 1111111111111100;
  68 : 1111111111110000;
  69 : 0000000000000000;
  70 : 1111111010010111;
  71 : 1111110011000110;
  72 : 1111111011001011;
  73 : 1111110000111001;
  74 : 1111110001000100;
  75 : 1111110100010110;
  76 : 1111111010100011;
  77 : 1111110111100111;
  78 : 1111111011110000;
  79 : 1111111111000000;
  80 : 1111111110100000;
  81 : 1111111110001100;
  82 : 1111111111110100;
  83 : 1111111111111001;
  84 : 1111111111001001;
  85 : 1111111111011110;
  86 : 1111111111111111;
  87 : 1111111111111001;
  88 : 1111111111101010;
  89 : 1111111111110101;
  90 : 1111111111111101;
  91 : 1111111111110100;
  92 : 1111111100110101;
  93 : 1111111101010110;
  94 : 1111111110010011;
  95 : 1111111111000010;
  96 : 1111110010100111;
  97 : 1111111111000011;
  98 : 1111111110010100;
  99 : 1111110101011101;
  100 : 1111111011101111;
  101 : 1111111101100000;
  102 : 1111110100001101;
  103 : 1111110000110011;
  104 : 1111110111000001;
  105 : 1111110011110101;
  106 : 1111110101000011;
  107 : 1111110100011001;
  108 : 1111111010110100;
  109 : 1111111110000011;
  110 : 1111111111100011;
  111 : 1111111111111101;
  112 : 1111111111110001;
  113 : 1111111111011100;
  114 : 1111111111101001;
  115 : 1111111111100101;
  116 : 1111111111100111;
  117 : 1111111111110111;
  118 : 1111111111110000;
  119 : 1111111001011101;
  120 : 1111111000010001;
  121 : 1111110101000001;
  122 : 1111111011011000;
  123 : 1111100010100001;
  124 : 1111111100000010;
  125 : 1111110010110101;
  126 : 1111111000001010;
  127 : 1111100011101000;
  128 : 1111111100010101;
  129 : 1111110111000100;
  130 : 1111111101110010;
  131 : 1111111001010000;
  132 : 1111111000101100;
  133 : 1111110011111011;
  134 : 1111110100001011;
  135 : 1111100000101101;
  136 : 1111110010000110;
  137 : 1111111111011000;
  138 : 1111111111101110;
  139 : 1111111111010010;
  140 : 1111111111111001;
  141 : 1111111111111100;
  142 : 1111111111110110;
  143 : 1111111111110101;
  144 : 1111111111110001;
  145 : 1111111110010010;
  146 : 1111111111000111;
  147 : 1111111100111101;
  148 : 1111111011101111;
  149 : 1111111111001110;
  150 : 1111101111101101;
  151 : 1111110110111101;
  152 : 1111111110011101;
  153 : 1111111111111010;
  154 : 1111110100000101;
  155 : 1111101100000011;
  156 : 1111111110100011;
  157 : 1111111111111011;
  158 : 1111111110001110;
  159 : 1111111110001010;
  160 : 1111110100101000;
  161 : 1111110110010111;
  162 : 1111111000001001;
  163 : 1111100101001111;
  164 : 1111101011101010;
  165 : 1111111101110001;
  166 : 1111111101101001;
  167 : 1111111110001010;
  168 : 1111111111111110;
  169 : 1111111111111110;
  170 : 1111111111111011;
  171 : 1111111111111110;
  172 : 1111111111110000;
  173 : 1111111101100100;
  174 : 1111111001001011;
  175 : 1111111101001101;
  176 : 1111101001111110;
  177 : 1111111110001000;
  178 : 1111110010101000;
  179 : 1111111111111011;
  180 : 1111101110011100;
  181 : 1111111101000111;
  182 : 1111100101011010;
  183 : 1111011100011000;
  184 : 1111111000111101;
  185 : 1111111101110101;
  186 : 1111110000101100;
  187 : 1111111110011110;
  188 : 1111110110001101;
  189 : 1111111101001100;
  190 : 1111111110100000;
  191 : 1111100011111110;
  192 : 1111101011110010;
  193 : 1111111111001100;
  194 : 1111111111011111;
  195 : 1111111111001100;
  196 : 1111111111111000;
  197 : 1111111110000100;
  198 : 1111111111001110;
  199 : 1111111110111001;
  200 : 1111111110011010;
  201 : 1111111100000111;
  202 : 1111111001000100;
  203 : 1111110111010011;
  204 : 1111100111011000;
  205 : 1111110111001011;
  206 : 1111111001010001;
  207 : 1111111111011000;
  208 : 1111111010101101;
  209 : 1111111110100101;
  210 : 1111110011101010;
  211 : 1111111010101110;
  212 : 1111110110000001;
  213 : 1111111110000000;
  214 : 1111110101001001;
  215 : 1111111001010110;
  216 : 1111110110001110;
  217 : 1111110000011001;
  218 : 1111111101100111;
  219 : 1111110100011110;
  220 : 1111110010001101;
  221 : 1111111100010101;
  222 : 1111111101101110;
  223 : 1111111111110101;
  224 : 1111111111110010;
  225 : 1111111111110010;
  226 : 1111111111101110;
  227 : 1111111110010000;
  228 : 1111111111101011;
  229 : 1111111100111110;
  230 : 1111111111110010;
  231 : 1111111001010010;
  232 : 1111111101001100;
  233 : 1111111111001111;
  234 : 1111101111011010;
  235 : 1111100010101111;
  236 : 1111100101011010;
  237 : 1111101001111100;
  238 : 1111111111001101;
  239 : 1111111000001001;
  240 : 1111111011100010;
  241 : 1111110001110111;
  242 : 1111111010110001;
  243 : 1111111100101100;
  244 : 1111110111100011;
  245 : 1111111001001001;
  246 : 1111110111001011;
  247 : 1111101111110111;
  248 : 1111100100111010;
  249 : 1111110011011111;
  250 : 1111111111111011;
  251 : 1111111111111100;
  252 : 1111111111100111;
  253 : 1111111111111011;
  254 : 1111111111111110;
  255 : 1111111000001111;
  256 : 1111111100101100;
  257 : 1111111110011110;
  258 : 1111111111100011;
  259 : 1111111111101000;
  260 : 1111111100111111;
  261 : 1111101110110011;
  262 : 1111110110011011;
  263 : 1111101011110000;
  264 : 1111110010001100;
  265 : 1111110010001100;
  266 : 1111101110011010;
  267 : 1111110101000010;
  268 : 1111110110111001;
  269 : 1111100000010001;
  270 : 1111110011110011;
  271 : 1111110100010100;
  272 : 1111111101000101;
  273 : 1111111110010111;
  274 : 1111111110001110;
  275 : 1111110100100001;
  276 : 1111110010111011;
  277 : 1111111110010010;
  278 : 1111111111110101;
  279 : 1111111110001101;
  280 : 1111111111110110;
  281 : 1111111111111001;
  282 : 1111111111101010;
  283 : 1111111110011101;
  284 : 1111111010011011;
  285 : 1111111101001100;
  286 : 1111111100000110;
  287 : 1111111011000010;
  288 : 1111110011010010;
  289 : 1111100100100001;
  290 : 1111110000010110;
  291 : 1111111100001011;
  292 : 1111110011100110;
  293 : 1111101001000000;
  294 : 1111011001111001;
  295 : 1111110111111100;
  296 : 1111110000111100;
  297 : 1111100101111010;
  298 : 1111100001110101;
  299 : 1111111010000100;
  300 : 1111111100110110;
  301 : 1111111110010100;
  302 : 1111111010110111;
  303 : 1111111101010101;
  304 : 1111111111111011;
  305 : 1111111100111010;
  306 : 1111111111010110;
  307 : 1111111111010001;
  308 : 1111111111010000;
  309 : 1111111111010000;
  310 : 1111111111001011;
  311 : 1111111000100010;
  312 : 1111111010111101;
  313 : 1111111110100011;
  314 : 1111111100001000;
  315 : 1111110010001001;
  316 : 1111111011010100;
  317 : 1111111001101001;
  318 : 1111111011010001;
  319 : 1111111110110010;
  320 : 1111100000011100;
  321 : 1111111111010110;
  322 : 1111111111010111;
  323 : 1111110010111100;
  324 : 1111101001111101;
  325 : 1111110101101010;
  326 : 1111110001100100;
  327 : 1111111111011011;
  328 : 1111111111101010;
  329 : 1111111110011100;
  330 : 1111111100100111;
  331 : 1111111110101101;
  332 : 1111111000101100;
  333 : 1111111111110000;
  334 : 1111111100101001;
  335 : 1111111111000001;
  336 : 1111111111111111;
  337 : 1111111111101000;
  338 : 1111111111110001;
  339 : 1111111110100000;
  340 : 1111111111110001;
  341 : 1111110000000010;
  342 : 1111111100001001;
  343 : 1111111100111111;
  344 : 1111110000010000;
  345 : 1111110100000001;
  346 : 1111111110101100;
  347 : 1111001111101010;
  348 : 1111001000111011;
  349 : 1111101100011100;
  350 : 1111100111111100;
  351 : 1111110001000101;
  352 : 1111111011111011;
  353 : 1111111000011101;
  354 : 1111111110110100;
  355 : 1111110010011111;
  356 : 1111110100011010;
  357 : 1111111111100111;
  358 : 1111110111111001;
  359 : 1111111100110110;
  360 : 1111110100001011;
  361 : 1111110111110001;
  362 : 1111111000010101;
  363 : 1111111111100000;
  364 : 1111111111011111;
  365 : 1111111111111110;
  366 : 1111111110111101;
  367 : 1111111100010100;
  368 : 1111111011000000;
  369 : 1111110000101000;
  370 : 1111110001001000;
  371 : 1111111111111010;
  372 : 1111110011011101;
  373 : 1111111100011111;
  374 : 1111111110111111;
  375 : 1111111111110000;
  376 : 1111101000001100;
  377 : 1111101111111001;
  378 : 1111111111111111;
  379 : 1111100011110011;
  380 : 1111110001010000;
  381 : 1111111111111101;
  382 : 1111110111100100;
  383 : 1111110110111010;
  384 : 1111101101001110;
  385 : 1111111110101001;
  386 : 1111111110111101;
  387 : 1111111110010111;
  388 : 1111100101011111;
  389 : 1111110111000001;
  390 : 1111111100111001;
  391 : 1111111111110111;
  392 : 1111111111110000;
  393 : 1111111111111111;
  394 : 1111111111000110;
  395 : 1111111111110001;
  396 : 1111111000101100;
  397 : 1111111011101101;
  398 : 1111111010100110;
  399 : 1111111000001010;
  400 : 1111110010010110;
  401 : 1111111111010011;
  402 : 1111111010011011;
  403 : 1111111100101001;
  404 : 1111111101010001;
  405 : 1111101110001001;
  406 : 1111111111100001;
  407 : 1111111011010011;
  408 : 1111111000010110;
  409 : 1111111111011111;
  410 : 1111110100110111;
  411 : 1111110101001110;
  412 : 1111101000011000;
  413 : 1111111111100000;
  414 : 1111110111101001;
  415 : 1111111100111111;
  416 : 1111110101000100;
  417 : 1111111111101100;
  418 : 1111111000010010;
  419 : 1111111111110100;
  420 : 1111111111111011;
  421 : 1111111111111000;
  422 : 1111111111100001;
  423 : 1111111111111101;
  424 : 1111111101011011;
  425 : 1111111011110001;
  426 : 1111111001001111;
  427 : 1111110010001010;
  428 : 1111111011101000;
  429 : 1111111011111101;
  430 : 1111111111110110;
  431 : 1111111101101111;
  432 : 1111110110000000;
  433 : 1111111111010010;
  434 : 1111101010011011;
  435 : 1111110000110111;
  436 : 1111101101011010;
  437 : 1111111111101010;
  438 : 1111111111000110;
  439 : 1111111100010100;
  440 : 1111111101111100;
  441 : 1111110111010101;
  442 : 1111111110011100;
  443 : 1111111101110010;
  444 : 1111110111001000;
  445 : 1111110011111011;
  446 : 1111111111110010;
  447 : 1111111111011000;
  448 : 1111111111100000;
  449 : 1111111111111011;
  450 : 1111111110001001;
  451 : 1111111100010101;
  452 : 1111111111000011;
  453 : 1111111100111011;
  454 : 1111111111001010;
  455 : 1111111111100101;
  456 : 1111111101001111;
  457 : 1111111000011000;
  458 : 1111100011100001;
  459 : 1111110111101100;
  460 : 1111111101000000;
  461 : 1111111111111111;
  462 : 1111101110000001;
  463 : 1111110001000001;
  464 : 1111111001001100;
  465 : 1111110001000010;
  466 : 1111111100110100;
  467 : 1111111011111101;
  468 : 1111111111101110;
  469 : 1111110100000010;
  470 : 1111111101001111;
  471 : 1111111011011011;
  472 : 1111110101010101;
  473 : 1111110000000011;
  474 : 1111111110010000;
  475 : 1111111111111010;
  476 : 1111111111010001;
  477 : 1111111111101110;
  478 : 1111111110101111;
  479 : 1111111110000101;
  480 : 1111111111011010;
  481 : 1111111010000011;
  482 : 1111111000001011;
  483 : 1111111010001000;
  484 : 1111111001010110;
  485 : 1111110101011110;
  486 : 1111101101101000;
  487 : 1111110100100111;
  488 : 1111111100110100;
  489 : 1111111011010100;
  490 : 1111111110011111;
  491 : 1111111000100100;
  492 : 1111111011111010;
  493 : 1111111100000001;
  494 : 1111111001111101;
  495 : 1111111101001111;
  496 : 1111111111011000;
  497 : 1111111110000101;
  498 : 1111111100110111;
  499 : 1111111101101100;
  500 : 1111111110010110;
  501 : 1111111011010001;
  502 : 1111111110101110;
  503 : 1111111110010000;
  504 : 1111111111111100;
  505 : 1111111111011100;
  506 : 1111111111101000;
  507 : 1111111110100111;
  508 : 1111111011001101;
  509 : 1111111100111100;
  510 : 1111111110110101;
  511 : 1111110011010000;
  512 : 1111111110001010;
  513 : 1111101110101101;
  514 : 1111111010111100;
  515 : 1111111100100101;
  516 : 1111111101110111;
  517 : 1111111111010110;
  518 : 1111101111011100;
  519 : 1111111000010100;
  520 : 1111110010100011;
  521 : 1111111010001010;
  522 : 1111111111000101;
  523 : 1111111110101100;
  524 : 1111111110001100;
  525 : 1111111111101011;
  526 : 1111110000100101;
  527 : 1111110010001111;
  528 : 1111110001110101;
  529 : 1111111111001011;
  530 : 1111111111110010;
  531 : 1111111111100011;
  532 : 1111111110101101;
  533 : 1111111110111000;
  534 : 1111111111010001;
  535 : 1111111111110010;
  536 : 1111111001011001;
  537 : 1111111101010000;
  538 : 1111111110100010;
  539 : 1111111110010110;
  540 : 1111110111001010;
  541 : 1111101000110111;
  542 : 1111101111111001;
  543 : 1111101000110111;
  544 : 1111111100010100;
  545 : 1111111111000110;
  546 : 1111111010001011;
  547 : 1111111000100001;
  548 : 1111101111010101;
  549 : 1111111000110101;
  550 : 1111111111000000;
  551 : 1111111111000000;
  552 : 1111111111110001;
  553 : 1111111011011100;
  554 : 1111110001100010;
  555 : 1111111101001001;
  556 : 1111111111100000;
  557 : 1111111100100011;
  558 : 1111111111010111;
  559 : 1111111111101101;
  560 : 1111111111110100;
  561 : 1111111111010000;
  562 : 1111111111110011;
  563 : 1111111101000101;
  564 : 1111111111101100;
  565 : 1111111100011000;
  566 : 1111111111000001;
  567 : 1111111010000101;
  568 : 1111110100100000;
  569 : 1111110011011011;
  570 : 1111111011010111;
  571 : 1111111101011000;
  572 : 1111111110011000;
  573 : 1111110000101000;
  574 : 1111110110110000;
  575 : 1111111111011011;
  576 : 1111111001100111;
  577 : 1111111101001011;
  578 : 1111111010000100;
  579 : 1111111100001100;
  580 : 1111111101010110;
  581 : 1111111010101000;
  582 : 1111110000100000;
  583 : 1111111100011011;
  584 : 1111111111010111;
  585 : 1111111111110101;
  586 : 1111111111111100;
  587 : 1111111111100101;
  588 : 1111111111010000;
  589 : 1111111111110100;
  590 : 1111111111100101;
  591 : 1111111111010010;
  592 : 1111111100001011;
  593 : 1111111111110001;
  594 : 1111111111110100;
  595 : 1111111110011101;
  596 : 1111111111010111;
  597 : 1111111110000011;
  598 : 1111111101110011;
  599 : 1111101111111110;
  600 : 1111111111111110;
  601 : 1111110111011001;
  602 : 1111111110100100;
  603 : 1111111111010011;
  604 : 1111111111011001;
  605 : 1111111011000101;
  606 : 1111111111110000;
  607 : 1111111100101011;
  608 : 1111111111110000;
  609 : 1111111111011011;
  610 : 1111111010101100;
  611 : 1111111101101001;
  612 : 1111111110001110;
  613 : 1111111111100010;
  614 : 1111111111011001;
  615 : 1111111111010100;
  616 : 1111111110111011;
  617 : 1111111110111110;
  618 : 1111111111111110;
  619 : 1111111111000100;
  620 : 1111111100011100;
  621 : 1111111110100001;
  622 : 1111111111010011;
  623 : 1111111101010100;
  624 : 1111111101100111;
  625 : 1111111010001010;
  626 : 1111111101110101;
  627 : 1111111110011010;
  628 : 1111111001100000;
  629 : 1111100111000010;
  630 : 1111110111010101;
  631 : 1111111111001010;
  632 : 1111111001001011;
  633 : 1111101100010111;
  634 : 1111111111011100;
  635 : 1111111011111011;
  636 : 1111111110100101;
  637 : 1111111110001110;
  638 : 1111111110001000;
  639 : 1111111110011111;
  640 : 1111111111100101;
  641 : 1111111111001011;
  642 : 1111111111100011;
  643 : 1111111111110001;
  644 : 1111111111111111;
  645 : 1111111111111010;
  646 : 1111111111110110;
  647 : 1111111111111110;
  648 : 1111111110110100;
  649 : 1111111110100100;
  650 : 1111110101001111;
  651 : 1111111010110100;
  652 : 1111110100100101;
  653 : 1111111010011010;
  654 : 1111110000101100;
  655 : 1111111111101011;
  656 : 1111111110100010;
  657 : 1111111111000100;
  658 : 1111110011110111;
  659 : 1111101111110111;
  660 : 1111110111010001;
  661 : 1111111101011001;
  662 : 1111111111100000;
  663 : 1111110011100110;
  664 : 1111111000010100;
  665 : 1111111111110001;
  666 : 1111111111101110;
  667 : 1111111111010001;
  668 : 1111111111111111;
  669 : 1111111111111111;
  670 : 1111111111111111;
  671 : 1111111111110011;
  672 : 1111111111111101;
  673 : 1111111111100100;
  674 : 1111111111101000;
  675 : 1111111111110011;
  676 : 1111111000000110;
  677 : 1111111110000111;
  678 : 1111111011000110;
  679 : 1111111111111110;
  680 : 1111111000100100;
  681 : 1111011100100000;
  682 : 1111101001100000;
  683 : 1111110111111100;
  684 : 1111111110000100;
  685 : 1111111110111101;
  686 : 1111110101000100;
  687 : 1111111111101111;
  688 : 1111111101001111;
  689 : 1111111101010011;
  690 : 1111111111001101;
  691 : 1111101101010010;
  692 : 1111101110101110;
  693 : 1111111000010101;
  694 : 1111111100100101;
  695 : 1111111110111010;
  696 : 1111111111100001;
  697 : 1111111111111111;
  698 : 1111111111111110;
  699 : 1111111111100011;
  700 : 1111111111111101;
  701 : 1111111111100010;
  702 : 1111111111110010;
  703 : 1111111111100010;
  704 : 1111111100100110;
  705 : 1111111001101011;
  706 : 1111111111011100;
  707 : 1111110000010111;
  708 : 1111111101111011;
  709 : 1111111111010111;
  710 : 1111111100000001;
  711 : 1111111111110101;
  712 : 1111111001101011;
  713 : 1111111001000101;
  714 : 1111111110010010;
  715 : 1111111111100000;
  716 : 1111111101000011;
  717 : 1111111111001100;
  718 : 1111111111101000;
  719 : 1111111111000000;
  720 : 1111110110010111;
  721 : 1111110111110100;
  722 : 1111110111100111;
  723 : 1111111100110111;
  724 : 1111111111101011;
  725 : 1111111111100101;
  726 : 1111111111111011;
  727 : 1111111110110100;
  728 : 1111111111011101;
  729 : 1111111111110010;
  730 : 1111111111110110;
  731 : 1111111111101011;
  732 : 1111111110110101;
  733 : 1111111111000101;
  734 : 1111111111101001;
  735 : 1111111111110110;
  736 : 1111111101010001;
  737 : 1111111100011011;
  738 : 1111111011000101;
  739 : 1111111010000010;
  740 : 1111111111101000;
  741 : 1111111000000111;
  742 : 1111111100000010;
  743 : 1111110110010010;
  744 : 1111111100110100;
  745 : 1111111110010010;
  746 : 1111111101011010;
  747 : 1111111110100101;
  748 : 1111111111110100;
  749 : 1111111111100011;
  750 : 1111111111111001;
  751 : 1111111111011101;
  752 : 1111111111111011;
  753 : 1111111111111111;
  754 : 1111111111111010;
  755 : 1111111111100001;
  756 : 1111111111111011;
  757 : 1111111111110110;
  758 : 1111111111111111;
  759 : 1111111111111111;
  760 : 1111111111111101;
  761 : 1111111111111010;
  762 : 1111111111110010;
  763 : 1111111110110101;
  764 : 1111111110001001;
  765 : 1111111111111011;
  766 : 1111111111110010;
  767 : 1111111111111111;
  768 : 1111111111110100;
  769 : 1111111111010000;
  770 : 1111111111100111;
  771 : 1111111011111001;
  772 : 1111111011111001;
  773 : 1111111111111001;
  774 : 1111111111110111;
  775 : 1111111111110100;
  776 : 1111111111011110;
  777 : 1111111111110111;
  778 : 1111111111110001;
  779 : 1111111111111010;
  780 : 1111111111101001;
  781 : 1111111111110010;
  782 : 1111111110110001;
  783 : 1111111111100110;
END;
