WIDTH=16;
DEPTH=30;
ADDRESS_RADIX=UNS;
DATA_RADIX=BIN;
CONTENT BEGIN
  0 : 1111111100111110;
  1 : 1111111011101010;
  2 : 1111111100100101;
  3 : 1110101010101101;
  4 : 1111110101111010;
  5 : 1111010111010111;
  6 : 1111010110001110;
  7 : 1111001001101101;
  8 : 1111100011001011;
  9 : 1111111010000111;
  10 : 1111101101101011;
  11 : 1111101101100110;
  12 : 1111110101010000;
  13 : 1111100110000000;
  14 : 1111101000000010;
  15 : 1111111001010000;
  16 : 1111101111100110;
  17 : 1111111101111110;
  18 : 1111111111101110;
  19 : 1111100011010101;
  20 : 1111010110011011;
  21 : 1101111111100000;
  22 : 1111111111100111;
  23 : 1111011110100111;
  24 : 1111110100101111;
  25 : 1111110110111110;
  26 : 1111000100100000;
  27 : 1111110101101000;
  28 : 1111111011000110;
  29 : 1110110111110110;
END;
