WIDTH=16;
DEPTH=30;
ADDRESS_RADIX=UNS;
DATA_RADIX=BIN;
CONTENT BEGIN
  0 : 1110110010101011;
  1 : 1111100001100011;
  2 : 1111011000010010;
  3 : 1111001111010111;
  4 : 1111001011100110;
  5 : 1111011010000011;
  6 : 1111111100011111;
  7 : 1111001000001010;
  8 : 1110100011000001;
  9 : 1111101110101000;
  10 : 1110110001111100;
  11 : 1111010000000000;
  12 : 1111110101011000;
  13 : 1111101101011011;
  14 : 1111001011000011;
  15 : 1111001000001001;
  16 : 1111011011000100;
  17 : 1111111111101010;
  18 : 1111011101010010;
  19 : 1110111000100011;
  20 : 1111110000010011;
  21 : 1111101001001011;
  22 : 1111010110000011;
  23 : 1111110001110110;
  24 : 1111111111110000;
  25 : 1110111000011010;
  26 : 1111111001110000;
  27 : 1111111111101110;
  28 : 1111100111101011;
  29 : 1111110100110100;
END;
