WIDTH=16;
DEPTH=30;
ADDRESS_RADIX=UNS;
DATA_RADIX=BIN;
CONTENT BEGIN
  0 : 1111110111001101;
  1 : 1111110001011101;
  2 : 1110111110111010;
  3 : 1111111110010100;
  4 : 1111111011011111;
  5 : 1111011110001010;
  6 : 1111011101001101;
  7 : 1111111011110110;
  8 : 1111100111110101;
  9 : 1111111100010100;
  10 : 1111111110011111;
  11 : 1111111111100101;
  12 : 1111010100100001;
  13 : 1111100111111010;
  14 : 1111110110101000;
  15 : 1111110001100111;
  16 : 1111111101110100;
  17 : 1111111011000100;
  18 : 1111100111011000;
  19 : 1111110111111110;
  20 : 1111101001000101;
  21 : 1111111111111110;
  22 : 1111100101110111;
  23 : 1111010000101101;
  24 : 1111111111111011;
  25 : 1111111110011001;
  26 : 1111110100110111;
  27 : 1111110010111011;
  28 : 1111100001001010;
  29 : 1111110011001010;
END;
