WIDTH=16;
DEPTH=30;
ADDRESS_RADIX=UNS;
DATA_RADIX=BIN;
CONTENT BEGIN
  0 : 1111110000111110;
  1 : 1110100000011001;
  2 : 1110111110101100;
  3 : 1111111101010011;
  4 : 1111101001000001;
  5 : 1110110111000101;
  6 : 1111110010110111;
  7 : 1111000000000011;
  8 : 1111110111000000;
  9 : 1111000101100110;
  10 : 1111111001110111;
  11 : 1111011111100110;
  12 : 1111001001000001;
  13 : 1110110110011010;
  14 : 1111011001101101;
  15 : 1111100011101011;
  16 : 1111111110000111;
  17 : 1111101101001111;
  18 : 1111000000101010;
  19 : 1110011110010000;
  20 : 1111111111111011;
  21 : 1111111011101010;
  22 : 1111001011111100;
  23 : 1110100010111011;
  24 : 1111100110110110;
  25 : 1111111100010001;
  26 : 1111111011110001;
  27 : 1111111100011101;
  28 : 1111011100100101;
  29 : 1111111110010111;
END;
