WIDTH=16;
DEPTH=30;
ADDRESS_RADIX=UNS;
DATA_RADIX=BIN;
CONTENT BEGIN
  0 : 1110101100101100;
  1 : 1111001100001110;
  2 : 1111100111011011;
  3 : 1111110111000000;
  4 : 1111111101010110;
  5 : 1111010000001001;
  6 : 1110001010111011;
  7 : 1111110110001110;
  8 : 1111111000000100;
  9 : 1111111011111011;
  10 : 1111111110011101;
  11 : 1111010000010000;
  12 : 1111010101110110;
  13 : 1101010010001011;
  14 : 1111011100111111;
  15 : 1111010011001010;
  16 : 1111111010100110;
  17 : 1111000110000001;
  18 : 1111111110000000;
  19 : 1111100111100111;
  20 : 1111101000001110;
  21 : 1111110001011101;
  22 : 1110111110000101;
  23 : 1111111100110010;
  24 : 1110100101000110;
  25 : 1111111101110001;
  26 : 1111110010001010;
  27 : 1111111110010000;
  28 : 1111111100110111;
  29 : 1110100110101111;
END;
