WIDTH=16;
DEPTH=30;
ADDRESS_RADIX=UNS;
DATA_RADIX=BIN;
CONTENT BEGIN
  0 : 1111111011010001;
  1 : 1111111100001111;
  2 : 1111001011011011;
  3 : 1111100101001000;
  4 : 1111111000111010;
  5 : 1111101100111000;
  6 : 1111111111111110;
  7 : 1111111000000111;
  8 : 1111111101001110;
  9 : 1111011000000111;
  10 : 1111101111101110;
  11 : 1111000011011100;
  12 : 1111100100000010;
  13 : 1111111110000111;
  14 : 1111100111011001;
  15 : 1111000101101101;
  16 : 1111111011110101;
  17 : 1111101100011001;
  18 : 1111111001111110;
  19 : 1111100100000001;
  20 : 1111100011111011;
  21 : 1111111110001000;
  22 : 1111111100110100;
  23 : 1110111000010001;
  24 : 1111101100110010;
  25 : 1110011100100101;
  26 : 1110110010011111;
  27 : 1111110111101101;
  28 : 1111111111111011;
  29 : 1111110011111111;
END;
