WIDTH=16;
DEPTH=30;
ADDRESS_RADIX=UNS;
DATA_RADIX=BIN;
CONTENT BEGIN
  0 : 1111100011000111;
  1 : 1110101100100001;
  2 : 1110101010100000;
  3 : 1111111011000011;
  4 : 1111111001100010;
  5 : 1111111111001011;
  6 : 1110011100111000;
  7 : 1111110110101111;
  8 : 1111011011000011;
  9 : 1111011110111011;
  10 : 1111011001011010;
  11 : 1111110100111101;
  12 : 1111111001110111;
  13 : 1111101110101111;
  14 : 1111111010010000;
  15 : 1111111010111100;
  16 : 1111010111110100;
  17 : 1111000110101111;
  18 : 1111110100101101;
  19 : 1111101110001110;
  20 : 1111101011110110;
  21 : 1111011110100000;
  22 : 1111111111000100;
  23 : 1110000101010111;
  24 : 1110100111111110;
  25 : 1110010100110001;
  26 : 1101010001100000;
  27 : 1111111100100011;
  28 : 1111111100001000;
  29 : 1111111000100110;
END;
