WIDTH=16;
DEPTH=30;
ADDRESS_RADIX=UNS;
DATA_RADIX=BIN;
CONTENT BEGIN
  0 : 1111110011010111;
  1 : 1111111111111001;
  2 : 1111110000111111;
  3 : 1111110100000101;
  4 : 1111001110100011;
  5 : 1111100000100110;
  6 : 1111011101010010;
  7 : 1111000101100110;
  8 : 1111011001111111;
  9 : 1111000100110010;
  10 : 1111111100001101;
  11 : 1111101010100001;
  12 : 1111111000000001;
  13 : 1111101100100011;
  14 : 1111111111100110;
  15 : 1111010101011011;
  16 : 1111101101101101;
  17 : 1111100111010110;
  18 : 1111111111111100;
  19 : 1111111111100100;
  20 : 1110011010011101;
  21 : 1111111101111110;
  22 : 1111111110010010;
  23 : 1111000011100011;
  24 : 1111101000011000;
  25 : 1111000000010010;
  26 : 1111001111111001;
  27 : 1111100010011010;
  28 : 1111111010111100;
  29 : 1111111111000101;
END;
