WIDTH=16;
DEPTH=30;
ADDRESS_RADIX=UNS;
DATA_RADIX=BIN;
CONTENT BEGIN
  0 : 1111110110101010;
  1 : 1110000111111100;
  2 : 1111101000101000;
  3 : 1111100100101111;
  4 : 1110110111111011;
  5 : 1111111100010110;
  6 : 1111110111110001;
  7 : 1111101011101010;
  8 : 1111100111100000;
  9 : 1111001100100100;
  10 : 1111111111001110;
  11 : 1111011101100010;
  12 : 1111111010100111;
  13 : 1111011100010111;
  14 : 1111011110010101;
  15 : 1111110001111001;
  16 : 1111111111100000;
  17 : 1111101000010000;
  18 : 1110001110110010;
  19 : 1111110001010111;
  20 : 1111000100011101;
  21 : 1111110111110100;
  22 : 1111010001010001;
  23 : 1111111010011000;
  24 : 1111110000101111;
  25 : 1110110101001110;
  26 : 1111100110110011;
  27 : 1110100100010001;
  28 : 1111010110111010;
  29 : 1111000010001011;
END;
