WIDTH=16;
DEPTH=30;
ADDRESS_RADIX=UNS;
DATA_RADIX=BIN;
CONTENT BEGIN
  0 : 1111111110010001;
  1 : 1111110001011100;
  2 : 1111101101101001;
  3 : 1111111001011111;
  4 : 1111011001101100;
  5 : 1111111111100101;
  6 : 1111111110111000;
  7 : 1111100100001100;
  8 : 1111110101001010;
  9 : 1111110101010110;
  10 : 1111100010101011;
  11 : 1111111011010001;
  12 : 1111011110011111;
  13 : 1111111110101111;
  14 : 1111000111110110;
  15 : 1111010101011000;
  16 : 1111111100100100;
  17 : 1111110000011110;
  18 : 1111100111100011;
  19 : 1111111011010000;
  20 : 1111001110001001;
  21 : 1111110001010110;
  22 : 1111111111110111;
  23 : 1111011001111010;
  24 : 1111110010110011;
  25 : 1111111111101111;
  26 : 1111111010011001;
  27 : 1111100100101001;
  28 : 1111110111000111;
  29 : 1111100100100110;
END;
