WIDTH=16;
DEPTH=30;
ADDRESS_RADIX=UNS;
DATA_RADIX=BIN;
CONTENT BEGIN
  0 : 1111111111110111;
  1 : 1111100111111001;
  2 : 1111111001101110;
  3 : 1111110101000101;
  4 : 1110010000000101;
  5 : 1101111000100000;
  6 : 1111100001011010;
  7 : 1111101111001110;
  8 : 1111110010000100;
  9 : 1111100001000111;
  10 : 1111111100111010;
  11 : 1111000010010010;
  12 : 1111000011001101;
  13 : 1111111110000000;
  14 : 1111110011001000;
  15 : 1110101100000100;
  16 : 1111000000000111;
  17 : 1111110111011010;
  18 : 1111011101010010;
  19 : 1110100110001101;
  20 : 1111110110100100;
  21 : 1111110110100100;
  22 : 1110111001010011;
  23 : 1111000000011110;
  24 : 1111111010110000;
  25 : 1111100011101011;
  26 : 1111000001001100;
  27 : 1111001010011001;
  28 : 1111000111000101;
  29 : 1111101011101001;
END;
