WIDTH=16;
DEPTH=30;
ADDRESS_RADIX=UNS;
DATA_RADIX=BIN;
CONTENT BEGIN
  0 : 1111100001001011;
  1 : 1111111100010100;
  2 : 1111001001010110;
  3 : 1111111101011001;
  4 : 1111001011100010;
  5 : 1111100000010011;
  6 : 1111011010111110;
  7 : 1111110010101100;
  8 : 1111110101111010;
  9 : 1111101000000100;
  10 : 1111111000100001;
  11 : 1111110000011100;
  12 : 1111101110100101;
  13 : 1111101001100000;
  14 : 1111101010101101;
  15 : 1111100001111011;
  16 : 1111111111010011;
  17 : 1111111001011000;
  18 : 1111010000000110;
  19 : 1111111110000010;
  20 : 1111110100110010;
  21 : 1111110110000011;
  22 : 1111101001000100;
  23 : 1111011100000110;
  24 : 1111110111011111;
  25 : 1111111101110010;
  26 : 1111110110001000;
  27 : 1111010110001011;
  28 : 1111111110010101;
  29 : 1111110111001010;
END;
