WIDTH=16;
DEPTH=30;
ADDRESS_RADIX=UNS;
DATA_RADIX=BIN;
CONTENT BEGIN
  0 : 1111111011100001;
  1 : 1111111101010110;
  2 : 1111000110010111;
  3 : 1111011110011000;
  4 : 1111111100011111;
  5 : 1111001100001000;
  6 : 1111101010010000;
  7 : 1111111110000001;
  8 : 1111111010010100;
  9 : 1111111100100010;
  10 : 1111100101111011;
  11 : 1111111111100111;
  12 : 1111100010001110;
  13 : 1111110111010110;
  14 : 1111100001101111;
  15 : 1111111111010100;
  16 : 1111110110110000;
  17 : 1111110110100010;
  18 : 1111101100100100;
  19 : 1111111101001100;
  20 : 1111110000110010;
  21 : 1111000010011110;
  22 : 1111100111110101;
  23 : 1111011111110010;
  24 : 1110111100000010;
  25 : 1111111000111110;
  26 : 1111110101100010;
  27 : 1111100010001011;
  28 : 1111000101010011;
  29 : 1111100010011101;
END;
