WIDTH=16;
DEPTH=30;
ADDRESS_RADIX=UNS;
DATA_RADIX=BIN;
CONTENT BEGIN
  0 : 1111100010011010;
  1 : 1111100101001100;
  2 : 1111110011010000;
  3 : 1111000110011101;
  4 : 1111110011111101;
  5 : 1111110001101101;
  6 : 1111011101111101;
  7 : 1111110001010001;
  8 : 1110111110001000;
  9 : 1111001110111000;
  10 : 1110100111001110;
  11 : 1111111111110000;
  12 : 1111111110100000;
  13 : 1111111110101011;
  14 : 1111000101111110;
  15 : 1111111110000001;
  16 : 1111010101000100;
  17 : 1111110111011010;
  18 : 1111110100001011;
  19 : 1111010010111100;
  20 : 1111110011000010;
  21 : 1111001010011101;
  22 : 1111101000000100;
  23 : 1111110101100000;
  24 : 1111110101111110;
  25 : 1111101001011100;
  26 : 1111111011010110;
  27 : 1111111000000010;
  28 : 1111111101011101;
  29 : 1111100101011101;
END;
