WIDTH=16;
DEPTH=30;
ADDRESS_RADIX=UNS;
DATA_RADIX=BIN;
CONTENT BEGIN
  0 : 1111111101010011;
  1 : 1111010111011110;
  2 : 1111101110011100;
  3 : 1110001111110001;
  4 : 1111100100000100;
  5 : 1111001111100001;
  6 : 1111000100100000;
  7 : 1111010001000000;
  8 : 1111111110101101;
  9 : 1111111011000111;
  10 : 1110000000101011;
  11 : 1111111001110010;
  12 : 1111111110111010;
  13 : 1111111010111100;
  14 : 1110001001011100;
  15 : 1111111111101000;
  16 : 1111010001011111;
  17 : 1111101110011011;
  18 : 1111100110010101;
  19 : 1111110110100101;
  20 : 1111111110101011;
  21 : 1101110101100110;
  22 : 1111111111010001;
  23 : 1111110100110000;
  24 : 1111111011011001;
  25 : 1111110000001100;
  26 : 1111100111111000;
  27 : 1111110101100100;
  28 : 1111011101110010;
  29 : 1111001111100101;
END;
