WIDTH=16;
DEPTH=30;
ADDRESS_RADIX=UNS;
DATA_RADIX=BIN;
CONTENT BEGIN
  0 : 1111111111111011;
  1 : 1111111111100011;
  2 : 1111111111100101;
  3 : 1111001001100111;
  4 : 1111111111000111;
  5 : 1111000101101000;
  6 : 1111110011111101;
  7 : 1111111101000100;
  8 : 1111110110110100;
  9 : 1111001100010011;
  10 : 1111010010111101;
  11 : 1110110010100110;
  12 : 1110010110011010;
  13 : 1110101110010010;
  14 : 1111111111110001;
  15 : 1110101100001111;
  16 : 1111110111111110;
  17 : 1111110000010000;
  18 : 1111111111100111;
  19 : 1111110111111110;
  20 : 1111110001101001;
  21 : 1111010110100001;
  22 : 1111111100110000;
  23 : 1111101111101000;
  24 : 1111111001001110;
  25 : 1111111101111100;
  26 : 1111110000000011;
  27 : 1111001011010000;
  28 : 1111111100101000;
  29 : 1110111101011101;
END;
