WIDTH=16;
DEPTH=30;
ADDRESS_RADIX=UNS;
DATA_RADIX=BIN;
CONTENT BEGIN
  0 : 1111000000101000;
  1 : 1111111100000111;
  2 : 1111010011110010;
  3 : 1111111011011010;
  4 : 1111101000011010;
  5 : 1111110000011010;
  6 : 1111110001101101;
  7 : 1111111111110101;
  8 : 1111011110011100;
  9 : 1111100101011010;
  10 : 1111011001100011;
  11 : 1111000010001000;
  12 : 1111011011000111;
  13 : 1111111101111100;
  14 : 1111101011010100;
  15 : 1111100101111110;
  16 : 1111110001001100;
  17 : 1111111111111101;
  18 : 1110101111100110;
  19 : 1111011011110010;
  20 : 1110000011001100;
  21 : 1111111011100011;
  22 : 1111100001011100;
  23 : 1111100101101110;
  24 : 1111110010101101;
  25 : 1111001110101000;
  26 : 1111111000101110;
  27 : 1110100110000110;
  28 : 1111000100111100;
  29 : 1111111100010111;
END;
