WIDTH=16;
DEPTH=30;
ADDRESS_RADIX=UNS;
DATA_RADIX=BIN;
CONTENT BEGIN
  0 : 1111100011010110;
  1 : 1111010100010001;
  2 : 1111111001010000;
  3 : 1110110101111001;
  4 : 1111110111111010;
  5 : 1111011010011010;
  6 : 1111101011010001;
  7 : 1111100110101010;
  8 : 1111111010000101;
  9 : 1111111111100110;
  10 : 1111010010010010;
  11 : 1111100000111011;
  12 : 1111111110010100;
  13 : 1111100101100110;
  14 : 1111101111111001;
  15 : 1111111100100001;
  16 : 1111100010110110;
  17 : 1111111110000000;
  18 : 1111101011001000;
  19 : 1111110111010001;
  20 : 1111001000101101;
  21 : 1110010110010001;
  22 : 1111101111100101;
  23 : 1111000001000111;
  24 : 1111111100111110;
  25 : 1111111110011000;
  26 : 1111110110011110;
  27 : 1111101101010110;
  28 : 1111110100100110;
  29 : 1111010000111001;
END;
