WIDTH=16;
DEPTH=30;
ADDRESS_RADIX=UNS;
DATA_RADIX=BIN;
CONTENT BEGIN
  0 : 1111100110000001;
  1 : 1111111100001010;
  2 : 1111100111001001;
  3 : 1110111001011111;
  4 : 1111011011011000;
  5 : 1111111110111000;
  6 : 1111011011011010;
  7 : 1111011110100001;
  8 : 1111111011010110;
  9 : 1111110111100110;
  10 : 1111100100000111;
  11 : 1111111010100101;
  12 : 1111101011010101;
  13 : 1111010111011000;
  14 : 1111110110110101;
  15 : 1111101100011111;
  16 : 1111100000101101;
  17 : 1111001001010011;
  18 : 1111000110010100;
  19 : 1111100111100111;
  20 : 1110111000111111;
  21 : 1111001111110001;
  22 : 1111101101011001;
  23 : 1111111000100101;
  24 : 1110111110010110;
  25 : 1111101101110000;
  26 : 1110111111001111;
  27 : 1111111001100011;
  28 : 1111000110101101;
  29 : 1111001101110001;
END;
