WIDTH=16;
DEPTH=30;
ADDRESS_RADIX=UNS;
DATA_RADIX=BIN;
CONTENT BEGIN
  0 : 1111100111101011;
  1 : 1111110010101110;
  2 : 1111111010111100;
  3 : 1111111001110100;
  4 : 1111110110010010;
  5 : 1111001101010011;
  6 : 1110111110110000;
  7 : 1111111110100100;
  8 : 1111101100010011;
  9 : 1110111100010101;
  10 : 1111111011000101;
  11 : 1111100000010110;
  12 : 1110000001111101;
  13 : 1111111101101010;
  14 : 1111001010111000;
  15 : 1110001000111011;
  16 : 1111110110010000;
  17 : 1110101000111011;
  18 : 1111110101101011;
  19 : 1111101011000111;
  20 : 1100111001000101;
  21 : 1111101010001000;
  22 : 1111111111110010;
  23 : 1111111111011010;
  24 : 1111110111110011;
  25 : 1110001110101010;
  26 : 1111001001001100;
  27 : 1111111011010110;
  28 : 1111001111110010;
  29 : 1111111011101111;
END;
