WIDTH=16;
DEPTH=30;
ADDRESS_RADIX=UNS;
DATA_RADIX=BIN;
CONTENT BEGIN
  0 : 1111001100111101;
  1 : 1111101101101010;
  2 : 1111101000100011;
  3 : 1111101100101010;
  4 : 1110010011111010;
  5 : 1110001100111011;
  6 : 1111010010010100;
  7 : 1111100011000111;
  8 : 1111011010110101;
  9 : 1111101011101010;
  10 : 1111110101011011;
  11 : 1111011011110111;
  12 : 1111110110110010;
  13 : 1111110000101100;
  14 : 1111101001011011;
  15 : 1111111100110100;
  16 : 1110111011000111;
  17 : 1111110001110100;
  18 : 1111111100011001;
  19 : 1111111111110010;
  20 : 1111110101001111;
  21 : 1111111001000010;
  22 : 1111110111001101;
  23 : 1111111100101111;
  24 : 1111100111010001;
  25 : 1111110101111101;
  26 : 1111001011100000;
  27 : 1110111101000110;
  28 : 1111100100000100;
  29 : 1111000110100101;
END;
