WIDTH=16;
DEPTH=30;
ADDRESS_RADIX=UNS;
DATA_RADIX=BIN;
CONTENT BEGIN
  0 : 1111011011001001;
  1 : 1111001101111010;
  2 : 1111110111000110;
  3 : 1111111010110010;
  4 : 1111001111001101;
  5 : 1111000100101111;
  6 : 1111101000000111;
  7 : 1111110001100000;
  8 : 1111110010010100;
  9 : 1111100010001100;
  10 : 1111110010001111;
  11 : 1111111000101011;
  12 : 1111110001010000;
  13 : 1111111111110110;
  14 : 1111110001001001;
  15 : 1111111000110000;
  16 : 1111001100100111;
  17 : 1111110001110101;
  18 : 1111110111011011;
  19 : 1111101000100111;
  20 : 1111110011001011;
  21 : 1111100000011000;
  22 : 1111111111111011;
  23 : 1111100110010111;
  24 : 1111111111000001;
  25 : 1111101110000011;
  26 : 1111001011110010;
  27 : 1111011101011000;
  28 : 1111101110110010;
  29 : 1111100010011011;
END;
