WIDTH=16;
DEPTH=30;
ADDRESS_RADIX=UNS;
DATA_RADIX=BIN;
CONTENT BEGIN
  0 : 1111010001001011;
  1 : 1111111111110001;
  2 : 1111010000000001;
  3 : 1111001010001101;
  4 : 1111100110010111;
  5 : 1111011110101000;
  6 : 1111110100000010;
  7 : 1111000010100011;
  8 : 1110011001100001;
  9 : 1110011111100101;
  10 : 1110010110010100;
  11 : 1111111111100100;
  12 : 1111101011100100;
  13 : 1111101000101010;
  14 : 1110010001110000;
  15 : 1111111001101110;
  16 : 1110100011101101;
  17 : 1111010111100000;
  18 : 1110110001101111;
  19 : 1111111110001111;
  20 : 1111111011011000;
  21 : 1111000100111100;
  22 : 1111100001100011;
  23 : 1111111011010111;
  24 : 1111100110110010;
  25 : 1111110000000011;
  26 : 1111110110001011;
  27 : 1111010110001001;
  28 : 1111111011011100;
  29 : 1111111101101001;
END;
