WIDTH=16;
DEPTH=30;
ADDRESS_RADIX=UNS;
DATA_RADIX=BIN;
CONTENT BEGIN
  0 : 1111111011111110;
  1 : 1111111101101010;
  2 : 1111001101010111;
  3 : 1111111110110110;
  4 : 1111000000100111;
  5 : 1111100011101110;
  6 : 1110110110000110;
  7 : 1111011101011000;
  8 : 1111100111111010;
  9 : 1111100010011010;
  10 : 1110111011110101;
  11 : 1111111011101100;
  12 : 1110100101001010;
  13 : 1111110010010101;
  14 : 1111101100110110;
  15 : 1110101101000101;
  16 : 1111011000000001;
  17 : 1111101001110100;
  18 : 1111110110100100;
  19 : 1111001010001110;
  20 : 1110111000000101;
  21 : 1111111110011101;
  22 : 1111100000000010;
  23 : 1111000001001001;
  24 : 1111101101000001;
  25 : 1111111000110010;
  26 : 1110100110100100;
  27 : 1111101000000010;
  28 : 1111111000110110;
  29 : 1111101100011101;
END;
