WIDTH=16;
DEPTH=30;
ADDRESS_RADIX=UNS;
DATA_RADIX=BIN;
CONTENT BEGIN
  0 : 1110100010001101;
  1 : 1111111101111001;
  2 : 1111001011111001;
  3 : 1111111111111110;
  4 : 1111111101010101;
  5 : 1111111110101001;
  6 : 1111110000011010;
  7 : 1111100011001111;
  8 : 1111100010100001;
  9 : 1111010101111010;
  10 : 1111011101010010;
  11 : 1111100011000111;
  12 : 1111111000001011;
  13 : 1111011101100111;
  14 : 1111111111011110;
  15 : 1111110010110100;
  16 : 1110110100011111;
  17 : 1111101001010011;
  18 : 1111101000010110;
  19 : 1111111111110100;
  20 : 1111001111101010;
  21 : 1111101000010000;
  22 : 1111111100110001;
  23 : 1111001000001111;
  24 : 1111111000001100;
  25 : 1111010010100111;
  26 : 1111111111101000;
  27 : 1111101011100100;
  28 : 1111111110101001;
  29 : 1110101010100110;
END;
