WIDTH=16;
DEPTH=30;
ADDRESS_RADIX=UNS;
DATA_RADIX=BIN;
CONTENT BEGIN
  0 : 1111111110001001;
  1 : 1110010100011000;
  2 : 1111100010111001;
  3 : 1111000001011010;
  4 : 1111111110011110;
  5 : 1111111001111101;
  6 : 1111000110000111;
  7 : 1111101011110110;
  8 : 1111101001001110;
  9 : 1111011011001010;
  10 : 1110100110111101;
  11 : 1111111011010000;
  12 : 1111111000111011;
  13 : 1111110101011001;
  14 : 1111101010000011;
  15 : 1111111011010110;
  16 : 1111010010101001;
  17 : 1111101110111010;
  18 : 1111100100110101;
  19 : 1111100010011100;
  20 : 1111000101101011;
  21 : 1111010010001000;
  22 : 1111000101101011;
  23 : 1111000111101111;
  24 : 1111110001011110;
  25 : 1111011011011111;
  26 : 1110111000010001;
  27 : 1111110000000100;
  28 : 1111111001010000;
  29 : 1111111001101111;
END;
