WIDTH=16;
DEPTH=30;
ADDRESS_RADIX=UNS;
DATA_RADIX=BIN;
CONTENT BEGIN
  0 : 1111101000110011;
  1 : 1110100110111000;
  2 : 1111101110110001;
  3 : 1111110000100110;
  4 : 1111111101111100;
  5 : 1111111111101111;
  6 : 1111011100110111;
  7 : 1111010100000001;
  8 : 1111111110101100;
  9 : 1110110100100011;
  10 : 1111100100001001;
  11 : 1110100011011010;
  12 : 1110111100001011;
  13 : 1110100100100111;
  14 : 1111110001011011;
  15 : 1110011000111001;
  16 : 1111000000010101;
  17 : 1111000001010011;
  18 : 1111001001111101;
  19 : 1111011010100010;
  20 : 1111111001011011;
  21 : 1111111011000011;
  22 : 1111101010100001;
  23 : 1111100001010101;
  24 : 1111100111100111;
  25 : 1111011100000000;
  26 : 1111111101000010;
  27 : 1111101101010101;
  28 : 1111111101010001;
  29 : 1110110011100010;
END;
