WIDTH=16;
DEPTH=30;
ADDRESS_RADIX=UNS;
DATA_RADIX=BIN;
CONTENT BEGIN
  0 : 1111101010010001;
  1 : 1111000011100111;
  2 : 1111110111010000;
  3 : 1111101001011010;
  4 : 1111101101110110;
  5 : 1101111000100101;
  6 : 1111111011111110;
  7 : 1111111111000010;
  8 : 1111001011100111;
  9 : 1110101011111000;
  10 : 1111110110110101;
  11 : 1111100011100001;
  12 : 1111111000101111;
  13 : 1111011111010101;
  14 : 1111001101100101;
  15 : 1111010000100110;
  16 : 1111110011101011;
  17 : 1111101111011011;
  18 : 1111110111000010;
  19 : 1110101110110111;
  20 : 1111101111001011;
  21 : 1111011111110111;
  22 : 1110101011110101;
  23 : 1111101111101111;
  24 : 1111100001111111;
  25 : 1111001001011001;
  26 : 1111101010100101;
  27 : 1111110000110101;
  28 : 1111001001010110;
  29 : 1111111101011001;
END;
