WIDTH=16;
DEPTH=30;
ADDRESS_RADIX=UNS;
DATA_RADIX=BIN;
CONTENT BEGIN
  0 : 1110001011011110;
  1 : 1111000001101110;
  2 : 1101111111100100;
  3 : 1111101101111100;
  4 : 1111010110001001;
  5 : 1111011010011100;
  6 : 1111110111010010;
  7 : 1111001101011110;
  8 : 1111010100110111;
  9 : 1111011011011101;
  10 : 1111100100011100;
  11 : 1111011011000000;
  12 : 1111111110001011;
  13 : 1101011100011011;
  14 : 1111011100101000;
  15 : 1111110010010010;
  16 : 1111010010111001;
  17 : 1111101100100111;
  18 : 1111111111101000;
  19 : 1111101010000011;
  20 : 1111110001111001;
  21 : 1111101101100101;
  22 : 1111001011000001;
  23 : 1111101011001011;
  24 : 1111111001111001;
  25 : 1111000110110110;
  26 : 1110100110011100;
  27 : 1110010011000111;
  28 : 1111100101110000;
  29 : 1111110010000010;
END;
