WIDTH=16;
DEPTH=30;
ADDRESS_RADIX=UNS;
DATA_RADIX=BIN;
CONTENT BEGIN
  0 : 1111110101011001;
  1 : 1111001011011101;
  2 : 1111100101111100;
  3 : 1111011111010001;
  4 : 1111111011010110;
  5 : 1111111010111010;
  6 : 1111101010101001;
  7 : 1110011101111010;
  8 : 1110000011011100;
  9 : 1110010111010110;
  10 : 1111111110011110;
  11 : 1110010101001010;
  12 : 1111111011010101;
  13 : 1111100110000111;
  14 : 1111100110100011;
  15 : 1111000110011101;
  16 : 1111110101000011;
  17 : 1111100010010100;
  18 : 1101110010001010;
  19 : 1111110000001000;
  20 : 1111110001100011;
  21 : 1111111101100000;
  22 : 1111100011100001;
  23 : 1111100001001010;
  24 : 1111000100111110;
  25 : 1111000110010100;
  26 : 1110000011001100;
  27 : 1110101010111100;
  28 : 1111111011101101;
  29 : 1110110001110100;
END;
