WIDTH=16;
DEPTH=30;
ADDRESS_RADIX=UNS;
DATA_RADIX=BIN;
CONTENT BEGIN
  0 : 1111100100011001;
  1 : 1111110101111101;
  2 : 1111010110010110;
  3 : 1111001011101001;
  4 : 1111110110100001;
  5 : 1110100101110111;
  6 : 1111000010111101;
  7 : 1111110110110100;
  8 : 1110011001010101;
  9 : 1110011101010110;
  10 : 1110010001100100;
  11 : 1111111100001011;
  12 : 1110111011001100;
  13 : 1111000001001010;
  14 : 1111110011110000;
  15 : 1110100111110110;
  16 : 1111110001111001;
  17 : 1110101011011011;
  18 : 1110111011000111;
  19 : 1111001001000100;
  20 : 1111011010100010;
  21 : 1111001111011101;
  22 : 1111010011000000;
  23 : 1110010011010110;
  24 : 1111110001001100;
  25 : 1111001110110101;
  26 : 1111100100110010;
  27 : 1111111000001111;
  28 : 1111111101011110;
  29 : 1111110000110101;
END;
