WIDTH=16;
DEPTH=30;
ADDRESS_RADIX=UNS;
DATA_RADIX=BIN;
CONTENT BEGIN
  0 : 1111001101010111;
  1 : 1111111110011110;
  2 : 1111110001100111;
  3 : 1110100110101100;
  4 : 1111001110000110;
  5 : 1111111110100110;
  6 : 1111111000001000;
  7 : 1111100001000101;
  8 : 1111111101100000;
  9 : 1111000001010010;
  10 : 1111110110101011;
  11 : 1111111100101100;
  12 : 1111110111001111;
  13 : 1111101000110001;
  14 : 1111111100001000;
  15 : 1111000100001110;
  16 : 1111110010101111;
  17 : 1111110010001011;
  18 : 1111001100110101;
  19 : 1111101010100111;
  20 : 1111111111110101;
  21 : 1111111001011111;
  22 : 1111110110110001;
  23 : 1111000001000110;
  24 : 1111010000110101;
  25 : 1111100110011100;
  26 : 1111110100101101;
  27 : 1101101000110110;
  28 : 1111110001100000;
  29 : 1111110011001010;
END;
