WIDTH=16;
DEPTH=30;
ADDRESS_RADIX=UNS;
DATA_RADIX=BIN;
CONTENT BEGIN
  0 : 1111001010100100;
  1 : 1111001001111110;
  2 : 1110011111100000;
  3 : 1111111100100000;
  4 : 1111110010001010;
  5 : 1111100111010110;
  6 : 1100111000000101;
  7 : 1111010100011101;
  8 : 1111100111100010;
  9 : 1101101000010011;
  10 : 1111101110111110;
  11 : 1111101000101000;
  12 : 1110010001011010;
  13 : 1111000110110101;
  14 : 1111000100110101;
  15 : 1111111100101111;
  16 : 1111001000010110;
  17 : 1111011010100110;
  18 : 1111110111111100;
  19 : 1111111111100001;
  20 : 1111111000111110;
  21 : 1111101010100100;
  22 : 1111111101001011;
  23 : 1111111000111110;
  24 : 1111000001000100;
  25 : 1111111011001010;
  26 : 1111110010010101;
  27 : 1101010101101011;
  28 : 1111110001110110;
  29 : 1111110101111100;
END;
