WIDTH=16;
DEPTH=30;
ADDRESS_RADIX=UNS;
DATA_RADIX=BIN;
CONTENT BEGIN
  0 : 1111101011100100;
  1 : 1110100110010010;
  2 : 1111111011100110;
  3 : 1111101101100001;
  4 : 1110101000011011;
  5 : 1101000011110111;
  6 : 1111111110110001;
  7 : 1111010011011010;
  8 : 1111100101101101;
  9 : 1111101001101001;
  10 : 1111100100011111;
  11 : 1110110001010111;
  12 : 1111100000100111;
  13 : 1111001000110110;
  14 : 1111010010010000;
  15 : 1110101101000111;
  16 : 1111010011110111;
  17 : 1110001001011000;
  18 : 1110010111110100;
  19 : 1111111001110011;
  20 : 1111111001110100;
  21 : 1111111010000100;
  22 : 1111111000010011;
  23 : 1111100011011100;
  24 : 1111010000000011;
  25 : 1110101100000110;
  26 : 1111000000110011;
  27 : 1111101010011001;
  28 : 1111111111100100;
  29 : 1111101101011100;
END;
