WIDTH=16;
DEPTH=30;
ADDRESS_RADIX=UNS;
DATA_RADIX=BIN;
CONTENT BEGIN
  0 : 1111000111010010;
  1 : 1111100010001110;
  2 : 1111000101111010;
  3 : 1110110011111011;
  4 : 1111100011011000;
  5 : 1111111110110101;
  6 : 1111100010111100;
  7 : 1111110100111110;
  8 : 1110110001100000;
  9 : 1111001010011010;
  10 : 1111111100100011;
  11 : 1111111100011011;
  12 : 1111001100010111;
  13 : 1111010010011010;
  14 : 1111101000001110;
  15 : 1111110111000100;
  16 : 1111101111011000;
  17 : 1111110001101011;
  18 : 1111110110101011;
  19 : 1111111011111100;
  20 : 1111101100001010;
  21 : 1111111000100000;
  22 : 1111111100011001;
  23 : 1101011101111100;
  24 : 1111110110101101;
  25 : 1111110011001110;
  26 : 1110100000011101;
  27 : 1110001010010100;
  28 : 1111110011101100;
  29 : 1111011000001100;
END;
