WIDTH=16;
DEPTH=30;
ADDRESS_RADIX=UNS;
DATA_RADIX=BIN;
CONTENT BEGIN
  0 : 1111111011101101;
  1 : 1111110010000001;
  2 : 1111110010011010;
  3 : 1110101100101100;
  4 : 1101111111101110;
  5 : 1111001010100101;
  6 : 1111100110110101;
  7 : 1111110100011110;
  8 : 1110100100011001;
  9 : 1111111100011111;
  10 : 1110110100011001;
  11 : 1111111100000111;
  12 : 1111111110111000;
  13 : 1111101101110111;
  14 : 1110001010011000;
  15 : 1111110001001100;
  16 : 1101010000010111;
  17 : 1111111011100110;
  18 : 1111101011101001;
  19 : 1110100001100110;
  20 : 1111000100001100;
  21 : 1111100111011011;
  22 : 1111101101101111;
  23 : 1111000100111110;
  24 : 1111101101101111;
  25 : 1110011110101110;
  26 : 1111000111111111;
  27 : 1111001111111011;
  28 : 1111111100000100;
  29 : 1111000011011011;
END;
