WIDTH=16;
DEPTH=30;
ADDRESS_RADIX=UNS;
DATA_RADIX=BIN;
CONTENT BEGIN
  0 : 1111010100001001;
  1 : 1111101011111000;
  2 : 1111001101111010;
  3 : 1111001110100111;
  4 : 1110101000101000;
  5 : 1100110111100100;
  6 : 1111111001010011;
  7 : 1101101000111010;
  8 : 1111111001111001;
  9 : 1111111110011100;
  10 : 1111110010110100;
  11 : 1111010110100000;
  12 : 1111111110100000;
  13 : 1101111000111000;
  14 : 1111100111001011;
  15 : 1111110110001101;
  16 : 1110101010110110;
  17 : 1110001101010011;
  18 : 1111010110001100;
  19 : 1110101001010101;
  20 : 1111101000011011;
  21 : 1111000000001101;
  22 : 1111111111011110;
  23 : 1111110111101001;
  24 : 1111011100100110;
  25 : 1111110011001101;
  26 : 1101001001000000;
  27 : 1110100000000011;
  28 : 1110110100100111;
  29 : 1111111110011000;
END;
