WIDTH=16;
DEPTH=30;
ADDRESS_RADIX=UNS;
DATA_RADIX=BIN;
CONTENT BEGIN
  0 : 1101111001000010;
  1 : 1110111110010010;
  2 : 1111011100101111;
  3 : 1111110111011001;
  4 : 1111111001110101;
  5 : 1111011011000111;
  6 : 1111010100000011;
  7 : 1111100000011010;
  8 : 1111101110000110;
  9 : 1111111100110111;
  10 : 1110001101000111;
  11 : 1111111000101011;
  12 : 1111111110100100;
  13 : 1111100110101110;
  14 : 1100101101111010;
  15 : 1111111011000011;
  16 : 1111111111111111;
  17 : 1111111011011110;
  18 : 1111000101000111;
  19 : 1111110011111110;
  20 : 1111101110001101;
  21 : 1111100010010110;
  22 : 1111000010011101;
  23 : 1111111100110110;
  24 : 1110110110001101;
  25 : 1111000100010011;
  26 : 1111000101111010;
  27 : 1110111111110001;
  28 : 1111111010110011;
  29 : 1111110101110110;
END;
