WIDTH=16;
DEPTH=10;
ADDRESS_RADIX=UNS;
DATA_RADIX=BIN;
CONTENT BEGIN
  0 : 1011010111111001;
  1 : 1100100110110010;
  2 : 1101011111000101;
  3 : 1110011001100000;
  4 : 1100111101101111;
  5 : 1101010010011111;
  6 : 1011011111001110;
  7 : 1111101110111100;
  8 : 1111100101100101;
  9 : 1111111100101100;
END;
