WIDTH=16;
DEPTH=10;
ADDRESS_RADIX=UNS;
DATA_RADIX=BIN;
CONTENT BEGIN
  0 : 1100010001110000;
  1 : 1111110111010011;
  2 : 1110000101010010;
  3 : 1110010100111110;
  4 : 1011011001001000;
  5 : 1111001010101110;
  6 : 1100011100111011;
  7 : 1110100000110001;
  8 : 1111101001001110;
  9 : 1001101000010001;
END;
