WIDTH=16;
DEPTH=10;
ADDRESS_RADIX=UNS;
DATA_RADIX=BIN;
CONTENT BEGIN
  0 : 1111100000011011;
  1 : 1111001000111101;
  2 : 1010110001101010;
  3 : 1100111000010110;
  4 : 1111011000010100;
  5 : 1100001011100000;
  6 : 1011011010111010;
  7 : 1111111010110010;
  8 : 1111101101011001;
  9 : 1100011101010110;
END;
