WIDTH=16;
DEPTH=10;
ADDRESS_RADIX=UNS;
DATA_RADIX=BIN;
CONTENT BEGIN
  0 : 1111001111110000;
  1 : 1010011000001011;
  2 : 1010111000001011;
  3 : 1101011011000010;
  4 : 1011101010110111;
  5 : 1100100101100101;
  6 : 1111010100110101;
  7 : 1111111111101100;
  8 : 1111111011110001;
  9 : 1111101111100100;
END;
