WIDTH=16;
DEPTH=10;
ADDRESS_RADIX=UNS;
DATA_RADIX=BIN;
CONTENT BEGIN
  0 : 1111100001011100;
  1 : 1111110110110010;
  2 : 1101111100110110;
  3 : 1010110011000010;
  4 : 1110111001011100;
  5 : 1010110110001000;
  6 : 1111000001111110;
  7 : 1101110111010101;
  8 : 1111111100101011;
  9 : 1101000011111010;
END;
