WIDTH=16;
DEPTH=10;
ADDRESS_RADIX=UNS;
DATA_RADIX=BIN;
CONTENT BEGIN
  0 : 1111111000001101;
  1 : 1111111011101110;
  2 : 1011100111111100;
  3 : 1101010010110111;
  4 : 1011110111110110;
  5 : 1011100110110111;
  6 : 1101100101011001;
  7 : 1101000111100001;
  8 : 1110010100100110;
  9 : 1111001100000010;
END;
