WIDTH=16;
DEPTH=10;
ADDRESS_RADIX=UNS;
DATA_RADIX=BIN;
CONTENT BEGIN
  0 : 1100000010001110;
  1 : 1111111010010101;
  2 : 1111010110001111;
  3 : 1110000110001101;
  4 : 1101010010110111;
  5 : 1111010011000100;
  6 : 1100011111011000;
  7 : 1111000100010001;
  8 : 1011010011111010;
  9 : 1101001110001010;
END;
