WIDTH=16;
DEPTH=10;
ADDRESS_RADIX=UNS;
DATA_RADIX=BIN;
CONTENT BEGIN
  0 : 1100111101111110;
  1 : 1110011110000110;
  2 : 1110011111100100;
  3 : 1110010100000001;
  4 : 1111111001100010;
  5 : 1110000100000001;
  6 : 1011010010000110;
  7 : 1110110100110010;
  8 : 1010000010011001;
  9 : 1100000101001010;
END;
