WIDTH=16;
DEPTH=10;
ADDRESS_RADIX=UNS;
DATA_RADIX=BIN;
CONTENT BEGIN
  0 : 1110010000110001;
  1 : 1100101100010110;
  2 : 1111110111101100;
  3 : 1110100001111010;
  4 : 1100100001101101;
  5 : 1100000011100111;
  6 : 1111001110011001;
  7 : 1100111011100110;
  8 : 1110110111101010;
  9 : 1110001011100101;
END;
