WIDTH=16;
DEPTH=784;
ADDRESS_RADIX=UNS;
DATA_RADIX=BIN;
CONTENT BEGIN
  0 : 1111111111100111;
  1 : 1111111111111011;
  2 : 1111111111111111;
  3 : 1111111111110101;
  4 : 1111111111011111;
  5 : 1111111111111011;
  6 : 1111111110110011;
  7 : 1111111111110111;
  8 : 1111111111111111;
  9 : 1111111111100111;
  10 : 1111111111111101;
  11 : 1111111111100100;
  12 : 1111111111100010;
  13 : 1111111111111100;
  14 : 1111111111111101;
  15 : 1111111111110010;
  16 : 1111111111100000;
  17 : 1111111111111100;
  18 : 1111111111111010;
  19 : 1111111111101110;
  20 : 1111111111110100;
  21 : 1111111111110100;
  22 : 1111111111011010;
  23 : 1111111111101110;
  24 : 1111111111111111;
  25 : 1111111111111011;
  26 : 1111111111100000;
  27 : 1111111111111000;
  28 : 1111111111000100;
  29 : 1111111111111100;
  30 : 1111111111111110;
  31 : 1111111111011010;
  32 : 1111111111110110;
  33 : 1111111111110010;
  34 : 1111111111111100;
  35 : 1111111111000000;
  36 : 1111111111001111;
  37 : 1111111111001001;
  38 : 0000000000000000;
  39 : 1111111111110101;
  40 : 1111111110010000;
  41 : 1111111110111100;
  42 : 1111111110101000;
  43 : 1111111101101000;
  44 : 1111111110010111;
  45 : 1111111111110000;
  46 : 1111111111111000;
  47 : 1111111110100110;
  48 : 1111111111111100;
  49 : 1111111111001101;
  50 : 1111111111011100;
  51 : 0000000000000000;
  52 : 1111111111011001;
  53 : 1111111111100011;
  54 : 1111111111100100;
  55 : 1111111111111110;
  56 : 1111111111110010;
  57 : 1111111111101110;
  58 : 1111111111101100;
  59 : 1111111111111111;
  60 : 1111111111110010;
  61 : 1111111111010101;
  62 : 1111111111111111;
  63 : 1111111110110000;
  64 : 1111111110111110;
  65 : 1111111111000000;
  66 : 1111111111010110;
  67 : 1111111111100010;
  68 : 1111111101110011;
  69 : 1111111101110001;
  70 : 1111111110011010;
  71 : 1111111101011100;
  72 : 1111111100101110;
  73 : 1111111111110100;
  74 : 1111111111011001;
  75 : 1111111111000110;
  76 : 1111111111100010;
  77 : 1111111111111100;
  78 : 1111111111101010;
  79 : 1111111111011010;
  80 : 1111111111110100;
  81 : 1111111111110001;
  82 : 1111111111110001;
  83 : 1111111111110000;
  84 : 1111111111100110;
  85 : 1111111111101101;
  86 : 1111111111100001;
  87 : 1111111111111110;
  88 : 1111111111010001;
  89 : 1111111111111101;
  90 : 1111111111101010;
  91 : 1111111111010100;
  92 : 1111111101011110;
  93 : 1111111110011001;
  94 : 1111111101010110;
  95 : 1111111111001010;
  96 : 1111111010100000;
  97 : 1111110101111101;
  98 : 1111111101110010;
  99 : 1111111111101010;
  100 : 1111111101111011;
  101 : 1111110011100100;
  102 : 1111111111100100;
  103 : 1111111000110011;
  104 : 1111111100111111;
  105 : 1111111110110001;
  106 : 1111111111110000;
  107 : 1111111111111010;
  108 : 1111111111111111;
  109 : 1111111111110100;
  110 : 1111111111111000;
  111 : 1111111111111111;
  112 : 1111111111111110;
  113 : 1111111111111010;
  114 : 1111111111010000;
  115 : 1111111111100100;
  116 : 1111111111111100;
  117 : 1111111111001100;
  118 : 1111111111001100;
  119 : 1111111111010001;
  120 : 1111111101000011;
  121 : 1111111000101100;
  122 : 1111111011011001;
  123 : 1111111100100000;
  124 : 1111111111011110;
  125 : 1111111111001011;
  126 : 1111101001111111;
  127 : 1111101011110011;
  128 : 1111111111001010;
  129 : 1111111010101110;
  130 : 1111111101001011;
  131 : 1111111111000111;
  132 : 1111111110010110;
  133 : 1111110100000001;
  134 : 1111111000011101;
  135 : 1111111111100001;
  136 : 1111111101101111;
  137 : 1111111011101011;
  138 : 1111111100011000;
  139 : 1111111111101101;
  140 : 1111111111111111;
  141 : 1111111111000011;
  142 : 1111111110111111;
  143 : 1111111111010101;
  144 : 1111111111111000;
  145 : 1111111111101101;
  146 : 1111110110101001;
  147 : 1111110011001010;
  148 : 1111111100110001;
  149 : 1111110110011110;
  150 : 1111110000100111;
  151 : 1111110111110100;
  152 : 1111111110001100;
  153 : 1111111000110111;
  154 : 1111110100101110;
  155 : 1111111011011110;
  156 : 1111101110100101;
  157 : 1111100100101111;
  158 : 1111111000000100;
  159 : 1111110110100100;
  160 : 1111111000100001;
  161 : 1111100101000011;
  162 : 1111110100100000;
  163 : 1111111110001010;
  164 : 1111111111110001;
  165 : 1111111011100111;
  166 : 1111111101000101;
  167 : 0000000000000000;
  168 : 1111111111111101;
  169 : 1111111111100111;
  170 : 1111111111010110;
  171 : 1111111110100000;
  172 : 1111111111010000;
  173 : 1111111110011011;
  174 : 1111111010101000;
  175 : 1111111100101110;
  176 : 1111111111100110;
  177 : 1111110001110000;
  178 : 1111101111001000;
  179 : 1111111000001010;
  180 : 1111111000110000;
  181 : 1111111110010110;
  182 : 1111111001110101;
  183 : 1111111100110111;
  184 : 1111111100001110;
  185 : 1111110111110110;
  186 : 1111111001001100;
  187 : 1111110010001111;
  188 : 1111100111010010;
  189 : 1111111110011110;
  190 : 1111111110011001;
  191 : 1111111110011110;
  192 : 1111111100010001;
  193 : 1111110101101110;
  194 : 1111111111100110;
  195 : 1111111111111001;
  196 : 1111111111110111;
  197 : 1111111110111010;
  198 : 1111111110110011;
  199 : 1111111111101101;
  200 : 1111111110111010;
  201 : 1111111000101111;
  202 : 1111111000110001;
  203 : 1111111010010110;
  204 : 1111111001001110;
  205 : 1111111111110110;
  206 : 1111110001110001;
  207 : 1111111100010101;
  208 : 1111111110101000;
  209 : 1111110010011100;
  210 : 1111111100110110;
  211 : 1111110111100111;
  212 : 1111111110010011;
  213 : 1111110111110101;
  214 : 1111111011011001;
  215 : 1111110110011011;
  216 : 1111110010000010;
  217 : 1111110100100010;
  218 : 1111111111100000;
  219 : 1111111010001011;
  220 : 1111111111101111;
  221 : 1111111010010001;
  222 : 1111111000111101;
  223 : 1111111111011000;
  224 : 1111111111110011;
  225 : 1111111111011101;
  226 : 1111111110111010;
  227 : 1111111111100110;
  228 : 1111111110011100;
  229 : 1111111100010100;
  230 : 1111110110110000;
  231 : 1111111001011001;
  232 : 1111110110000100;
  233 : 1111111111110011;
  234 : 1111111110111001;
  235 : 1111111101111111;
  236 : 1111111111101000;
  237 : 1111111001011111;
  238 : 1111111101000101;
  239 : 1111111011001100;
  240 : 1111100011100011;
  241 : 1111111111111100;
  242 : 1111111111101001;
  243 : 1111101001111111;
  244 : 1111100100000101;
  245 : 1111101100100000;
  246 : 1111111011101100;
  247 : 1111111010000010;
  248 : 1111111110111001;
  249 : 1111111011100110;
  250 : 1111111111000111;
  251 : 1111111110011000;
  252 : 0000000000000000;
  253 : 1111111111111110;
  254 : 1111111111000011;
  255 : 1111111100110001;
  256 : 1111111111101101;
  257 : 1111111110110110;
  258 : 1111111110000101;
  259 : 1111111001100011;
  260 : 1111111111101110;
  261 : 1111110011000111;
  262 : 1111111111111110;
  263 : 1111110111101110;
  264 : 1111111101000110;
  265 : 1111111100011100;
  266 : 1111111001101000;
  267 : 1111111100011101;
  268 : 1111111010100000;
  269 : 1111101010001001;
  270 : 1111101110100111;
  271 : 1111100100001010;
  272 : 1111110000101010;
  273 : 1111111100000110;
  274 : 1111110111101000;
  275 : 1111110011110011;
  276 : 1111110010011111;
  277 : 1111111110001100;
  278 : 1111111100101111;
  279 : 1111111000001000;
  280 : 1111111111101000;
  281 : 1111111111111110;
  282 : 1111111111010001;
  283 : 1111111001000110;
  284 : 1111111110010010;
  285 : 1111111000001000;
  286 : 1111110100100101;
  287 : 1111110110110100;
  288 : 1111110110001011;
  289 : 1111110010111000;
  290 : 1111110100110100;
  291 : 1111111111010010;
  292 : 1111111111111111;
  293 : 1111111000000001;
  294 : 1111100000010011;
  295 : 1111111010000000;
  296 : 1111111001100010;
  297 : 1111100110010111;
  298 : 1111100010010010;
  299 : 1111101101010111;
  300 : 1111101010101000;
  301 : 1111111100101000;
  302 : 1111110000011100;
  303 : 1111101111101000;
  304 : 1111111011101110;
  305 : 1111111001011011;
  306 : 1111111110011111;
  307 : 1111111110011100;
  308 : 1111111111111000;
  309 : 1111111111111101;
  310 : 1111111111011101;
  311 : 1111111111111110;
  312 : 1111111111001010;
  313 : 1111111111110110;
  314 : 1111101111000000;
  315 : 1111111111111111;
  316 : 1111111110100000;
  317 : 1111111011100011;
  318 : 1111111111000111;
  319 : 1111111101100100;
  320 : 1111111111101100;
  321 : 1111111111111001;
  322 : 1111110111101000;
  323 : 1111111000001011;
  324 : 1111111100100011;
  325 : 1111110101001010;
  326 : 1111110110101000;
  327 : 1111110100100001;
  328 : 1111101110111111;
  329 : 1111111011101000;
  330 : 1111110100001101;
  331 : 1111101110111110;
  332 : 1111110100100110;
  333 : 1111110100111000;
  334 : 1111110011001100;
  335 : 1111111111110000;
  336 : 1111111111111011;
  337 : 1111111111110000;
  338 : 1111111111100001;
  339 : 1111111110010110;
  340 : 1111111100111000;
  341 : 1111110000011000;
  342 : 1111100110110111;
  343 : 1111111111011000;
  344 : 1111111111111011;
  345 : 1111111100111001;
  346 : 1111111110000111;
  347 : 1111111100010010;
  348 : 1111111100101011;
  349 : 1111111111010001;
  350 : 1111111111100001;
  351 : 1111100000001101;
  352 : 1111110110001110;
  353 : 1111110000110100;
  354 : 1111110010000111;
  355 : 1111101111101011;
  356 : 1111110101100010;
  357 : 1111110010100001;
  358 : 1111101100110010;
  359 : 1111101111111000;
  360 : 1111111001010001;
  361 : 1111111011111111;
  362 : 1111111111101100;
  363 : 1111111111011011;
  364 : 1111111111110001;
  365 : 1111111111111000;
  366 : 1111111111000011;
  367 : 1111111110100101;
  368 : 1111111111111110;
  369 : 1111111001101110;
  370 : 1111111110110101;
  371 : 1111111110100010;
  372 : 1111111111011100;
  373 : 1111111110111001;
  374 : 1111111001011110;
  375 : 1111111000110001;
  376 : 1111100101111000;
  377 : 1111111010001001;
  378 : 1111111111001110;
  379 : 1111111000101110;
  380 : 1111111110001011;
  381 : 1111110101110110;
  382 : 1111110101100110;
  383 : 1111111011001000;
  384 : 1111111101010100;
  385 : 1111111101100101;
  386 : 1111101110111111;
  387 : 1111110001110011;
  388 : 1111111010001000;
  389 : 1111111100010110;
  390 : 1111111101011100;
  391 : 1111111110100010;
  392 : 1111111111111100;
  393 : 1111111111101111;
  394 : 1111111111110011;
  395 : 1111111111011111;
  396 : 1111111111001011;
  397 : 1111111110111110;
  398 : 1111111000001101;
  399 : 1111111110000110;
  400 : 1111111111101000;
  401 : 1111111000011100;
  402 : 1111111010100010;
  403 : 1111111001100101;
  404 : 1111110110001000;
  405 : 1111111000010001;
  406 : 1111111101110101;
  407 : 1111111011111111;
  408 : 1111110100011000;
  409 : 1111111001110101;
  410 : 1111111100010100;
  411 : 1111111010001100;
  412 : 1111111000110101;
  413 : 1111111100110001;
  414 : 1111111100110011;
  415 : 1111111111111011;
  416 : 1111111010010110;
  417 : 1111111110000100;
  418 : 1111111101011011;
  419 : 1111111111101001;
  420 : 1111111111110110;
  421 : 1111111111101101;
  422 : 1111111111001100;
  423 : 1111111100011001;
  424 : 1111111110001110;
  425 : 1111110110110010;
  426 : 1111110001101101;
  427 : 1111111011000001;
  428 : 1111111011000101;
  429 : 1111111111001000;
  430 : 1111110101010100;
  431 : 1111111110001110;
  432 : 1111111111011011;
  433 : 1111111110011011;
  434 : 1111110101110100;
  435 : 1111111111010101;
  436 : 1111111010111001;
  437 : 1111101111110000;
  438 : 1111110111001100;
  439 : 1111101101000111;
  440 : 1111101110011000;
  441 : 1111111111101000;
  442 : 1111111111100000;
  443 : 1111111000101101;
  444 : 1111111101001110;
  445 : 1111111001000110;
  446 : 1111111101000100;
  447 : 1111111111110010;
  448 : 1111111111101110;
  449 : 1111111111111000;
  450 : 1111111111110100;
  451 : 1111111011011100;
  452 : 1111111111100110;
  453 : 1111110010111001;
  454 : 1111101101110010;
  455 : 1111110111111111;
  456 : 1111111011110010;
  457 : 1111111000100001;
  458 : 1111111100111110;
  459 : 1111110010011111;
  460 : 1111101101101000;
  461 : 1111111001011011;
  462 : 1111101111101101;
  463 : 1111110110000010;
  464 : 1111111110101011;
  465 : 1111111111111001;
  466 : 1111111110011100;
  467 : 1111110010010111;
  468 : 1111111110000100;
  469 : 1111111101100011;
  470 : 1111110000001100;
  471 : 1111111100110000;
  472 : 1111110000011101;
  473 : 1111110001101101;
  474 : 1111111001001110;
  475 : 1111111111111110;
  476 : 1111111111110101;
  477 : 1111111111111001;
  478 : 1111111111001110;
  479 : 1111111100101000;
  480 : 1111111111111111;
  481 : 1111110010000111;
  482 : 1111110001000111;
  483 : 1111101011100011;
  484 : 1111111111100000;
  485 : 1111111111011001;
  486 : 1111100101001000;
  487 : 1111111101001111;
  488 : 1111110000001001;
  489 : 1111110011001000;
  490 : 1111111000110001;
  491 : 1111111000000011;
  492 : 1111111010110111;
  493 : 1111111110011010;
  494 : 1111111001100000;
  495 : 1111110010110111;
  496 : 1111111000100010;
  497 : 1111100111111111;
  498 : 1111101001111001;
  499 : 1111110111101101;
  500 : 1111110100100100;
  501 : 1111110111001110;
  502 : 1111111111001100;
  503 : 1111111111111100;
  504 : 1111111111100001;
  505 : 1111111111010010;
  506 : 1111111111111111;
  507 : 1111111101010100;
  508 : 1111111110011100;
  509 : 1111110110000001;
  510 : 1111110001000100;
  511 : 1111100011011110;
  512 : 1111100110010010;
  513 : 1111100011110101;
  514 : 1111111001101000;
  515 : 1111111110011100;
  516 : 1111101001110111;
  517 : 1111111110011011;
  518 : 1111110001010010;
  519 : 1111111100111101;
  520 : 1111101000000010;
  521 : 1111110110100110;
  522 : 1111010110000000;
  523 : 1111100000100011;
  524 : 1111011011100000;
  525 : 1111011100100111;
  526 : 1111011110111100;
  527 : 1111101010111001;
  528 : 1111110101010101;
  529 : 1111111100111000;
  530 : 1111111111001011;
  531 : 1111111111101101;
  532 : 0000000000000000;
  533 : 1111111111111110;
  534 : 1111111111010011;
  535 : 1111111111010110;
  536 : 1111111110111110;
  537 : 1111111100011100;
  538 : 1111101110010001;
  539 : 1111100000011000;
  540 : 1111011011010100;
  541 : 1111011010100001;
  542 : 1111010111111111;
  543 : 1111101101100001;
  544 : 1111111111010000;
  545 : 1111111100110100;
  546 : 1111111100010010;
  547 : 1111110001011011;
  548 : 1111010110001001;
  549 : 1111010011010000;
  550 : 1111010000001011;
  551 : 1111100111101010;
  552 : 1111011011110110;
  553 : 1111011100101100;
  554 : 1111011010011101;
  555 : 1111100100001000;
  556 : 1111110011110110;
  557 : 1111111111100101;
  558 : 1111111111000000;
  559 : 1111111111100100;
  560 : 1111111111110010;
  561 : 1111111111100010;
  562 : 1111111111001101;
  563 : 1111111100100100;
  564 : 1111111011111110;
  565 : 1111110110011000;
  566 : 1111101000011011;
  567 : 1111100000110111;
  568 : 1111100010000111;
  569 : 1111011001010010;
  570 : 1111011010000101;
  571 : 1111110101011110;
  572 : 1111111110100001;
  573 : 1111101111000010;
  574 : 1111111000110111;
  575 : 1111101101010010;
  576 : 1111110010000110;
  577 : 1111100000101101;
  578 : 1111101101000101;
  579 : 1111011010000111;
  580 : 1111011101101110;
  581 : 1111100011010111;
  582 : 1111101101010011;
  583 : 1111110000011110;
  584 : 1111111001001111;
  585 : 1111111111111001;
  586 : 1111111111110111;
  587 : 1111111111111010;
  588 : 1111111111111000;
  589 : 1111111111111001;
  590 : 1111111111001110;
  591 : 1111111010101101;
  592 : 1111111011001100;
  593 : 1111100111010011;
  594 : 1111100010011110;
  595 : 1111011111010110;
  596 : 1111101111010101;
  597 : 1111110111101110;
  598 : 1111111101011101;
  599 : 1111111110011110;
  600 : 1111111100111101;
  601 : 1111101010010110;
  602 : 1111101011001111;
  603 : 1111011110111110;
  604 : 1111101111010000;
  605 : 1111101101010010;
  606 : 1111111001001110;
  607 : 1111101110011001;
  608 : 1111110001011001;
  609 : 1111101111101100;
  610 : 1111110100100110;
  611 : 1111110110110110;
  612 : 1111111001010000;
  613 : 1111111111111001;
  614 : 1111111111100010;
  615 : 1111111111011001;
  616 : 1111111111111010;
  617 : 1111111111010110;
  618 : 1111111111110000;
  619 : 1111111101001110;
  620 : 1111110101001100;
  621 : 1111011011101001;
  622 : 1111011100011000;
  623 : 1111100111111111;
  624 : 1111111111110101;
  625 : 1111111101111111;
  626 : 1111110101111001;
  627 : 1111100100111100;
  628 : 1111110011010111;
  629 : 1111111000011010;
  630 : 1111111111111101;
  631 : 1111111100111111;
  632 : 1111111101011000;
  633 : 1111111100101100;
  634 : 1111111111010011;
  635 : 1111111101111101;
  636 : 1111111000100011;
  637 : 1111111001101110;
  638 : 1111110100111111;
  639 : 1111110111000010;
  640 : 1111111010100000;
  641 : 1111111111110010;
  642 : 1111111111101011;
  643 : 1111111111111100;
  644 : 1111111111110000;
  645 : 1111111111011011;
  646 : 1111111100110110;
  647 : 1111111101110111;
  648 : 1111110000101000;
  649 : 1111011001011110;
  650 : 1111011001010101;
  651 : 1111100111101100;
  652 : 1111111111000100;
  653 : 1111111111110000;
  654 : 1111100000100010;
  655 : 1111111111101100;
  656 : 1111111001001111;
  657 : 1111111100100111;
  658 : 1111111001111111;
  659 : 1111110001101010;
  660 : 1111101100010100;
  661 : 1111111100000100;
  662 : 1111111111111111;
  663 : 1111111000100101;
  664 : 1111110110000100;
  665 : 1111111111100001;
  666 : 1111110001100010;
  667 : 1111110101111011;
  668 : 1111111101000100;
  669 : 1111111111101011;
  670 : 1111111111110010;
  671 : 1111111111111010;
  672 : 1111111111111010;
  673 : 1111111111110110;
  674 : 1111111111100011;
  675 : 1111111110111010;
  676 : 1111110101111000;
  677 : 1111101100000011;
  678 : 1111100011111110;
  679 : 1111101000100111;
  680 : 1111111111001100;
  681 : 1111111111100100;
  682 : 1111111111100101;
  683 : 1111110001011000;
  684 : 1111011100011000;
  685 : 1111111011100010;
  686 : 1111111001011010;
  687 : 1111111111110011;
  688 : 1111101111101111;
  689 : 1111111101010100;
  690 : 1111110101001110;
  691 : 1111110110101010;
  692 : 1111111111000101;
  693 : 1111111011001001;
  694 : 1111101110101101;
  695 : 1111111000001100;
  696 : 1111111100110101;
  697 : 1111111111111100;
  698 : 1111111111110010;
  699 : 1111111111101100;
  700 : 1111111111111100;
  701 : 1111111111110100;
  702 : 1111111111000000;
  703 : 1111111110111011;
  704 : 1111111110011011;
  705 : 1111111100011100;
  706 : 1111111000001111;
  707 : 1111110100101011;
  708 : 1111111110101111;
  709 : 1111111100010000;
  710 : 1111110011001111;
  711 : 1111111010001011;
  712 : 1111110010111111;
  713 : 1111111010101111;
  714 : 1111111110000110;
  715 : 1111110101011101;
  716 : 1111110001001110;
  717 : 1111111100101101;
  718 : 1111110010000011;
  719 : 1111101000100111;
  720 : 1111110111100011;
  721 : 1111101111100001;
  722 : 1111110100010001;
  723 : 1111111000101110;
  724 : 1111111100010011;
  725 : 1111111111011011;
  726 : 1111111111101111;
  727 : 1111111110111011;
  728 : 1111111111100010;
  729 : 1111111111110011;
  730 : 1111111111101001;
  731 : 1111111111101001;
  732 : 1111111111111101;
  733 : 1111111111100000;
  734 : 1111111110101100;
  735 : 1111111111101111;
  736 : 1111111111000000;
  737 : 1111111101101010;
  738 : 1111111111011100;
  739 : 1111111111100000;
  740 : 1111111110110001;
  741 : 1111111100011100;
  742 : 1111111101000110;
  743 : 1111111110100110;
  744 : 1111111010111001;
  745 : 1111110111001110;
  746 : 1111110101111010;
  747 : 1111111000000000;
  748 : 1111110110110110;
  749 : 1111110101011100;
  750 : 1111111100011101;
  751 : 1111111111011111;
  752 : 1111111111111001;
  753 : 1111111111101010;
  754 : 1111111111111111;
  755 : 1111111111111001;
  756 : 1111111111101011;
  757 : 1111111111001100;
  758 : 1111111111110101;
  759 : 1111111111111011;
  760 : 1111111111101011;
  761 : 1111111111011000;
  762 : 1111111111111011;
  763 : 1111111111110101;
  764 : 1111111111111111;
  765 : 1111111111101010;
  766 : 1111111111110001;
  767 : 1111111111111011;
  768 : 1111111111101001;
  769 : 1111111111111011;
  770 : 1111111111110101;
  771 : 1111111111111111;
  772 : 1111111111111011;
  773 : 1111111111111001;
  774 : 1111111111110101;
  775 : 1111111111110111;
  776 : 1111111111110111;
  777 : 1111111111011010;
  778 : 1111111111000101;
  779 : 1111111111110001;
  780 : 1111111111111101;
  781 : 1111111111000010;
  782 : 1111111111100011;
  783 : 1111111111111101;
END;
