WIDTH=16;
DEPTH=784;
ADDRESS_RADIX=UNS;
DATA_RADIX=BIN;
CONTENT BEGIN
  0 : 1111111111100110;
  1 : 1111111111111010;
  2 : 1111111111100011;
  3 : 1111111111110001;
  4 : 1111111111111110;
  5 : 1111111111111000;
  6 : 1111111111000001;
  7 : 1111111111010111;
  8 : 1111111111110011;
  9 : 1111111111101110;
  10 : 1111111111011010;
  11 : 1111111111110010;
  12 : 1111111111110000;
  13 : 1111111111010010;
  14 : 1111111111111111;
  15 : 1111111111111011;
  16 : 1111111111101110;
  17 : 1111111111110111;
  18 : 1111111111110101;
  19 : 1111111111111100;
  20 : 1111111111111101;
  21 : 1111111111110000;
  22 : 1111111111111110;
  23 : 1111111111100111;
  24 : 1111111111110011;
  25 : 1111111111100110;
  26 : 1111111111100101;
  27 : 1111111111101110;
  28 : 1111111111111100;
  29 : 1111111111010100;
  30 : 1111111111111111;
  31 : 1111111111111110;
  32 : 1111111111110000;
  33 : 1111111111010110;
  34 : 1111111111101110;
  35 : 1111111111111001;
  36 : 1111111111000100;
  37 : 1111111111101001;
  38 : 1111111111110000;
  39 : 1111111111110010;
  40 : 1111111110000100;
  41 : 1111111111100010;
  42 : 1111111111101110;
  43 : 1111111101010001;
  44 : 1111111110001000;
  45 : 1111111111110110;
  46 : 1111111111101011;
  47 : 1111111111100001;
  48 : 1111111111100000;
  49 : 1111111111001101;
  50 : 1111111111010001;
  51 : 1111111111111110;
  52 : 1111111111110001;
  53 : 1111111111101010;
  54 : 1111111111101010;
  55 : 1111111111111011;
  56 : 1111111111111101;
  57 : 1111111111111001;
  58 : 1111111111110110;
  59 : 1111111110111000;
  60 : 1111111111010100;
  61 : 1111111111001001;
  62 : 1111111111011101;
  63 : 1111111111101100;
  64 : 0000000000000000;
  65 : 1111111111100100;
  66 : 1111111110100000;
  67 : 1111111111000110;
  68 : 1111111110100000;
  69 : 1111111110110101;
  70 : 1111111110001111;
  71 : 1111111111010101;
  72 : 1111111111100110;
  73 : 1111111100001000;
  74 : 1111111011110010;
  75 : 1111111011011011;
  76 : 1111111100110011;
  77 : 1111111100011110;
  78 : 1111111110000110;
  79 : 1111111110101110;
  80 : 1111111111100101;
  81 : 1111111111111011;
  82 : 1111111111111001;
  83 : 1111111111101000;
  84 : 1111111111110010;
  85 : 1111111111110101;
  86 : 1111111111101110;
  87 : 1111111111011100;
  88 : 1111111111100111;
  89 : 1111111111111000;
  90 : 1111111111111101;
  91 : 1111111111111110;
  92 : 1111111000011100;
  93 : 1111111101111110;
  94 : 1111111111010100;
  95 : 1111111111110000;
  96 : 1111111000100110;
  97 : 1111111101100001;
  98 : 1111110001011000;
  99 : 1111110101111001;
  100 : 1111110111111000;
  101 : 1111110111010010;
  102 : 1111110110011100;
  103 : 1111110100111001;
  104 : 1111110010011011;
  105 : 1111110111000100;
  106 : 1111111000100101;
  107 : 1111111011000010;
  108 : 1111111111000000;
  109 : 1111111100000011;
  110 : 1111111111111001;
  111 : 1111111111011010;
  112 : 1111111111101011;
  113 : 1111111110110010;
  114 : 0000000000000000;
  115 : 1111111111110110;
  116 : 1111111111001100;
  117 : 1111111111111000;
  118 : 1111111111100101;
  119 : 1111111000001011;
  120 : 1111110010010001;
  121 : 1111110010111000;
  122 : 1111110000011010;
  123 : 1111111110101101;
  124 : 1111110100101100;
  125 : 1111111111000111;
  126 : 1111101111110011;
  127 : 1111101010111111;
  128 : 1111110110111010;
  129 : 1111111010101111;
  130 : 1111111011011011;
  131 : 1111111010100001;
  132 : 1111110000000011;
  133 : 1111110100100100;
  134 : 1111110110000010;
  135 : 1111111111110000;
  136 : 1111111110010001;
  137 : 1111111011111000;
  138 : 1111111100011000;
  139 : 1111111111111111;
  140 : 1111111111111101;
  141 : 1111111111100100;
  142 : 1111111111111011;
  143 : 1111111111000010;
  144 : 1111111111111110;
  145 : 1111111110110110;
  146 : 1111111110011001;
  147 : 1111111111001101;
  148 : 1111111010001100;
  149 : 1111111010011111;
  150 : 1111110011000001;
  151 : 1111110001101001;
  152 : 1111110001011000;
  153 : 1111111110101110;
  154 : 1111110011111010;
  155 : 1111111010001100;
  156 : 1111111011000011;
  157 : 1111111101110110;
  158 : 1111110011010000;
  159 : 1111101011001000;
  160 : 1111111111110000;
  161 : 1111111100100000;
  162 : 1111111110101010;
  163 : 1111111000000001;
  164 : 1111111000101001;
  165 : 1111111000101001;
  166 : 1111111111111001;
  167 : 1111111111101011;
  168 : 1111111111101011;
  169 : 1111111111111100;
  170 : 1111111111111111;
  171 : 1111111111110100;
  172 : 1111111100111101;
  173 : 1111111010010100;
  174 : 1111111110100010;
  175 : 1111111111010001;
  176 : 1111110001010000;
  177 : 1111111101101100;
  178 : 1111111111110101;
  179 : 1111110011000100;
  180 : 1111100001000110;
  181 : 1111111000001100;
  182 : 1111101110010010;
  183 : 1111111001011100;
  184 : 1111111110101001;
  185 : 1111110101011110;
  186 : 1111111011000011;
  187 : 1111111110000101;
  188 : 1111111110100001;
  189 : 1111111011101100;
  190 : 1111111111001000;
  191 : 1111111110010011;
  192 : 1111111111000000;
  193 : 1111111111011100;
  194 : 1111111111111011;
  195 : 1111111111101111;
  196 : 1111111111101101;
  197 : 1111111111111100;
  198 : 1111111111011011;
  199 : 1111111100100111;
  200 : 1111111001110101;
  201 : 1111110111101111;
  202 : 1111110101010000;
  203 : 1111111111100100;
  204 : 1111110100101110;
  205 : 1111111110000000;
  206 : 1111111010000011;
  207 : 1111111101110101;
  208 : 1111111111001101;
  209 : 1111101100100100;
  210 : 1111101001111001;
  211 : 1111110011011011;
  212 : 1111111111101001;
  213 : 1111110101011001;
  214 : 1111110011011011;
  215 : 1111111001000001;
  216 : 1111111011100100;
  217 : 1111111110100110;
  218 : 1111111110011100;
  219 : 1111111111111110;
  220 : 1111111111011010;
  221 : 1111111111111100;
  222 : 1111111100011111;
  223 : 1111111111100100;
  224 : 1111111111010111;
  225 : 1111111111111010;
  226 : 1111111101101001;
  227 : 1111111100100100;
  228 : 1111111010000011;
  229 : 1111111101011111;
  230 : 1111111110000111;
  231 : 1111110100010001;
  232 : 1111111011011000;
  233 : 1111111111111010;
  234 : 1111111100110011;
  235 : 1111110101101011;
  236 : 1111111111100101;
  237 : 1111110110011110;
  238 : 1111101011110100;
  239 : 1111111010001010;
  240 : 1111110100111110;
  241 : 1111110111000101;
  242 : 1111111100000101;
  243 : 1111111011010110;
  244 : 1111110011101100;
  245 : 1111111110000000;
  246 : 1111111101100101;
  247 : 1111111111101000;
  248 : 1111111111000110;
  249 : 1111110011000111;
  250 : 1111111000110110;
  251 : 1111111111000001;
  252 : 1111111111111011;
  253 : 1111111111111101;
  254 : 1111111101101110;
  255 : 1111111101111011;
  256 : 1111111100100011;
  257 : 1111111100100000;
  258 : 1111111111011001;
  259 : 1111111111010101;
  260 : 1111110000010011;
  261 : 1111111111101100;
  262 : 1111110100111111;
  263 : 1111100010001001;
  264 : 1111111110100000;
  265 : 1111100110110111;
  266 : 1111111010100100;
  267 : 1111110001110011;
  268 : 1111111101100001;
  269 : 1111111110001100;
  270 : 1111111100110100;
  271 : 1111111110010111;
  272 : 1111111111101001;
  273 : 1111111001000110;
  274 : 1111111100101111;
  275 : 1111111000000111;
  276 : 1111111001000000;
  277 : 1111110001010100;
  278 : 1111111110110010;
  279 : 1111111111111001;
  280 : 1111111111111000;
  281 : 1111111111111101;
  282 : 1111111100110011;
  283 : 1111111010010110;
  284 : 1111111110001000;
  285 : 1111111111100010;
  286 : 1111111011110000;
  287 : 1111111010100111;
  288 : 1111111011100001;
  289 : 1111111001010111;
  290 : 1111111100110010;
  291 : 1111110001101000;
  292 : 1111111100100100;
  293 : 1111111010100111;
  294 : 1111111111100010;
  295 : 1111110010101000;
  296 : 1111110100001001;
  297 : 1111101010111100;
  298 : 1111111001011101;
  299 : 1111111110010111;
  300 : 1111111011001010;
  301 : 1111110010000000;
  302 : 1111111000000101;
  303 : 1111111110011001;
  304 : 1111110000000110;
  305 : 1111111101000101;
  306 : 1111111101100110;
  307 : 1111111111111010;
  308 : 1111111111101100;
  309 : 1111111111110000;
  310 : 1111111111111010;
  311 : 1111111010111101;
  312 : 1111111011100001;
  313 : 1111111001110100;
  314 : 1111111111101111;
  315 : 1111111010101011;
  316 : 1111111011001011;
  317 : 1111111000010111;
  318 : 1111111111110101;
  319 : 1111111101011011;
  320 : 1111110101011000;
  321 : 1111101101111101;
  322 : 1111111111100010;
  323 : 1111110110011011;
  324 : 1111111100011101;
  325 : 1111111010111111;
  326 : 1111111111010011;
  327 : 1111111010011111;
  328 : 1111111011011000;
  329 : 1111110100011100;
  330 : 1111111111110101;
  331 : 1111111010010101;
  332 : 1111111010101010;
  333 : 1111111111010110;
  334 : 1111111111010011;
  335 : 1111111111101000;
  336 : 1111111111111100;
  337 : 1111111111110000;
  338 : 1111111110100010;
  339 : 1111111100100000;
  340 : 1111111100000010;
  341 : 1111110111011011;
  342 : 1111110011110110;
  343 : 1111111110010100;
  344 : 1111111110100100;
  345 : 1111111100000100;
  346 : 1111111110110010;
  347 : 1111111110111000;
  348 : 1111111001111001;
  349 : 1111111110100110;
  350 : 1111111111111000;
  351 : 1111100001011011;
  352 : 1111111100011101;
  353 : 1111111110001011;
  354 : 1111111111111110;
  355 : 1111111101001111;
  356 : 1111111110000110;
  357 : 1111111011010101;
  358 : 1111111110100100;
  359 : 1111111010011001;
  360 : 1111110101101011;
  361 : 1111111111101010;
  362 : 1111111111101001;
  363 : 1111111111111110;
  364 : 1111111111111010;
  365 : 1111111111100100;
  366 : 1111111111011111;
  367 : 1111111110000100;
  368 : 1111110110111100;
  369 : 1111111001001001;
  370 : 1111110010100101;
  371 : 1111110110010010;
  372 : 1111111110100101;
  373 : 1111111111010000;
  374 : 1111111111001000;
  375 : 1111111001010101;
  376 : 1111111001010000;
  377 : 1111111100111110;
  378 : 1111111111001010;
  379 : 1111110001010010;
  380 : 1111111011110000;
  381 : 1111111110110101;
  382 : 1111111111111100;
  383 : 1111110011001001;
  384 : 1111111101011011;
  385 : 1111111111100111;
  386 : 1111111100101001;
  387 : 1111111110011101;
  388 : 1111110101100010;
  389 : 1111111001001011;
  390 : 1111111111000110;
  391 : 1111111111101101;
  392 : 1111111111111111;
  393 : 1111111111110110;
  394 : 1111111110101100;
  395 : 1111111111101110;
  396 : 1111111111011001;
  397 : 1111101011100001;
  398 : 1111110001000111;
  399 : 1111101111000110;
  400 : 1111110011110110;
  401 : 1111111011101111;
  402 : 1111111110111000;
  403 : 1111111001001001;
  404 : 1111101101110000;
  405 : 1111111111101001;
  406 : 1111111010010110;
  407 : 1111101101000010;
  408 : 1111111111011001;
  409 : 1111111010001010;
  410 : 1111111101001001;
  411 : 1111111100111011;
  412 : 1111111111110101;
  413 : 1111111011000100;
  414 : 1111101110001111;
  415 : 1111111100101111;
  416 : 1111111101111100;
  417 : 1111111010101001;
  418 : 1111111100110100;
  419 : 1111111111111101;
  420 : 1111111111111000;
  421 : 1111111111111011;
  422 : 1111111110010001;
  423 : 1111111111111001;
  424 : 1111111110100010;
  425 : 1111111100000001;
  426 : 1111101101000100;
  427 : 1111011011101111;
  428 : 1111101101000010;
  429 : 1111111001001100;
  430 : 1111110111011011;
  431 : 1111111111011001;
  432 : 1111100111001101;
  433 : 1111111111100000;
  434 : 1111111010000011;
  435 : 1111101111010111;
  436 : 1111111001010101;
  437 : 1111111000111001;
  438 : 1111111010000101;
  439 : 1111111101010110;
  440 : 1111101001010000;
  441 : 1111101010010100;
  442 : 1111011101011110;
  443 : 1111110110001001;
  444 : 1111111101000100;
  445 : 1111111111110001;
  446 : 1111111111111101;
  447 : 1111111111011111;
  448 : 1111111111100111;
  449 : 1111111111011110;
  450 : 1111111110100101;
  451 : 1111111100110000;
  452 : 1111111111010000;
  453 : 1111110001100111;
  454 : 1111101111101100;
  455 : 1111011111001110;
  456 : 1111101110000010;
  457 : 1111101000100111;
  458 : 1111111010110111;
  459 : 1111101110000100;
  460 : 1111100101000111;
  461 : 1111101111101001;
  462 : 1111101000001010;
  463 : 1111101010100001;
  464 : 1111111010001001;
  465 : 1111110010000100;
  466 : 1111110010000110;
  467 : 1111100001001110;
  468 : 1111011011001000;
  469 : 1111111011100010;
  470 : 1111110101110010;
  471 : 1111110111000110;
  472 : 1111110101101000;
  473 : 1111111111110100;
  474 : 1111111111100011;
  475 : 1111111111111100;
  476 : 1111111111110111;
  477 : 1111111111101100;
  478 : 1111111101111000;
  479 : 1111111001110101;
  480 : 1111111011110111;
  481 : 1111111110000011;
  482 : 1111111101001001;
  483 : 1111110111001101;
  484 : 1111101110001111;
  485 : 1111101110011100;
  486 : 1111110001111000;
  487 : 1111110101100001;
  488 : 1111110010001110;
  489 : 1111111001000010;
  490 : 1111100000010100;
  491 : 1111111001001010;
  492 : 1111111010111101;
  493 : 1111101010100111;
  494 : 1111100001110110;
  495 : 1111100110101100;
  496 : 1111110001101011;
  497 : 1111111100110011;
  498 : 1111101110110010;
  499 : 1111110001010111;
  500 : 1111111010111100;
  501 : 1111111111000001;
  502 : 1111111111111101;
  503 : 1111111110101110;
  504 : 1111111111111000;
  505 : 1111111111111110;
  506 : 1111111111111101;
  507 : 1111111001101110;
  508 : 1111111011110101;
  509 : 1111111111110101;
  510 : 1111111111111100;
  511 : 1111111100110101;
  512 : 1111111000000110;
  513 : 1111111001111101;
  514 : 1111111111000111;
  515 : 1111111010111100;
  516 : 1111110111111100;
  517 : 1111111110001110;
  518 : 1111111011110111;
  519 : 1111110111101100;
  520 : 1111101110101100;
  521 : 1111011111011010;
  522 : 1111110101110110;
  523 : 1111110011000010;
  524 : 1111111100001000;
  525 : 1111110100001001;
  526 : 1111110001111100;
  527 : 1111111000010100;
  528 : 1111111111000101;
  529 : 1111111110110100;
  530 : 1111111111111101;
  531 : 1111111111010100;
  532 : 1111111111100110;
  533 : 1111111111110000;
  534 : 1111111111111010;
  535 : 1111111101000100;
  536 : 1111110111001011;
  537 : 1111111011001000;
  538 : 1111111111000110;
  539 : 1111111100001000;
  540 : 1111111110111110;
  541 : 1111111010101001;
  542 : 1111101111000111;
  543 : 1111110110110001;
  544 : 1111111111110100;
  545 : 1111111011011000;
  546 : 1111111011001100;
  547 : 1111111110001010;
  548 : 1111111110111010;
  549 : 1111111110110011;
  550 : 1111111101001111;
  551 : 1111111110010101;
  552 : 1111101110111010;
  553 : 1111101110110110;
  554 : 1111111101100000;
  555 : 1111111110111001;
  556 : 1111111000000100;
  557 : 1111111000110101;
  558 : 1111111111101011;
  559 : 1111111111101110;
  560 : 1111111111100011;
  561 : 1111111111011110;
  562 : 1111111111110010;
  563 : 1111111110110000;
  564 : 1111111001000100;
  565 : 1111111100100010;
  566 : 1111111011111011;
  567 : 1111110100101011;
  568 : 1111111011111100;
  569 : 1111111111101100;
  570 : 1111101001010011;
  571 : 1111111111100110;
  572 : 1111110100000101;
  573 : 1111110011011011;
  574 : 1111101010001001;
  575 : 1111110101011011;
  576 : 1111111101010001;
  577 : 1111111111111001;
  578 : 1111111111001110;
  579 : 1111110110101001;
  580 : 1111111000000000;
  581 : 1111111111100001;
  582 : 1111111111110100;
  583 : 1111110001111000;
  584 : 1111111001110100;
  585 : 1111111000010101;
  586 : 1111111111111110;
  587 : 1111111111111101;
  588 : 1111111111111110;
  589 : 1111111111100101;
  590 : 1111111111101111;
  591 : 1111111101110001;
  592 : 1111111100110000;
  593 : 1111111011100010;
  594 : 1111111000011000;
  595 : 1111111110010010;
  596 : 1111111111001110;
  597 : 1111111100101110;
  598 : 1111111110110101;
  599 : 1111111011100000;
  600 : 1111101010010101;
  601 : 1111100101010001;
  602 : 1111010111000101;
  603 : 1111101111100001;
  604 : 1111111000011001;
  605 : 1111111100101000;
  606 : 1111110111001110;
  607 : 1111111110001010;
  608 : 1111111011101011;
  609 : 1111111110110010;
  610 : 1111111110101101;
  611 : 1111111001000001;
  612 : 1111111010101001;
  613 : 1111111101100100;
  614 : 1111111111111111;
  615 : 1111111111111001;
  616 : 1111111111111101;
  617 : 1111111111110000;
  618 : 1111111111111111;
  619 : 1111111111111110;
  620 : 1111111100111010;
  621 : 1111110001011100;
  622 : 1111111010110101;
  623 : 1111110001101001;
  624 : 1111111100001010;
  625 : 1111111101001111;
  626 : 1111111000011010;
  627 : 1111111000010111;
  628 : 1111100011010110;
  629 : 1111101010110111;
  630 : 1111101110110011;
  631 : 1111101010101000;
  632 : 1111111101000111;
  633 : 1111101100011111;
  634 : 1111111101011110;
  635 : 1111111111101011;
  636 : 1111111111011101;
  637 : 1111111111110000;
  638 : 1111111111110011;
  639 : 1111111110110001;
  640 : 1111111001101000;
  641 : 1111111101000000;
  642 : 1111111111100110;
  643 : 1111111111001110;
  644 : 1111111111111000;
  645 : 1111111111101110;
  646 : 1111111111101000;
  647 : 1111111111001010;
  648 : 1111111110100010;
  649 : 1111110110100101;
  650 : 1111110100001100;
  651 : 1111111110010101;
  652 : 1111111100001011;
  653 : 1111110011100011;
  654 : 1111111100100001;
  655 : 1111111110010011;
  656 : 1111111110000110;
  657 : 1111111111100110;
  658 : 1111110101010010;
  659 : 1111101001000000;
  660 : 1111110001100100;
  661 : 1111110001110011;
  662 : 1111111111001010;
  663 : 1111111000011111;
  664 : 1111111011101110;
  665 : 1111111101010110;
  666 : 1111111100100110;
  667 : 1111111000010110;
  668 : 1111111001011100;
  669 : 1111111111111001;
  670 : 1111111111111000;
  671 : 1111111111100011;
  672 : 1111111111111111;
  673 : 1111111111100100;
  674 : 1111111111100010;
  675 : 1111111111011101;
  676 : 1111111111101100;
  677 : 1111111111000101;
  678 : 1111111110100000;
  679 : 1111111100101110;
  680 : 1111111101000000;
  681 : 1111111000100011;
  682 : 1111111000110000;
  683 : 1111111111010111;
  684 : 1111111101011001;
  685 : 1111111111110100;
  686 : 1111111010011101;
  687 : 1111100001111111;
  688 : 1111101000010101;
  689 : 1111111001110010;
  690 : 1111111110101110;
  691 : 1111111111000101;
  692 : 1111111110110010;
  693 : 1111111110101100;
  694 : 1111111110011111;
  695 : 1111111101101011;
  696 : 1111111100001010;
  697 : 1111111111111100;
  698 : 1111111111111110;
  699 : 1111111111111011;
  700 : 1111111111110111;
  701 : 1111111111111001;
  702 : 1111111111111010;
  703 : 1111111111111111;
  704 : 1111111111111011;
  705 : 1111111100101011;
  706 : 1111111100111000;
  707 : 1111111111110011;
  708 : 1111111111110100;
  709 : 1111111111011100;
  710 : 1111111110110000;
  711 : 1111111110101110;
  712 : 1111111110100100;
  713 : 1111110011101100;
  714 : 1111111100100101;
  715 : 1111111111001011;
  716 : 1111111111011011;
  717 : 1111111110101011;
  718 : 1111111101011000;
  719 : 1111111101011111;
  720 : 1111111111011000;
  721 : 1111111110101011;
  722 : 1111111101000000;
  723 : 1111111110011011;
  724 : 1111111111110000;
  725 : 1111111111101011;
  726 : 1111111111100111;
  727 : 1111111111101111;
  728 : 1111111111001100;
  729 : 1111111111110001;
  730 : 1111111111110100;
  731 : 1111111111110110;
  732 : 1111111111110010;
  733 : 1111111111001101;
  734 : 1111111111111110;
  735 : 1111111101011100;
  736 : 1111111001111011;
  737 : 1111110111000011;
  738 : 1111111010010001;
  739 : 1111111111110000;
  740 : 1111111101010100;
  741 : 1111111100101110;
  742 : 1111111110101000;
  743 : 1111111110000111;
  744 : 1111111000010001;
  745 : 1111111110110100;
  746 : 1111111101101101;
  747 : 1111111110100101;
  748 : 1111111100011100;
  749 : 1111111111010110;
  750 : 1111111110110010;
  751 : 1111111111110010;
  752 : 1111111111110011;
  753 : 1111111111111001;
  754 : 1111111111001010;
  755 : 0000000000000000;
  756 : 1111111111110011;
  757 : 1111111111111110;
  758 : 1111111111110100;
  759 : 1111111111111100;
  760 : 1111111111101010;
  761 : 1111111111110011;
  762 : 1111111111111110;
  763 : 1111111110010111;
  764 : 1111111111110011;
  765 : 1111111111101010;
  766 : 1111111111111000;
  767 : 1111111111000001;
  768 : 1111111111100011;
  769 : 1111111111110100;
  770 : 1111111111100101;
  771 : 1111111111100110;
  772 : 1111111111010001;
  773 : 1111111110110010;
  774 : 1111111110001000;
  775 : 1111111111110101;
  776 : 1111111111000001;
  777 : 1111111111111000;
  778 : 1111111111111101;
  779 : 1111111111111110;
  780 : 1111111111100110;
  781 : 1111111111110111;
  782 : 1111111111111111;
  783 : 1111111111100010;
END;
