WIDTH=16;
DEPTH=784;
ADDRESS_RADIX=UNS;
DATA_RADIX=BIN;
CONTENT BEGIN
  0 : 1111111111100111;
  1 : 1111111111111001;
  2 : 1111111111111111;
  3 : 1111111111110001;
  4 : 1111111111110100;
  5 : 1111111111100111;
  6 : 1111111111110001;
  7 : 1111111111111001;
  8 : 1111111111111011;
  9 : 1111111111111010;
  10 : 1111111111100010;
  11 : 1111111111111000;
  12 : 1111111111100100;
  13 : 1111111111011110;
  14 : 1111111111100111;
  15 : 1111111110110100;
  16 : 1111111111111010;
  17 : 1111111111111001;
  18 : 1111111111100100;
  19 : 1111111111111000;
  20 : 1111111111111101;
  21 : 1111111111001000;
  22 : 1111111111111111;
  23 : 1111111111101110;
  24 : 1111111111111111;
  25 : 1111111111100111;
  26 : 1111111111111100;
  27 : 1111111111100011;
  28 : 1111111111111010;
  29 : 1111111111111000;
  30 : 1111111111110000;
  31 : 1111111111110110;
  32 : 1111111111111001;
  33 : 1111111111101101;
  34 : 1111111111111110;
  35 : 1111111111111110;
  36 : 1111111111010111;
  37 : 1111111111010011;
  38 : 1111111111011100;
  39 : 1111111110000111;
  40 : 1111111111001100;
  41 : 1111111111110010;
  42 : 1111111111101111;
  43 : 1111111111111101;
  44 : 1111111111110101;
  45 : 1111111111111111;
  46 : 1111111111101110;
  47 : 1111111111111100;
  48 : 1111111111111001;
  49 : 1111111111110001;
  50 : 1111111111111111;
  51 : 1111111111111100;
  52 : 1111111111101110;
  53 : 1111111111011010;
  54 : 1111111111111011;
  55 : 1111111111111000;
  56 : 1111111111111101;
  57 : 1111111111011000;
  58 : 1111111111111100;
  59 : 1111111111110110;
  60 : 1111111111110111;
  61 : 1111111111111011;
  62 : 1111111110100110;
  63 : 1111111111001010;
  64 : 1111111111111100;
  65 : 1111111111010111;
  66 : 1111111111010111;
  67 : 1111111110010000;
  68 : 1111111111101001;
  69 : 1111111110100010;
  70 : 1111111110100110;
  71 : 1111111101100101;
  72 : 1111111100000100;
  73 : 1111111110010111;
  74 : 1111111110101111;
  75 : 1111111111101001;
  76 : 1111111101010111;
  77 : 1111111111111011;
  78 : 1111111111100100;
  79 : 1111111111111011;
  80 : 1111111111111011;
  81 : 1111111111011101;
  82 : 1111111111110101;
  83 : 1111111111101011;
  84 : 1111111111001111;
  85 : 1111111110111001;
  86 : 1111111111001110;
  87 : 1111111111110111;
  88 : 1111111111110100;
  89 : 1111111110010011;
  90 : 1111111110110011;
  91 : 1111111110101001;
  92 : 1111111111100010;
  93 : 1111111110000100;
  94 : 1111111101100000;
  95 : 1111111010101011;
  96 : 1111110110100010;
  97 : 1111111011100111;
  98 : 1111111001111010;
  99 : 1111111110100111;
  100 : 1111111110010100;
  101 : 1111110010101110;
  102 : 1111101010101011;
  103 : 1111110111001011;
  104 : 1111111100101111;
  105 : 1111111011111110;
  106 : 1111111111110100;
  107 : 1111111100011001;
  108 : 1111111111000100;
  109 : 1111111100010011;
  110 : 1111111111010101;
  111 : 1111111111111111;
  112 : 1111111111101001;
  113 : 1111111111111101;
  114 : 1111111111110101;
  115 : 1111111111110100;
  116 : 1111111111111001;
  117 : 1111111110110001;
  118 : 1111111110110011;
  119 : 1111111111111001;
  120 : 1111111111101101;
  121 : 1111111010100110;
  122 : 1111110111100110;
  123 : 1111111110011110;
  124 : 1111110000111011;
  125 : 1111111001011000;
  126 : 1111111111110111;
  127 : 1111111100100100;
  128 : 1111111110101001;
  129 : 1111110001001010;
  130 : 1111111110001101;
  131 : 1111110100011010;
  132 : 1111111100010101;
  133 : 1111110101101010;
  134 : 1111111110011011;
  135 : 1111111110101100;
  136 : 1111111011100101;
  137 : 1111111011111011;
  138 : 1111111101100101;
  139 : 1111111111111110;
  140 : 1111111111111101;
  141 : 1111111111000000;
  142 : 1111111111110000;
  143 : 1111111111011000;
  144 : 1111111110011001;
  145 : 1111111111110100;
  146 : 1111111111101110;
  147 : 1111111110001000;
  148 : 1111111111011101;
  149 : 1111110100110101;
  150 : 1111110111110011;
  151 : 1111111110101101;
  152 : 1111111110000101;
  153 : 1111111011101000;
  154 : 1111111010011000;
  155 : 1111111010011000;
  156 : 1111111110011101;
  157 : 1111110010101010;
  158 : 1111110010011100;
  159 : 1111111110010111;
  160 : 1111111100111100;
  161 : 1111111110011011;
  162 : 1111111111111000;
  163 : 1111110110110011;
  164 : 1111110111101000;
  165 : 1111111100000011;
  166 : 1111111111100000;
  167 : 1111111111011001;
  168 : 1111111111111011;
  169 : 1111111111111100;
  170 : 1111111111010000;
  171 : 1111111111111111;
  172 : 1111111110001101;
  173 : 1111111101101111;
  174 : 1111111110101111;
  175 : 1111111111000011;
  176 : 1111110110111110;
  177 : 1111100011110000;
  178 : 1111111010101101;
  179 : 1111110111100011;
  180 : 1111111000011011;
  181 : 1111111001100100;
  182 : 1111111111010010;
  183 : 1111111001100001;
  184 : 1111111011101010;
  185 : 1111111010100100;
  186 : 1111111101011100;
  187 : 1111111010110110;
  188 : 1111111010011101;
  189 : 1111111000100010;
  190 : 1111111101001001;
  191 : 1111110011010101;
  192 : 1111101101100000;
  193 : 1111110110000100;
  194 : 1111111100101111;
  195 : 1111111101110101;
  196 : 1111111111110001;
  197 : 1111111111100100;
  198 : 1111111111111110;
  199 : 1111111111100000;
  200 : 1111111111101011;
  201 : 1111111111101110;
  202 : 1111111110010010;
  203 : 1111111110111001;
  204 : 1111100001010000;
  205 : 1111110000010011;
  206 : 1111111110000011;
  207 : 1111111111000110;
  208 : 1111111110001101;
  209 : 1111111011100010;
  210 : 1111111111011111;
  211 : 1111111111101110;
  212 : 1111111111011001;
  213 : 1111111111000100;
  214 : 1111111011100100;
  215 : 1111100010000101;
  216 : 1111111001010100;
  217 : 1111111101110010;
  218 : 1111111110010000;
  219 : 1111111000100101;
  220 : 1111111010010001;
  221 : 1111111110010100;
  222 : 1111111101100111;
  223 : 1111111111101100;
  224 : 1111111111111101;
  225 : 1111111111111101;
  226 : 1111111111111100;
  227 : 1111111111111100;
  228 : 1111111111100110;
  229 : 1111111000101100;
  230 : 1111111110111110;
  231 : 1111110100000101;
  232 : 1111101011011000;
  233 : 1111110100110110;
  234 : 1111110001000101;
  235 : 1111111010100111;
  236 : 1111111110100010;
  237 : 1111110111110010;
  238 : 1111111111001010;
  239 : 1111111111111000;
  240 : 1111111100110100;
  241 : 1111111000011001;
  242 : 1111110000101100;
  243 : 1111110101111010;
  244 : 1111110001111111;
  245 : 1111110101101111;
  246 : 1111111101010001;
  247 : 1111111111110100;
  248 : 1111111110100111;
  249 : 1111110110111101;
  250 : 1111111010110011;
  251 : 1111111111100010;
  252 : 1111111111101111;
  253 : 1111111111111111;
  254 : 1111111111110011;
  255 : 1111111110111010;
  256 : 1111111101000010;
  257 : 1111111000110110;
  258 : 1111111100010011;
  259 : 1111110110010100;
  260 : 1111110101111100;
  261 : 0000000000000000;
  262 : 1111110101101001;
  263 : 1111100101100110;
  264 : 1111110001001001;
  265 : 1111111111011000;
  266 : 1111101110100000;
  267 : 1111110100000100;
  268 : 1111111111101100;
  269 : 1111110101111011;
  270 : 1111111001000100;
  271 : 1111110110100111;
  272 : 1111101110000011;
  273 : 1111110110001100;
  274 : 1111110110110011;
  275 : 1111111101000110;
  276 : 1111111110111111;
  277 : 1111110011110110;
  278 : 1111111010001110;
  279 : 1111111111011101;
  280 : 1111111111111110;
  281 : 1111111111111001;
  282 : 1111111111001010;
  283 : 1111111110011101;
  284 : 1111111010010100;
  285 : 1111111011000011;
  286 : 1111110111000101;
  287 : 1111111101000001;
  288 : 1111111111111010;
  289 : 1111111110111010;
  290 : 1111101010110100;
  291 : 1111110100101111;
  292 : 1111111101011101;
  293 : 1111110101000101;
  294 : 1111111111111001;
  295 : 1111110010001001;
  296 : 1111111111100100;
  297 : 1111111111011101;
  298 : 1111111111101100;
  299 : 1111111111110000;
  300 : 1111110011100111;
  301 : 1111110100111101;
  302 : 1111111100101110;
  303 : 1111110011000001;
  304 : 1111111111001110;
  305 : 1111110110011011;
  306 : 1111111010101010;
  307 : 1111111111111101;
  308 : 1111111111110110;
  309 : 1111111111111111;
  310 : 1111111111110001;
  311 : 1111111101101011;
  312 : 1111111010001010;
  313 : 1111110101010011;
  314 : 1111111011100000;
  315 : 1111111110011100;
  316 : 1111111011100001;
  317 : 1111111110110110;
  318 : 1111111010111110;
  319 : 1111111111000010;
  320 : 1111110010010101;
  321 : 1111110111010011;
  322 : 1111111011000110;
  323 : 1111110111010001;
  324 : 1111011100001011;
  325 : 1111010100111000;
  326 : 1111011110010101;
  327 : 1111111010011010;
  328 : 1111111110100100;
  329 : 1111111000010111;
  330 : 1111110111010001;
  331 : 1111111001101111;
  332 : 1111111011011011;
  333 : 1111111110010101;
  334 : 1111111101111011;
  335 : 1111111111111011;
  336 : 1111111111110100;
  337 : 1111111111111000;
  338 : 1111111111110011;
  339 : 1111111111010110;
  340 : 1111111011100111;
  341 : 1111111110110001;
  342 : 1111111111011110;
  343 : 1111111011011010;
  344 : 1111111110011110;
  345 : 1111111000000111;
  346 : 1111111111111001;
  347 : 1111111110011000;
  348 : 1111111100100001;
  349 : 1111111110100100;
  350 : 1111111111111001;
  351 : 1111101110100100;
  352 : 1111011110010010;
  353 : 1111011111001000;
  354 : 1111110001111000;
  355 : 1111111001110111;
  356 : 1111111111010101;
  357 : 1111110111110000;
  358 : 1111111110111100;
  359 : 1111110010101001;
  360 : 1111110011110100;
  361 : 1111111111110110;
  362 : 1111111111110001;
  363 : 1111111111011111;
  364 : 1111111111100010;
  365 : 1111111111110101;
  366 : 1111111111110000;
  367 : 1111111100110000;
  368 : 1111111111101110;
  369 : 1111111111000110;
  370 : 1111110010101101;
  371 : 1111111101100011;
  372 : 1111111010011110;
  373 : 1111111110001001;
  374 : 1111110001000011;
  375 : 1111110100100100;
  376 : 1111111101110010;
  377 : 1111111111101000;
  378 : 1111111110010010;
  379 : 1111101110001110;
  380 : 1111100000101100;
  381 : 1111100100101010;
  382 : 1111110111010101;
  383 : 1111111010011011;
  384 : 1111101111010100;
  385 : 1111111011011101;
  386 : 1111111010000100;
  387 : 1111110100100111;
  388 : 1111111011101011;
  389 : 1111111100010000;
  390 : 1111111111111111;
  391 : 1111111111100001;
  392 : 1111111111110010;
  393 : 1111111111111101;
  394 : 1111111111001011;
  395 : 1111111010101010;
  396 : 1111111111010011;
  397 : 1111111111100100;
  398 : 1111111111011110;
  399 : 1111110010001010;
  400 : 1111110000010111;
  401 : 1111111111110110;
  402 : 1111111111111100;
  403 : 1111111101100001;
  404 : 1111111001010010;
  405 : 1111111111110011;
  406 : 1111111101100000;
  407 : 1111110001010110;
  408 : 1111100010000101;
  409 : 1111100001000101;
  410 : 1111110100001010;
  411 : 1111111101100100;
  412 : 1111111110010010;
  413 : 1111111100110000;
  414 : 1111111101010011;
  415 : 1111110000000010;
  416 : 1111111001001000;
  417 : 1111111110110010;
  418 : 1111111111110001;
  419 : 1111111110110101;
  420 : 1111111111111010;
  421 : 1111111111100110;
  422 : 1111111111111101;
  423 : 1111110111011100;
  424 : 1111111101001011;
  425 : 1111110010000110;
  426 : 1111111111100101;
  427 : 1111111111011011;
  428 : 1111110110100010;
  429 : 1111111100110100;
  430 : 1111111011001001;
  431 : 1111100001111010;
  432 : 1111100111110111;
  433 : 1111111000101000;
  434 : 1111110000111101;
  435 : 1111110001011001;
  436 : 1111101011101100;
  437 : 1111100010110000;
  438 : 1111111001111000;
  439 : 1111110110011110;
  440 : 1111111001011101;
  441 : 1111111101101100;
  442 : 1111111100011011;
  443 : 1111111111100000;
  444 : 1111111110101101;
  445 : 1111111101011000;
  446 : 1111111111010111;
  447 : 1111111111110101;
  448 : 1111111111101111;
  449 : 1111111111111010;
  450 : 1111111111111101;
  451 : 1111110110100111;
  452 : 1111111110011001;
  453 : 1111111011110011;
  454 : 1111111110110110;
  455 : 1111111110011001;
  456 : 1111111101100011;
  457 : 1111111101011000;
  458 : 1111101101100111;
  459 : 1111011011000111;
  460 : 1111011011001011;
  461 : 1111100011010010;
  462 : 1111111000100001;
  463 : 1111101100000001;
  464 : 1111100110001010;
  465 : 1111111010010110;
  466 : 1111110011010000;
  467 : 1111110111110011;
  468 : 1111111010000001;
  469 : 1111111010101010;
  470 : 1111111110111010;
  471 : 1111111111110100;
  472 : 1111111000001010;
  473 : 1111111011000000;
  474 : 1111111110010101;
  475 : 1111111111110010;
  476 : 1111111111111001;
  477 : 1111111111111001;
  478 : 1111111111111110;
  479 : 1111111000100111;
  480 : 1111111100110100;
  481 : 1111110110001000;
  482 : 1111111110010110;
  483 : 1111111001110110;
  484 : 1111111100110001;
  485 : 1111111110011110;
  486 : 1111111111000001;
  487 : 1111011101010010;
  488 : 1111101001011100;
  489 : 1111111001010011;
  490 : 1111111111101000;
  491 : 1111101111111011;
  492 : 1111101001101011;
  493 : 1111110011110010;
  494 : 1111101101001001;
  495 : 1111111101000110;
  496 : 1111111111101101;
  497 : 1111101111010010;
  498 : 1111111101111001;
  499 : 1111111111110101;
  500 : 1111111100000011;
  501 : 1111110110010001;
  502 : 1111111111100101;
  503 : 1111111111000100;
  504 : 1111111111110011;
  505 : 1111111111100101;
  506 : 1111111111110101;
  507 : 1111110111111110;
  508 : 1111111111111101;
  509 : 1111111101100110;
  510 : 1111111110110010;
  511 : 1111110101110101;
  512 : 1111111010000010;
  513 : 1111100001010110;
  514 : 1111111101000110;
  515 : 1111100001001110;
  516 : 1111101010101011;
  517 : 1111110100011001;
  518 : 1111111111000001;
  519 : 1111111111101000;
  520 : 1111111111101110;
  521 : 1111111011010110;
  522 : 1111111011111100;
  523 : 1111111000111110;
  524 : 1111111000110101;
  525 : 1111111100110110;
  526 : 1111110100011011;
  527 : 1111111111011111;
  528 : 1111110010101001;
  529 : 1111110110010110;
  530 : 1111111111111000;
  531 : 1111111111011001;
  532 : 1111111111000010;
  533 : 1111111111110101;
  534 : 1111111111100001;
  535 : 1111111000000001;
  536 : 1111111111010011;
  537 : 1111110100111100;
  538 : 1111111100001011;
  539 : 1111111111111011;
  540 : 1111110110011011;
  541 : 1111110110111010;
  542 : 1111110101100101;
  543 : 1111011110100010;
  544 : 1111111100101010;
  545 : 1111111000110100;
  546 : 1111111101011001;
  547 : 1111110001010001;
  548 : 1111111010111000;
  549 : 1111111100101110;
  550 : 1111111111100110;
  551 : 1111110101100000;
  552 : 1111111111100111;
  553 : 1111111101101011;
  554 : 1111110011010100;
  555 : 1111111000111001;
  556 : 1111110010111011;
  557 : 1111110100100100;
  558 : 1111111111010001;
  559 : 1111111111100111;
  560 : 1111111111001100;
  561 : 1111111111111011;
  562 : 1111111111011000;
  563 : 1111111101100011;
  564 : 1111111111000000;
  565 : 1111110010101110;
  566 : 1111110010100000;
  567 : 1111110000010100;
  568 : 1111110100010000;
  569 : 1111111101001010;
  570 : 1111111111011001;
  571 : 1111111000001110;
  572 : 1111111110101101;
  573 : 1111111101100000;
  574 : 1111101011100111;
  575 : 1111110111000011;
  576 : 1111110110010101;
  577 : 1111111000100000;
  578 : 1111111100101001;
  579 : 1111111100000101;
  580 : 1111111001011100;
  581 : 1111111101100101;
  582 : 1111110110010010;
  583 : 1111101110110010;
  584 : 1111110001101000;
  585 : 1111111000000110;
  586 : 1111111111111111;
  587 : 1111111111110010;
  588 : 1111111111111000;
  589 : 1111111111011111;
  590 : 1111111101100010;
  591 : 1111111111100000;
  592 : 1111111110000100;
  593 : 1111111010110010;
  594 : 1111111110110101;
  595 : 1111111101101111;
  596 : 1111111101011000;
  597 : 1111111111011110;
  598 : 1111111010000101;
  599 : 1111111101110001;
  600 : 1111110111100100;
  601 : 1111110101010011;
  602 : 1111101110110101;
  603 : 1111111111110001;
  604 : 1111111001110000;
  605 : 1111101011101010;
  606 : 1111101011110001;
  607 : 1111101110110110;
  608 : 1111111101101111;
  609 : 1111111010001111;
  610 : 1111111111111110;
  611 : 1111110111100000;
  612 : 1111110101001111;
  613 : 1111111101000010;
  614 : 1111111111111111;
  615 : 1111111111000101;
  616 : 1111111111110110;
  617 : 1111111111011110;
  618 : 1111111111111000;
  619 : 1111111110011100;
  620 : 1111111100000011;
  621 : 1111111111111101;
  622 : 1111111101100011;
  623 : 1111111111100000;
  624 : 1111110011001101;
  625 : 1111110011110011;
  626 : 1111111110110001;
  627 : 1111111110101101;
  628 : 1111111101110101;
  629 : 1111111010100000;
  630 : 1111110111101000;
  631 : 1111110111000011;
  632 : 1111110110110110;
  633 : 1111111111100000;
  634 : 1111111001111000;
  635 : 1111111111101001;
  636 : 1111110110100010;
  637 : 1111111111100111;
  638 : 1111111111010000;
  639 : 1111111101100110;
  640 : 1111111101010100;
  641 : 1111111110100100;
  642 : 1111111111111111;
  643 : 1111111111100011;
  644 : 1111111111111110;
  645 : 1111111111110100;
  646 : 1111111111101000;
  647 : 1111111111000101;
  648 : 1111111101100010;
  649 : 1111111100011110;
  650 : 1111111110110010;
  651 : 1111111111100101;
  652 : 1111111110010000;
  653 : 1111110101101110;
  654 : 1111111010010111;
  655 : 1111111001100101;
  656 : 1111111110100110;
  657 : 1111111111110001;
  658 : 1111110011001100;
  659 : 1111111000000010;
  660 : 1111111111101100;
  661 : 1111111110000011;
  662 : 1111100110011000;
  663 : 1111101101110101;
  664 : 1111101111101100;
  665 : 1111110111011010;
  666 : 1111111010001111;
  667 : 1111111011001100;
  668 : 1111111111101110;
  669 : 1111111111010111;
  670 : 1111111111111010;
  671 : 1111111111111011;
  672 : 1111111111111111;
  673 : 1111111111111100;
  674 : 1111111111011100;
  675 : 1111111111100000;
  676 : 1111111110010111;
  677 : 1111111001111010;
  678 : 1111111110100010;
  679 : 1111111111110111;
  680 : 1111111111001101;
  681 : 1111111111101110;
  682 : 1111110010111110;
  683 : 1111111110100110;
  684 : 1111111101011110;
  685 : 1111111001010010;
  686 : 1111110001011010;
  687 : 1111111001100111;
  688 : 1111111000111110;
  689 : 1111111100010100;
  690 : 1111111101100011;
  691 : 1111111001100110;
  692 : 1111110101000000;
  693 : 1111110110011010;
  694 : 1111111100011101;
  695 : 1111111101001011;
  696 : 1111111110111111;
  697 : 1111111111111001;
  698 : 1111111111000010;
  699 : 1111111111111110;
  700 : 1111111111110011;
  701 : 1111111111100110;
  702 : 1111111111010011;
  703 : 1111111111101110;
  704 : 1111111111101101;
  705 : 1111111111111011;
  706 : 1111111111011111;
  707 : 1111111100000001;
  708 : 1111111111101010;
  709 : 1111111111010011;
  710 : 1111110110111001;
  711 : 1111110111100101;
  712 : 1111110100011100;
  713 : 1111111000010110;
  714 : 1111111001000011;
  715 : 1111111000000100;
  716 : 1111111001011100;
  717 : 1111111000001101;
  718 : 1111110111111100;
  719 : 1111111011001000;
  720 : 1111111011100001;
  721 : 1111111010111100;
  722 : 1111111100010010;
  723 : 1111111101111100;
  724 : 1111111110010111;
  725 : 1111111111111010;
  726 : 1111111111111101;
  727 : 1111111111110111;
  728 : 1111111111110100;
  729 : 1111111111110111;
  730 : 1111111111101000;
  731 : 1111111111110100;
  732 : 1111111111110100;
  733 : 1111111111111001;
  734 : 1111111111110101;
  735 : 1111111110001111;
  736 : 1111111111111010;
  737 : 1111111111100000;
  738 : 1111111111100110;
  739 : 1111111111100000;
  740 : 1111111110100110;
  741 : 1111111101111001;
  742 : 1111111101100010;
  743 : 1111111111110000;
  744 : 1111111111111100;
  745 : 1111111101011110;
  746 : 1111111110010001;
  747 : 1111111111101101;
  748 : 1111111110110100;
  749 : 1111111101001101;
  750 : 1111111111001001;
  751 : 1111111111111110;
  752 : 1111111111111000;
  753 : 1111111111000010;
  754 : 1111111111111110;
  755 : 1111111111110110;
  756 : 1111111111111011;
  757 : 1111111111111010;
  758 : 1111111111110011;
  759 : 1111111111111101;
  760 : 1111111111111000;
  761 : 1111111110111111;
  762 : 1111111111111001;
  763 : 1111111111101111;
  764 : 1111111111101101;
  765 : 1111111111101110;
  766 : 1111111111101010;
  767 : 1111111111100110;
  768 : 1111111111110011;
  769 : 1111111111011010;
  770 : 1111111111111010;
  771 : 1111111111101001;
  772 : 1111111111101101;
  773 : 1111111111110011;
  774 : 1111111111011010;
  775 : 0000000000000000;
  776 : 1111111111110110;
  777 : 1111111111111101;
  778 : 1111111110110000;
  779 : 1111111111010100;
  780 : 1111111111100100;
  781 : 1111111111111110;
  782 : 1111111111111110;
  783 : 1111111111111111;
END;
