WIDTH=16;
DEPTH=784;
ADDRESS_RADIX=UNS;
DATA_RADIX=BIN;
CONTENT BEGIN
  0 : 1111111111111101;
  1 : 0000000000000000;
  2 : 1111111111010111;
  3 : 1111111111100100;
  4 : 1111111111111001;
  5 : 1111111111111101;
  6 : 0000000000000000;
  7 : 1111111111110001;
  8 : 1111111111100011;
  9 : 1111111111100010;
  10 : 1111111111111011;
  11 : 1111111111110000;
  12 : 1111111111110111;
  13 : 1111111111101110;
  14 : 1111111111111111;
  15 : 1111111111111110;
  16 : 1111111111100111;
  17 : 1111111111111111;
  18 : 1111111111111110;
  19 : 1111111111111100;
  20 : 1111111111111101;
  21 : 1111111111101101;
  22 : 1111111111110010;
  23 : 1111111111010101;
  24 : 1111111111101001;
  25 : 1111111111111100;
  26 : 1111111111110010;
  27 : 1111111111101010;
  28 : 1111111111111111;
  29 : 1111111111111110;
  30 : 1111111111100001;
  31 : 1111111111111100;
  32 : 1111111111100011;
  33 : 1111111111110011;
  34 : 1111111111011010;
  35 : 0000000000000000;
  36 : 1111111111110001;
  37 : 1111111111100011;
  38 : 1111111111101000;
  39 : 1111111110111111;
  40 : 1111111110101010;
  41 : 1111111110010000;
  42 : 1111111110110101;
  43 : 1111111110100100;
  44 : 1111111111010100;
  45 : 1111111110110111;
  46 : 0000000000000000;
  47 : 1111111111011011;
  48 : 1111111111111000;
  49 : 1111111111100110;
  50 : 1111111111110010;
  51 : 1111111111111101;
  52 : 1111111111111111;
  53 : 1111111111110110;
  54 : 1111111111100100;
  55 : 1111111111011111;
  56 : 1111111111100010;
  57 : 1111111111110110;
  58 : 1111111111010010;
  59 : 1111111111010001;
  60 : 1111111111111011;
  61 : 0000000000000000;
  62 : 1111111111111010;
  63 : 1111111111111101;
  64 : 1111111111110101;
  65 : 1111111111101000;
  66 : 1111111111001111;
  67 : 1111111110000110;
  68 : 1111111010000011;
  69 : 1111111010010101;
  70 : 1111111011110101;
  71 : 1111111010010011;
  72 : 1111110110010001;
  73 : 1111110101100011;
  74 : 1111111001011010;
  75 : 1111111111101000;
  76 : 1111111111111001;
  77 : 1111111111011010;
  78 : 1111111111101011;
  79 : 1111111111101000;
  80 : 1111111111111110;
  81 : 1111111111010011;
  82 : 1111111111000101;
  83 : 1111111111001010;
  84 : 0000000000000000;
  85 : 1111111111100100;
  86 : 1111111111111111;
  87 : 1111111111101111;
  88 : 1111111111101010;
  89 : 1111111111110010;
  90 : 1111111111100101;
  91 : 1111111111010000;
  92 : 1111111001100011;
  93 : 1111111000100101;
  94 : 1111110111111011;
  95 : 1111110111011111;
  96 : 1111110010001111;
  97 : 1111101111110110;
  98 : 1111110101010101;
  99 : 1111101100110111;
  100 : 1111101000111001;
  101 : 1111110111100011;
  102 : 1111110010010001;
  103 : 1111111001100011;
  104 : 1111111111011101;
  105 : 1111111101111110;
  106 : 1111111100111100;
  107 : 1111111110110101;
  108 : 1111111111111000;
  109 : 1111111111101100;
  110 : 1111111111111010;
  111 : 1111111111100000;
  112 : 1111111111100001;
  113 : 1111111111110000;
  114 : 1111111111111010;
  115 : 1111111111111010;
  116 : 1111111111111011;
  117 : 1111111101001111;
  118 : 1111111000001101;
  119 : 1111111001100101;
  120 : 1111111011101100;
  121 : 1111111000111000;
  122 : 1111111110010010;
  123 : 1111111111110111;
  124 : 1111111111000101;
  125 : 1111111001111101;
  126 : 1111111000110111;
  127 : 1111110110001101;
  128 : 1111110010011100;
  129 : 1111110100110001;
  130 : 1111101011010011;
  131 : 1111111011111011;
  132 : 1111110011010100;
  133 : 1111110011101000;
  134 : 1111110110101000;
  135 : 1111111100111110;
  136 : 1111111111110000;
  137 : 1111111111111110;
  138 : 1111111111110001;
  139 : 1111111111100011;
  140 : 1111111111111001;
  141 : 1111111111111010;
  142 : 1111111111100010;
  143 : 1111111110011111;
  144 : 1111111001110001;
  145 : 1111111011101001;
  146 : 1111111111110110;
  147 : 1111110101010100;
  148 : 1111111110111111;
  149 : 1111111110010000;
  150 : 1111101111110111;
  151 : 1111100110010001;
  152 : 1111111100001101;
  153 : 1111101101111110;
  154 : 1111111111010000;
  155 : 1111110010111010;
  156 : 1111111000101101;
  157 : 1111111101010000;
  158 : 1111110011010110;
  159 : 1111111111111100;
  160 : 1111111110000110;
  161 : 1111110101111100;
  162 : 1111110100010001;
  163 : 1111110110101111;
  164 : 1111111101000001;
  165 : 1111111111110000;
  166 : 1111111111011111;
  167 : 1111111111111011;
  168 : 1111111111111001;
  169 : 1111111111111101;
  170 : 1111111111111110;
  171 : 1111111100001011;
  172 : 1111111011010110;
  173 : 1111111110100001;
  174 : 1111111000110100;
  175 : 1111111110111000;
  176 : 1111111110100101;
  177 : 1111111010101010;
  178 : 1111101100010010;
  179 : 1111101101100111;
  180 : 1111111111101100;
  181 : 1111111001000000;
  182 : 1111110100101111;
  183 : 1111111111001011;
  184 : 1111110010000110;
  185 : 1111111000100110;
  186 : 1111111111100111;
  187 : 1111111101000000;
  188 : 1111111110111011;
  189 : 1111110100011100;
  190 : 1111111001100000;
  191 : 1111111001000000;
  192 : 1111111011000100;
  193 : 1111111111000010;
  194 : 1111111111010111;
  195 : 1111111111111101;
  196 : 1111111111101111;
  197 : 1111111111111101;
  198 : 1111111111001111;
  199 : 1111111001100010;
  200 : 1111110011000011;
  201 : 1111111110101010;
  202 : 1111111110000000;
  203 : 1111110111110101;
  204 : 1111110011110001;
  205 : 1111111010011111;
  206 : 1111101100001100;
  207 : 1111101010101111;
  208 : 1111110101000100;
  209 : 1111111001101001;
  210 : 1111111010011100;
  211 : 1111111111110011;
  212 : 1111111101000100;
  213 : 1111110110110010;
  214 : 1111110001110000;
  215 : 1111111111010001;
  216 : 1111111110100101;
  217 : 1111111110011011;
  218 : 1111110001111000;
  219 : 1111111110000100;
  220 : 1111110110011100;
  221 : 1111111111110110;
  222 : 1111111110011001;
  223 : 1111111111111011;
  224 : 1111111111011110;
  225 : 1111111111111111;
  226 : 1111111111101100;
  227 : 1111111110110000;
  228 : 1111111010101001;
  229 : 1111111100011001;
  230 : 1111111100110010;
  231 : 1111110000111100;
  232 : 1111110110011111;
  233 : 1111111001010110;
  234 : 1111111100001100;
  235 : 1111110100100001;
  236 : 1111111011001110;
  237 : 1111100001011101;
  238 : 1111111111011100;
  239 : 1111100101010000;
  240 : 1111111000000010;
  241 : 1111111001110000;
  242 : 1111111111110001;
  243 : 1111111000100010;
  244 : 1111111010100000;
  245 : 1111110011011001;
  246 : 1111111000010011;
  247 : 1111111010101000;
  248 : 1111110100110100;
  249 : 1111111111110100;
  250 : 1111111110011110;
  251 : 1111111111110011;
  252 : 1111111111100011;
  253 : 1111111111110000;
  254 : 1111111111111111;
  255 : 1111111101010010;
  256 : 1111111101010011;
  257 : 1111111110001010;
  258 : 1111110101101011;
  259 : 1111111101001000;
  260 : 1111101101010100;
  261 : 1111110011000011;
  262 : 1111100011000011;
  263 : 1111010110001100;
  264 : 1111110110010011;
  265 : 1111100100001000;
  266 : 1111111011010101;
  267 : 1111100101000010;
  268 : 1111111111100110;
  269 : 1111111010000001;
  270 : 1111111111110010;
  271 : 1111100001110011;
  272 : 1111111100011101;
  273 : 1111111111011111;
  274 : 1111111011111110;
  275 : 1111111100101100;
  276 : 1111111100100010;
  277 : 1111111100101100;
  278 : 1111111111111110;
  279 : 0000000000000000;
  280 : 1111111111111010;
  281 : 1111111111110110;
  282 : 1111111111110110;
  283 : 1111111111000010;
  284 : 1111111000111100;
  285 : 1111110110011000;
  286 : 1111101011100101;
  287 : 1111110101110110;
  288 : 1111110010111100;
  289 : 1111101111010100;
  290 : 1111101001101011;
  291 : 1111101110011100;
  292 : 1111111111110110;
  293 : 1111110011001110;
  294 : 1111111001100110;
  295 : 1111101000101001;
  296 : 1111111110110101;
  297 : 1111110000100000;
  298 : 1111111011100010;
  299 : 1111111001100101;
  300 : 1111101110111100;
  301 : 1111110110111000;
  302 : 1111111100100101;
  303 : 1111111000010010;
  304 : 1111111010101100;
  305 : 1111111000110100;
  306 : 1111111110001000;
  307 : 1111111111110110;
  308 : 1111111111101110;
  309 : 1111111111110101;
  310 : 0000000000000000;
  311 : 1111111011111000;
  312 : 1111111111001010;
  313 : 1111111100010011;
  314 : 1111101011111101;
  315 : 1111110111000011;
  316 : 1111111110001111;
  317 : 1111100110100100;
  318 : 1111100110101111;
  319 : 1111111000000001;
  320 : 1111110001111110;
  321 : 1111100101110111;
  322 : 1111111100000111;
  323 : 1111100101010010;
  324 : 1111100111110001;
  325 : 1111101010011000;
  326 : 1111101111010100;
  327 : 1111111111111001;
  328 : 1111101101010001;
  329 : 1111110001001001;
  330 : 1111111011111111;
  331 : 1111111011110110;
  332 : 1111110000110100;
  333 : 1111111110001010;
  334 : 1111111111011010;
  335 : 1111111111110111;
  336 : 1111111111110001;
  337 : 1111111111010111;
  338 : 1111111111000001;
  339 : 1111110011010010;
  340 : 1111101111101100;
  341 : 1111111110100110;
  342 : 1111111101100010;
  343 : 1111110100110000;
  344 : 1111101110000011;
  345 : 1111110011000100;
  346 : 1111100110111111;
  347 : 1111111111100000;
  348 : 1111101001010011;
  349 : 1111110010110110;
  350 : 1111111011100100;
  351 : 1111111101100011;
  352 : 1111110001111001;
  353 : 1111110011011001;
  354 : 1111111100100110;
  355 : 1111111111001000;
  356 : 1111111010100111;
  357 : 1111110011000011;
  358 : 1111110110101100;
  359 : 1111100111010011;
  360 : 1111111010100011;
  361 : 1111111110110101;
  362 : 1111111111110111;
  363 : 1111111111100101;
  364 : 1111111111111111;
  365 : 1111111111001001;
  366 : 1111111111111101;
  367 : 1111110110010110;
  368 : 1111100000110110;
  369 : 1111101101000010;
  370 : 1111111100100011;
  371 : 1111011101110111;
  372 : 1111111010010110;
  373 : 1111101110001000;
  374 : 1111101010011100;
  375 : 1111110001001000;
  376 : 1111111110000001;
  377 : 1111101011100010;
  378 : 1111111101000010;
  379 : 1111111100110001;
  380 : 1111111111101100;
  381 : 1111111000101111;
  382 : 1111111101010001;
  383 : 1111111100101011;
  384 : 1111111011101001;
  385 : 1111111011010000;
  386 : 1111101100111000;
  387 : 1111111000100011;
  388 : 1111110110100010;
  389 : 1111111011101111;
  390 : 1111111101100001;
  391 : 1111111100011001;
  392 : 1111111111110011;
  393 : 1111111101111111;
  394 : 1111111111000101;
  395 : 1111110110011101;
  396 : 1111011110110110;
  397 : 1111110001000010;
  398 : 1111011111010100;
  399 : 1111011010110011;
  400 : 1111101010110110;
  401 : 1111110010010011;
  402 : 1111110100001011;
  403 : 1111111011001000;
  404 : 1111100101011110;
  405 : 1111111100101011;
  406 : 1111110101101001;
  407 : 1111111111110111;
  408 : 1111111000110111;
  409 : 1111110111111000;
  410 : 1111110111010100;
  411 : 1111111000001010;
  412 : 1111111101001001;
  413 : 1111111111100101;
  414 : 1111101010101010;
  415 : 1111110111000000;
  416 : 1111110110110110;
  417 : 1111111111100000;
  418 : 1111111110000001;
  419 : 1111111111100101;
  420 : 1111111111001100;
  421 : 1111111111101110;
  422 : 1111111111011000;
  423 : 1111111000010110;
  424 : 1111101011100110;
  425 : 1111101111100100;
  426 : 1111100011011010;
  427 : 1111011101011101;
  428 : 1111111100100101;
  429 : 1111111101000010;
  430 : 1111100000011101;
  431 : 1111111110101010;
  432 : 1111110111100011;
  433 : 1111111011001110;
  434 : 1111101111011000;
  435 : 1111111100100101;
  436 : 1111111101101010;
  437 : 1111111000101100;
  438 : 1111111111011100;
  439 : 1111111001101100;
  440 : 1111111111011111;
  441 : 1111101101011110;
  442 : 1111111001011100;
  443 : 1111111111001011;
  444 : 1111111111100100;
  445 : 1111111000100010;
  446 : 1111111010010000;
  447 : 1111111111111101;
  448 : 1111111111111101;
  449 : 1111111111000000;
  450 : 1111111111101000;
  451 : 1111111111111111;
  452 : 1111111011001000;
  453 : 1111101010011011;
  454 : 1111110101110010;
  455 : 1111110010101101;
  456 : 1111101100010100;
  457 : 1111111101011100;
  458 : 1111111101100101;
  459 : 1111111110010110;
  460 : 1111111000110001;
  461 : 1111110110101111;
  462 : 1111111111111011;
  463 : 1111111111001001;
  464 : 1111110010011110;
  465 : 1111111111010011;
  466 : 1111111001101100;
  467 : 1111111111101100;
  468 : 1111110100000010;
  469 : 1111111100111000;
  470 : 1111111011001110;
  471 : 1111111001111100;
  472 : 1111111010111111;
  473 : 1111111001011111;
  474 : 1111111100111101;
  475 : 1111111111111100;
  476 : 1111111111111011;
  477 : 1111111111100001;
  478 : 1111111111100011;
  479 : 1111111100000101;
  480 : 1111111110110001;
  481 : 1111111101101100;
  482 : 1111111001101010;
  483 : 1111110101101001;
  484 : 1111111001100111;
  485 : 1111111100000001;
  486 : 1111111111101010;
  487 : 1111111111100011;
  488 : 1111111001111010;
  489 : 1111111010000101;
  490 : 1111101000101001;
  491 : 1111101101011001;
  492 : 1111111110000110;
  493 : 1111111100000000;
  494 : 1111110111100010;
  495 : 1111111111111011;
  496 : 1111111010101101;
  497 : 1111110010100110;
  498 : 1111111111111110;
  499 : 1111111001110011;
  500 : 1111111111111011;
  501 : 1111111101000010;
  502 : 1111111111100011;
  503 : 1111111111100000;
  504 : 1111111111111010;
  505 : 1111111111100111;
  506 : 1111111111111110;
  507 : 1111111110000101;
  508 : 1111111100000001;
  509 : 1111110011000001;
  510 : 1111111101100010;
  511 : 1111111110100000;
  512 : 1111110000000110;
  513 : 1111111110111110;
  514 : 1111111111111000;
  515 : 1111110001111000;
  516 : 1111110101111000;
  517 : 1111111100101111;
  518 : 1111101010100011;
  519 : 1111100110111110;
  520 : 1111110101100011;
  521 : 1111100100001111;
  522 : 1111111101000000;
  523 : 1111110101011110;
  524 : 1111110000011110;
  525 : 1111111111001100;
  526 : 1111111011111000;
  527 : 1111111101000010;
  528 : 1111111110000111;
  529 : 1111111100111101;
  530 : 1111111111110010;
  531 : 1111111111000000;
  532 : 1111111111111110;
  533 : 1111111111111100;
  534 : 1111110111101100;
  535 : 1111111001100011;
  536 : 1111111100110000;
  537 : 1111110001010000;
  538 : 1111111110000100;
  539 : 1111111111111110;
  540 : 1111111100010111;
  541 : 1111111111010010;
  542 : 1111110111010001;
  543 : 1111011011110101;
  544 : 1111101011001111;
  545 : 1111110110100100;
  546 : 1111101100001100;
  547 : 1111100100100101;
  548 : 1111101010111000;
  549 : 1111110110011011;
  550 : 1111110101110001;
  551 : 1111110011101011;
  552 : 1111111001100010;
  553 : 1111111001000101;
  554 : 1111110111110010;
  555 : 1111111010000101;
  556 : 1111111111111100;
  557 : 1111111111010110;
  558 : 1111111111000111;
  559 : 1111111111111010;
  560 : 1111111111011011;
  561 : 1111111111111110;
  562 : 1111111011110100;
  563 : 1111111110011100;
  564 : 1111111111001000;
  565 : 1111111111111000;
  566 : 1111111101010111;
  567 : 1111100011100101;
  568 : 1111111110100011;
  569 : 1111111110010101;
  570 : 1111111111011011;
  571 : 1111111100100101;
  572 : 1111110011001000;
  573 : 1111100011001010;
  574 : 1111111101010010;
  575 : 1111111101100110;
  576 : 1111001111101101;
  577 : 1111111110001110;
  578 : 1111111100001001;
  579 : 1111111101100111;
  580 : 1111111110001101;
  581 : 1111110100000110;
  582 : 1111111110000000;
  583 : 1111111001100100;
  584 : 1111111110011010;
  585 : 1111111011011010;
  586 : 1111111111110111;
  587 : 1111111111111100;
  588 : 0000000000000000;
  589 : 1111111111111111;
  590 : 1111111101111100;
  591 : 1111111010110111;
  592 : 1111111111111111;
  593 : 1111110101010111;
  594 : 1111111111111011;
  595 : 1111111111010110;
  596 : 1111101101010100;
  597 : 1111110101010100;
  598 : 1111111011001000;
  599 : 1111111110001100;
  600 : 1111111110100111;
  601 : 1111111010101111;
  602 : 1111110011010101;
  603 : 1111101011101100;
  604 : 1111100100110001;
  605 : 1111111110101000;
  606 : 1111110000000100;
  607 : 1111111010011110;
  608 : 1111111100010110;
  609 : 1111111001111010;
  610 : 1111111011101110;
  611 : 1111111101001010;
  612 : 1111111010000111;
  613 : 1111111111111010;
  614 : 1111111111111101;
  615 : 1111111111100001;
  616 : 1111111110110101;
  617 : 1111111111011110;
  618 : 1111111110101100;
  619 : 1111111000010101;
  620 : 1111111001010111;
  621 : 1111111001111011;
  622 : 1111111011111100;
  623 : 1111111110011111;
  624 : 1111111100011111;
  625 : 1111110011001101;
  626 : 1111110100010010;
  627 : 1111110010110110;
  628 : 1111111001001010;
  629 : 1111110010011100;
  630 : 1111101001001110;
  631 : 1111111000110000;
  632 : 1111110010110001;
  633 : 1111111100111111;
  634 : 1111100101100111;
  635 : 1111110111001010;
  636 : 1111111010101011;
  637 : 1111101101111101;
  638 : 1111111000101110;
  639 : 1111111111100010;
  640 : 1111111101101111;
  641 : 1111111111101011;
  642 : 1111111111100111;
  643 : 1111111111111110;
  644 : 1111111111110100;
  645 : 1111111111111000;
  646 : 1111111111101000;
  647 : 1111111111100011;
  648 : 1111111111000011;
  649 : 1111111010101101;
  650 : 1111110101011010;
  651 : 1111111001111010;
  652 : 1111111110100011;
  653 : 1111110000110010;
  654 : 1111111011111000;
  655 : 1111111111111110;
  656 : 1111110101110010;
  657 : 1111110110100111;
  658 : 1111101101001000;
  659 : 1111100111110110;
  660 : 1111100111000001;
  661 : 1111011111100000;
  662 : 1111111110100101;
  663 : 1111111101010110;
  664 : 1111111100010011;
  665 : 1111111001011001;
  666 : 1111111010101010;
  667 : 1111111111110010;
  668 : 1111111111110010;
  669 : 1111111111110110;
  670 : 1111111111100101;
  671 : 1111111111110101;
  672 : 1111111111111010;
  673 : 1111111111110101;
  674 : 1111111111100000;
  675 : 1111111111001011;
  676 : 1111111111111110;
  677 : 1111111101101000;
  678 : 1111110111000010;
  679 : 1111110001110000;
  680 : 1111110101111101;
  681 : 1111111010100000;
  682 : 1111110111100101;
  683 : 1111111110111010;
  684 : 1111111000111111;
  685 : 1111111011000101;
  686 : 1111111111000011;
  687 : 1111100100010000;
  688 : 1111101010000010;
  689 : 1111100010101000;
  690 : 1111110011011001;
  691 : 1111111110000001;
  692 : 1111101001010011;
  693 : 1111110001011001;
  694 : 1111110111111001;
  695 : 1111111001111001;
  696 : 1111111111101000;
  697 : 1111111110010001;
  698 : 1111111111001000;
  699 : 1111111111111011;
  700 : 1111111111111110;
  701 : 1111111111110101;
  702 : 1111111111100100;
  703 : 1111111111110110;
  704 : 1111111110011011;
  705 : 1111111111001101;
  706 : 1111111111010110;
  707 : 1111111100000000;
  708 : 1111111101000011;
  709 : 1111111110110111;
  710 : 1111110001100001;
  711 : 1111111100000110;
  712 : 1111111011110000;
  713 : 1111111111100101;
  714 : 1111111000100000;
  715 : 1111111111111110;
  716 : 1111111111100111;
  717 : 1111110010101110;
  718 : 1111110001001001;
  719 : 1111110101011111;
  720 : 1111110100000110;
  721 : 1111111000011011;
  722 : 1111111111000011;
  723 : 1111111111011111;
  724 : 1111111111111101;
  725 : 1111111111111110;
  726 : 1111111111110010;
  727 : 1111111111110111;
  728 : 1111111111111101;
  729 : 1111111111111011;
  730 : 1111111111111110;
  731 : 1111111111110110;
  732 : 1111111110110110;
  733 : 1111111111010101;
  734 : 1111111111110100;
  735 : 1111111111110011;
  736 : 1111111111111000;
  737 : 1111111100101001;
  738 : 1111111100101111;
  739 : 1111111111111010;
  740 : 1111111111111001;
  741 : 1111111111000110;
  742 : 1111101111001111;
  743 : 1111101100100110;
  744 : 1111110001111011;
  745 : 1111110010101001;
  746 : 1111110111110011;
  747 : 1111111000111001;
  748 : 1111110101011001;
  749 : 1111110110001110;
  750 : 1111111101000010;
  751 : 1111111111010011;
  752 : 1111111111100000;
  753 : 1111111111111000;
  754 : 1111111111110010;
  755 : 1111111111110111;
  756 : 1111111111111100;
  757 : 1111111111110110;
  758 : 0000000000000000;
  759 : 1111111111110000;
  760 : 1111111111100000;
  761 : 1111111111000010;
  762 : 1111111111111110;
  763 : 1111111111111110;
  764 : 1111111111111101;
  765 : 1111111111111110;
  766 : 1111111111100001;
  767 : 1111111111111110;
  768 : 1111111111011011;
  769 : 1111111111111101;
  770 : 1111111011111110;
  771 : 1111111101101100;
  772 : 1111111110111011;
  773 : 1111111111111110;
  774 : 1111111101111110;
  775 : 1111111111111101;
  776 : 1111111110100010;
  777 : 1111111110010100;
  778 : 1111111110001110;
  779 : 1111111111100000;
  780 : 1111111111110001;
  781 : 1111111111111110;
  782 : 1111111111111101;
  783 : 1111111111111001;
END;
