WIDTH=16;
DEPTH=784;
ADDRESS_RADIX=UNS;
DATA_RADIX=BIN;
CONTENT BEGIN
  0 : 1111111111101000;
  1 : 1111111111111101;
  2 : 1111111111101010;
  3 : 1111111111111000;
  4 : 1111111111001110;
  5 : 1111111111111110;
  6 : 1111111111101000;
  7 : 1111111111010011;
  8 : 1111111111111011;
  9 : 1111111111100001;
  10 : 1111111111111110;
  11 : 1111111111101001;
  12 : 1111111111110011;
  13 : 1111111111111011;
  14 : 1111111111101011;
  15 : 1111111111110100;
  16 : 1111111111111000;
  17 : 1111111111100001;
  18 : 1111111111101100;
  19 : 1111111111110111;
  20 : 1111111111111100;
  21 : 1111111111111111;
  22 : 1111111111111110;
  23 : 1111111111101110;
  24 : 1111111111011000;
  25 : 1111111111111111;
  26 : 1111111111000101;
  27 : 1111111111110111;
  28 : 1111111111111111;
  29 : 1111111111111101;
  30 : 1111111111110100;
  31 : 1111111111110000;
  32 : 1111111111110110;
  33 : 0000000000000000;
  34 : 1111111111011101;
  35 : 1111111101100000;
  36 : 1111111110000001;
  37 : 1111111111000111;
  38 : 1111111101110011;
  39 : 1111111101100111;
  40 : 1111111010110011;
  41 : 1111111100001100;
  42 : 1111111100011001;
  43 : 1111111010001011;
  44 : 1111111010011100;
  45 : 1111111100000001;
  46 : 1111111110000110;
  47 : 1111111101000011;
  48 : 1111111101101010;
  49 : 1111111111001010;
  50 : 1111111110101110;
  51 : 1111111110011100;
  52 : 1111111111111111;
  53 : 1111111111111101;
  54 : 1111111111110000;
  55 : 1111111111001111;
  56 : 1111111111110011;
  57 : 1111111111100001;
  58 : 1111111111101111;
  59 : 1111111111111111;
  60 : 1111111111000101;
  61 : 1111111111110101;
  62 : 1111111101001100;
  63 : 1111111011011100;
  64 : 1111111010110111;
  65 : 1111111010101000;
  66 : 1111111000011011;
  67 : 1111110100011001;
  68 : 1111110011111111;
  69 : 1111111110101111;
  70 : 1111110001111001;
  71 : 1111110111000110;
  72 : 1111110101100100;
  73 : 1111101110100001;
  74 : 1111110100100001;
  75 : 1111111000001001;
  76 : 1111111010110110;
  77 : 1111111000011100;
  78 : 1111111101001110;
  79 : 1111111110000110;
  80 : 1111111111100001;
  81 : 1111111111111110;
  82 : 1111111111011001;
  83 : 1111111111011111;
  84 : 1111111111000100;
  85 : 1111111111111010;
  86 : 1111111111111011;
  87 : 1111111111111000;
  88 : 1111111111000100;
  89 : 1111111110101010;
  90 : 1111111100011001;
  91 : 1111111000010101;
  92 : 1111110001001100;
  93 : 1111101100111111;
  94 : 1111110110001101;
  95 : 1111110100011111;
  96 : 1111111010000100;
  97 : 1111111001010010;
  98 : 1111111101111010;
  99 : 1111111110000010;
  100 : 1111111111010010;
  101 : 1111111111010100;
  102 : 1111111110000001;
  103 : 1111111000001001;
  104 : 1111111101100100;
  105 : 1111110110010010;
  106 : 1111111111011001;
  107 : 1111111111010011;
  108 : 1111111111011000;
  109 : 1111111111101111;
  110 : 1111111111000110;
  111 : 1111111111011011;
  112 : 1111111111100010;
  113 : 1111111111001011;
  114 : 1111111111100010;
  115 : 1111111111100111;
  116 : 1111111110000000;
  117 : 1111111101010110;
  118 : 1111111011110000;
  119 : 1111110100101001;
  120 : 1111101001001100;
  121 : 1111011101010100;
  122 : 1111101110000111;
  123 : 1111110110010010;
  124 : 1111111100010100;
  125 : 1111110111100001;
  126 : 1111110110000101;
  127 : 1111111001010110;
  128 : 1111111000110011;
  129 : 1111110100010110;
  130 : 1111111111101010;
  131 : 1111101110011011;
  132 : 1111111011011010;
  133 : 1111111111101001;
  134 : 1111111000011110;
  135 : 1111111001101001;
  136 : 1111111110101101;
  137 : 1111111110000100;
  138 : 1111111100110101;
  139 : 1111111101111100;
  140 : 1111111111101000;
  141 : 1111111111001010;
  142 : 1111111111111100;
  143 : 1111111111011001;
  144 : 1111111101111111;
  145 : 1111111111010101;
  146 : 1111111111011100;
  147 : 1111111010111001;
  148 : 1111110011101001;
  149 : 1111110000001111;
  150 : 1111101010001110;
  151 : 1111101011000101;
  152 : 1111101100001010;
  153 : 1111101100011010;
  154 : 1111100100001010;
  155 : 1111101100100000;
  156 : 1111110010001101;
  157 : 1111110100100111;
  158 : 1111111000011101;
  159 : 1111101101100011;
  160 : 1111111111111101;
  161 : 1111111011000001;
  162 : 1111111010010001;
  163 : 1111111101010110;
  164 : 1111111100001011;
  165 : 1111110000001001;
  166 : 1111111001000101;
  167 : 1111111101011101;
  168 : 1111111111100101;
  169 : 1111111111111110;
  170 : 1111111111101010;
  171 : 1111111111011111;
  172 : 1111111111010000;
  173 : 1111111100101001;
  174 : 1111110000111100;
  175 : 1111111111001010;
  176 : 1111111001100001;
  177 : 1111111100001100;
  178 : 1111111011110000;
  179 : 1111011110110101;
  180 : 1111110000000101;
  181 : 1111111100001100;
  182 : 1111111011100110;
  183 : 1111110011010011;
  184 : 1111110111101010;
  185 : 1111110100010011;
  186 : 1111111111100100;
  187 : 1111111111100101;
  188 : 1111111001011100;
  189 : 1111111111000111;
  190 : 1111111110001001;
  191 : 1111111110111001;
  192 : 1111111011111000;
  193 : 1111111111010010;
  194 : 1111111111111010;
  195 : 1111111111111111;
  196 : 0000000000000000;
  197 : 1111111111010011;
  198 : 1111111110000011;
  199 : 1111111000010001;
  200 : 1111111001010001;
  201 : 1111111110010100;
  202 : 1111111101100100;
  203 : 1111111111001011;
  204 : 1111111010000100;
  205 : 1111111100000010;
  206 : 1111111110111110;
  207 : 1111100111010000;
  208 : 1111111010000101;
  209 : 1111110100011101;
  210 : 1111111111110010;
  211 : 1111101101101100;
  212 : 1111111110110001;
  213 : 1111111011101001;
  214 : 1111111001100101;
  215 : 1111111111011000;
  216 : 1111111101000100;
  217 : 1111110100111010;
  218 : 1111110100111001;
  219 : 1111111101001101;
  220 : 1111111010101011;
  221 : 1111111100001101;
  222 : 1111111100110101;
  223 : 1111111111110001;
  224 : 1111111110100110;
  225 : 1111111110111001;
  226 : 1111111111111010;
  227 : 1111111110010110;
  228 : 1111111111001010;
  229 : 1111111110011001;
  230 : 1111110111100100;
  231 : 1111111000111110;
  232 : 1111111000111011;
  233 : 1111111111101101;
  234 : 1111110010101100;
  235 : 1111111110110101;
  236 : 1111110000111000;
  237 : 1111111011111011;
  238 : 1111110010010101;
  239 : 1111111000011000;
  240 : 1111111111110101;
  241 : 1111111001000011;
  242 : 1111111000101100;
  243 : 1111111010111010;
  244 : 1111111111111100;
  245 : 1111111110000100;
  246 : 1111111111110110;
  247 : 1111111110000010;
  248 : 1111111111010011;
  249 : 1111111000010110;
  250 : 1111111111101011;
  251 : 1111111111110001;
  252 : 1111111111111001;
  253 : 1111111100010010;
  254 : 1111111110011111;
  255 : 1111111101101101;
  256 : 1111111001110110;
  257 : 1111111000011000;
  258 : 1111111111110111;
  259 : 1111111000000000;
  260 : 1111111011000111;
  261 : 1111111111001000;
  262 : 1111111111001111;
  263 : 1111111101101011;
  264 : 1111111111000001;
  265 : 1111111100111001;
  266 : 1111111111110001;
  267 : 1111110111010110;
  268 : 1111111111100000;
  269 : 1111111110111010;
  270 : 1111111101011010;
  271 : 1111110100010111;
  272 : 1111110001011001;
  273 : 1111110000011111;
  274 : 1111111100011001;
  275 : 1111101011000001;
  276 : 1111111000011010;
  277 : 1111111111011001;
  278 : 1111111110000011;
  279 : 1111111010110110;
  280 : 1111111111110001;
  281 : 1111111111011110;
  282 : 1111111111111010;
  283 : 1111111110110010;
  284 : 1111111111101110;
  285 : 1111111101010001;
  286 : 1111111110100100;
  287 : 1111111000011101;
  288 : 1111110111010111;
  289 : 1111110011101111;
  290 : 1111110011000100;
  291 : 1111111111111000;
  292 : 1111111011011000;
  293 : 1111111111111110;
  294 : 1111101111111100;
  295 : 1111111110000001;
  296 : 1111110010010001;
  297 : 1111111110000100;
  298 : 1111111111101010;
  299 : 1111111100010100;
  300 : 1111111101001100;
  301 : 1111110101110010;
  302 : 1111111111101100;
  303 : 1111111111110111;
  304 : 1111111111001111;
  305 : 1111110000001010;
  306 : 1111111101010101;
  307 : 1111111110111000;
  308 : 1111111111100000;
  309 : 1111111111110010;
  310 : 1111111100010100;
  311 : 1111111100101010;
  312 : 1111111110010010;
  313 : 1111111001010001;
  314 : 1111110010101010;
  315 : 1111111101111101;
  316 : 1111111110100111;
  317 : 1111111110010000;
  318 : 1111111111110100;
  319 : 1111110101100001;
  320 : 1111101011001001;
  321 : 1111111111010111;
  322 : 1111111110011110;
  323 : 1111111101101010;
  324 : 1111110010010111;
  325 : 1111111001011011;
  326 : 1111111111010001;
  327 : 1111111111111010;
  328 : 1111111000100010;
  329 : 1111111101101000;
  330 : 1111111100111111;
  331 : 1111111000110111;
  332 : 1111111111110100;
  333 : 1111111110100111;
  334 : 1111111111110000;
  335 : 1111111111111100;
  336 : 1111111111110001;
  337 : 1111111111101110;
  338 : 1111111110011011;
  339 : 1111111111101100;
  340 : 1111111101011010;
  341 : 1111111000000110;
  342 : 1111111111110110;
  343 : 1111110110000110;
  344 : 1111100001000010;
  345 : 1111111011011100;
  346 : 1111111100001111;
  347 : 1111101110101010;
  348 : 1111011110010010;
  349 : 1111111100111111;
  350 : 1111111100010101;
  351 : 1111111111011011;
  352 : 1111111110010010;
  353 : 1111111011000000;
  354 : 1111111100000110;
  355 : 1111111111010110;
  356 : 1111111101101010;
  357 : 1111110110110100;
  358 : 1111111000100000;
  359 : 1111110110011110;
  360 : 1111111000000110;
  361 : 1111111001100100;
  362 : 1111111101010010;
  363 : 1111111111001011;
  364 : 1111111111110011;
  365 : 1111111111101100;
  366 : 1111111111001100;
  367 : 1111111100010110;
  368 : 1111111100010111;
  369 : 1111110110110011;
  370 : 1111111111111010;
  371 : 1111111101101001;
  372 : 1111101100110001;
  373 : 1111110000000100;
  374 : 1111100100011111;
  375 : 1111100011011000;
  376 : 1111110010110011;
  377 : 1111111111011101;
  378 : 1111111011011101;
  379 : 1111110100110000;
  380 : 1111111100011110;
  381 : 1111111111000111;
  382 : 1111111011001110;
  383 : 1111110011110100;
  384 : 1111111100100011;
  385 : 1111110110001111;
  386 : 1111111000101111;
  387 : 1111101101000100;
  388 : 1111111001101000;
  389 : 1111111111001101;
  390 : 1111111111110011;
  391 : 1111111111000101;
  392 : 1111111111111100;
  393 : 1111111111110111;
  394 : 1111111111010000;
  395 : 1111111110111010;
  396 : 1111111001110010;
  397 : 1111100110110100;
  398 : 1111101011110111;
  399 : 1111101000111110;
  400 : 1111011100111110;
  401 : 1111011011010110;
  402 : 1111101111110011;
  403 : 1111011101011010;
  404 : 1111111001110001;
  405 : 1111101010011000;
  406 : 1111110100110010;
  407 : 1111110000110011;
  408 : 1111111111001010;
  409 : 1111111111111010;
  410 : 1111101011101110;
  411 : 1111111100111011;
  412 : 1111111110110000;
  413 : 1111101111010010;
  414 : 1111110010001110;
  415 : 1111111000111111;
  416 : 1111110110100010;
  417 : 1111111010000101;
  418 : 1111111110000000;
  419 : 1111111111000111;
  420 : 1111111111111101;
  421 : 1111111111010100;
  422 : 1111111111011011;
  423 : 1111111100011000;
  424 : 1111111011100011;
  425 : 1111110001010001;
  426 : 1111111111010111;
  427 : 1111110101010011;
  428 : 1111101100111010;
  429 : 1111110010010000;
  430 : 1111011101011100;
  431 : 1111101001010010;
  432 : 1111110101011010;
  433 : 1111101110000110;
  434 : 1111101111101010;
  435 : 1111111110000111;
  436 : 1111110000111011;
  437 : 1111110011010111;
  438 : 1111111110111100;
  439 : 1111110010100010;
  440 : 1111111100111110;
  441 : 1111101010010111;
  442 : 1111101111011010;
  443 : 1111111100000111;
  444 : 1111110101100111;
  445 : 1111110101010101;
  446 : 1111111101111001;
  447 : 1111111111100000;
  448 : 1111111111111010;
  449 : 1111111111111111;
  450 : 1111111111111010;
  451 : 1111111100100001;
  452 : 1111110110101000;
  453 : 1111110100100111;
  454 : 1111111111011111;
  455 : 1111100111000000;
  456 : 1111110110111100;
  457 : 1111101111100110;
  458 : 1111111111100010;
  459 : 1111100101000010;
  460 : 1111111101010100;
  461 : 1111110101101010;
  462 : 1111101011100011;
  463 : 1111110011101111;
  464 : 1111011111110001;
  465 : 1111111010111110;
  466 : 1111111101011111;
  467 : 1111111111001010;
  468 : 1111111001010010;
  469 : 1111111111110000;
  470 : 1111111001011110;
  471 : 1111111111010101;
  472 : 1111110100100010;
  473 : 1111110110110110;
  474 : 1111111101010110;
  475 : 1111111111011001;
  476 : 1111111111110100;
  477 : 1111111111011100;
  478 : 1111111111100000;
  479 : 1111111111011001;
  480 : 1111111111001111;
  481 : 1111111110011010;
  482 : 1111100010001110;
  483 : 1111100000010001;
  484 : 1111110000001000;
  485 : 1111001001111111;
  486 : 1111101001110101;
  487 : 1111100100110010;
  488 : 1111100000110000;
  489 : 1111111110000011;
  490 : 1111111000111000;
  491 : 1111111100001110;
  492 : 1111111001100110;
  493 : 1111111110101001;
  494 : 1111110010101101;
  495 : 1111111000001100;
  496 : 1111111111101001;
  497 : 1111111110011011;
  498 : 1111110111010100;
  499 : 1111110000000100;
  500 : 1111101101001110;
  501 : 1111111110100000;
  502 : 1111111111100100;
  503 : 1111111111100111;
  504 : 1111111111111000;
  505 : 1111111111111010;
  506 : 1111111111101011;
  507 : 1111111111011000;
  508 : 1111111110101011;
  509 : 1111111110001001;
  510 : 1111111000011111;
  511 : 1111111110001010;
  512 : 1111111110111110;
  513 : 1111111101011001;
  514 : 1111101100000010;
  515 : 1111111110100000;
  516 : 1111100001010110;
  517 : 1111111100011110;
  518 : 1111110011010001;
  519 : 1111111100110011;
  520 : 1111111100010010;
  521 : 1111111010000011;
  522 : 1111111111110010;
  523 : 1111111000111000;
  524 : 1111110001110111;
  525 : 1111110100101111;
  526 : 1111101011010101;
  527 : 1111101011000110;
  528 : 1111101101111110;
  529 : 1111111111001101;
  530 : 1111111111000111;
  531 : 1111111111110111;
  532 : 1111111111100110;
  533 : 1111111111110001;
  534 : 1111111110000101;
  535 : 1111111000111011;
  536 : 1111110110100010;
  537 : 1111111010110110;
  538 : 1111110001110100;
  539 : 1111110001000001;
  540 : 1111101110101100;
  541 : 1111100011001111;
  542 : 1111101001100011;
  543 : 1111110001010100;
  544 : 1111111011110010;
  545 : 1111101110110001;
  546 : 1111101100111110;
  547 : 1111100101010111;
  548 : 1111111100111100;
  549 : 1111111001100110;
  550 : 1111110101100010;
  551 : 1111101111101001;
  552 : 1111111110111100;
  553 : 1111111000110111;
  554 : 1111101111001110;
  555 : 1111101101011111;
  556 : 1111111010101111;
  557 : 1111111110001001;
  558 : 1111111111010100;
  559 : 1111111111010001;
  560 : 1111111111111010;
  561 : 1111111111100001;
  562 : 1111111110010001;
  563 : 1111110100000101;
  564 : 1111101011000101;
  565 : 1111101111110001;
  566 : 1111101101101011;
  567 : 1111100111000010;
  568 : 1111100101000010;
  569 : 1111110011001011;
  570 : 1111011000100110;
  571 : 1111011110100111;
  572 : 1111011000001110;
  573 : 1111100010000110;
  574 : 1111100011101001;
  575 : 1111101101100111;
  576 : 1111110011100111;
  577 : 1111110101011010;
  578 : 1111101111001000;
  579 : 1111110101011100;
  580 : 1111111011101110;
  581 : 1111111101100100;
  582 : 1111111001110010;
  583 : 1111111001110100;
  584 : 1111111110101101;
  585 : 1111111111010010;
  586 : 1111111111111011;
  587 : 1111111111110001;
  588 : 1111111111010100;
  589 : 1111111111000011;
  590 : 1111111101110011;
  591 : 1111110101010001;
  592 : 1111101011011010;
  593 : 1111101011111110;
  594 : 1111100101110101;
  595 : 1111011001111111;
  596 : 1111100101000000;
  597 : 1111101110000000;
  598 : 1111110010011110;
  599 : 1111010100111101;
  600 : 1111100010100010;
  601 : 1111101010010100;
  602 : 1111111100100111;
  603 : 1111111101100110;
  604 : 1111111101010001;
  605 : 1111111111000011;
  606 : 1111111101000101;
  607 : 1111111000001000;
  608 : 1111111010100010;
  609 : 1111111111010111;
  610 : 1111111100101110;
  611 : 1111111001010101;
  612 : 1111111101010000;
  613 : 1111111111111010;
  614 : 1111111110011000;
  615 : 1111111111001100;
  616 : 1111111111011110;
  617 : 1111111111100101;
  618 : 1111111111000010;
  619 : 1111111010111110;
  620 : 1111110010000011;
  621 : 1111101110011111;
  622 : 1111101010101010;
  623 : 1111111110101111;
  624 : 1111111101000101;
  625 : 1111111011011110;
  626 : 1111111000111000;
  627 : 1111100010110001;
  628 : 1111111111001110;
  629 : 1111111110011110;
  630 : 1111111010000101;
  631 : 1111111010111111;
  632 : 1111110101010101;
  633 : 1111111111000100;
  634 : 1111111111001010;
  635 : 1111100001111010;
  636 : 1111101110010101;
  637 : 1111110110000110;
  638 : 1111111011011111;
  639 : 1111111110110011;
  640 : 1111111100010011;
  641 : 1111111111001010;
  642 : 1111111111100101;
  643 : 1111111111100000;
  644 : 1111111111101110;
  645 : 1111111111100010;
  646 : 1111111111000000;
  647 : 1111111110111010;
  648 : 1111111110111001;
  649 : 1111111100011010;
  650 : 1111111000101011;
  651 : 1111111100000011;
  652 : 1111110011101100;
  653 : 1111111110110111;
  654 : 1111110001001001;
  655 : 1111100011100111;
  656 : 1111100111100111;
  657 : 1111110001000011;
  658 : 1111111011010000;
  659 : 1111111101000001;
  660 : 1111101110100110;
  661 : 1111111100010000;
  662 : 1111111011011010;
  663 : 1111110011001100;
  664 : 1111110110110000;
  665 : 1111110110001011;
  666 : 1111111110000010;
  667 : 1111111110010011;
  668 : 1111111100001100;
  669 : 1111111111111100;
  670 : 1111111111111010;
  671 : 1111111111110000;
  672 : 1111111111111100;
  673 : 1111111111011110;
  674 : 1111111110111111;
  675 : 1111111111100011;
  676 : 1111111101111011;
  677 : 1111111111001010;
  678 : 1111111111101001;
  679 : 1111111100101111;
  680 : 1111111111101001;
  681 : 1111111011111110;
  682 : 1111111101101010;
  683 : 1111110111000101;
  684 : 1111110011011001;
  685 : 1111111100100001;
  686 : 1111111111010010;
  687 : 1111111010001110;
  688 : 1111110110101111;
  689 : 1111111110001001;
  690 : 1111111111111011;
  691 : 1111111110110111;
  692 : 1111111000100001;
  693 : 1111111000010101;
  694 : 1111111101011111;
  695 : 1111111111110111;
  696 : 1111111110001110;
  697 : 1111111111111010;
  698 : 1111111111111111;
  699 : 1111111111111100;
  700 : 1111111111111010;
  701 : 1111111111111011;
  702 : 1111111111111111;
  703 : 1111111111100011;
  704 : 1111111000010100;
  705 : 1111111001011010;
  706 : 1111111000111010;
  707 : 1111110000101000;
  708 : 1111111111011100;
  709 : 1111111000110010;
  710 : 1111111101101111;
  711 : 1111111111100111;
  712 : 1111111011110101;
  713 : 1111111100100110;
  714 : 1111111111001010;
  715 : 1111111101111101;
  716 : 1111110000101001;
  717 : 1111111110000001;
  718 : 1111110001011001;
  719 : 1111111100011001;
  720 : 1111111111111010;
  721 : 1111111110000110;
  722 : 1111111100001001;
  723 : 1111111110011100;
  724 : 1111111110101100;
  725 : 1111111111110100;
  726 : 0000000000000000;
  727 : 1111111111111011;
  728 : 1111111111111110;
  729 : 1111111111110111;
  730 : 1111111111000101;
  731 : 0000000000000000;
  732 : 1111111011000010;
  733 : 1111111111110111;
  734 : 1111111100011101;
  735 : 1111111010111111;
  736 : 1111111011101011;
  737 : 1111111001000111;
  738 : 1111111101110111;
  739 : 1111111111000001;
  740 : 1111111101010001;
  741 : 1111111010101011;
  742 : 1111111111000100;
  743 : 1111111100000011;
  744 : 1111110111100001;
  745 : 1111111110101001;
  746 : 1111111111110110;
  747 : 1111111101101011;
  748 : 1111111110011101;
  749 : 1111111110001011;
  750 : 1111111110111010;
  751 : 1111111111010001;
  752 : 1111111111101000;
  753 : 1111111111111100;
  754 : 1111111111110000;
  755 : 1111111111110000;
  756 : 1111111111111010;
  757 : 1111111111011101;
  758 : 1111111111110101;
  759 : 1111111111100010;
  760 : 1111111111110001;
  761 : 1111111111000011;
  762 : 1111111111101111;
  763 : 1111111111111000;
  764 : 1111111111110110;
  765 : 1111111111101100;
  766 : 1111111110101010;
  767 : 1111111111110010;
  768 : 1111111110110001;
  769 : 1111111111110100;
  770 : 1111111111100000;
  771 : 1111111010101011;
  772 : 1111111011100001;
  773 : 1111111111101011;
  774 : 1111111111101101;
  775 : 1111111111000010;
  776 : 1111111111101010;
  777 : 1111111111111011;
  778 : 1111111111110110;
  779 : 1111111111101010;
  780 : 1111111111111111;
  781 : 1111111111101110;
  782 : 1111111111110110;
  783 : 1111111111111011;
END;
