WIDTH=16;
DEPTH=784;
ADDRESS_RADIX=UNS;
DATA_RADIX=BIN;
CONTENT BEGIN
  0 : 1111111111111100;
  1 : 1111111111111111;
  2 : 1111111111010101;
  3 : 0000000000000000;
  4 : 1111111111110111;
  5 : 1111111111100101;
  6 : 1111111111110111;
  7 : 1111111111111100;
  8 : 1111111111100101;
  9 : 1111111111111011;
  10 : 1111111111110100;
  11 : 1111111111011101;
  12 : 1111111111100100;
  13 : 1111111111111001;
  14 : 1111111111111100;
  15 : 1111111111111100;
  16 : 1111111111111101;
  17 : 1111111111100001;
  18 : 1111111111101111;
  19 : 1111111111110010;
  20 : 1111111111111010;
  21 : 1111111111010000;
  22 : 1111111111110101;
  23 : 1111111111011111;
  24 : 1111111111101100;
  25 : 1111111111110010;
  26 : 1111111111100001;
  27 : 1111111111111011;
  28 : 1111111111111010;
  29 : 1111111111111011;
  30 : 1111111111111110;
  31 : 1111111111100001;
  32 : 1111111111100100;
  33 : 1111111111111110;
  34 : 1111111111100111;
  35 : 1111111111111001;
  36 : 1111111111111011;
  37 : 1111111111011011;
  38 : 1111111111101100;
  39 : 1111111111111111;
  40 : 1111111111101110;
  41 : 1111111111011011;
  42 : 1111111101110001;
  43 : 1111111010001100;
  44 : 1111111000101101;
  45 : 1111111111000000;
  46 : 1111111110111100;
  47 : 1111111111111100;
  48 : 1111111111111010;
  49 : 1111111111001001;
  50 : 1111111111111000;
  51 : 1111111111111100;
  52 : 1111111111010110;
  53 : 1111111111111100;
  54 : 1111111111111101;
  55 : 1111111111100001;
  56 : 1111111111110001;
  57 : 1111111111110010;
  58 : 1111111111110010;
  59 : 1111111111111000;
  60 : 1111111111000101;
  61 : 1111111111111110;
  62 : 1111111111011011;
  63 : 1111111110000011;
  64 : 1111111110010000;
  65 : 1111111100000001;
  66 : 1111111110111010;
  67 : 1111111101111111;
  68 : 1111111100110011;
  69 : 1111111101001111;
  70 : 1111110111111100;
  71 : 1111110001110000;
  72 : 1111110000100110;
  73 : 1111111101010100;
  74 : 1111111111101100;
  75 : 1111111111111010;
  76 : 1111111111111111;
  77 : 1111111100110000;
  78 : 1111111110111001;
  79 : 1111111110000000;
  80 : 1111111111100101;
  81 : 1111111111110001;
  82 : 1111111111110111;
  83 : 1111111111100101;
  84 : 0000000000000000;
  85 : 1111111111110101;
  86 : 1111111111111110;
  87 : 1111111111111000;
  88 : 1111111111100100;
  89 : 1111111111101010;
  90 : 1111111111011100;
  91 : 1111111100000101;
  92 : 1111111111101010;
  93 : 1111111110110100;
  94 : 1111111100101100;
  95 : 1111111101100011;
  96 : 1111111111010110;
  97 : 1111100010000110;
  98 : 1111010110000011;
  99 : 1111011001011011;
  100 : 1111011001110011;
  101 : 1111110111111000;
  102 : 1111111000101010;
  103 : 1111110000101011;
  104 : 1111111100011000;
  105 : 1111111100001011;
  106 : 1111111110110110;
  107 : 1111111111001111;
  108 : 1111111111001101;
  109 : 1111111110011111;
  110 : 1111111111111100;
  111 : 1111111111110000;
  112 : 1111111111000111;
  113 : 1111111111110011;
  114 : 1111111111001111;
  115 : 1111111110110011;
  116 : 0000000000000000;
  117 : 1111111100010110;
  118 : 1111111111110110;
  119 : 1111111010111010;
  120 : 1111110010110000;
  121 : 1111110011101010;
  122 : 1111111110011011;
  123 : 1111111110101110;
  124 : 1111110101101101;
  125 : 1111010011100011;
  126 : 1111000110000010;
  127 : 1111000111110011;
  128 : 1111101001000101;
  129 : 1111111011000111;
  130 : 1111111111111010;
  131 : 1111110001101001;
  132 : 1111111100111010;
  133 : 1111111111100001;
  134 : 1111111010111111;
  135 : 1111111111101010;
  136 : 1111111001101001;
  137 : 1111110110000100;
  138 : 1111111001110101;
  139 : 1111111111100101;
  140 : 1111111111100101;
  141 : 1111111111111111;
  142 : 1111111111110111;
  143 : 1111111111110001;
  144 : 1111111111000000;
  145 : 1111111100010010;
  146 : 1111110011010100;
  147 : 1111110110111000;
  148 : 1111111110010101;
  149 : 1111111110000000;
  150 : 1111111000000111;
  151 : 1111111111010010;
  152 : 1111100000101010;
  153 : 1110110101010110;
  154 : 1110111111010100;
  155 : 1111000111011011;
  156 : 1111111100011100;
  157 : 1111110100001111;
  158 : 1111110101010111;
  159 : 1111111001001011;
  160 : 1111110100101001;
  161 : 1111111011000100;
  162 : 1111111101100010;
  163 : 1111111010010001;
  164 : 1111110001000111;
  165 : 1111111111010011;
  166 : 1111111110111110;
  167 : 1111111111011111;
  168 : 1111111111011101;
  169 : 1111111111111001;
  170 : 1111111111011100;
  171 : 1111111111100100;
  172 : 1111111100011110;
  173 : 1111111111010100;
  174 : 1111111100110100;
  175 : 1111111000100011;
  176 : 1111111101010010;
  177 : 1111111011011000;
  178 : 1111110000100101;
  179 : 1111110010110011;
  180 : 1111010110011000;
  181 : 1110100110001100;
  182 : 1111000101110000;
  183 : 1111111110010011;
  184 : 1111111101011100;
  185 : 1111111010000101;
  186 : 1111111011101010;
  187 : 1111110110001000;
  188 : 1111110011001011;
  189 : 1111111100011111;
  190 : 1111111010111000;
  191 : 1111111111100100;
  192 : 1111111101110100;
  193 : 1111111000100101;
  194 : 1111111111100111;
  195 : 1111111110100101;
  196 : 1111111111100001;
  197 : 1111111111011100;
  198 : 1111111111111001;
  199 : 1111110111011100;
  200 : 1111111100000101;
  201 : 1111110010000010;
  202 : 1111111111001000;
  203 : 1111111110111001;
  204 : 1111110010100000;
  205 : 1111111100011110;
  206 : 1111111011100000;
  207 : 1111110101010100;
  208 : 1111001001010101;
  209 : 1110011101110100;
  210 : 1111101110100000;
  211 : 1111110100110110;
  212 : 1111111111000001;
  213 : 1111111011101011;
  214 : 1111111111101011;
  215 : 1111111101011011;
  216 : 1111111111000001;
  217 : 1111111001001110;
  218 : 1111110110101110;
  219 : 1111101000000100;
  220 : 1111110010100010;
  221 : 1111111110100001;
  222 : 1111111111100110;
  223 : 1111111111010001;
  224 : 1111111111011000;
  225 : 1111111110011110;
  226 : 1111111110110110;
  227 : 1111111100101110;
  228 : 1111111101110011;
  229 : 1111111000101000;
  230 : 1111111100100111;
  231 : 1111111110011011;
  232 : 1111111010010000;
  233 : 1111111110001100;
  234 : 1111111111011110;
  235 : 1111101001100100;
  236 : 1110100001001000;
  237 : 1111000101100011;
  238 : 1111111111110100;
  239 : 1111111010101000;
  240 : 1111110111111001;
  241 : 1111100000001111;
  242 : 1111111011001010;
  243 : 1111111101000001;
  244 : 1111101110010001;
  245 : 1111110001100101;
  246 : 1111101111001111;
  247 : 1111100010011010;
  248 : 1111100111111010;
  249 : 1111111000001010;
  250 : 1111111010100111;
  251 : 1111111111110100;
  252 : 1111111111111001;
  253 : 1111111101011100;
  254 : 1111111110100011;
  255 : 1111111110011100;
  256 : 1111111111100100;
  257 : 1111111000110011;
  258 : 1111101101010110;
  259 : 1111110111101011;
  260 : 1111111100000111;
  261 : 1111111111110110;
  262 : 1111111101001001;
  263 : 1111110011100011;
  264 : 1110111010100001;
  265 : 1111001011110011;
  266 : 1111101110011110;
  267 : 1111100110011001;
  268 : 1111111110111111;
  269 : 1111111111011011;
  270 : 1111111110001001;
  271 : 1111111100001100;
  272 : 1111111010001001;
  273 : 1111111011101111;
  274 : 1111100110010010;
  275 : 1111100110101001;
  276 : 1111110000000000;
  277 : 1111110010010010;
  278 : 1111111001110011;
  279 : 1111111111011011;
  280 : 1111111111100001;
  281 : 1111111101100011;
  282 : 1111111101101011;
  283 : 1111111010111011;
  284 : 1111111111010000;
  285 : 1111111010110011;
  286 : 1111011011101000;
  287 : 1111111110011110;
  288 : 1111111110000011;
  289 : 1111111111111001;
  290 : 1111111100011010;
  291 : 1111110000110011;
  292 : 1111100101100010;
  293 : 1111010011011100;
  294 : 1111111011100101;
  295 : 1111110011011011;
  296 : 1111111101011001;
  297 : 1111110110110110;
  298 : 1111110110010100;
  299 : 1111110010001111;
  300 : 1111110000111000;
  301 : 1111100110000110;
  302 : 1111100011100111;
  303 : 1111101111101000;
  304 : 1111111011001011;
  305 : 1111111010111000;
  306 : 1111111100010010;
  307 : 1111111111110101;
  308 : 1111111111110000;
  309 : 1111111110010001;
  310 : 1111111110100000;
  311 : 1111111011000101;
  312 : 1111110100110010;
  313 : 1111111100000101;
  314 : 1111111000000111;
  315 : 1111110010000101;
  316 : 1111111111111110;
  317 : 1111111001111011;
  318 : 1111111111111001;
  319 : 1111100010110001;
  320 : 1111011010011101;
  321 : 1111110010110000;
  322 : 1111110110000110;
  323 : 1111111101110000;
  324 : 1111111111000101;
  325 : 1111111100110111;
  326 : 1111100111101111;
  327 : 1111011011100010;
  328 : 1111101110000010;
  329 : 1111110010000000;
  330 : 1111110010010111;
  331 : 1111111000011110;
  332 : 1111111100000111;
  333 : 1111111110110111;
  334 : 1111111110110011;
  335 : 1111111111101000;
  336 : 1111111111110110;
  337 : 1111111111011000;
  338 : 1111111110101100;
  339 : 1111111110110010;
  340 : 1111111010001010;
  341 : 1111111101101110;
  342 : 1111111001001001;
  343 : 1111111100101011;
  344 : 1111110001011111;
  345 : 1111111001000001;
  346 : 1111110111111000;
  347 : 1111110011101011;
  348 : 1111110001101010;
  349 : 1111111101110100;
  350 : 1111110101001111;
  351 : 1111110101110011;
  352 : 1111110111111101;
  353 : 1111110111001101;
  354 : 1111111100111000;
  355 : 1111111001010101;
  356 : 1111111111111011;
  357 : 1111110101000111;
  358 : 1111111111001101;
  359 : 1111111001100000;
  360 : 1111111111111101;
  361 : 1111111000010111;
  362 : 1111111100000110;
  363 : 1111111111100010;
  364 : 1111111111110011;
  365 : 1111111111011111;
  366 : 1111111110100111;
  367 : 1111111110001100;
  368 : 1111111111000111;
  369 : 1111111111101000;
  370 : 1111111010111100;
  371 : 1111111101111110;
  372 : 1111111000000010;
  373 : 1111111110111000;
  374 : 1111111110100011;
  375 : 1111111100101001;
  376 : 1111111111111110;
  377 : 1111111100010010;
  378 : 1111110100111001;
  379 : 1111101110010001;
  380 : 1111111000111111;
  381 : 1111110011001100;
  382 : 1111111110111100;
  383 : 1111111000110101;
  384 : 1111111001010011;
  385 : 1111111110100111;
  386 : 1111111110100100;
  387 : 1111110000010110;
  388 : 1111111000101010;
  389 : 1111111001100111;
  390 : 1111111101010010;
  391 : 1111111111100000;
  392 : 1111111111010001;
  393 : 1111111110101000;
  394 : 1111111110010001;
  395 : 1111111110111110;
  396 : 1111111011010000;
  397 : 1111110001010011;
  398 : 1111110111101110;
  399 : 1111111010101100;
  400 : 1111111111100011;
  401 : 1111111010010111;
  402 : 1111111011010101;
  403 : 1111111100100101;
  404 : 1111111000001010;
  405 : 1111111011110111;
  406 : 1111111110000010;
  407 : 1111111011110110;
  408 : 1111111000010111;
  409 : 1111110100100100;
  410 : 1111101110100000;
  411 : 1111111111000110;
  412 : 1111110010110001;
  413 : 1111110000101010;
  414 : 1111111100001000;
  415 : 1111110111010100;
  416 : 1111111101010000;
  417 : 1111111101101100;
  418 : 1111111011101011;
  419 : 1111111111110010;
  420 : 1111111111110001;
  421 : 0000000000000000;
  422 : 1111111110010111;
  423 : 1111111111111111;
  424 : 1111111101100111;
  425 : 1111111010000100;
  426 : 1111111101000101;
  427 : 1111110101111110;
  428 : 1111111111100011;
  429 : 1111111100110000;
  430 : 1111111011001001;
  431 : 1111110011111010;
  432 : 1111110000101000;
  433 : 1111111100000110;
  434 : 1111111110111010;
  435 : 1111110111000001;
  436 : 1111111111010000;
  437 : 1111111101100011;
  438 : 1111110011110100;
  439 : 1111111110011010;
  440 : 1111101001111101;
  441 : 1111111011111000;
  442 : 1111111101111111;
  443 : 1111110110101111;
  444 : 1111110100010001;
  445 : 1111111010001100;
  446 : 1111111001110011;
  447 : 1111111110111001;
  448 : 1111111111111111;
  449 : 1111111111011011;
  450 : 1111111111110010;
  451 : 1111111010110010;
  452 : 1111110111101011;
  453 : 1111110111111110;
  454 : 1111111110001000;
  455 : 1111111100100100;
  456 : 1111111101000011;
  457 : 1111111110000011;
  458 : 1111111001000001;
  459 : 1111101010111001;
  460 : 1111111110001101;
  461 : 1111111110100110;
  462 : 1111111111101110;
  463 : 1111111010111100;
  464 : 1111111110011110;
  465 : 1111110011100111;
  466 : 1111111100010100;
  467 : 1111100000000110;
  468 : 1111111111101000;
  469 : 1111110110111101;
  470 : 1111111010010011;
  471 : 1111111110000000;
  472 : 1111111110011110;
  473 : 1111111111100100;
  474 : 1111111110010010;
  475 : 1111111111111100;
  476 : 1111111111100110;
  477 : 1111111111111011;
  478 : 1111111101001000;
  479 : 1111111111111100;
  480 : 1111111111000111;
  481 : 1111111000111011;
  482 : 1111110010111001;
  483 : 1111111111010111;
  484 : 1111111010001001;
  485 : 1111111101011111;
  486 : 1111111101000010;
  487 : 1111110100011001;
  488 : 1111110110011110;
  489 : 1111110100011000;
  490 : 1111110101110110;
  491 : 1111111111111000;
  492 : 1111111010110011;
  493 : 1111111110100011;
  494 : 1111111100101110;
  495 : 1111110001000111;
  496 : 1111111111101011;
  497 : 1111111111011110;
  498 : 1111101101111001;
  499 : 1111110100011100;
  500 : 1111110110111010;
  501 : 1111111101010111;
  502 : 1111111101011111;
  503 : 1111111110001111;
  504 : 1111111111111100;
  505 : 1111111111100001;
  506 : 1111111111000010;
  507 : 1111111011011011;
  508 : 1111111100000100;
  509 : 1111111100101111;
  510 : 1111110111101001;
  511 : 1111110111101110;
  512 : 1111111000010110;
  513 : 1111111010100100;
  514 : 1111111100110111;
  515 : 1111111001111011;
  516 : 1111111010100001;
  517 : 1111111110111101;
  518 : 1111111111100000;
  519 : 1111111111110011;
  520 : 1111111110001010;
  521 : 1111111000000110;
  522 : 1111111000100101;
  523 : 1111110001010001;
  524 : 1111111101011000;
  525 : 1111111111000100;
  526 : 1111110101100101;
  527 : 1111111001110110;
  528 : 1111111010100001;
  529 : 1111111100000011;
  530 : 1111111100110001;
  531 : 1111111111011010;
  532 : 1111111111010100;
  533 : 1111111111110100;
  534 : 1111111110000111;
  535 : 1111111100110111;
  536 : 1111111010111111;
  537 : 1111110010001010;
  538 : 1111110100011110;
  539 : 1111110111111010;
  540 : 1111101000100011;
  541 : 1111111010000011;
  542 : 1111110101001011;
  543 : 1111111110001110;
  544 : 1111101110100010;
  545 : 1111110101111101;
  546 : 1111111111011110;
  547 : 1111111001110000;
  548 : 1111111010001110;
  549 : 1111111100110011;
  550 : 1111111111111000;
  551 : 1111110111101111;
  552 : 1111111111100110;
  553 : 1111111110101100;
  554 : 1111110100010110;
  555 : 1111111110011011;
  556 : 1111111111000010;
  557 : 1111111111010111;
  558 : 1111111110111010;
  559 : 1111111111000101;
  560 : 1111111111101011;
  561 : 1111111111001011;
  562 : 1111111111110101;
  563 : 1111111111101011;
  564 : 1111110100111001;
  565 : 1111100010101000;
  566 : 1111101011011010;
  567 : 1111111101110101;
  568 : 1111111001100010;
  569 : 1111111001110101;
  570 : 1111110111000110;
  571 : 1111111111000001;
  572 : 1111111111001110;
  573 : 1111110001001010;
  574 : 1111110111101011;
  575 : 1111111110111100;
  576 : 1111111101101010;
  577 : 1111111011111110;
  578 : 1111110010010000;
  579 : 1111111111001001;
  580 : 1111101100010110;
  581 : 1111111101110111;
  582 : 1111110111011000;
  583 : 1111111100110100;
  584 : 1111111111010101;
  585 : 1111111111100110;
  586 : 1111111111100001;
  587 : 1111111111101101;
  588 : 1111111111011000;
  589 : 1111111111110100;
  590 : 1111111101111010;
  591 : 1111111111110111;
  592 : 1111111010111110;
  593 : 1111101111110111;
  594 : 1111110000010001;
  595 : 1111111101111001;
  596 : 1111111101010011;
  597 : 1111111111110001;
  598 : 1111110000110101;
  599 : 1111111010010010;
  600 : 1111101111110101;
  601 : 1111111111111111;
  602 : 1111111111000101;
  603 : 1111111111000010;
  604 : 1111111001010101;
  605 : 1111111111101110;
  606 : 1111111000001111;
  607 : 1111111111001101;
  608 : 1111110100101101;
  609 : 1111111111000011;
  610 : 1111111100010010;
  611 : 1111111111011101;
  612 : 1111111111111101;
  613 : 1111111111110100;
  614 : 1111111110101100;
  615 : 1111111111111110;
  616 : 1111111111011101;
  617 : 1111111111101000;
  618 : 1111111111111111;
  619 : 1111111111110100;
  620 : 1111111111010100;
  621 : 1111111111011001;
  622 : 1111111111101010;
  623 : 1111111010000000;
  624 : 1111111110100011;
  625 : 1111111100001101;
  626 : 1111111010100100;
  627 : 1111111101011010;
  628 : 1111110101010000;
  629 : 1111111110101100;
  630 : 1111111010101101;
  631 : 1111111000110001;
  632 : 1111111111110110;
  633 : 1111110110001010;
  634 : 1111110101011101;
  635 : 1111111100010110;
  636 : 1111111101000010;
  637 : 1111111100100101;
  638 : 1111111101111010;
  639 : 1111111010001100;
  640 : 1111111111000101;
  641 : 1111111111000101;
  642 : 1111111111011000;
  643 : 1111111111111111;
  644 : 1111111111111110;
  645 : 1111111111101001;
  646 : 1111111111111000;
  647 : 1111111111100100;
  648 : 1111111111110100;
  649 : 1111111111111011;
  650 : 1111111110101010;
  651 : 1111111110111010;
  652 : 1111111111110111;
  653 : 1111111100101111;
  654 : 1111110011000011;
  655 : 1111111010000001;
  656 : 1111111100111110;
  657 : 1111111110111100;
  658 : 1111111001110110;
  659 : 1111111110100100;
  660 : 1111100110001001;
  661 : 1111100111101110;
  662 : 1111111100011110;
  663 : 1111111111101001;
  664 : 1111111110100011;
  665 : 1111110100000001;
  666 : 1111111100000010;
  667 : 1111111011110010;
  668 : 1111111001011010;
  669 : 1111111111110000;
  670 : 0000000000000000;
  671 : 1111111111110011;
  672 : 1111111111111011;
  673 : 1111111111101101;
  674 : 1111111111110010;
  675 : 1111111111010100;
  676 : 1111111101001110;
  677 : 1111111110011010;
  678 : 1111111101100010;
  679 : 1111111011000101;
  680 : 1111111000001100;
  681 : 1111111000001110;
  682 : 1111110010101111;
  683 : 1111110110100110;
  684 : 1111110011010101;
  685 : 1111111110100110;
  686 : 1111111010000111;
  687 : 1111111101001101;
  688 : 1111111011011110;
  689 : 1111110001000011;
  690 : 1111100000000110;
  691 : 1111111100001001;
  692 : 1111110010010111;
  693 : 1111111110000001;
  694 : 1111111100100100;
  695 : 1111110101000101;
  696 : 1111111110000000;
  697 : 1111111111110100;
  698 : 1111111111100101;
  699 : 1111111111000110;
  700 : 1111111111111000;
  701 : 1111111111110110;
  702 : 1111111111001101;
  703 : 1111111111111111;
  704 : 1111111110100010;
  705 : 1111111110010100;
  706 : 1111111001001001;
  707 : 1111110100001110;
  708 : 1111111010000101;
  709 : 1111111001110000;
  710 : 1111110100110011;
  711 : 1111110101001011;
  712 : 1111101101001110;
  713 : 1111111010000110;
  714 : 1111100011011010;
  715 : 1111111110101100;
  716 : 1111101000011011;
  717 : 1111111011011010;
  718 : 1111111110010010;
  719 : 1111010011101001;
  720 : 1111100011111010;
  721 : 1111110101111011;
  722 : 1111110011001010;
  723 : 1111111000100010;
  724 : 1111111111010010;
  725 : 1111111111001010;
  726 : 1111111111101110;
  727 : 1111111111101101;
  728 : 1111111111111100;
  729 : 1111111111110000;
  730 : 1111111111100000;
  731 : 1111111111111111;
  732 : 1111111111011011;
  733 : 1111111111010111;
  734 : 1111111101100111;
  735 : 1111111011110110;
  736 : 1111111001001101;
  737 : 1111111010111010;
  738 : 1111111000010100;
  739 : 1111111101110001;
  740 : 1111110000000001;
  741 : 1111100111111000;
  742 : 1111101001010101;
  743 : 1111111111001100;
  744 : 1111101110011100;
  745 : 1111110000111100;
  746 : 1111100100110010;
  747 : 1111110011101001;
  748 : 1111110100001001;
  749 : 1111110010010000;
  750 : 1111111010011101;
  751 : 1111111111111101;
  752 : 1111111111111100;
  753 : 1111111111111001;
  754 : 1111111111110001;
  755 : 1111111111111011;
  756 : 1111111111111011;
  757 : 1111111111110001;
  758 : 1111111111111101;
  759 : 1111111111111001;
  760 : 1111111111111110;
  761 : 1111111111111000;
  762 : 1111111111100110;
  763 : 1111111111011011;
  764 : 1111111111011011;
  765 : 1111111111101010;
  766 : 1111111101111110;
  767 : 1111111101010010;
  768 : 1111111100111000;
  769 : 1111111110100100;
  770 : 1111111011000111;
  771 : 1111111101100100;
  772 : 1111111111101011;
  773 : 1111111011000110;
  774 : 1111110101100010;
  775 : 1111111111111100;
  776 : 1111111111101001;
  777 : 1111111111011010;
  778 : 1111111101000101;
  779 : 1111111111100101;
  780 : 1111111111111111;
  781 : 1111111111100011;
  782 : 1111111111101110;
  783 : 1111111111101011;
END;
