WIDTH=16;
DEPTH=784;
ADDRESS_RADIX=UNS;
DATA_RADIX=BIN;
CONTENT BEGIN
  0 : 1111111111100001;
  1 : 1111111111111000;
  2 : 1111111111000101;
  3 : 1111111111111100;
  4 : 1111111111100011;
  5 : 1111111111111111;
  6 : 1111111111100000;
  7 : 1111111111111001;
  8 : 1111111111100100;
  9 : 1111111110101111;
  10 : 1111111111011001;
  11 : 1111111111010010;
  12 : 1111111111011100;
  13 : 1111111111110000;
  14 : 1111111111110100;
  15 : 1111111111110101;
  16 : 1111111111111101;
  17 : 1111111111110011;
  18 : 1111111111101010;
  19 : 1111111111110101;
  20 : 1111111111100111;
  21 : 1111111111100010;
  22 : 1111111111111100;
  23 : 1111111111111111;
  24 : 1111111111101001;
  25 : 0000000000000000;
  26 : 1111111111100010;
  27 : 1111111111011011;
  28 : 1111111111111011;
  29 : 1111111111111110;
  30 : 1111111111111000;
  31 : 1111111111110111;
  32 : 1111111111111110;
  33 : 1111111111101001;
  34 : 1111111111100101;
  35 : 1111111111111111;
  36 : 1111111111100110;
  37 : 1111111111111110;
  38 : 1111111111111110;
  39 : 1111111111101001;
  40 : 1111111111111010;
  41 : 1111111111010011;
  42 : 1111111111110001;
  43 : 1111111111010100;
  44 : 1111111111110000;
  45 : 1111111111100110;
  46 : 1111111111111001;
  47 : 1111111111111001;
  48 : 1111111111101010;
  49 : 1111111111100110;
  50 : 1111111111110111;
  51 : 1111111111101110;
  52 : 1111111111111111;
  53 : 1111111111111001;
  54 : 1111111111111000;
  55 : 1111111111111110;
  56 : 1111111111101000;
  57 : 1111111111011111;
  58 : 1111111111110001;
  59 : 1111111111111111;
  60 : 1111111111101010;
  61 : 1111111111111111;
  62 : 1111111111101001;
  63 : 1111111111001101;
  64 : 1111111111110001;
  65 : 1111111100010110;
  66 : 1111111110101100;
  67 : 1111111000101010;
  68 : 1111111011111001;
  69 : 1111111110101110;
  70 : 1111111110010110;
  71 : 1111111000001100;
  72 : 1111111000001111;
  73 : 1111111100100111;
  74 : 0000000000000000;
  75 : 1111111111101000;
  76 : 1111111111111000;
  77 : 1111111111111110;
  78 : 1111111110101100;
  79 : 1111111111100010;
  80 : 1111111111111101;
  81 : 1111111111101111;
  82 : 1111111111100101;
  83 : 1111111111111101;
  84 : 1111111111110110;
  85 : 1111111111110000;
  86 : 1111111111110110;
  87 : 1111111111011100;
  88 : 1111111111111011;
  89 : 1111111111111100;
  90 : 1111111111011101;
  91 : 1111111011001000;
  92 : 1111111010111101;
  93 : 1111111101000101;
  94 : 1111111110011111;
  95 : 1111111100110110;
  96 : 1111111110000000;
  97 : 1111100111111110;
  98 : 1111101000001011;
  99 : 1111110000010000;
  100 : 1111111110101000;
  101 : 1111110010010100;
  102 : 1111111111010111;
  103 : 1111111110100100;
  104 : 1111111110110011;
  105 : 1111111110000001;
  106 : 1111111110011100;
  107 : 1111111100100001;
  108 : 1111111100100001;
  109 : 1111111110001100;
  110 : 1111111111100001;
  111 : 1111111111101010;
  112 : 1111111111010100;
  113 : 1111111111010101;
  114 : 1111111111001100;
  115 : 1111111111101100;
  116 : 1111111111001011;
  117 : 1111111111100110;
  118 : 1111111000000100;
  119 : 1111111010101110;
  120 : 1111111110000010;
  121 : 1111110010100101;
  122 : 1111110001011100;
  123 : 1111111111110110;
  124 : 1111111000011011;
  125 : 1111111111111111;
  126 : 1111111110011000;
  127 : 1111110001111011;
  128 : 1111110110000100;
  129 : 1111111111001100;
  130 : 1111111001001100;
  131 : 1111111110100100;
  132 : 1111110111010110;
  133 : 1111111110101100;
  134 : 1111110000100001;
  135 : 1111111111110101;
  136 : 1111111111000110;
  137 : 1111111111111001;
  138 : 1111111111000011;
  139 : 1111111110000101;
  140 : 1111111111010111;
  141 : 1111111111101001;
  142 : 1111111111110110;
  143 : 1111111111110011;
  144 : 0000000000000000;
  145 : 1111111010001110;
  146 : 1111111111000001;
  147 : 1111111011011000;
  148 : 1111111010001000;
  149 : 1111111110000000;
  150 : 1111111101001011;
  151 : 1111111010100001;
  152 : 1111101111000101;
  153 : 1111110101010100;
  154 : 1111111111111111;
  155 : 1111111111010111;
  156 : 1111110001000010;
  157 : 1111100110111001;
  158 : 1111110011010000;
  159 : 1111111111101001;
  160 : 1111111011100111;
  161 : 1111111110011100;
  162 : 1111111111111000;
  163 : 1111110010101001;
  164 : 1111111100000001;
  165 : 1111111111100000;
  166 : 1111111111011011;
  167 : 1111111111110001;
  168 : 1111111111110010;
  169 : 1111111111101100;
  170 : 1111111111111011;
  171 : 1111111101011111;
  172 : 1111111101100101;
  173 : 1111111000001101;
  174 : 1111111001111001;
  175 : 1111110010001111;
  176 : 1111101111010000;
  177 : 1111111100011011;
  178 : 1111111101111101;
  179 : 1111101011110000;
  180 : 1111111010110000;
  181 : 1111101110110011;
  182 : 1111111010000111;
  183 : 1111111001010110;
  184 : 1111110011101110;
  185 : 1111111111010101;
  186 : 1111111001010111;
  187 : 1111111111111100;
  188 : 1111111010000010;
  189 : 1111111111110011;
  190 : 1111111111101001;
  191 : 1111110100111000;
  192 : 1111111111111001;
  193 : 1111111111101110;
  194 : 1111111111011001;
  195 : 1111111111111001;
  196 : 1111111111100100;
  197 : 1111111111101111;
  198 : 1111111110010111;
  199 : 1111111011010011;
  200 : 1111111100101000;
  201 : 1111111100100110;
  202 : 1111111110001000;
  203 : 1111111110010111;
  204 : 1111111101010100;
  205 : 1111111010000111;
  206 : 1111111111111110;
  207 : 1111111001011010;
  208 : 1111110000101100;
  209 : 1111110001010010;
  210 : 1111100100000100;
  211 : 1111111111001100;
  212 : 1111111010001011;
  213 : 1111111110011111;
  214 : 1111110100101101;
  215 : 1111111111111001;
  216 : 1111110110111001;
  217 : 1111111011100110;
  218 : 1111110001000111;
  219 : 1111111001000111;
  220 : 1111110101001010;
  221 : 1111111110010011;
  222 : 1111111101001001;
  223 : 1111111111001111;
  224 : 1111111111111101;
  225 : 1111111111110010;
  226 : 1111111111000100;
  227 : 1111111010001110;
  228 : 1111111110111011;
  229 : 1111111111100100;
  230 : 1111110011001110;
  231 : 1111111011110101;
  232 : 1111111110011100;
  233 : 1111111111010110;
  234 : 1111111110010011;
  235 : 1111111110010110;
  236 : 1111111011110001;
  237 : 1111110100100110;
  238 : 1111111111011110;
  239 : 1111111001100001;
  240 : 1111110001100000;
  241 : 1111111011110000;
  242 : 1111110010001111;
  243 : 1111110011011100;
  244 : 1111101100100101;
  245 : 1111110101101000;
  246 : 1111111011111101;
  247 : 1111110110000111;
  248 : 1111100001011101;
  249 : 1111110010010001;
  250 : 1111111101001001;
  251 : 1111111111010111;
  252 : 1111111111100110;
  253 : 1111111111110000;
  254 : 1111111111111001;
  255 : 1111111001110010;
  256 : 1111111111000111;
  257 : 1111111111111110;
  258 : 1111100001111010;
  259 : 1111101001000101;
  260 : 1111110011010010;
  261 : 1111111001100010;
  262 : 1111110100010111;
  263 : 1111110000101011;
  264 : 1111111001010001;
  265 : 1111101111101001;
  266 : 1111110100010001;
  267 : 1111111111110000;
  268 : 1111111110111110;
  269 : 1111011001001111;
  270 : 1111111010101110;
  271 : 1111101110001110;
  272 : 1111110100111010;
  273 : 1111100110100010;
  274 : 1111100011110011;
  275 : 1111101100101001;
  276 : 1111100011000101;
  277 : 1111101111001101;
  278 : 1111111011001100;
  279 : 1111111111111011;
  280 : 1111111111110001;
  281 : 1111111111111100;
  282 : 1111111111111010;
  283 : 1111111001101101;
  284 : 1111110110011000;
  285 : 1111110111100111;
  286 : 1111101100001010;
  287 : 1111110111011101;
  288 : 1111111100101010;
  289 : 1111111110110000;
  290 : 1111111101100000;
  291 : 1111111110011010;
  292 : 1111110101111101;
  293 : 1111111001101011;
  294 : 1111111100111001;
  295 : 1111111111010010;
  296 : 1111101011110101;
  297 : 1111101110110010;
  298 : 1111111011011011;
  299 : 1111110010011011;
  300 : 1111101001010110;
  301 : 1111111101001111;
  302 : 1111110000111111;
  303 : 1111101001010001;
  304 : 1111110101010011;
  305 : 1111110011111111;
  306 : 1111111011011111;
  307 : 1111111111111000;
  308 : 0000000000000000;
  309 : 1111111111111100;
  310 : 1111111111111111;
  311 : 1111111010001110;
  312 : 1111101111010110;
  313 : 1111111100101011;
  314 : 1111110100111001;
  315 : 1111110010010011;
  316 : 1111100101100010;
  317 : 1111101001101011;
  318 : 1111110110010000;
  319 : 1111111010111010;
  320 : 1111110101001010;
  321 : 1111101100001001;
  322 : 1111111110000101;
  323 : 1111111111111101;
  324 : 1111111101110110;
  325 : 1111111110111110;
  326 : 1111111101110100;
  327 : 1111111001000000;
  328 : 1111110000111010;
  329 : 1111111011010010;
  330 : 1111111100110001;
  331 : 1111110001001111;
  332 : 1111111101001100;
  333 : 1111111100001010;
  334 : 1111111000100001;
  335 : 1111111111111001;
  336 : 1111111111100011;
  337 : 1111111111100010;
  338 : 1111111111011001;
  339 : 1111111101100010;
  340 : 1111101111100010;
  341 : 1111110110010000;
  342 : 1111101111100111;
  343 : 1111101110011001;
  344 : 1111101010110000;
  345 : 1111111011100010;
  346 : 1111101010100011;
  347 : 1111110001100110;
  348 : 1111110001011011;
  349 : 1111101010000010;
  350 : 1111110010010111;
  351 : 1111111111010010;
  352 : 1111111101110010;
  353 : 1111111000001110;
  354 : 1111110011010101;
  355 : 1111111011101011;
  356 : 1111111110000110;
  357 : 1111111110111101;
  358 : 1111110000100110;
  359 : 1111110110000110;
  360 : 1111111010100110;
  361 : 1111111101101110;
  362 : 1111111010011110;
  363 : 1111111111110111;
  364 : 1111111111110101;
  365 : 1111111111111000;
  366 : 1111111111111000;
  367 : 1111111011110001;
  368 : 1111110000100100;
  369 : 1111110001001011;
  370 : 1111101011110101;
  371 : 1111101111011011;
  372 : 1111100100101101;
  373 : 1111101010101110;
  374 : 1111110111011000;
  375 : 1111101001110000;
  376 : 1111110001100101;
  377 : 1111101000111010;
  378 : 1111110000111110;
  379 : 1111100101110100;
  380 : 1111111010001001;
  381 : 1111111111110111;
  382 : 1111111101110100;
  383 : 1111110001010100;
  384 : 1111101110011001;
  385 : 1111111000111011;
  386 : 1111111110110000;
  387 : 1111110101100001;
  388 : 1111111001000001;
  389 : 1111111100001010;
  390 : 1111111101011111;
  391 : 1111111111101101;
  392 : 1111111111011010;
  393 : 1111111110000101;
  394 : 1111111101111110;
  395 : 1111111101010010;
  396 : 1111111110100000;
  397 : 1111101110110010;
  398 : 1111110000100011;
  399 : 1111101111101000;
  400 : 1111100110111000;
  401 : 1111100011011000;
  402 : 1111101101000100;
  403 : 1111110110011100;
  404 : 1111110100010010;
  405 : 1111101010011100;
  406 : 1111101100111001;
  407 : 1111101101110111;
  408 : 1111111111011111;
  409 : 1111110000000000;
  410 : 1111110101010101;
  411 : 1111111110110010;
  412 : 1111111010011011;
  413 : 1111111101010110;
  414 : 1111111111111111;
  415 : 1111111100100000;
  416 : 1111111101101110;
  417 : 1111111111110001;
  418 : 1111111111111010;
  419 : 1111111111010011;
  420 : 1111111111111010;
  421 : 1111111100101010;
  422 : 1111111101010011;
  423 : 1111111101100111;
  424 : 1111111101111100;
  425 : 1111111100010100;
  426 : 1111110101100101;
  427 : 1111110101101000;
  428 : 1111110000101000;
  429 : 1111010100011000;
  430 : 1111011111111010;
  431 : 1111100010000110;
  432 : 1111011111011100;
  433 : 1111101011001001;
  434 : 1111100001001100;
  435 : 1111110000011011;
  436 : 1111110110110010;
  437 : 1111110010110010;
  438 : 1111110111011101;
  439 : 1111111010011101;
  440 : 1111111111010100;
  441 : 1111111100000001;
  442 : 1111110100100000;
  443 : 1111111110110111;
  444 : 1111111100110000;
  445 : 1111111001000101;
  446 : 1111111110001110;
  447 : 1111111111101011;
  448 : 1111111111111101;
  449 : 1111111110111110;
  450 : 1111111011011110;
  451 : 1111111111110010;
  452 : 1111111111101001;
  453 : 1111110110101101;
  454 : 1111110000011010;
  455 : 1111110111110111;
  456 : 1111111111010001;
  457 : 1111111010111101;
  458 : 1111110011111011;
  459 : 1111110101110110;
  460 : 1111011001101101;
  461 : 1111011100000011;
  462 : 1111100110100101;
  463 : 1111110000011010;
  464 : 1111110101011110;
  465 : 1111110001001010;
  466 : 1111111110011010;
  467 : 1111111110101100;
  468 : 1111110110010010;
  469 : 1111111111010010;
  470 : 1111111110101101;
  471 : 1111111010111001;
  472 : 1111110000000110;
  473 : 1111111111100010;
  474 : 1111111111111111;
  475 : 1111111111110010;
  476 : 1111111111100111;
  477 : 1111111111010110;
  478 : 1111111100001001;
  479 : 1111111111101000;
  480 : 1111110100100110;
  481 : 1111100101111000;
  482 : 1111111111011001;
  483 : 1111100100100111;
  484 : 1111111101000001;
  485 : 1111111111110001;
  486 : 1111111010101001;
  487 : 1111111110100101;
  488 : 1111110110101010;
  489 : 1111100010111010;
  490 : 1111101101110011;
  491 : 1111111100111000;
  492 : 1111111101010110;
  493 : 1111111110100011;
  494 : 1111110001101100;
  495 : 1111100001101010;
  496 : 1111111101011110;
  497 : 1111110100110010;
  498 : 1111111110100000;
  499 : 1111110000010000;
  500 : 1111111001000011;
  501 : 1111111011101100;
  502 : 1111111111110110;
  503 : 1111111111011111;
  504 : 1111111111110001;
  505 : 1111111111111000;
  506 : 1111111110000100;
  507 : 1111111110010010;
  508 : 1111111110100001;
  509 : 1111100001001101;
  510 : 1111111110101010;
  511 : 1111101100001000;
  512 : 1111110001111001;
  513 : 1111101111000101;
  514 : 1111110001111000;
  515 : 1111111011110000;
  516 : 1111110100101111;
  517 : 1111110100101001;
  518 : 1111110010000110;
  519 : 1111111001111010;
  520 : 1111110101110010;
  521 : 1111110001000000;
  522 : 1111111011101011;
  523 : 1111110101000011;
  524 : 1111111101011101;
  525 : 1111111111110101;
  526 : 1111110010000111;
  527 : 1111110010101010;
  528 : 1111110000000011;
  529 : 1111111101100000;
  530 : 1111111110111100;
  531 : 1111111111110100;
  532 : 1111111111111011;
  533 : 1111111111111000;
  534 : 1111111111000010;
  535 : 1111111011010101;
  536 : 1111111001111000;
  537 : 1111110110010111;
  538 : 1111111100101001;
  539 : 1111111011110111;
  540 : 1111100110101011;
  541 : 1111100011010010;
  542 : 1111111010010111;
  543 : 1111110111111001;
  544 : 1111111011100101;
  545 : 1111111110101011;
  546 : 1111111001101110;
  547 : 1111110111001000;
  548 : 1111111100111001;
  549 : 1111110000001000;
  550 : 1111111110000100;
  551 : 1111111101101111;
  552 : 1111110100001010;
  553 : 1111110110011101;
  554 : 1111110001110000;
  555 : 1111110111001000;
  556 : 1111111101001010;
  557 : 1111111111100010;
  558 : 1111111111100100;
  559 : 1111111111111010;
  560 : 1111111111011111;
  561 : 1111111111110101;
  562 : 1111111110011110;
  563 : 1111111101110111;
  564 : 1111111110010101;
  565 : 1111110011110000;
  566 : 1111110011011011;
  567 : 1111111111100011;
  568 : 1111111110110110;
  569 : 1111111010100110;
  570 : 1111110101100000;
  571 : 1111111111110011;
  572 : 1111101101001001;
  573 : 1111110111010000;
  574 : 1111111010011101;
  575 : 1111111101111110;
  576 : 1111110011010011;
  577 : 1111111001010010;
  578 : 1111111110111100;
  579 : 1111111010111110;
  580 : 1111110111000101;
  581 : 1111111001110100;
  582 : 1111111011111000;
  583 : 1111111111000011;
  584 : 1111111111111011;
  585 : 1111111101011101;
  586 : 1111111111111011;
  587 : 1111111111111110;
  588 : 1111111111011011;
  589 : 1111111111111011;
  590 : 1111111110101100;
  591 : 1111111111101011;
  592 : 1111111000101011;
  593 : 1111111010010110;
  594 : 1111111000000110;
  595 : 1111111101101001;
  596 : 1111111000010110;
  597 : 1111111111011000;
  598 : 1111110010001111;
  599 : 1111110101111101;
  600 : 1111110101101000;
  601 : 1111110111110011;
  602 : 1111111111101010;
  603 : 1111111011010101;
  604 : 1111111111100010;
  605 : 1111110010000111;
  606 : 1111110000001011;
  607 : 1111110100110101;
  608 : 1111111110011010;
  609 : 1111111101001110;
  610 : 1111111110010100;
  611 : 1111110011110011;
  612 : 1111111110011001;
  613 : 1111111110111111;
  614 : 1111111111010111;
  615 : 1111111111101001;
  616 : 1111111111101000;
  617 : 1111111111011001;
  618 : 1111111111111101;
  619 : 1111111110010100;
  620 : 1111111000100101;
  621 : 1111111111110111;
  622 : 1111011111011001;
  623 : 1111110001101100;
  624 : 1111110100100110;
  625 : 1111111100011100;
  626 : 1111111100010110;
  627 : 1111101110100100;
  628 : 1111110111000011;
  629 : 1111111000100000;
  630 : 1111110011000000;
  631 : 1111111001001011;
  632 : 1111111100111111;
  633 : 1111111100111000;
  634 : 1111111011011111;
  635 : 1111110101000010;
  636 : 1111111101011101;
  637 : 1111111100000111;
  638 : 1111111100101111;
  639 : 1111111101010111;
  640 : 1111111111011111;
  641 : 1111111111111110;
  642 : 0000000000000000;
  643 : 1111111111110010;
  644 : 1111111111101010;
  645 : 0000000000000000;
  646 : 1111111111100001;
  647 : 1111111110001001;
  648 : 1111110010101001;
  649 : 1111110010000010;
  650 : 1111110101100001;
  651 : 1111101110110101;
  652 : 1111110011111100;
  653 : 1111111111101110;
  654 : 1111111110100010;
  655 : 1111110111110101;
  656 : 1111111110011100;
  657 : 1111111111011010;
  658 : 1111111110001001;
  659 : 1111111101110101;
  660 : 1111111111110110;
  661 : 1111111111111010;
  662 : 1111111100001111;
  663 : 1111111010001010;
  664 : 1111110000110011;
  665 : 1111111101111011;
  666 : 1111111111001010;
  667 : 1111111000111100;
  668 : 1111111111000000;
  669 : 1111111111100010;
  670 : 1111111111101010;
  671 : 1111111111111000;
  672 : 1111111111111001;
  673 : 1111111111110111;
  674 : 1111111110011110;
  675 : 1111111101110100;
  676 : 1111111000111010;
  677 : 1111110101100000;
  678 : 1111110110111110;
  679 : 1111110001000001;
  680 : 1111111110011101;
  681 : 1111111100010101;
  682 : 1111101100001010;
  683 : 1111110101011100;
  684 : 1111110100001111;
  685 : 1111111100101010;
  686 : 1111111010010011;
  687 : 1111110000110010;
  688 : 1111111011011110;
  689 : 1111110111101100;
  690 : 1111111100110111;
  691 : 1111111110001100;
  692 : 1111110000111001;
  693 : 1111111000110110;
  694 : 1111111100111010;
  695 : 1111111110000000;
  696 : 1111111111111011;
  697 : 1111111110110111;
  698 : 1111111111000010;
  699 : 1111111111101001;
  700 : 1111111111100100;
  701 : 1111111111110011;
  702 : 1111111111111011;
  703 : 1111111111111110;
  704 : 1111111110100111;
  705 : 1111111011001111;
  706 : 1111111011000100;
  707 : 1111111001000111;
  708 : 1111101111110101;
  709 : 1111100110000110;
  710 : 1111101101101111;
  711 : 1111110101101100;
  712 : 1111110110100001;
  713 : 1111110100110011;
  714 : 1111111111111101;
  715 : 1111111100100001;
  716 : 1111111110100010;
  717 : 1111111111110100;
  718 : 1111111100101110;
  719 : 1111110110010110;
  720 : 1111110101000110;
  721 : 1111110111110011;
  722 : 1111111010100011;
  723 : 1111111110000011;
  724 : 1111111111111001;
  725 : 1111111111111010;
  726 : 1111111111000100;
  727 : 1111111111111001;
  728 : 1111111111001100;
  729 : 1111111111100100;
  730 : 1111111111111111;
  731 : 1111111111111111;
  732 : 1111111111100001;
  733 : 1111111110010110;
  734 : 1111111110110001;
  735 : 1111111101101100;
  736 : 1111111011101000;
  737 : 1111110110111110;
  738 : 1111111101011111;
  739 : 1111111100111111;
  740 : 1111111101100011;
  741 : 1111111001101101;
  742 : 1111110101010100;
  743 : 1111110110101011;
  744 : 1111111000100001;
  745 : 1111111000101100;
  746 : 1111111010100001;
  747 : 1111111101001000;
  748 : 1111111100100010;
  749 : 1111111000111101;
  750 : 1111111011000110;
  751 : 1111111111110010;
  752 : 1111111110111110;
  753 : 1111111111110001;
  754 : 1111111111111001;
  755 : 1111111111010101;
  756 : 1111111111111100;
  757 : 1111111111111110;
  758 : 1111111111101100;
  759 : 1111111111011001;
  760 : 1111111111100101;
  761 : 1111111111111011;
  762 : 1111111111101110;
  763 : 1111111111111101;
  764 : 1111111111111001;
  765 : 1111111111111011;
  766 : 1111111111111001;
  767 : 1111111110101100;
  768 : 1111111111001110;
  769 : 1111111111111110;
  770 : 1111111111110110;
  771 : 1111111111011011;
  772 : 1111111111001111;
  773 : 1111111110111100;
  774 : 1111111110111110;
  775 : 1111111110111110;
  776 : 1111111110110000;
  777 : 1111111110100001;
  778 : 1111111010011111;
  779 : 1111111111001111;
  780 : 1111111111111111;
  781 : 1111111111110101;
  782 : 1111111111110100;
  783 : 0000000000000000;
END;
