WIDTH=16;
DEPTH=784;
ADDRESS_RADIX=UNS;
DATA_RADIX=BIN;
CONTENT BEGIN
  0 : 1111111111011111;
  1 : 1111111111110000;
  2 : 1111111111110101;
  3 : 1111111111111000;
  4 : 1111111111111101;
  5 : 1111111111110000;
  6 : 1111111111111110;
  7 : 1111111111111000;
  8 : 1111111111111010;
  9 : 1111111111110000;
  10 : 1111111111110000;
  11 : 1111111111111101;
  12 : 1111111111110100;
  13 : 1111111111111011;
  14 : 1111111111111111;
  15 : 1111111111111010;
  16 : 1111111111010101;
  17 : 1111111111101111;
  18 : 1111111111110101;
  19 : 1111111111101101;
  20 : 1111111111101111;
  21 : 1111111111111010;
  22 : 1111111111110010;
  23 : 1111111111101111;
  24 : 1111111111011110;
  25 : 1111111111110111;
  26 : 1111111111101001;
  27 : 1111111110101100;
  28 : 1111111111110101;
  29 : 1111111111100001;
  30 : 1111111111110011;
  31 : 1111111111110001;
  32 : 1111111111111100;
  33 : 1111111111110001;
  34 : 1111111111111101;
  35 : 1111111111111010;
  36 : 1111111111101011;
  37 : 1111111111110001;
  38 : 1111111111010110;
  39 : 0000000000000000;
  40 : 1111111111010000;
  41 : 1111111111111101;
  42 : 1111111110111000;
  43 : 1111111110000011;
  44 : 1111111111110011;
  45 : 1111111111101001;
  46 : 1111111111011101;
  47 : 1111111111111001;
  48 : 1111111111110101;
  49 : 1111111111111101;
  50 : 1111111111111101;
  51 : 1111111111100101;
  52 : 1111111111111111;
  53 : 1111111111101011;
  54 : 1111111111010011;
  55 : 1111111111111011;
  56 : 1111111111110110;
  57 : 1111111111110111;
  58 : 1111111111101111;
  59 : 1111111111111000;
  60 : 1111111111011110;
  61 : 1111111111111100;
  62 : 1111111111111101;
  63 : 1111111111111111;
  64 : 1111111111110111;
  65 : 1111111111110111;
  66 : 1111111111001111;
  67 : 1111111110001100;
  68 : 1111111100110101;
  69 : 1111111100110001;
  70 : 1111111010110100;
  71 : 1111101100000001;
  72 : 1111110101000101;
  73 : 1111111001111000;
  74 : 1111111010010111;
  75 : 1111111101010011;
  76 : 1111111111101010;
  77 : 1111111111110111;
  78 : 1111111111100001;
  79 : 1111111111100110;
  80 : 0000000000000000;
  81 : 1111111111111110;
  82 : 1111111111111110;
  83 : 1111111111111111;
  84 : 1111111111110010;
  85 : 0000000000000000;
  86 : 1111111111111100;
  87 : 1111111111001000;
  88 : 1111111111111101;
  89 : 1111111111110001;
  90 : 1111111111111001;
  91 : 1111111111101110;
  92 : 1111111110000100;
  93 : 1111111110100100;
  94 : 1111111111101111;
  95 : 1111111101100011;
  96 : 1111111001000000;
  97 : 1111111111010111;
  98 : 1111111110101111;
  99 : 1111101101000001;
  100 : 1111101110011010;
  101 : 1111110111011111;
  102 : 1111110110101100;
  103 : 1111110001011010;
  104 : 1111111011101000;
  105 : 1111111110100010;
  106 : 1111111111110101;
  107 : 1111111110010100;
  108 : 1111111111001100;
  109 : 1111111111011111;
  110 : 1111111110010010;
  111 : 1111111111111111;
  112 : 1111111111110001;
  113 : 1111111111101111;
  114 : 1111111111110010;
  115 : 1111111111111010;
  116 : 1111111111111100;
  117 : 1111111110100111;
  118 : 1111111111001101;
  119 : 1111111111111110;
  120 : 1111111110100001;
  121 : 1111110000100011;
  122 : 1111110111011001;
  123 : 1111110001101100;
  124 : 1111110100101100;
  125 : 1111111101011010;
  126 : 1111110011010000;
  127 : 1111100110101110;
  128 : 1111101110000110;
  129 : 1111111110010111;
  130 : 1111111111100010;
  131 : 1111110011111010;
  132 : 1111110000000100;
  133 : 1111110100111011;
  134 : 1111111010000000;
  135 : 1111111001000110;
  136 : 1111111111100011;
  137 : 1111111101010111;
  138 : 1111111111100100;
  139 : 1111111111010101;
  140 : 1111111111100011;
  141 : 1111111111111111;
  142 : 1111111111110101;
  143 : 1111111111110111;
  144 : 1111111111101110;
  145 : 1111111101000011;
  146 : 1111111111011110;
  147 : 1111111111101101;
  148 : 1111111110111011;
  149 : 1111111101110100;
  150 : 1111111010000011;
  151 : 1111110110001010;
  152 : 1111111110110101;
  153 : 1111111010011010;
  154 : 1111110011110010;
  155 : 1111101010111010;
  156 : 1111111100001101;
  157 : 1111111100111111;
  158 : 1111111111110000;
  159 : 1111110010000100;
  160 : 1111111010110101;
  161 : 1111111011001010;
  162 : 1111111010001010;
  163 : 1111110100001000;
  164 : 1111111101111100;
  165 : 1111111011100110;
  166 : 1111111110001111;
  167 : 1111111110011000;
  168 : 1111111111110010;
  169 : 1111111111110001;
  170 : 1111111111111111;
  171 : 1111111111111000;
  172 : 1111111111101010;
  173 : 1111111100101001;
  174 : 1111111100111101;
  175 : 1111110001010100;
  176 : 1111111101011101;
  177 : 1111111011110010;
  178 : 1111111101110111;
  179 : 1111111110110011;
  180 : 1111111101000100;
  181 : 1111111110101101;
  182 : 1111111000111101;
  183 : 1111111110100011;
  184 : 1111111111001010;
  185 : 1111111011011011;
  186 : 1111110101100000;
  187 : 1111111110001001;
  188 : 1111111111001110;
  189 : 1111111100011110;
  190 : 1111111111111010;
  191 : 1111111100000010;
  192 : 1111111100101000;
  193 : 1111111001000101;
  194 : 1111111100010001;
  195 : 1111111111110100;
  196 : 1111111111111110;
  197 : 1111111111110011;
  198 : 1111111111011001;
  199 : 1111111111100101;
  200 : 1111111110100100;
  201 : 1111110100100101;
  202 : 1111111011001011;
  203 : 1111111011011100;
  204 : 1111111111100111;
  205 : 1111110011110111;
  206 : 1111111100011011;
  207 : 1111111110001100;
  208 : 1111110001101000;
  209 : 1111101111010101;
  210 : 1111100001011010;
  211 : 1111111100100011;
  212 : 1111111011011101;
  213 : 1111111010010101;
  214 : 1111111001001111;
  215 : 1111111111100010;
  216 : 1111111111011100;
  217 : 1111111001001001;
  218 : 1111111111011110;
  219 : 1111111111100001;
  220 : 1111111101100110;
  221 : 1111111010010001;
  222 : 1111111111100101;
  223 : 1111111110010010;
  224 : 1111111111111111;
  225 : 1111111111100100;
  226 : 1111111110001101;
  227 : 1111111111011011;
  228 : 1111111000010011;
  229 : 1111110011011010;
  230 : 1111110010111010;
  231 : 1111111110111100;
  232 : 1111111111101010;
  233 : 1111110111101011;
  234 : 1111111111110111;
  235 : 1111111100010011;
  236 : 1111111110000000;
  237 : 1111111111101000;
  238 : 1111110011011011;
  239 : 1111111100011101;
  240 : 1111111111111111;
  241 : 1111111100001111;
  242 : 1111111010100101;
  243 : 1111111110110010;
  244 : 1111111110010000;
  245 : 1111111000001100;
  246 : 1111111011011101;
  247 : 1111111110010011;
  248 : 1111111101011110;
  249 : 1111111101010010;
  250 : 1111111111000111;
  251 : 1111111111110101;
  252 : 1111111111110101;
  253 : 1111111111101101;
  254 : 1111111111110111;
  255 : 1111111111110011;
  256 : 1111111111101111;
  257 : 1111111000111101;
  258 : 1111111111011011;
  259 : 1111111101010010;
  260 : 1111111110111001;
  261 : 1111111111110111;
  262 : 1111111100100000;
  263 : 1111110000001001;
  264 : 1111111111000100;
  265 : 1111110010111000;
  266 : 1111110011101010;
  267 : 1111101101000110;
  268 : 1111111011111100;
  269 : 1111111111110101;
  270 : 1111111111000000;
  271 : 1111111010000001;
  272 : 1111111010101100;
  273 : 1111111110001010;
  274 : 1111111110010100;
  275 : 1111111101100011;
  276 : 1111111111110110;
  277 : 1111111110100011;
  278 : 1111111101110111;
  279 : 1111111011011010;
  280 : 1111111111111111;
  281 : 1111111111100101;
  282 : 1111111111100101;
  283 : 1111111111101101;
  284 : 1111111100001110;
  285 : 1111111111011110;
  286 : 1111111110010110;
  287 : 1111111101100010;
  288 : 1111111111110000;
  289 : 1111111010110111;
  290 : 1111111010000101;
  291 : 1111111001011110;
  292 : 1111111000011100;
  293 : 1111111111010101;
  294 : 1111110101101010;
  295 : 1111101010010011;
  296 : 1111101011110110;
  297 : 1111110001110000;
  298 : 1111111110010111;
  299 : 1111110000000001;
  300 : 1111111111001100;
  301 : 1111111111110100;
  302 : 1111111110100001;
  303 : 1111111111111011;
  304 : 1111110011101110;
  305 : 1111101110010011;
  306 : 1111111101100111;
  307 : 1111111111100111;
  308 : 1111111111111001;
  309 : 1111111111111110;
  310 : 1111111110111100;
  311 : 1111111111100111;
  312 : 1111111111111111;
  313 : 1111111111100110;
  314 : 1111110001000011;
  315 : 1111111111111101;
  316 : 1111111101000101;
  317 : 1111111111111110;
  318 : 1111110110100100;
  319 : 1111111100001101;
  320 : 1111100000111111;
  321 : 1111111100101000;
  322 : 1111111110001010;
  323 : 1111111111111110;
  324 : 1111100101001101;
  325 : 1111110110010011;
  326 : 1111110010011010;
  327 : 1111110110010100;
  328 : 1111110100110000;
  329 : 1111110000110111;
  330 : 1111111011000100;
  331 : 1111110011100101;
  332 : 1111110010100110;
  333 : 1111111011000000;
  334 : 1111111111100101;
  335 : 1111111111100110;
  336 : 1111111111011000;
  337 : 1111111111111100;
  338 : 1111111110110011;
  339 : 1111111111110111;
  340 : 1111111110000010;
  341 : 1111111111000000;
  342 : 1111111100011111;
  343 : 1111111000011000;
  344 : 1111111110111011;
  345 : 1111110001100010;
  346 : 1111111111100111;
  347 : 1111111101111110;
  348 : 1111100111000011;
  349 : 1111111110110100;
  350 : 1111101101110001;
  351 : 1111101101111101;
  352 : 1111101101101001;
  353 : 1111111101110011;
  354 : 1111110111011001;
  355 : 1111111001100000;
  356 : 1111111101111011;
  357 : 1111111110001011;
  358 : 1111111100111101;
  359 : 1111111111000100;
  360 : 1111111110000001;
  361 : 1111111101101111;
  362 : 1111111011110011;
  363 : 1111111111011100;
  364 : 1111111111100001;
  365 : 1111111111110001;
  366 : 1111111111000000;
  367 : 1111111111110001;
  368 : 1111111111000110;
  369 : 1111111101101001;
  370 : 1111111000110011;
  371 : 1111111100111110;
  372 : 1111110111100000;
  373 : 1111111001010001;
  374 : 1111110001110000;
  375 : 1111111001111101;
  376 : 1111110011110000;
  377 : 1111111111000001;
  378 : 1111111001010011;
  379 : 1111110100101011;
  380 : 1111111001001001;
  381 : 1111111111000111;
  382 : 1111111100001111;
  383 : 1111111011100100;
  384 : 1111111010100101;
  385 : 1111111000101100;
  386 : 1111111011110001;
  387 : 1111111110110000;
  388 : 1111111101111000;
  389 : 1111111111100110;
  390 : 1111111111001011;
  391 : 1111111111001010;
  392 : 1111111111101100;
  393 : 1111111111110101;
  394 : 1111111111010000;
  395 : 1111111111011101;
  396 : 1111111111111100;
  397 : 1111111101010100;
  398 : 1111111000111100;
  399 : 1111111111110010;
  400 : 1111111110011001;
  401 : 1111110110100100;
  402 : 1111110000001100;
  403 : 1111111101010101;
  404 : 1111111111010001;
  405 : 1111111111110011;
  406 : 1111110111111001;
  407 : 1111110101010010;
  408 : 1111111001110000;
  409 : 1111110011010100;
  410 : 1111110000000000;
  411 : 1111111111010101;
  412 : 1111111101101001;
  413 : 1111111111110011;
  414 : 1111111100110001;
  415 : 1111111110011100;
  416 : 1111111111011111;
  417 : 1111111111100111;
  418 : 1111111111001111;
  419 : 1111111111110001;
  420 : 1111111111101001;
  421 : 1111111111101101;
  422 : 1111111111111100;
  423 : 1111111101001110;
  424 : 1111111100000001;
  425 : 1111111110110000;
  426 : 1111111110111110;
  427 : 1111111100001101;
  428 : 1111111100001000;
  429 : 1111110101101000;
  430 : 1111111011100110;
  431 : 1111111011111100;
  432 : 1111110001110111;
  433 : 1111111110001011;
  434 : 1111111101011010;
  435 : 1111101101011010;
  436 : 1111111011001001;
  437 : 1111111101110111;
  438 : 1111111110010100;
  439 : 1111110010001001;
  440 : 1111111111011011;
  441 : 1111111101010000;
  442 : 1111111111111100;
  443 : 1111111101001001;
  444 : 1111111110100101;
  445 : 1111111110100111;
  446 : 1111111111000110;
  447 : 1111111111111100;
  448 : 1111111111111111;
  449 : 1111111111110111;
  450 : 1111111111111110;
  451 : 1111111101111110;
  452 : 1111111110101000;
  453 : 1111111001000100;
  454 : 1111111111100101;
  455 : 1111111010110110;
  456 : 1111110111001011;
  457 : 1111111110010000;
  458 : 1111111111010110;
  459 : 1111111111101000;
  460 : 1111111111100011;
  461 : 1111111111111000;
  462 : 1111110010011110;
  463 : 1111101111111010;
  464 : 1111111111110011;
  465 : 1111100110011111;
  466 : 1111100000110100;
  467 : 1111111000000010;
  468 : 1111111100100000;
  469 : 1111111100011110;
  470 : 1111111101111110;
  471 : 1111111100000100;
  472 : 1111111011001010;
  473 : 1111111000000111;
  474 : 1111111111010110;
  475 : 1111111111100011;
  476 : 1111111110110000;
  477 : 1111111111000110;
  478 : 1111111111111101;
  479 : 1111111111111111;
  480 : 1111111011101100;
  481 : 1111111000100100;
  482 : 1111110001111011;
  483 : 1111100111001000;
  484 : 1111100110000101;
  485 : 1111111101110111;
  486 : 1111110001110110;
  487 : 1111111101111010;
  488 : 1111110100100000;
  489 : 1111111101011110;
  490 : 1111110001000000;
  491 : 1111111010111010;
  492 : 1111100000010001;
  493 : 1111101000110001;
  494 : 1111110001100111;
  495 : 1111111101011100;
  496 : 1111111100111011;
  497 : 1111111111110010;
  498 : 1111111011011001;
  499 : 1111110111100101;
  500 : 1111111111001100;
  501 : 1111111111111000;
  502 : 1111111101111010;
  503 : 1111111111111101;
  504 : 1111111111100110;
  505 : 1111111111100100;
  506 : 1111111111101111;
  507 : 1111111100000001;
  508 : 1111111001100111;
  509 : 1111111011101101;
  510 : 1111111111110010;
  511 : 1111111101110101;
  512 : 1111111101010110;
  513 : 1111100010011110;
  514 : 1111110011001001;
  515 : 1111111111111111;
  516 : 1111111111111100;
  517 : 1111110110111000;
  518 : 1111111110110111;
  519 : 1111111111011111;
  520 : 1111111001111101;
  521 : 1111110100001011;
  522 : 1111111111100110;
  523 : 1111111001111110;
  524 : 1111111110011011;
  525 : 1111111010110000;
  526 : 1111111100001110;
  527 : 1111111001100011;
  528 : 1111111111100100;
  529 : 1111111110001101;
  530 : 1111111110000001;
  531 : 1111111111010001;
  532 : 1111111111110101;
  533 : 1111111111111011;
  534 : 1111111110111110;
  535 : 1111111111111110;
  536 : 1111111101000101;
  537 : 1111111111101100;
  538 : 1111111111100100;
  539 : 1111111001111110;
  540 : 1111111110110111;
  541 : 1111111001010000;
  542 : 1111111111111101;
  543 : 1111111011110000;
  544 : 1111110011101001;
  545 : 1111110111001000;
  546 : 1111111101101111;
  547 : 1111110111100011;
  548 : 1111111111011100;
  549 : 1111111000110010;
  550 : 1111111111000000;
  551 : 1111111001001100;
  552 : 1111111110010111;
  553 : 1111111111100111;
  554 : 1111111110011011;
  555 : 1111111101111000;
  556 : 1111111100100001;
  557 : 1111111011011101;
  558 : 1111111111111100;
  559 : 1111111111110010;
  560 : 1111111111111011;
  561 : 1111111111011110;
  562 : 1111111111010010;
  563 : 1111111110110110;
  564 : 1111111100001010;
  565 : 1111111010101000;
  566 : 1111101110001001;
  567 : 1111111111110001;
  568 : 1111111001111101;
  569 : 1111110100000111;
  570 : 1111110000101111;
  571 : 1111110100111000;
  572 : 1111111011110000;
  573 : 1111111111110010;
  574 : 1111110011001011;
  575 : 1111110101111101;
  576 : 1111111010101101;
  577 : 1111111100100000;
  578 : 1111111110010110;
  579 : 1111111111101100;
  580 : 1111111000110111;
  581 : 1111111111110010;
  582 : 1111111011101111;
  583 : 1111111111101100;
  584 : 1111111101011001;
  585 : 1111111111000010;
  586 : 1111111111101110;
  587 : 1111111111001101;
  588 : 1111111111101010;
  589 : 0000000000000000;
  590 : 1111111110001111;
  591 : 1111111110101010;
  592 : 1111111011001001;
  593 : 1111111110010011;
  594 : 1111110011011011;
  595 : 1111101100100000;
  596 : 1111110000100100;
  597 : 1111110101110101;
  598 : 1111011100111011;
  599 : 1111110111001001;
  600 : 1111110010110010;
  601 : 1111111001110111;
  602 : 1111110000001011;
  603 : 1111111111000010;
  604 : 1111110000010100;
  605 : 1111110111101001;
  606 : 1111111100000110;
  607 : 1111111011010010;
  608 : 1111111101001001;
  609 : 1111111111101001;
  610 : 1111111100000000;
  611 : 1111111110110010;
  612 : 1111111110011110;
  613 : 1111111111111110;
  614 : 1111111111010101;
  615 : 1111111111100000;
  616 : 1111111111100001;
  617 : 1111111111110010;
  618 : 1111111111010000;
  619 : 1111111011110010;
  620 : 1111111101101010;
  621 : 1111111111011001;
  622 : 1111110100111001;
  623 : 1111111101000011;
  624 : 1111101110010101;
  625 : 1111110111101000;
  626 : 1111110110100010;
  627 : 1111111111110000;
  628 : 1111111110000011;
  629 : 1111111111010010;
  630 : 1111110101101100;
  631 : 1111110111010100;
  632 : 1111111101011101;
  633 : 1111111100010010;
  634 : 1111100001110001;
  635 : 1111110100100101;
  636 : 1111111100100110;
  637 : 1111111101101000;
  638 : 1111111111000101;
  639 : 1111111101100000;
  640 : 1111111111111101;
  641 : 1111111110001010;
  642 : 0000000000000000;
  643 : 1111111111111001;
  644 : 1111111111111110;
  645 : 1111111111111110;
  646 : 1111111110001100;
  647 : 1111111110100100;
  648 : 1111111110101001;
  649 : 1111111110001010;
  650 : 1111111101100000;
  651 : 1111111011111010;
  652 : 1111111110011101;
  653 : 1111111110111100;
  654 : 1111110000101011;
  655 : 1111111100100101;
  656 : 1111111100011100;
  657 : 1111111010110111;
  658 : 1111100001100100;
  659 : 1111111111001101;
  660 : 1111100001001101;
  661 : 1111111010100110;
  662 : 1111110111101000;
  663 : 1111110000011011;
  664 : 1111111010111111;
  665 : 1111111111001111;
  666 : 1111111111011001;
  667 : 1111111011111010;
  668 : 1111111111110101;
  669 : 1111111110000110;
  670 : 1111111110111110;
  671 : 1111111111101000;
  672 : 0000000000000000;
  673 : 1111111111110111;
  674 : 1111111111011011;
  675 : 1111111111110010;
  676 : 1111111111110001;
  677 : 1111111010111001;
  678 : 1111111000111010;
  679 : 1111110000100101;
  680 : 1111110011101110;
  681 : 1111111011000000;
  682 : 1111111111111010;
  683 : 1111111111010011;
  684 : 1111111111001111;
  685 : 1111111111100111;
  686 : 1111111110110101;
  687 : 1111110110000010;
  688 : 1111111001100101;
  689 : 1111111111010100;
  690 : 1111110110010111;
  691 : 1111110100000110;
  692 : 1111110000100010;
  693 : 1111111111001001;
  694 : 1111111100110000;
  695 : 1111111010011001;
  696 : 1111111111100100;
  697 : 1111111111111111;
  698 : 1111111111100011;
  699 : 1111111111111111;
  700 : 1111111111011100;
  701 : 1111111111000100;
  702 : 1111111111101110;
  703 : 1111111111011111;
  704 : 1111110101110111;
  705 : 1111101111100000;
  706 : 1111110011011000;
  707 : 1111110101110000;
  708 : 1111101111011101;
  709 : 1111111000000010;
  710 : 1111111100011011;
  711 : 1111111110110000;
  712 : 1111111101101100;
  713 : 1111111101111000;
  714 : 1111111111101011;
  715 : 1111110000111101;
  716 : 1111111100100100;
  717 : 1111110001000100;
  718 : 1111110010111000;
  719 : 1111111111000100;
  720 : 1111111101110100;
  721 : 1111111110000101;
  722 : 1111111101100001;
  723 : 1111111100010101;
  724 : 1111111110110110;
  725 : 0000000000000000;
  726 : 1111111111111101;
  727 : 1111111111011011;
  728 : 1111111111110001;
  729 : 1111111111111101;
  730 : 1111111111111001;
  731 : 1111111111010011;
  732 : 1111111101010010;
  733 : 1111111001000001;
  734 : 1111110110101000;
  735 : 1111110100110110;
  736 : 1111111101011011;
  737 : 1111111000111000;
  738 : 1111111101110001;
  739 : 1111111100000001;
  740 : 1111111000110011;
  741 : 1111111000101001;
  742 : 1111111011011100;
  743 : 1111111110000111;
  744 : 1111111110001001;
  745 : 1111111101100110;
  746 : 1111111101111001;
  747 : 1111111111000011;
  748 : 0000000000000000;
  749 : 1111111111111000;
  750 : 0000000000000000;
  751 : 1111111111010000;
  752 : 1111111111101000;
  753 : 1111111111100100;
  754 : 1111111111111100;
  755 : 1111111111010011;
  756 : 1111111111010001;
  757 : 1111111111110011;
  758 : 0000000000000000;
  759 : 1111111111111111;
  760 : 1111111111100110;
  761 : 0000000000000000;
  762 : 1111111111111010;
  763 : 1111111111111001;
  764 : 1111111111011110;
  765 : 1111111111111101;
  766 : 1111111111111110;
  767 : 1111111111001111;
  768 : 1111111111100101;
  769 : 1111111111000011;
  770 : 1111111111000101;
  771 : 1111111111110011;
  772 : 1111111111110101;
  773 : 1111111111000101;
  774 : 1111111110100101;
  775 : 1111111111100011;
  776 : 1111111111111111;
  777 : 1111111111011000;
  778 : 1111111111101110;
  779 : 1111111111111110;
  780 : 1111111111110100;
  781 : 1111111111100111;
  782 : 1111111111110101;
  783 : 1111111111000010;
END;
