WIDTH=16;
DEPTH=784;
ADDRESS_RADIX=UNS;
DATA_RADIX=BIN;
CONTENT BEGIN
  0 : 1111111111001001;
  1 : 1111111111111000;
  2 : 1111111111111100;
  3 : 1111111111100011;
  4 : 1111111111011110;
  5 : 1111111111111100;
  6 : 0000000000000000;
  7 : 1111111111111011;
  8 : 1111111111010011;
  9 : 1111111111100110;
  10 : 1111111111100010;
  11 : 1111111111100110;
  12 : 1111111111000110;
  13 : 1111111111101101;
  14 : 1111111111110011;
  15 : 1111111111011001;
  16 : 1111111111110011;
  17 : 1111111111101001;
  18 : 1111111111111111;
  19 : 1111111111010101;
  20 : 1111111111110111;
  21 : 1111111111101100;
  22 : 1111111111111101;
  23 : 1111111111011011;
  24 : 1111111110111110;
  25 : 1111111111110001;
  26 : 1111111111111000;
  27 : 1111111111110110;
  28 : 1111111111111100;
  29 : 1111111111100110;
  30 : 1111111111111010;
  31 : 1111111111111111;
  32 : 1111111111100110;
  33 : 1111111111011101;
  34 : 1111111111111110;
  35 : 1111111111010111;
  36 : 1111111111111001;
  37 : 1111111111111010;
  38 : 1111111111101111;
  39 : 1111111111101011;
  40 : 1111111101010101;
  41 : 1111111101111101;
  42 : 1111111111000011;
  43 : 1111111111011101;
  44 : 1111111111100011;
  45 : 1111111111101111;
  46 : 1111111111110101;
  47 : 1111111111110000;
  48 : 1111111110100011;
  49 : 1111111110111011;
  50 : 1111111111111000;
  51 : 1111111111101110;
  52 : 1111111111101011;
  53 : 1111111111111110;
  54 : 1111111110111001;
  55 : 1111111111110111;
  56 : 1111111111111010;
  57 : 1111111111111110;
  58 : 1111111111111101;
  59 : 1111111111101100;
  60 : 1111111111110011;
  61 : 1111111111110001;
  62 : 1111111111111101;
  63 : 1111111110100010;
  64 : 1111111111111110;
  65 : 1111111111011100;
  66 : 1111111110111001;
  67 : 1111111101001010;
  68 : 1111111111010100;
  69 : 1111111110011011;
  70 : 1111111000010011;
  71 : 1111111111100001;
  72 : 1111111110101011;
  73 : 1111110111010000;
  74 : 1111110101110000;
  75 : 1111111011011110;
  76 : 1111111110100100;
  77 : 1111111011010001;
  78 : 1111111110101100;
  79 : 1111111110100100;
  80 : 1111111111110100;
  81 : 1111111111110010;
  82 : 1111111111111110;
  83 : 1111111111111110;
  84 : 1111111111111110;
  85 : 1111111111000000;
  86 : 1111111111000110;
  87 : 1111111111001111;
  88 : 1111111111111001;
  89 : 1111111111001000;
  90 : 1111111111011101;
  91 : 1111111111010101;
  92 : 1111111111111110;
  93 : 1111111111100010;
  94 : 1111111100011000;
  95 : 1111111110110101;
  96 : 1111110100110000;
  97 : 1111110001001100;
  98 : 1111111111100011;
  99 : 1111111101100001;
  100 : 1111110010111010;
  101 : 1111111100101110;
  102 : 1111111100100001;
  103 : 1111111011111010;
  104 : 1111111111010010;
  105 : 1111110001111010;
  106 : 1111110010000101;
  107 : 1111110100010110;
  108 : 1111110111100101;
  109 : 1111111111110100;
  110 : 1111111111100111;
  111 : 1111111111111110;
  112 : 1111111111011010;
  113 : 1111111111000100;
  114 : 1111111111110101;
  115 : 1111111111100011;
  116 : 1111111111111010;
  117 : 1111111111011101;
  118 : 1111111110011100;
  119 : 1111111000001101;
  120 : 1111111010011011;
  121 : 1111111101111011;
  122 : 1111111010100011;
  123 : 1111110000101110;
  124 : 1111111111011100;
  125 : 1111110101100110;
  126 : 1111111110001001;
  127 : 1111111110001110;
  128 : 1111111111011010;
  129 : 1111111100111011;
  130 : 1111110100101000;
  131 : 1111111111111000;
  132 : 1111111001101101;
  133 : 1111110111100011;
  134 : 1111110010101111;
  135 : 1111100101101001;
  136 : 1111110000111101;
  137 : 1111111011100011;
  138 : 1111111111111111;
  139 : 1111111111110000;
  140 : 1111111111111111;
  141 : 1111111111110001;
  142 : 1111111111111100;
  143 : 1111111111111110;
  144 : 1111111111100111;
  145 : 1111111110000001;
  146 : 1111111100011000;
  147 : 1111111101111101;
  148 : 1111110100001011;
  149 : 1111110110111000;
  150 : 1111110111011110;
  151 : 1111111101001000;
  152 : 1111110011001110;
  153 : 1111111001111001;
  154 : 1111111110010010;
  155 : 1111111000010011;
  156 : 1111111101001101;
  157 : 1111110111100111;
  158 : 1111110011101110;
  159 : 1111111101111110;
  160 : 1111110100101000;
  161 : 1111111111001101;
  162 : 1111111000000010;
  163 : 1111110100000001;
  164 : 1111110010100100;
  165 : 1111111001110010;
  166 : 1111111111101111;
  167 : 1111111111111000;
  168 : 0000000000000000;
  169 : 1111111111111100;
  170 : 1111111111111011;
  171 : 1111111110010111;
  172 : 1111111101110110;
  173 : 1111111101101110;
  174 : 1111111100010111;
  175 : 1111110000000100;
  176 : 1111110110011011;
  177 : 1111111100001110;
  178 : 1111111011110110;
  179 : 1111111001000011;
  180 : 1111111110001100;
  181 : 1111111111000011;
  182 : 1111111100100001;
  183 : 1111111001000000;
  184 : 1111111001011000;
  185 : 1111111111111010;
  186 : 1111111011111000;
  187 : 1111110010000010;
  188 : 1111111011001110;
  189 : 1111111111100100;
  190 : 1111111110110110;
  191 : 1111111001011010;
  192 : 1111111011001001;
  193 : 1111111111111100;
  194 : 1111111111100010;
  195 : 1111111111111011;
  196 : 1111111111110011;
  197 : 1111111111001110;
  198 : 1111111111100100;
  199 : 1111111100111001;
  200 : 1111111000110110;
  201 : 1111111100111011;
  202 : 1111111111101011;
  203 : 1111111101110010;
  204 : 1111110110111101;
  205 : 1111101000101010;
  206 : 1111101011010100;
  207 : 1111111101001011;
  208 : 1111111110011111;
  209 : 1111111111011111;
  210 : 1111111011111111;
  211 : 1111111110010001;
  212 : 1111111000101001;
  213 : 1111111110010011;
  214 : 1111111010011110;
  215 : 1111111000011000;
  216 : 1111111111011010;
  217 : 1111111100010110;
  218 : 1111111001011101;
  219 : 1111111011110011;
  220 : 1111110001111100;
  221 : 1111110110100011;
  222 : 1111111110000010;
  223 : 1111111111110011;
  224 : 1111111111111001;
  225 : 1111111110101110;
  226 : 1111111111100001;
  227 : 1111111000110111;
  228 : 1111111100001110;
  229 : 1111110110111111;
  230 : 1111110011000110;
  231 : 1111110111000101;
  232 : 1111111100001011;
  233 : 1111111010100100;
  234 : 1111111101110010;
  235 : 1111111111001111;
  236 : 1111111110101000;
  237 : 1111110111000101;
  238 : 1111110111101100;
  239 : 1111111100100001;
  240 : 1111100000010101;
  241 : 1111110100101110;
  242 : 1111111111100000;
  243 : 1111111101000011;
  244 : 1111110000111110;
  245 : 1111111101001111;
  246 : 1111110111100010;
  247 : 1111111000010010;
  248 : 1111101000101001;
  249 : 1111111100101111;
  250 : 1111111111101011;
  251 : 1111111111000110;
  252 : 1111111111111101;
  253 : 1111111111101101;
  254 : 1111111101100101;
  255 : 1111111110001000;
  256 : 1111110101010000;
  257 : 1111011110101011;
  258 : 1111011111000001;
  259 : 1111100010101101;
  260 : 1111011110101110;
  261 : 1111010101011000;
  262 : 1111001000011011;
  263 : 1111001010001010;
  264 : 1110111001111000;
  265 : 1111000110010001;
  266 : 1111011111100000;
  267 : 1111111011001100;
  268 : 1111110010000010;
  269 : 1111111111110010;
  270 : 1111110011011101;
  271 : 1111111001011110;
  272 : 1111110100001001;
  273 : 1111111011111111;
  274 : 1111111001000001;
  275 : 1111110011101111;
  276 : 1111110000000101;
  277 : 1111111101001010;
  278 : 1111111111111101;
  279 : 1111111111111110;
  280 : 1111111111111000;
  281 : 1111111110110010;
  282 : 1111111111001101;
  283 : 1111111111011111;
  284 : 1111100111010000;
  285 : 1111001110100001;
  286 : 1111000111001010;
  287 : 1110110001100111;
  288 : 1110010101010010;
  289 : 1110100000101101;
  290 : 1110101110101110;
  291 : 1110101010111100;
  292 : 1111000110111010;
  293 : 1111111000110100;
  294 : 1111110011100000;
  295 : 1111101000111101;
  296 : 1111111101101010;
  297 : 1111111101111110;
  298 : 1111111101000010;
  299 : 1111111001011010;
  300 : 1111110011100001;
  301 : 1111111101010000;
  302 : 1111111000000100;
  303 : 1111101010011101;
  304 : 1111110111000000;
  305 : 1111111110010110;
  306 : 1111111111101110;
  307 : 1111111111011000;
  308 : 1111111111110110;
  309 : 1111111111101111;
  310 : 1111111111011110;
  311 : 1111111111010011;
  312 : 1111101001011011;
  313 : 1111010000100110;
  314 : 1111001101000110;
  315 : 1111001110011011;
  316 : 1111001001000100;
  317 : 1111011101110110;
  318 : 1111100110011011;
  319 : 1111110110001110;
  320 : 1111111111111110;
  321 : 1111111111011101;
  322 : 1111110010010100;
  323 : 1111110011111000;
  324 : 1111111110000110;
  325 : 1111110101010100;
  326 : 1111110111111000;
  327 : 1111111100100010;
  328 : 1111110001101110;
  329 : 1111111111000011;
  330 : 1111110101010101;
  331 : 1111110010110101;
  332 : 1111111000010010;
  333 : 1111111011100010;
  334 : 1111111111111110;
  335 : 1111111111010111;
  336 : 1111111111111110;
  337 : 1111111111111101;
  338 : 1111111111101000;
  339 : 1111111111111000;
  340 : 1111110000111011;
  341 : 1111101000011011;
  342 : 1111100100111001;
  343 : 1111111001011000;
  344 : 1111111010100000;
  345 : 1111111010101001;
  346 : 1111111111100000;
  347 : 1111111110101110;
  348 : 1111111001100110;
  349 : 1111111100001110;
  350 : 1111110011011000;
  351 : 1111111111100101;
  352 : 1111111011101011;
  353 : 1111110011100011;
  354 : 1111111100100010;
  355 : 1111111110010010;
  356 : 1111111101100101;
  357 : 1111110110100100;
  358 : 1111111010111001;
  359 : 1111110010100000;
  360 : 1111111011100100;
  361 : 1111111110101110;
  362 : 1111111111110110;
  363 : 1111111111110111;
  364 : 1111111111110000;
  365 : 1111111111110100;
  366 : 1111111111010100;
  367 : 1111111101011110;
  368 : 1111111111101000;
  369 : 1111111111000010;
  370 : 1111111011001110;
  371 : 1111111110101111;
  372 : 1111100001111111;
  373 : 1111111011010010;
  374 : 1111111010001101;
  375 : 1111110110000100;
  376 : 1111111110011100;
  377 : 1111111111110100;
  378 : 1111111101111001;
  379 : 1111111001101110;
  380 : 1111111001000111;
  381 : 1111101101010010;
  382 : 1111111111001111;
  383 : 1111111010101010;
  384 : 1111110110111101;
  385 : 1111111111001111;
  386 : 1111101110010111;
  387 : 1111110110000100;
  388 : 1111111110010101;
  389 : 1111111110011000;
  390 : 1111111111101000;
  391 : 1111111111110101;
  392 : 1111111111110011;
  393 : 1111111111010110;
  394 : 1111111111011101;
  395 : 1111111110011000;
  396 : 1111111101100101;
  397 : 1111110101110111;
  398 : 1111110101111101;
  399 : 1111110011110001;
  400 : 1111101000000011;
  401 : 1111110000101011;
  402 : 1111110100001011;
  403 : 1111111100010001;
  404 : 1111101111001001;
  405 : 1111101101111110;
  406 : 1111110000100011;
  407 : 1111111111101001;
  408 : 1111111111100111;
  409 : 1111111000001100;
  410 : 1111111100110000;
  411 : 1111110111010101;
  412 : 1111111001001101;
  413 : 1111111010011010;
  414 : 1111111011110001;
  415 : 1111111010111101;
  416 : 1111111010100100;
  417 : 1111111111100100;
  418 : 1111111111001101;
  419 : 1111111111100111;
  420 : 1111111111110010;
  421 : 1111111111111100;
  422 : 1111111111111110;
  423 : 1111111011011001;
  424 : 1111111010001010;
  425 : 1111100001001000;
  426 : 1111100001110011;
  427 : 1111111111110011;
  428 : 1111101101101110;
  429 : 1111111111101100;
  430 : 1111101010111010;
  431 : 1111110010011011;
  432 : 1111111101100111;
  433 : 1111111010001111;
  434 : 1111110110111010;
  435 : 1111111011101001;
  436 : 1111111101111101;
  437 : 1111100101101110;
  438 : 1111110011110100;
  439 : 1111110101100001;
  440 : 1111011111001011;
  441 : 1111101101101010;
  442 : 1111110011111100;
  443 : 1111110110101110;
  444 : 1111110101100000;
  445 : 1111111110000010;
  446 : 1111111110110111;
  447 : 1111111111011101;
  448 : 1111111111111010;
  449 : 1111111111111100;
  450 : 1111111110010000;
  451 : 1111110010001110;
  452 : 1111111111000000;
  453 : 1111111111110111;
  454 : 1111111111101000;
  455 : 1111111011010011;
  456 : 1111111011101101;
  457 : 1111110101011000;
  458 : 1111111101101100;
  459 : 1111111100111001;
  460 : 1111111010011010;
  461 : 1111110110101111;
  462 : 1111111101010101;
  463 : 1111110010111000;
  464 : 1111110001011110;
  465 : 1111110001110101;
  466 : 1111111101101001;
  467 : 1111111110001000;
  468 : 1111101100000111;
  469 : 1111101110000001;
  470 : 1111110100100110;
  471 : 1111110111110101;
  472 : 1111110111000001;
  473 : 1111111110010111;
  474 : 1111111111101101;
  475 : 1111111111101011;
  476 : 1111111111011111;
  477 : 1111111111110001;
  478 : 1111111110110110;
  479 : 1111111010010011;
  480 : 1111111111111010;
  481 : 1111111110000110;
  482 : 1111111000110110;
  483 : 1111111000001011;
  484 : 1111101110101010;
  485 : 1111110000110011;
  486 : 1111101000001010;
  487 : 1111111001100101;
  488 : 1111101111100111;
  489 : 1111111110000111;
  490 : 1111111001111101;
  491 : 1111111010011100;
  492 : 1111110110001001;
  493 : 1111110011001111;
  494 : 1111101110011011;
  495 : 1111111111001010;
  496 : 1111110001000111;
  497 : 1111110011001100;
  498 : 1111111100110101;
  499 : 1111111100000011;
  500 : 1111111111001100;
  501 : 1111111101111001;
  502 : 1111111110110011;
  503 : 1111111110111001;
  504 : 1111111111111010;
  505 : 1111111111111110;
  506 : 1111111110111111;
  507 : 1111111110111110;
  508 : 1111110010100100;
  509 : 1111111100110110;
  510 : 1111110101011101;
  511 : 1111111101000001;
  512 : 1111111100011110;
  513 : 1111111011011000;
  514 : 1111110111111111;
  515 : 1111111111001100;
  516 : 1111110111010000;
  517 : 1111111001110110;
  518 : 1111110011010110;
  519 : 1111111010100111;
  520 : 1111111111110000;
  521 : 1111111001111111;
  522 : 1111111110000000;
  523 : 1111111001100010;
  524 : 1111110110111111;
  525 : 1111110000001111;
  526 : 1111110001011111;
  527 : 1111111111000001;
  528 : 1111111000011111;
  529 : 1111111100101111;
  530 : 1111111111110111;
  531 : 1111111111011001;
  532 : 1111111111001111;
  533 : 1111111111010101;
  534 : 1111111000101111;
  535 : 1111111011100111;
  536 : 1111111111111000;
  537 : 1111111110000000;
  538 : 1111111111111111;
  539 : 1111110110111011;
  540 : 1111101001010000;
  541 : 1111111001011100;
  542 : 1111110100001100;
  543 : 1111111110000001;
  544 : 1111111111100000;
  545 : 1111110000011010;
  546 : 1111111001000110;
  547 : 1111111110000000;
  548 : 1111111001101101;
  549 : 1111110101101000;
  550 : 1111111100110010;
  551 : 1111111110001000;
  552 : 1111111000100100;
  553 : 1111111110100110;
  554 : 1111111111011111;
  555 : 1111111010100100;
  556 : 1111111111100000;
  557 : 1111111111010111;
  558 : 1111111111001011;
  559 : 1111111111000111;
  560 : 1111111111111100;
  561 : 1111111110011110;
  562 : 1111111000011111;
  563 : 1111111111100100;
  564 : 1111110000001100;
  565 : 1111111011100111;
  566 : 1111111110101010;
  567 : 1111101100110001;
  568 : 1111111110010101;
  569 : 1111111111110101;
  570 : 1111111011110000;
  571 : 1111111100011011;
  572 : 1111111100001011;
  573 : 1111110001100000;
  574 : 1111111010110100;
  575 : 1111110010000111;
  576 : 1111111100111000;
  577 : 1111110001111001;
  578 : 1111111101110111;
  579 : 0000000000000000;
  580 : 1111111110000100;
  581 : 1111111011100001;
  582 : 1111111110100111;
  583 : 1111111011101100;
  584 : 1111111101011110;
  585 : 1111111100100010;
  586 : 1111111111000000;
  587 : 1111111111111111;
  588 : 1111111111100101;
  589 : 1111111111111100;
  590 : 1111111110111001;
  591 : 1111111111100000;
  592 : 1111111111111011;
  593 : 1111111111001000;
  594 : 1111111100110110;
  595 : 1111111110001011;
  596 : 1111110000101011;
  597 : 1111101111011110;
  598 : 1111111101010101;
  599 : 1111110010010101;
  600 : 1111101010011110;
  601 : 1111111001111000;
  602 : 1111111010011100;
  603 : 1111100100110100;
  604 : 1111111011011000;
  605 : 1111111100100111;
  606 : 1111111101110110;
  607 : 1111111111111010;
  608 : 1111111110001101;
  609 : 1111111000000000;
  610 : 1111111011011000;
  611 : 1111111110111111;
  612 : 1111111111110101;
  613 : 1111111111011100;
  614 : 1111111111000000;
  615 : 1111111111100000;
  616 : 1111111111110110;
  617 : 1111111111111100;
  618 : 1111111111000110;
  619 : 1111111111010101;
  620 : 1111111111011100;
  621 : 1111111111110000;
  622 : 1111111111011000;
  623 : 1111111110100110;
  624 : 1111110011111000;
  625 : 1111100100110100;
  626 : 1111111001111101;
  627 : 1111110010001011;
  628 : 1111110111100100;
  629 : 1111110010011011;
  630 : 1111111011101010;
  631 : 1111111010100000;
  632 : 1111111000011010;
  633 : 1111111001110010;
  634 : 1111101111011110;
  635 : 1111111100010101;
  636 : 1111111110110100;
  637 : 1111110011011111;
  638 : 1111111001100010;
  639 : 1111111111010010;
  640 : 1111111111111111;
  641 : 1111111111111101;
  642 : 1111111111101110;
  643 : 1111111111111001;
  644 : 1111111111111001;
  645 : 1111111111111000;
  646 : 1111111111000101;
  647 : 1111111110101011;
  648 : 1111111111001001;
  649 : 1111111111110000;
  650 : 1111101001010001;
  651 : 1111110000101101;
  652 : 1111110011100100;
  653 : 1111111001011011;
  654 : 1111111110001011;
  655 : 1111111111110010;
  656 : 1111111001010111;
  657 : 1111110101011011;
  658 : 1111111110100101;
  659 : 1111110100100110;
  660 : 1111110101000111;
  661 : 1111111001111001;
  662 : 1111101101001011;
  663 : 1111110010011110;
  664 : 1111111011110000;
  665 : 1111111111100111;
  666 : 1111111101100110;
  667 : 1111111111001101;
  668 : 1111111111001011;
  669 : 1111111111111101;
  670 : 1111111111111101;
  671 : 1111111111100010;
  672 : 1111111111110011;
  673 : 1111111111110101;
  674 : 1111111111110111;
  675 : 1111111111101010;
  676 : 1111111111111110;
  677 : 1111111111111111;
  678 : 1111111011000001;
  679 : 1111111011000110;
  680 : 1111111100011111;
  681 : 1111110110010000;
  682 : 1111111101111001;
  683 : 1111111010111111;
  684 : 1111110011001001;
  685 : 1111111011110111;
  686 : 1111111100110000;
  687 : 1111111100001011;
  688 : 1111110011110100;
  689 : 1111111011110111;
  690 : 1111110000010011;
  691 : 1111110010100101;
  692 : 1111111000000111;
  693 : 1111111100011011;
  694 : 1111111111000100;
  695 : 1111111101000001;
  696 : 1111111111010101;
  697 : 1111111111110010;
  698 : 1111111111111001;
  699 : 1111111111111011;
  700 : 1111111111111111;
  701 : 1111111111110000;
  702 : 1111111111011001;
  703 : 0000000000000000;
  704 : 1111111110111111;
  705 : 1111111111110101;
  706 : 1111111100001011;
  707 : 1111110111000001;
  708 : 1111111100001011;
  709 : 1111111101000100;
  710 : 1111111100110011;
  711 : 1111111111011010;
  712 : 1111110011100001;
  713 : 1111110011011101;
  714 : 1111111011101110;
  715 : 1111111100000011;
  716 : 1111110101000011;
  717 : 1111111110110111;
  718 : 1111111100110010;
  719 : 1111111110011110;
  720 : 1111111010010000;
  721 : 1111110110011000;
  722 : 1111111101110011;
  723 : 1111111111111010;
  724 : 1111111111011010;
  725 : 1111111111100111;
  726 : 1111111111110011;
  727 : 1111111111100001;
  728 : 1111111111111111;
  729 : 1111111111011111;
  730 : 1111111111101111;
  731 : 1111111111110001;
  732 : 1111111111001110;
  733 : 1111111111011001;
  734 : 1111111100110101;
  735 : 1111111010011010;
  736 : 1111111101110111;
  737 : 1111111101110001;
  738 : 1111111111100011;
  739 : 1111111100110101;
  740 : 1111111010111000;
  741 : 1111111110010101;
  742 : 1111111011111101;
  743 : 1111111111010010;
  744 : 1111111100101110;
  745 : 1111111111010100;
  746 : 1111111110000111;
  747 : 1111111111100001;
  748 : 1111111111111111;
  749 : 1111111111111000;
  750 : 1111111111011100;
  751 : 1111111111110111;
  752 : 1111111111111110;
  753 : 1111111111111111;
  754 : 1111111111111110;
  755 : 1111111111101000;
  756 : 1111111111110010;
  757 : 1111111111100101;
  758 : 1111111111100110;
  759 : 1111111111111001;
  760 : 1111111111110101;
  761 : 1111111111110100;
  762 : 1111111111000110;
  763 : 1111111100110110;
  764 : 1111111100111111;
  765 : 1111111111110010;
  766 : 1111111111101011;
  767 : 1111111111111100;
  768 : 1111111110011100;
  769 : 1111111110101100;
  770 : 1111111111111000;
  771 : 1111111111011111;
  772 : 1111111111000000;
  773 : 1111111111110111;
  774 : 1111111111010100;
  775 : 1111111111111110;
  776 : 1111111111101001;
  777 : 1111111111110111;
  778 : 1111111111100010;
  779 : 1111111111001100;
  780 : 1111111111110010;
  781 : 1111111111110101;
  782 : 1111111111110101;
  783 : 1111111111010001;
END;
