WIDTH=16;
DEPTH=784;
ADDRESS_RADIX=UNS;
DATA_RADIX=BIN;
CONTENT BEGIN
  0 : 1111111111111110;
  1 : 1111111111111110;
  2 : 1111111111111001;
  3 : 1111111111111011;
  4 : 1111111111100010;
  5 : 1111111111011001;
  6 : 1111111111111111;
  7 : 1111111111110111;
  8 : 1111111111111110;
  9 : 1111111111110110;
  10 : 1111111111100111;
  11 : 1111111111101101;
  12 : 1111111111101011;
  13 : 1111111111100000;
  14 : 1111111111111011;
  15 : 1111111111111011;
  16 : 1111111111001111;
  17 : 1111111111111011;
  18 : 1111111111110000;
  19 : 1111111111100110;
  20 : 1111111111111011;
  21 : 1111111111111110;
  22 : 1111111111010111;
  23 : 1111111111111000;
  24 : 1111111111101011;
  25 : 1111111111111100;
  26 : 1111111111110010;
  27 : 1111111111111011;
  28 : 1111111111101100;
  29 : 1111111111101111;
  30 : 1111111111101101;
  31 : 1111111111111011;
  32 : 1111111111101111;
  33 : 1111111111110111;
  34 : 1111111111110001;
  35 : 1111111111111001;
  36 : 1111111111101101;
  37 : 1111111111110001;
  38 : 1111111111110101;
  39 : 1111111111110110;
  40 : 1111111111001010;
  41 : 1111111111110000;
  42 : 1111111110100110;
  43 : 1111111100110101;
  44 : 1111111100101011;
  45 : 1111111110110110;
  46 : 1111111111110101;
  47 : 1111111111101010;
  48 : 1111111111101110;
  49 : 1111111111101111;
  50 : 1111111111110000;
  51 : 1111111111111111;
  52 : 1111111111111111;
  53 : 1111111111110111;
  54 : 1111111111111010;
  55 : 1111111111111111;
  56 : 1111111111111111;
  57 : 1111111111100111;
  58 : 1111111111110011;
  59 : 1111111111111100;
  60 : 1111111111111100;
  61 : 0000000000000000;
  62 : 1111111111011111;
  63 : 1111111111101011;
  64 : 1111111111110110;
  65 : 1111111111100110;
  66 : 1111111111110011;
  67 : 1111111010101010;
  68 : 1111111001001011;
  69 : 1111110101110111;
  70 : 1111111101010000;
  71 : 1111111111110010;
  72 : 0000000000000000;
  73 : 1111111110101110;
  74 : 1111111111100000;
  75 : 1111111111111000;
  76 : 1111111111011110;
  77 : 1111111111111100;
  78 : 1111111111111001;
  79 : 1111111111001000;
  80 : 1111111111111110;
  81 : 1111111111111111;
  82 : 1111111111010000;
  83 : 1111111111100000;
  84 : 1111111111011011;
  85 : 1111111111110000;
  86 : 1111111111000011;
  87 : 1111111111100010;
  88 : 1111111111110010;
  89 : 1111111111000111;
  90 : 1111111111100010;
  91 : 1111111111111111;
  92 : 1111111100011011;
  93 : 1111111101010111;
  94 : 1111111010010000;
  95 : 1111111010100001;
  96 : 1111110110101001;
  97 : 1111110110001101;
  98 : 1111101100101100;
  99 : 1111101010101101;
  100 : 1111110010100000;
  101 : 1111111010001111;
  102 : 1111110111100011;
  103 : 1111111100101000;
  104 : 1111111110010000;
  105 : 1111111101100011;
  106 : 1111111111110000;
  107 : 1111111101100101;
  108 : 1111111111010001;
  109 : 1111111111010111;
  110 : 1111111111110100;
  111 : 1111111111100110;
  112 : 1111111110100100;
  113 : 1111111111111100;
  114 : 0000000000000000;
  115 : 1111111111111001;
  116 : 1111111111110000;
  117 : 1111111111010001;
  118 : 1111111111000101;
  119 : 1111111111101011;
  120 : 1111111111000000;
  121 : 1111110000000000;
  122 : 1111111111000010;
  123 : 1111110011010100;
  124 : 1111111110000101;
  125 : 1111111110000101;
  126 : 1111111111110100;
  127 : 1111100100010000;
  128 : 1111100101111110;
  129 : 1111110111100110;
  130 : 1111111111101010;
  131 : 1111110111100001;
  132 : 1111100110001010;
  133 : 1111111101111010;
  134 : 1111111010100100;
  135 : 1111110010100011;
  136 : 1111111101100010;
  137 : 1111111101101011;
  138 : 1111111111110001;
  139 : 1111111111000000;
  140 : 1111111111111010;
  141 : 1111111111111111;
  142 : 1111111111101110;
  143 : 1111111111110110;
  144 : 1111111111000010;
  145 : 1111111100111100;
  146 : 1111111111110010;
  147 : 1111111111111010;
  148 : 1111111000011100;
  149 : 1111111001010000;
  150 : 1111110010110100;
  151 : 1111110011111110;
  152 : 1111111011110011;
  153 : 1111111111001110;
  154 : 1111111100111001;
  155 : 1111110101011001;
  156 : 1111100001000111;
  157 : 1111111110111100;
  158 : 1111101000011110;
  159 : 1111111111001101;
  160 : 1111110000110001;
  161 : 1111111001010100;
  162 : 1111111111111111;
  163 : 1111111100111100;
  164 : 1111111001001010;
  165 : 1111111100101110;
  166 : 1111111110100001;
  167 : 1111111111010101;
  168 : 1111111111111100;
  169 : 1111111111010101;
  170 : 1111111111110010;
  171 : 1111111111110110;
  172 : 1111111111110011;
  173 : 1111111110001111;
  174 : 1111111010111000;
  175 : 1111111101110101;
  176 : 1111111111110110;
  177 : 1111111110010100;
  178 : 1111111101101100;
  179 : 1111111010111000;
  180 : 1111111110100101;
  181 : 1111110111110010;
  182 : 1111111101111000;
  183 : 1111111111110000;
  184 : 1111110011001001;
  185 : 1111110101110000;
  186 : 1111110011010111;
  187 : 1111111010110010;
  188 : 1111111110111001;
  189 : 1111111110001011;
  190 : 1111111111011010;
  191 : 1111110001010000;
  192 : 1111111011011010;
  193 : 1111111111100111;
  194 : 1111111111010010;
  195 : 1111111111100100;
  196 : 1111111111111111;
  197 : 1111111110111000;
  198 : 1111111111110001;
  199 : 1111111011010000;
  200 : 1111111010011100;
  201 : 1111111000011111;
  202 : 1111111010101001;
  203 : 1111111110011111;
  204 : 1111111111011100;
  205 : 1111111111111101;
  206 : 1111111111110011;
  207 : 1111110111101000;
  208 : 1111111100010100;
  209 : 1111111110100110;
  210 : 1111111110101011;
  211 : 1111111100010111;
  212 : 1111110001100111;
  213 : 1111111101001101;
  214 : 1111110110000000;
  215 : 1111101001110111;
  216 : 1111101000110100;
  217 : 1111100111011011;
  218 : 1111110001111100;
  219 : 1111111110001011;
  220 : 1111111000000011;
  221 : 1111111110110010;
  222 : 1111111111000111;
  223 : 1111111111101001;
  224 : 1111111111110000;
  225 : 1111111111111110;
  226 : 1111111111110010;
  227 : 1111111011110101;
  228 : 1111110010111100;
  229 : 1111101110010001;
  230 : 1111111111000010;
  231 : 1111110011010000;
  232 : 1111111111100001;
  233 : 1111111111101011;
  234 : 1111111001010110;
  235 : 1111111110110111;
  236 : 1111111111011100;
  237 : 1111100011001011;
  238 : 1111111110011011;
  239 : 1111101010101001;
  240 : 1111111111010100;
  241 : 1111110110001110;
  242 : 1111110001011111;
  243 : 1111101111010110;
  244 : 1111111110100011;
  245 : 1111111110000100;
  246 : 1111101110011001;
  247 : 1111111101100010;
  248 : 1111100100001100;
  249 : 1111111101111101;
  250 : 1111111111111110;
  251 : 1111111111110100;
  252 : 1111111111100101;
  253 : 1111111111111101;
  254 : 1111111111100011;
  255 : 1111111111000000;
  256 : 1111101111010011;
  257 : 1111100110101101;
  258 : 1111110100001011;
  259 : 1111111011011000;
  260 : 1111111111011111;
  261 : 1111111001000010;
  262 : 1111110001000001;
  263 : 1111111011111010;
  264 : 1111111110110100;
  265 : 1111111101010101;
  266 : 1111110101000011;
  267 : 1111011011100000;
  268 : 1111001011000101;
  269 : 1111101100101100;
  270 : 1111111100010100;
  271 : 1111111110110111;
  272 : 1111111110101100;
  273 : 1111111100111111;
  274 : 1111111100001000;
  275 : 1111111101000000;
  276 : 1111100000000000;
  277 : 1111111001011101;
  278 : 1111111111001010;
  279 : 1111111111111000;
  280 : 1111111111111001;
  281 : 1111111111110011;
  282 : 1111111111101100;
  283 : 1111111110111111;
  284 : 1111110111010111;
  285 : 1111110100000011;
  286 : 1111101001010111;
  287 : 1111110011111000;
  288 : 1111101010110001;
  289 : 1111101100100010;
  290 : 1111101000101011;
  291 : 1111110011001111;
  292 : 1111111000010011;
  293 : 1111110111100110;
  294 : 1111111110110100;
  295 : 1111010110010110;
  296 : 1111110001001001;
  297 : 1111110100001111;
  298 : 1111111100100010;
  299 : 1111101011000100;
  300 : 1111111000110101;
  301 : 1111111101111110;
  302 : 1111111011001010;
  303 : 1111110100001101;
  304 : 1111110011111010;
  305 : 1111111100111100;
  306 : 1111111111011001;
  307 : 1111111111101001;
  308 : 1111111111000100;
  309 : 1111111111111000;
  310 : 1111111111100001;
  311 : 1111111101000100;
  312 : 1111111100101000;
  313 : 1111111001011100;
  314 : 1111101111011011;
  315 : 1111101001111000;
  316 : 1111111110000000;
  317 : 1111110100110011;
  318 : 1111101101110011;
  319 : 1111111101101110;
  320 : 1111111000000111;
  321 : 1111111101111010;
  322 : 1111100110011001;
  323 : 1111101000011110;
  324 : 1111110101100100;
  325 : 1111110001111111;
  326 : 1111110000001010;
  327 : 1111100111101101;
  328 : 1111110000000011;
  329 : 1111111110011100;
  330 : 1111110001110111;
  331 : 1111111100101001;
  332 : 1111111010001011;
  333 : 1111111100001111;
  334 : 1111111110110110;
  335 : 1111111111111000;
  336 : 1111111111111111;
  337 : 1111111111111011;
  338 : 1111111111000011;
  339 : 1111111000001111;
  340 : 1111110000001100;
  341 : 1111111000110100;
  342 : 1111111010010111;
  343 : 1111110000100010;
  344 : 1111110101101000;
  345 : 1111111011111111;
  346 : 1111111011011000;
  347 : 1111111011101101;
  348 : 1111101100110110;
  349 : 1111001011001011;
  350 : 1111100001101001;
  351 : 1111110101111110;
  352 : 1111110001111001;
  353 : 1111111001100000;
  354 : 1111111100111110;
  355 : 1111110010010100;
  356 : 1111111101100100;
  357 : 1111111001000010;
  358 : 1111111110101010;
  359 : 1111110110110001;
  360 : 1111111010100100;
  361 : 1111110101110010;
  362 : 1111111110100101;
  363 : 1111111111110101;
  364 : 1111111111110010;
  365 : 0000000000000000;
  366 : 1111111110011010;
  367 : 1111111101111000;
  368 : 1111111001111100;
  369 : 1111110100111001;
  370 : 1111110011000101;
  371 : 1111100110111101;
  372 : 1111111011100111;
  373 : 1111101110000000;
  374 : 1111000010001101;
  375 : 1111110010001100;
  376 : 1111111100001111;
  377 : 1111100000011000;
  378 : 1111110111001010;
  379 : 1111110001010100;
  380 : 1111111101100110;
  381 : 1111111111110111;
  382 : 1111111100011001;
  383 : 1111111110101101;
  384 : 1111110001011011;
  385 : 1111111110001101;
  386 : 1111110110101101;
  387 : 1111111010000100;
  388 : 1111111000011110;
  389 : 1111111001010101;
  390 : 1111111110001010;
  391 : 1111111101100000;
  392 : 1111111111111010;
  393 : 1111111111110001;
  394 : 1111111110110100;
  395 : 1111111111111110;
  396 : 1111110110000001;
  397 : 1111111110001101;
  398 : 1111100111011111;
  399 : 1111111101110101;
  400 : 1111010000000010;
  401 : 1111001000011100;
  402 : 1111101000111011;
  403 : 1111111010100101;
  404 : 1111111111100000;
  405 : 1111110101000000;
  406 : 1111101011000110;
  407 : 1111111001010010;
  408 : 1111111111001011;
  409 : 1111111111110100;
  410 : 1111111101001010;
  411 : 1111111110011100;
  412 : 1111111100011010;
  413 : 1111111011000111;
  414 : 1111111101111110;
  415 : 1111110101101011;
  416 : 1111110010000100;
  417 : 1111111101001011;
  418 : 1111111101000001;
  419 : 1111111111100010;
  420 : 1111111111010010;
  421 : 1111111111101100;
  422 : 1111111110011001;
  423 : 1111111110010010;
  424 : 1111111001100010;
  425 : 1111100100111111;
  426 : 1111110101010010;
  427 : 1111101111000101;
  428 : 1111101010101101;
  429 : 1111110101110100;
  430 : 1111111110000100;
  431 : 1111101111100111;
  432 : 1111111110001100;
  433 : 1111111100111100;
  434 : 1111111110000111;
  435 : 1111101110011000;
  436 : 1111110110011101;
  437 : 1111111011010011;
  438 : 1111110101011100;
  439 : 1111111110111011;
  440 : 1111111111111111;
  441 : 1111110111010011;
  442 : 1111111100001100;
  443 : 1111111111100001;
  444 : 1111110001111001;
  445 : 1111111011011101;
  446 : 1111111101101011;
  447 : 1111111111011110;
  448 : 1111111111010101;
  449 : 1111111111001001;
  450 : 1111111101001101;
  451 : 1111111110101111;
  452 : 1111111100110100;
  453 : 1111100111111001;
  454 : 1111110011111011;
  455 : 1111111001010001;
  456 : 1111111100110111;
  457 : 1111111010111000;
  458 : 1111111110101001;
  459 : 1111110101011000;
  460 : 1111100101111110;
  461 : 1111111011011111;
  462 : 1111111010100000;
  463 : 1111111010101110;
  464 : 1111110011111011;
  465 : 1111101110011000;
  466 : 1111101001011001;
  467 : 1111101101110011;
  468 : 1111111001011101;
  469 : 1111101000101001;
  470 : 1111111111100110;
  471 : 1111111111100011;
  472 : 1111110010001001;
  473 : 1111111001101110;
  474 : 1111111110000001;
  475 : 1111111111111011;
  476 : 1111111111110011;
  477 : 1111111111101110;
  478 : 1111111110111110;
  479 : 1111111100111011;
  480 : 1111111111100000;
  481 : 1111110010110011;
  482 : 1111110000111101;
  483 : 1111111111111101;
  484 : 1111111001111011;
  485 : 1111111011100000;
  486 : 1111111101101010;
  487 : 1111101011111110;
  488 : 1111111111011100;
  489 : 1111111110100010;
  490 : 1111111110100001;
  491 : 1111111101101001;
  492 : 1111111011010111;
  493 : 1111110010011010;
  494 : 1111111101110111;
  495 : 1111101111110110;
  496 : 1111111001101110;
  497 : 1111111000001011;
  498 : 1111111111010100;
  499 : 1111110000111000;
  500 : 1111111010011001;
  501 : 1111110111110101;
  502 : 1111111110100100;
  503 : 1111111111110001;
  504 : 1111111111110001;
  505 : 1111111111111011;
  506 : 1111111111101000;
  507 : 1111110000011011;
  508 : 1111101001001011;
  509 : 1111101100110110;
  510 : 1111111101101001;
  511 : 1111101100100000;
  512 : 1111111100011000;
  513 : 1111110010101110;
  514 : 1111111110000110;
  515 : 1111111101000101;
  516 : 1111101000100100;
  517 : 1111110010011000;
  518 : 1111111111111111;
  519 : 1111101100000011;
  520 : 1111110101000111;
  521 : 1111110000101100;
  522 : 1111111100000100;
  523 : 1111101110011010;
  524 : 1111110001001001;
  525 : 1111111101000010;
  526 : 1111111111110110;
  527 : 1111111100110010;
  528 : 1111111110011111;
  529 : 1111111011100000;
  530 : 1111111110101000;
  531 : 1111111111000011;
  532 : 1111111111000100;
  533 : 1111111111111101;
  534 : 1111111110000011;
  535 : 1111110111111001;
  536 : 1111101101110111;
  537 : 1111101010001000;
  538 : 1111110011110010;
  539 : 1111100101110111;
  540 : 1111101000101001;
  541 : 1111101111110010;
  542 : 1111111001001010;
  543 : 1111110110100101;
  544 : 1111111011010111;
  545 : 1111101000010111;
  546 : 1111111100100110;
  547 : 1111111000010000;
  548 : 1111111010011000;
  549 : 1111111101101100;
  550 : 1111111110001111;
  551 : 1111111011010111;
  552 : 1111111011000110;
  553 : 1111111001101101;
  554 : 1111111110100101;
  555 : 1111110111110111;
  556 : 1111111010000110;
  557 : 1111111011100001;
  558 : 1111111110010111;
  559 : 1111111101110010;
  560 : 1111111111111000;
  561 : 1111111111101011;
  562 : 1111111110010101;
  563 : 1111111011110010;
  564 : 1111110110011101;
  565 : 1111111111000111;
  566 : 1111110101000110;
  567 : 1111100101110011;
  568 : 1111100100011110;
  569 : 1111111010000001;
  570 : 1111111111100001;
  571 : 1111110100111011;
  572 : 1111111100110101;
  573 : 1111110111010101;
  574 : 1111110011100010;
  575 : 1111111010111111;
  576 : 1111111111101000;
  577 : 1111111100010010;
  578 : 1111111011010010;
  579 : 1111111000001110;
  580 : 1111110010010101;
  581 : 1111111110111000;
  582 : 1111111111111111;
  583 : 1111110101110111;
  584 : 1111110110101010;
  585 : 1111111011001100;
  586 : 1111111111011101;
  587 : 1111111111101010;
  588 : 1111111111101011;
  589 : 1111111111011110;
  590 : 1111111110010110;
  591 : 1111110101001101;
  592 : 1111111110111010;
  593 : 1111110010000111;
  594 : 1111111111110001;
  595 : 1111110100010111;
  596 : 1111110010101011;
  597 : 1111111010111010;
  598 : 1111110010000111;
  599 : 1111111101100101;
  600 : 1111110110100011;
  601 : 1111101101100010;
  602 : 1111101011110010;
  603 : 1111111010000110;
  604 : 1111111110011000;
  605 : 1111110110111011;
  606 : 1111111100001010;
  607 : 1111100101100001;
  608 : 1111101010011001;
  609 : 1111111001100100;
  610 : 1111111000110100;
  611 : 1111110011010000;
  612 : 1111111010001000;
  613 : 1111111011101110;
  614 : 1111111111101101;
  615 : 1111111111100111;
  616 : 1111111111100001;
  617 : 1111111111011111;
  618 : 1111111111011100;
  619 : 1111111111111011;
  620 : 1111110111000000;
  621 : 1111110010010100;
  622 : 1111110000000010;
  623 : 1111100101100000;
  624 : 1111111010001010;
  625 : 1111111010100001;
  626 : 1111110000100010;
  627 : 1111111111100100;
  628 : 1111111000101100;
  629 : 1111111110110000;
  630 : 1111111111101111;
  631 : 1111111111010000;
  632 : 1111111011101000;
  633 : 1111111110111011;
  634 : 1111110001011100;
  635 : 1111111110111111;
  636 : 1111111101010000;
  637 : 1111101001101110;
  638 : 1111101001011010;
  639 : 1111101111110001;
  640 : 1111110010110010;
  641 : 1111110110111100;
  642 : 1111111111110011;
  643 : 1111111111010011;
  644 : 1111111111110101;
  645 : 1111111111101000;
  646 : 1111111111111100;
  647 : 1111111111001101;
  648 : 1111111111111000;
  649 : 1111111010011011;
  650 : 1111110011110011;
  651 : 1111111111011011;
  652 : 1111110100101100;
  653 : 1111111101010101;
  654 : 1111111110101000;
  655 : 1111110011100001;
  656 : 1111110110101100;
  657 : 1111111111101101;
  658 : 1111111101100000;
  659 : 1111111001100000;
  660 : 1111111110111110;
  661 : 1111110010011010;
  662 : 1111110111100000;
  663 : 1111111110101000;
  664 : 1111111110000000;
  665 : 1111110010110001;
  666 : 1111110001001110;
  667 : 1111101101111111;
  668 : 1111110111000001;
  669 : 1111110111000110;
  670 : 1111111110101001;
  671 : 1111111111100101;
  672 : 1111111111111100;
  673 : 1111111111110111;
  674 : 1111111111100000;
  675 : 1111111111001111;
  676 : 1111110111000011;
  677 : 1111110111001001;
  678 : 1111110011100000;
  679 : 1111111001011010;
  680 : 1111110111001010;
  681 : 1111110100010000;
  682 : 1111111111111010;
  683 : 1111111101101111;
  684 : 1111110001111010;
  685 : 1111111111111111;
  686 : 1111110011111011;
  687 : 1111101101100101;
  688 : 1111111110001001;
  689 : 1111110011101000;
  690 : 1111111111001101;
  691 : 1111110000010111;
  692 : 1111111110000101;
  693 : 1111111111111111;
  694 : 1111111110010001;
  695 : 1111111111001001;
  696 : 1111111000011100;
  697 : 1111111011101010;
  698 : 1111111111110101;
  699 : 1111111111101100;
  700 : 1111111111111100;
  701 : 1111111111011011;
  702 : 1111111111111101;
  703 : 1111111111011110;
  704 : 1111110111100100;
  705 : 1111110111111010;
  706 : 1111111011111100;
  707 : 1111111110111101;
  708 : 1111110101111001;
  709 : 1111111010110001;
  710 : 1111110011001111;
  711 : 1111110100001111;
  712 : 1111101111110101;
  713 : 1111111111111011;
  714 : 1111110101101011;
  715 : 1111101110000110;
  716 : 1111111011111100;
  717 : 1111111101000000;
  718 : 1111110000100000;
  719 : 1111111101001010;
  720 : 1111111101000000;
  721 : 1111110000101010;
  722 : 1111111000101110;
  723 : 1111111111011000;
  724 : 1111111111010001;
  725 : 1111111111111010;
  726 : 1111111111111100;
  727 : 1111111111101111;
  728 : 1111111111111011;
  729 : 1111111111101110;
  730 : 1111111111110101;
  731 : 1111111111110010;
  732 : 1111111111111000;
  733 : 1111111000110010;
  734 : 1111111111010001;
  735 : 1111111110111000;
  736 : 1111111100111101;
  737 : 1111111010000110;
  738 : 1111110010000010;
  739 : 1111111101001011;
  740 : 1111110000111011;
  741 : 1111110010011000;
  742 : 1111111001100011;
  743 : 1111111001011001;
  744 : 1111111100000001;
  745 : 1111111011000101;
  746 : 1111111111100100;
  747 : 1111111100001011;
  748 : 1111111011000100;
  749 : 1111111001010110;
  750 : 1111111111000000;
  751 : 1111111111000111;
  752 : 1111111110111100;
  753 : 1111111111111000;
  754 : 1111111111110000;
  755 : 1111111111100110;
  756 : 1111111111110110;
  757 : 1111111111111000;
  758 : 1111111111111000;
  759 : 1111111111110010;
  760 : 1111111111111011;
  761 : 1111111111011110;
  762 : 1111111111111011;
  763 : 1111111111111101;
  764 : 1111111111010011;
  765 : 1111111111000010;
  766 : 1111111100110011;
  767 : 1111111111110011;
  768 : 1111111111100111;
  769 : 1111111111110100;
  770 : 1111111111011000;
  771 : 1111111111001100;
  772 : 1111111110000010;
  773 : 1111111111110100;
  774 : 1111111110010111;
  775 : 1111111111111101;
  776 : 1111111111000110;
  777 : 1111111110010101;
  778 : 1111111111111111;
  779 : 1111111110111111;
  780 : 1111111111110101;
  781 : 1111111111111101;
  782 : 1111111111011011;
  783 : 1111111111101100;
END;
