WIDTH=16;
DEPTH=784;
ADDRESS_RADIX=UNS;
DATA_RADIX=BIN;
CONTENT BEGIN
  0 : 1111111111101000;
  1 : 1111111111111110;
  2 : 1111111111010011;
  3 : 1111111111100111;
  4 : 1111111111101010;
  5 : 1111111111011001;
  6 : 1111111111110110;
  7 : 1111111111111001;
  8 : 0000000000000000;
  9 : 1111111111111101;
  10 : 1111111111110011;
  11 : 1111111111110000;
  12 : 1111111111110010;
  13 : 1111111111001011;
  14 : 1111111111100000;
  15 : 1111111111111111;
  16 : 1111111111111011;
  17 : 1111111111111100;
  18 : 0000000000000000;
  19 : 0000000000000000;
  20 : 1111111111111111;
  21 : 1111111111100010;
  22 : 1111111111111111;
  23 : 1111111111101100;
  24 : 1111111111100000;
  25 : 1111111111111110;
  26 : 1111111111000011;
  27 : 1111111111110000;
  28 : 1111111111111000;
  29 : 1111111111111001;
  30 : 1111111111001110;
  31 : 1111111110111101;
  32 : 1111111111110010;
  33 : 1111111111100001;
  34 : 1111111111101110;
  35 : 1111111111010001;
  36 : 1111111111011111;
  37 : 1111111111100101;
  38 : 1111111111111010;
  39 : 1111111110101011;
  40 : 1111111100000001;
  41 : 1111111111000101;
  42 : 1111111111001111;
  43 : 1111111111100101;
  44 : 1111111111111011;
  45 : 1111111110111010;
  46 : 1111111111111111;
  47 : 1111111111110110;
  48 : 1111111111111001;
  49 : 1111111111111110;
  50 : 1111111111110111;
  51 : 1111111111110101;
  52 : 1111111111101100;
  53 : 1111111111010110;
  54 : 1111111111011100;
  55 : 1111111111010011;
  56 : 1111111111111110;
  57 : 1111111111110110;
  58 : 1111111111111010;
  59 : 1111111111111000;
  60 : 1111111111111111;
  61 : 1111111111111101;
  62 : 1111111111110010;
  63 : 1111111111001111;
  64 : 1111111110010011;
  65 : 1111111111010011;
  66 : 1111111111111001;
  67 : 1111111110100010;
  68 : 1111111101010111;
  69 : 1111111110100011;
  70 : 1111111101101001;
  71 : 1111111101010001;
  72 : 1111111010000000;
  73 : 1111111101010011;
  74 : 1111111001111001;
  75 : 1111111110100000;
  76 : 1111111111011010;
  77 : 1111111111010010;
  78 : 1111111111111101;
  79 : 1111111111110001;
  80 : 1111111110011110;
  81 : 1111111110110111;
  82 : 1111111111111111;
  83 : 1111111111001101;
  84 : 1111111111111111;
  85 : 1111111111110100;
  86 : 1111111111110000;
  87 : 1111111111111000;
  88 : 1111111111110000;
  89 : 1111111110011000;
  90 : 1111111111111101;
  91 : 1111111111101010;
  92 : 1111111111010101;
  93 : 1111111111100101;
  94 : 1111111000110000;
  95 : 1111111101010111;
  96 : 1111111000010011;
  97 : 1111111100001011;
  98 : 1111110100000010;
  99 : 1111111100101100;
  100 : 1111110111110100;
  101 : 1111111111001100;
  102 : 1111111111000010;
  103 : 1111110000100111;
  104 : 1111111101100110;
  105 : 1111111101110110;
  106 : 1111111110111101;
  107 : 1111111111101100;
  108 : 1111111111101001;
  109 : 1111111111111110;
  110 : 1111111111110000;
  111 : 1111111111101011;
  112 : 1111111111111110;
  113 : 1111111111110111;
  114 : 1111111111111101;
  115 : 1111111111110000;
  116 : 1111111111111000;
  117 : 1111111100010000;
  118 : 1111111100000011;
  119 : 1111111111010110;
  120 : 1111100110000110;
  121 : 1111111100010110;
  122 : 1111110101001110;
  123 : 1111111011110011;
  124 : 1111101111001010;
  125 : 1111111000000100;
  126 : 1111111100000011;
  127 : 1111111100111010;
  128 : 1111110101110101;
  129 : 1111100110111101;
  130 : 1111111001101011;
  131 : 1111100110111000;
  132 : 1111111111111000;
  133 : 1111111110001000;
  134 : 1111111011101001;
  135 : 1111111100000001;
  136 : 1111111111110101;
  137 : 0000000000000000;
  138 : 1111111111101010;
  139 : 1111111111101000;
  140 : 1111111111110111;
  141 : 1111111111100010;
  142 : 1111111111110111;
  143 : 1111111100100010;
  144 : 1111110010001011;
  145 : 1111110000001101;
  146 : 1111111000111111;
  147 : 1111100101010010;
  148 : 1111110100110011;
  149 : 1111110110011010;
  150 : 1111111100100010;
  151 : 1111101101100100;
  152 : 1111101100010100;
  153 : 1111111111111000;
  154 : 1111111010010010;
  155 : 1111111100000000;
  156 : 1111111110011110;
  157 : 1111111110101011;
  158 : 1111110101000111;
  159 : 1111100011110110;
  160 : 1111110101100111;
  161 : 1111111100101111;
  162 : 1111110001100001;
  163 : 1111111001100111;
  164 : 1111111111111101;
  165 : 1111111111011100;
  166 : 1111111111010011;
  167 : 1111111111111011;
  168 : 1111111111111010;
  169 : 1111111111111110;
  170 : 1111111111010100;
  171 : 1111111001101100;
  172 : 1111101110001100;
  173 : 1111110001110001;
  174 : 1111011001011110;
  175 : 1111110101100000;
  176 : 1111111000001100;
  177 : 1111111000110011;
  178 : 1111111110011010;
  179 : 1111111100100011;
  180 : 1111111010111010;
  181 : 1111111111001101;
  182 : 1111110011100001;
  183 : 1111111000110011;
  184 : 1111111010001101;
  185 : 1111110101011111;
  186 : 1111111110111110;
  187 : 1111100010011001;
  188 : 1111111001011101;
  189 : 1111110111100100;
  190 : 1111110010111011;
  191 : 1111111010100101;
  192 : 1111111100110101;
  193 : 1111111111111101;
  194 : 1111111111100101;
  195 : 1111111111110101;
  196 : 1111111111101110;
  197 : 1111111111001100;
  198 : 1111111111001111;
  199 : 1111110101000110;
  200 : 1111100100100001;
  201 : 1111111001000010;
  202 : 1111100001011111;
  203 : 1111101000011100;
  204 : 1111110110001100;
  205 : 1111111000001010;
  206 : 1111111000111111;
  207 : 1111110010111111;
  208 : 1111111111101001;
  209 : 1111110110101000;
  210 : 1111111111100100;
  211 : 1111111101000001;
  212 : 1111111110010011;
  213 : 1111111110101100;
  214 : 1111110000110110;
  215 : 1111100001111111;
  216 : 1111100011111100;
  217 : 1111100000101010;
  218 : 1111111000101010;
  219 : 1111110001111001;
  220 : 1111111011011111;
  221 : 1111111100010110;
  222 : 1111111111111110;
  223 : 1111111111111101;
  224 : 1111111111111011;
  225 : 1111111101111111;
  226 : 1111111101110110;
  227 : 1111111010011111;
  228 : 1111101101011100;
  229 : 1111111111101111;
  230 : 1111111000110111;
  231 : 1111111100001000;
  232 : 1111111110000011;
  233 : 1111111101101110;
  234 : 1111101101111101;
  235 : 1111110011000011;
  236 : 1111111111111101;
  237 : 1111110010000001;
  238 : 1111111111000011;
  239 : 1111110011000000;
  240 : 1111110011110011;
  241 : 1111111101110100;
  242 : 1111110111011000;
  243 : 1111110110110001;
  244 : 1111101101011000;
  245 : 1111100001011010;
  246 : 1111100011110010;
  247 : 1111111000111001;
  248 : 1111111111001010;
  249 : 1111111111000010;
  250 : 1111111111010100;
  251 : 1111111111110010;
  252 : 1111111111111101;
  253 : 1111111100111110;
  254 : 1111111101001000;
  255 : 1111111010010010;
  256 : 1111101010001010;
  257 : 1111101001010010;
  258 : 1111111100111001;
  259 : 1111111111111011;
  260 : 1111111010100101;
  261 : 1111111000001100;
  262 : 1111110100101110;
  263 : 1111111001010101;
  264 : 1111110100001010;
  265 : 1111101000011000;
  266 : 1111000011011010;
  267 : 1111001001100110;
  268 : 1111100010101010;
  269 : 1111110111110010;
  270 : 1111110001101100;
  271 : 1111110110111011;
  272 : 1111100110000000;
  273 : 1111111001001110;
  274 : 1111100000010101;
  275 : 1111100001000001;
  276 : 1111111101100001;
  277 : 1111111111111010;
  278 : 1111111001110100;
  279 : 1111111000101011;
  280 : 1111111111101111;
  281 : 1111111101011101;
  282 : 1111111110101011;
  283 : 1111111011010001;
  284 : 1111110000111010;
  285 : 1111100111010111;
  286 : 1111111000011001;
  287 : 1111110111010100;
  288 : 1111101101110101;
  289 : 1111110010100110;
  290 : 1111111110011000;
  291 : 1111101000010101;
  292 : 1111110111110100;
  293 : 1111011100000111;
  294 : 1111010001110110;
  295 : 1111010111110001;
  296 : 1111011100000010;
  297 : 1111111010100111;
  298 : 1111100100001000;
  299 : 1111110010011100;
  300 : 1111111110010110;
  301 : 1111111111110110;
  302 : 1111111111111010;
  303 : 1111111111011101;
  304 : 1111111101011111;
  305 : 1111111100100111;
  306 : 1111111011001011;
  307 : 1111111101110011;
  308 : 1111111111010010;
  309 : 1111111110101011;
  310 : 1111111100011100;
  311 : 1111111001011000;
  312 : 1111100111000011;
  313 : 1111101001000101;
  314 : 1111111101011100;
  315 : 1111111101001101;
  316 : 1111111110000010;
  317 : 1111110000000100;
  318 : 1111110110011100;
  319 : 1111100001011110;
  320 : 1111100111111111;
  321 : 1111101010011001;
  322 : 1111100000110010;
  323 : 1111100010101011;
  324 : 1111101000000110;
  325 : 1111111111110001;
  326 : 1111110001101000;
  327 : 1111111101110010;
  328 : 1111111100111011;
  329 : 1111111001000111;
  330 : 1111110111100111;
  331 : 1111111111101000;
  332 : 1111110111111100;
  333 : 1111111001101100;
  334 : 1111111111011111;
  335 : 1111111111100010;
  336 : 1111111111101101;
  337 : 1111111111001101;
  338 : 1111111011101100;
  339 : 1111110111110001;
  340 : 1111101110110001;
  341 : 1111110110001001;
  342 : 1111111110100000;
  343 : 1111111001111110;
  344 : 1111110111100101;
  345 : 1111101111011010;
  346 : 1111111011000110;
  347 : 1111111101001100;
  348 : 1111111110010101;
  349 : 1111110011111101;
  350 : 1111010010100001;
  351 : 1111101000110011;
  352 : 1111111101110000;
  353 : 1111110010100101;
  354 : 1111111111000101;
  355 : 1111111001110100;
  356 : 1111111001101010;
  357 : 1111111111101001;
  358 : 1111110110101010;
  359 : 1111111110111000;
  360 : 1111111111110000;
  361 : 1111111100110011;
  362 : 1111111111101001;
  363 : 1111111110001110;
  364 : 1111111111111111;
  365 : 1111111111110110;
  366 : 1111111101011101;
  367 : 1111111011101011;
  368 : 1111101001101110;
  369 : 1111111011110000;
  370 : 1111111110010011;
  371 : 1111111011001110;
  372 : 1111110001000111;
  373 : 1111110001011111;
  374 : 1111111000101010;
  375 : 1111101111101101;
  376 : 1111111111110011;
  377 : 1111101101010101;
  378 : 1111100001000000;
  379 : 1111111010111111;
  380 : 1111111010100111;
  381 : 1111110011100110;
  382 : 1111110001011101;
  383 : 1111111000011100;
  384 : 1111111000000111;
  385 : 1111110110011000;
  386 : 1111111110000110;
  387 : 1111111000100001;
  388 : 1111110001001100;
  389 : 1111111000100010;
  390 : 1111111111001010;
  391 : 1111111110100101;
  392 : 1111111111010110;
  393 : 1111111111010111;
  394 : 1111111111000010;
  395 : 1111111111010011;
  396 : 1111111110111001;
  397 : 1111111111000101;
  398 : 1111111100111001;
  399 : 1111100011000110;
  400 : 1111111010101010;
  401 : 1111110101101010;
  402 : 1111110101110110;
  403 : 1111111110110000;
  404 : 1111111111100100;
  405 : 1111111111001000;
  406 : 1111101000110011;
  407 : 1111101110110010;
  408 : 1111111110001101;
  409 : 1111110011001110;
  410 : 1111111111110011;
  411 : 1111010101100010;
  412 : 1111111111111100;
  413 : 1111011101010110;
  414 : 1111111000010100;
  415 : 1111101010010001;
  416 : 1111111111111110;
  417 : 1111111101111001;
  418 : 1111111010111010;
  419 : 1111111111111111;
  420 : 1111111111100111;
  421 : 1111111111010111;
  422 : 1111111110100011;
  423 : 0000000000000000;
  424 : 1111111101010100;
  425 : 1111111101000111;
  426 : 1111111110101010;
  427 : 1111111011100000;
  428 : 1111111111001101;
  429 : 1111111100000110;
  430 : 1111111101111100;
  431 : 1111110001110101;
  432 : 1111111000100111;
  433 : 1111110110000011;
  434 : 1111110001011001;
  435 : 1111111110001001;
  436 : 1111111000111100;
  437 : 1111110111011111;
  438 : 1111111101101100;
  439 : 1111101111101001;
  440 : 1111111100101110;
  441 : 1111110111001001;
  442 : 1111110000101000;
  443 : 1111111010100010;
  444 : 1111111111110101;
  445 : 1111111110001000;
  446 : 1111111110010110;
  447 : 1111111111100000;
  448 : 1111111111110001;
  449 : 1111111111110110;
  450 : 1111111111000000;
  451 : 1111111110101011;
  452 : 1111111011110101;
  453 : 1111111010000110;
  454 : 1111111111101101;
  455 : 1111101101100101;
  456 : 1111110011000010;
  457 : 1111111010110011;
  458 : 1111111010010101;
  459 : 1111111111001110;
  460 : 1111111100101000;
  461 : 1111110100000101;
  462 : 1111110011111001;
  463 : 1111111100100111;
  464 : 1111111001100010;
  465 : 1111111111101000;
  466 : 1111111011110110;
  467 : 1111111110011001;
  468 : 1111110000100100;
  469 : 1111101010111010;
  470 : 1111110101101111;
  471 : 1111111110110011;
  472 : 1111111010001010;
  473 : 1111111100001011;
  474 : 1111111110000010;
  475 : 1111111111111111;
  476 : 1111111111111001;
  477 : 1111111111111111;
  478 : 1111111111110000;
  479 : 1111111111111010;
  480 : 1111111101010000;
  481 : 1111111010000100;
  482 : 1111111101111110;
  483 : 1111111001101000;
  484 : 1111111110010000;
  485 : 1111111100101000;
  486 : 1111111111011010;
  487 : 1111111011101001;
  488 : 1111111111011111;
  489 : 1111110001110110;
  490 : 1111110011110010;
  491 : 1111111111000101;
  492 : 1111111110001100;
  493 : 1111111000111111;
  494 : 1111111011010110;
  495 : 1111110011110001;
  496 : 1111110110111100;
  497 : 1111011110000000;
  498 : 1111101010110101;
  499 : 1111111011010000;
  500 : 1111110100001101;
  501 : 1111111100101110;
  502 : 1111111100100101;
  503 : 1111111110001110;
  504 : 1111111111111000;
  505 : 1111111111011001;
  506 : 1111111111101001;
  507 : 1111111111101010;
  508 : 1111111101100110;
  509 : 1111111111001101;
  510 : 1111111011010101;
  511 : 1111111101011000;
  512 : 1111110110110010;
  513 : 1111111001100010;
  514 : 1111111010111111;
  515 : 1111111110010000;
  516 : 1111111010101001;
  517 : 1111111111111010;
  518 : 1111110010101001;
  519 : 1111110001111001;
  520 : 1111111010110011;
  521 : 1111110110110101;
  522 : 1111111110001011;
  523 : 1111111000000001;
  524 : 1111110101101001;
  525 : 1111101101010010;
  526 : 1111110011010000;
  527 : 1111111010100000;
  528 : 1111110111010001;
  529 : 1111111011001110;
  530 : 1111111101110011;
  531 : 1111111111001001;
  532 : 1111111111010110;
  533 : 1111111111111000;
  534 : 1111111100101111;
  535 : 1111111111111110;
  536 : 1111111101011111;
  537 : 1111111100101111;
  538 : 1111111101001011;
  539 : 1111111110101010;
  540 : 1111111010001100;
  541 : 1111111110011000;
  542 : 1111111100111101;
  543 : 1111111101101100;
  544 : 1111111111110000;
  545 : 1111111111000000;
  546 : 1111111111010000;
  547 : 1111111110100010;
  548 : 1111111011111100;
  549 : 1111111111011110;
  550 : 1111111000101110;
  551 : 1111111011001110;
  552 : 1111111110110111;
  553 : 1111110101100000;
  554 : 1111111111011000;
  555 : 1111111010001010;
  556 : 1111101110100001;
  557 : 1111111011100101;
  558 : 1111111111010111;
  559 : 1111111111100011;
  560 : 1111111111100110;
  561 : 1111111111110001;
  562 : 1111111100100100;
  563 : 1111111001000111;
  564 : 1111111110000101;
  565 : 1111111110001101;
  566 : 1111111110001101;
  567 : 1111110001110110;
  568 : 1111111101101110;
  569 : 1111110011110010;
  570 : 1111111100011011;
  571 : 1111111101001001;
  572 : 1111111110110001;
  573 : 1111111000101001;
  574 : 1111111000011010;
  575 : 1111110011110111;
  576 : 1111111010101110;
  577 : 1111110101001001;
  578 : 1111110110000100;
  579 : 1111111111110011;
  580 : 1111110000110001;
  581 : 1111111111111110;
  582 : 1111111111101111;
  583 : 1111101110001100;
  584 : 1111101110101010;
  585 : 1111111101100010;
  586 : 1111111111111001;
  587 : 1111111110011001;
  588 : 1111111111110001;
  589 : 1111111111100101;
  590 : 1111111111111111;
  591 : 1111111110000101;
  592 : 1111111101111111;
  593 : 1111111010111010;
  594 : 1111110000010110;
  595 : 1111110001110011;
  596 : 1111111001101001;
  597 : 1111111101011100;
  598 : 1111111111100101;
  599 : 1111111111111001;
  600 : 1111111110011111;
  601 : 1111111111100101;
  602 : 1111111011100110;
  603 : 1111111011011110;
  604 : 1111111010000001;
  605 : 1111110011001000;
  606 : 1111111000001000;
  607 : 1111111111001101;
  608 : 1111111101000001;
  609 : 1111110011000111;
  610 : 1111111110010111;
  611 : 1111111000111010;
  612 : 1111111111000110;
  613 : 1111111111100011;
  614 : 1111111111110110;
  615 : 1111111111100011;
  616 : 1111111111111101;
  617 : 1111111111110101;
  618 : 1111111111101011;
  619 : 1111111111000110;
  620 : 1111111001100000;
  621 : 1111111000000101;
  622 : 1111111011001100;
  623 : 1111111100010100;
  624 : 1111111101010000;
  625 : 1111111110010011;
  626 : 1111111011000100;
  627 : 1111111101000000;
  628 : 1111110001100110;
  629 : 1111110000000110;
  630 : 1111111001001101;
  631 : 1111111110011110;
  632 : 1111111101000100;
  633 : 1111110010010010;
  634 : 1111111010111101;
  635 : 1111101110101100;
  636 : 1111111001110111;
  637 : 1111110001000000;
  638 : 1111111111011110;
  639 : 1111111001010111;
  640 : 1111111100000001;
  641 : 1111111111100110;
  642 : 1111111111110100;
  643 : 1111111111011101;
  644 : 1111111111110010;
  645 : 1111111111111011;
  646 : 1111111111100100;
  647 : 1111111111101000;
  648 : 1111111010010000;
  649 : 1111111010101100;
  650 : 1111111100110010;
  651 : 1111111101100111;
  652 : 1111111111110110;
  653 : 1111101111010010;
  654 : 1111111101001010;
  655 : 1111110001101100;
  656 : 1111111010100111;
  657 : 1111111000101011;
  658 : 1111111110100011;
  659 : 1111111000010101;
  660 : 1111110010110000;
  661 : 1111111000001100;
  662 : 1111111110010111;
  663 : 1111111101011010;
  664 : 1111111101000100;
  665 : 1111111110011011;
  666 : 1111111000100101;
  667 : 1111110001001111;
  668 : 1111111111010110;
  669 : 1111111111001011;
  670 : 1111111111111111;
  671 : 1111111111101100;
  672 : 1111111111111010;
  673 : 0000000000000000;
  674 : 1111111111000010;
  675 : 1111111111111000;
  676 : 1111111100100001;
  677 : 1111110101010100;
  678 : 1111110001100000;
  679 : 1111111101010100;
  680 : 1111111101100101;
  681 : 1111111010010111;
  682 : 1111111111001011;
  683 : 1111111010100000;
  684 : 1111110111101001;
  685 : 1111110011000111;
  686 : 1111110000010101;
  687 : 1111111010111101;
  688 : 1111111000110011;
  689 : 1111111011100010;
  690 : 1111111011001011;
  691 : 1111111110100000;
  692 : 1111111111011111;
  693 : 1111111100000010;
  694 : 1111111101101000;
  695 : 1111111100001110;
  696 : 1111111000100011;
  697 : 1111111111111001;
  698 : 1111111111100110;
  699 : 1111111111010001;
  700 : 1111111111000000;
  701 : 1111111111101000;
  702 : 1111111111100001;
  703 : 1111111111100100;
  704 : 1111111100101010;
  705 : 1111111000100111;
  706 : 1111110110101100;
  707 : 1111111000110000;
  708 : 1111110110001001;
  709 : 1111110010010001;
  710 : 1111101110111100;
  711 : 1111111000000001;
  712 : 1111111001110111;
  713 : 1111111111110010;
  714 : 1111111111011001;
  715 : 1111110110101011;
  716 : 1111111000100101;
  717 : 1111111111111011;
  718 : 1111110001101010;
  719 : 1111110011101101;
  720 : 1111111110110000;
  721 : 1111111111110001;
  722 : 1111111111111100;
  723 : 1111111111110110;
  724 : 1111111110111011;
  725 : 1111111111101000;
  726 : 1111111111110001;
  727 : 1111111111110000;
  728 : 1111111111111111;
  729 : 1111111111100110;
  730 : 1111111111100101;
  731 : 1111111111111101;
  732 : 1111111111001001;
  733 : 1111111111101110;
  734 : 1111111111110011;
  735 : 1111111111110101;
  736 : 1111111100100111;
  737 : 1111111100001010;
  738 : 1111110110100101;
  739 : 1111111001011111;
  740 : 1111111001000001;
  741 : 1111111000111001;
  742 : 1111111101001111;
  743 : 1111111100000100;
  744 : 1111111111001101;
  745 : 1111111000000100;
  746 : 1111111111111010;
  747 : 1111111001111001;
  748 : 1111111111001110;
  749 : 1111111100001100;
  750 : 1111111111111101;
  751 : 1111111111110111;
  752 : 1111111111000110;
  753 : 1111111111101001;
  754 : 1111111111101110;
  755 : 1111111111101100;
  756 : 1111111111110111;
  757 : 1111111111101100;
  758 : 1111111111111001;
  759 : 1111111111111110;
  760 : 1111111111111100;
  761 : 1111111111101101;
  762 : 1111111111111000;
  763 : 1111111100000110;
  764 : 1111111110110111;
  765 : 1111111111111001;
  766 : 1111111111110101;
  767 : 1111111111110010;
  768 : 1111111110100000;
  769 : 1111111111011111;
  770 : 1111111111101010;
  771 : 1111111110111101;
  772 : 1111111111011001;
  773 : 1111111110110001;
  774 : 1111111111111111;
  775 : 1111111111011001;
  776 : 1111111111001100;
  777 : 1111111111111010;
  778 : 1111111111110001;
  779 : 1111111111111100;
  780 : 1111111111111011;
  781 : 1111111111101011;
  782 : 1111111111111100;
  783 : 1111111111110011;
END;
