WIDTH=16;
DEPTH=784;
ADDRESS_RADIX=UNS;
DATA_RADIX=BIN;
CONTENT BEGIN
  0 : 1111111111101001;
  1 : 1111111111111101;
  2 : 1111111111101111;
  3 : 1111111111110101;
  4 : 1111111111110111;
  5 : 1111111110101110;
  6 : 1111111111110101;
  7 : 1111111111111110;
  8 : 1111111111100111;
  9 : 1111111111111111;
  10 : 1111111111000100;
  11 : 1111111111111101;
  12 : 1111111111010101;
  13 : 1111111111111000;
  14 : 1111111111110011;
  15 : 1111111111111101;
  16 : 1111111111100100;
  17 : 1111111111011110;
  18 : 1111111111000010;
  19 : 1111111111111101;
  20 : 1111111111111010;
  21 : 0000000000000000;
  22 : 1111111111101101;
  23 : 1111111111110111;
  24 : 1111111111101000;
  25 : 1111111111101111;
  26 : 1111111111111111;
  27 : 1111111111110010;
  28 : 1111111111101101;
  29 : 1111111111100101;
  30 : 1111111111111000;
  31 : 1111111111101010;
  32 : 1111111111010011;
  33 : 1111111111110101;
  34 : 1111111111111111;
  35 : 1111111111111111;
  36 : 1111111111111111;
  37 : 1111111111110000;
  38 : 1111111111111100;
  39 : 1111111111000000;
  40 : 1111111111110100;
  41 : 1111111111101110;
  42 : 1111111111101100;
  43 : 1111111111010010;
  44 : 1111111110010111;
  45 : 1111111111101110;
  46 : 1111111111101000;
  47 : 1111111111011101;
  48 : 1111111111111001;
  49 : 1111111111011101;
  50 : 1111111111110010;
  51 : 1111111111110101;
  52 : 1111111111111110;
  53 : 1111111111100011;
  54 : 1111111111111111;
  55 : 1111111111111101;
  56 : 0000000000000000;
  57 : 1111111111001110;
  58 : 1111111111111111;
  59 : 1111111111111110;
  60 : 1111111111100001;
  61 : 1111111111110100;
  62 : 1111111111110010;
  63 : 1111111111010001;
  64 : 1111111110001000;
  65 : 1111111111101001;
  66 : 1111111111110010;
  67 : 1111111111000001;
  68 : 1111111110110011;
  69 : 1111111111110011;
  70 : 1111111111000011;
  71 : 1111111111111010;
  72 : 1111111100111001;
  73 : 1111111111101000;
  74 : 1111111111111100;
  75 : 1111111111010100;
  76 : 1111111111111111;
  77 : 1111111111100001;
  78 : 1111111111101011;
  79 : 1111111111111100;
  80 : 1111111111110000;
  81 : 1111111111111011;
  82 : 1111111111110111;
  83 : 1111111111111110;
  84 : 1111111111011110;
  85 : 1111111111010001;
  86 : 1111111111111110;
  87 : 1111111111110001;
  88 : 1111111111101000;
  89 : 1111111111110000;
  90 : 1111111111101111;
  91 : 1111111111011111;
  92 : 1111111111111111;
  93 : 1111111111100010;
  94 : 1111111111110111;
  95 : 1111111111010110;
  96 : 1111101000111100;
  97 : 1111100101001101;
  98 : 1111101110110011;
  99 : 1111101100110110;
  100 : 1111110000101101;
  101 : 1111111000010011;
  102 : 1111111001000010;
  103 : 1111110110100101;
  104 : 1111111010011110;
  105 : 1111111111100000;
  106 : 1111111110101001;
  107 : 1111111111111100;
  108 : 1111111111100111;
  109 : 1111111111001001;
  110 : 1111111111111000;
  111 : 1111111111100101;
  112 : 1111111111000101;
  113 : 1111111111101011;
  114 : 1111111111110100;
  115 : 1111111111111100;
  116 : 1111111111111001;
  117 : 1111111110000100;
  118 : 1111111100101011;
  119 : 1111110111100101;
  120 : 1111110100101001;
  121 : 1111111000011110;
  122 : 1111111000001110;
  123 : 1111110101110011;
  124 : 1111110110011001;
  125 : 1111110101010110;
  126 : 1111111110101001;
  127 : 1111111010101100;
  128 : 1111111010110010;
  129 : 1111111011000100;
  130 : 1111111000100101;
  131 : 1111111111111101;
  132 : 1111111101011000;
  133 : 1111111101001100;
  134 : 1111111000000111;
  135 : 1111111111111001;
  136 : 1111111101101010;
  137 : 1111111101010000;
  138 : 1111111110011111;
  139 : 1111111111111010;
  140 : 1111111111110101;
  141 : 1111111111100011;
  142 : 1111111111110011;
  143 : 1111111111011000;
  144 : 1111111111111011;
  145 : 1111111000000110;
  146 : 1111111000000110;
  147 : 1111111010110111;
  148 : 1111111001001011;
  149 : 1111111011011101;
  150 : 1111111001111100;
  151 : 1111111110101000;
  152 : 1111110000010001;
  153 : 1111110101101100;
  154 : 1111111100010001;
  155 : 1111111110101010;
  156 : 1111111000101001;
  157 : 1111111001111001;
  158 : 1111111111100110;
  159 : 1111111111110100;
  160 : 1111110001111011;
  161 : 1111111101011000;
  162 : 1111111000010000;
  163 : 1111111111010100;
  164 : 1111111011110110;
  165 : 1111111100101001;
  166 : 1111111111111100;
  167 : 1111111111110101;
  168 : 1111111111011111;
  169 : 1111111111010010;
  170 : 1111111111001011;
  171 : 1111111110110011;
  172 : 1111111111110001;
  173 : 1111110100010011;
  174 : 1111111101010001;
  175 : 1111111111000110;
  176 : 0000000000000000;
  177 : 1111111011100100;
  178 : 1111111101001000;
  179 : 1111111100010011;
  180 : 1111111111110101;
  181 : 1111111100000101;
  182 : 1111111111100011;
  183 : 1111110011001110;
  184 : 1111110110011000;
  185 : 1111110001101011;
  186 : 1111111110010100;
  187 : 1111110110101000;
  188 : 1111111010011000;
  189 : 1111110001110011;
  190 : 1111110110010010;
  191 : 1111111101010010;
  192 : 1111100111110000;
  193 : 1111101101101110;
  194 : 1111111100110010;
  195 : 1111111111100001;
  196 : 1111111111100011;
  197 : 1111111111111000;
  198 : 1111111111011100;
  199 : 1111111011110011;
  200 : 1111111110101011;
  201 : 1111111101000100;
  202 : 1111110011100010;
  203 : 1111110001011111;
  204 : 1111111111011111;
  205 : 1111111110111110;
  206 : 1111111110101111;
  207 : 1111110011011001;
  208 : 1111110100101000;
  209 : 1111111110110001;
  210 : 1111101111010100;
  211 : 1111111100101101;
  212 : 1111111101101111;
  213 : 1111111111100000;
  214 : 1111110001111001;
  215 : 1111111010001101;
  216 : 1111101011000110;
  217 : 1111111110100110;
  218 : 1111111011100110;
  219 : 1111111110010111;
  220 : 1111011011110000;
  221 : 1111101110001010;
  222 : 1111111010001100;
  223 : 1111111111010000;
  224 : 1111111110101100;
  225 : 1111111111000100;
  226 : 1111111111111110;
  227 : 1111111101001110;
  228 : 1111111110011110;
  229 : 1111111100000101;
  230 : 1111111100110010;
  231 : 1111111111000000;
  232 : 1111111110110011;
  233 : 1111111111111111;
  234 : 1111111100010001;
  235 : 1111111111001111;
  236 : 1111111101100101;
  237 : 1111111011100101;
  238 : 1111111111010000;
  239 : 1111111000010001;
  240 : 1111111111101000;
  241 : 1111111010111011;
  242 : 1111111111011010;
  243 : 1111111110101101;
  244 : 1111111011010110;
  245 : 1111111110010111;
  246 : 1111111110110011;
  247 : 1111110110101100;
  248 : 1111100010101101;
  249 : 1111110010100011;
  250 : 1111111011100000;
  251 : 1111111111100111;
  252 : 1111111111111111;
  253 : 1111111110101101;
  254 : 1111111111100101;
  255 : 1111111111101110;
  256 : 1111110111100011;
  257 : 1111111111111111;
  258 : 1111111100111100;
  259 : 1111111111110011;
  260 : 1111111111001010;
  261 : 1111111111100000;
  262 : 1111111001000010;
  263 : 1111110010101000;
  264 : 1111110000110100;
  265 : 1111101000100011;
  266 : 1111111000011111;
  267 : 1111110010010011;
  268 : 1111101011010000;
  269 : 1111111111010110;
  270 : 1111111101010011;
  271 : 1111111110000011;
  272 : 1111111011010101;
  273 : 1111110010000011;
  274 : 1111111111100011;
  275 : 1111111111100111;
  276 : 1111101100101001;
  277 : 1111110010111001;
  278 : 1111111111011101;
  279 : 1111111111110110;
  280 : 1111111111111010;
  281 : 1111111111010010;
  282 : 1111111111111101;
  283 : 1111111101110000;
  284 : 1111111100111110;
  285 : 1111111110000000;
  286 : 1111111111110000;
  287 : 1111111110101000;
  288 : 1111111110110111;
  289 : 1111111110001011;
  290 : 1111110100011010;
  291 : 1111111111000100;
  292 : 1111111011001001;
  293 : 1111101101001111;
  294 : 1111110000010001;
  295 : 1111110011000110;
  296 : 1111111000110010;
  297 : 1111111111011111;
  298 : 1111111110110101;
  299 : 1111111011011100;
  300 : 1111111011010111;
  301 : 1111111100101000;
  302 : 1111111110001110;
  303 : 1111111011011010;
  304 : 1111110010110001;
  305 : 1111110001111001;
  306 : 1111111101110100;
  307 : 1111111111111000;
  308 : 1111111111101000;
  309 : 1111111111000000;
  310 : 1111111100111111;
  311 : 1111111111011111;
  312 : 1111111111010111;
  313 : 1111111010101000;
  314 : 1111110110110101;
  315 : 1111111001010011;
  316 : 1111111111000111;
  317 : 1111111000101111;
  318 : 1111111011101001;
  319 : 1111111010001011;
  320 : 1111111000010011;
  321 : 1111111001000000;
  322 : 1111111001010001;
  323 : 1111110001111010;
  324 : 1111111011110001;
  325 : 1111110000100011;
  326 : 1111100111101001;
  327 : 1111111111100011;
  328 : 1111110001001110;
  329 : 1111110010011101;
  330 : 1111111110110110;
  331 : 1111111011001111;
  332 : 1111111110110100;
  333 : 1111110100010101;
  334 : 1111111101000001;
  335 : 1111111111110010;
  336 : 1111111111110001;
  337 : 0000000000000000;
  338 : 1111111110100011;
  339 : 1111111111110010;
  340 : 1111111110001011;
  341 : 1111111111110001;
  342 : 1111110100111001;
  343 : 1111111110001011;
  344 : 1111111100011001;
  345 : 1111111110111011;
  346 : 1111100010101100;
  347 : 1111110000110110;
  348 : 1111111100100110;
  349 : 1111111110011010;
  350 : 1111111101111101;
  351 : 1111100100111001;
  352 : 1111110011010111;
  353 : 1111111001110011;
  354 : 1111110101111010;
  355 : 1111111111110100;
  356 : 1111111111000111;
  357 : 1111111100101101;
  358 : 1111111100001000;
  359 : 1111111001111110;
  360 : 1111111010011110;
  361 : 1111111110010110;
  362 : 1111111111111111;
  363 : 1111111111110100;
  364 : 1111111111111001;
  365 : 1111111111110011;
  366 : 1111111110111001;
  367 : 1111111111100000;
  368 : 1111111110101001;
  369 : 1111111010001111;
  370 : 1111110001001000;
  371 : 1111111001000110;
  372 : 1111111110000110;
  373 : 1111111010110100;
  374 : 1111101000001111;
  375 : 1111111110110011;
  376 : 1111110010101000;
  377 : 1111111101101010;
  378 : 1111111110101101;
  379 : 1111100101101100;
  380 : 1111111111010101;
  381 : 1111111011100001;
  382 : 1111110010001011;
  383 : 1111111100110111;
  384 : 1111110111101011;
  385 : 1111111001011101;
  386 : 1111111110110100;
  387 : 1111111111001111;
  388 : 1111111010100001;
  389 : 1111111111101001;
  390 : 1111111111101001;
  391 : 1111111111111100;
  392 : 1111111111110000;
  393 : 1111111111011101;
  394 : 1111111110111000;
  395 : 1111111110101110;
  396 : 1111111110010101;
  397 : 1111111111111111;
  398 : 1111110010000010;
  399 : 1111110110000110;
  400 : 1111111010100000;
  401 : 1111101110001010;
  402 : 1111111110100111;
  403 : 1111110011000011;
  404 : 1111110100110000;
  405 : 1111111100011110;
  406 : 1111110111110000;
  407 : 1111111111110101;
  408 : 1111110010001001;
  409 : 1111111010111100;
  410 : 1111111001101101;
  411 : 1111111000001001;
  412 : 1111111101101010;
  413 : 1111110010011110;
  414 : 1111110010111010;
  415 : 1111101000110110;
  416 : 1111110101101011;
  417 : 1111111101101010;
  418 : 1111111111100101;
  419 : 1111111111101001;
  420 : 1111111111110111;
  421 : 1111111110011100;
  422 : 1111111111011101;
  423 : 1111111111110011;
  424 : 1111111101111111;
  425 : 1111111011111000;
  426 : 1111110100100011;
  427 : 1111111011101101;
  428 : 1111110110111001;
  429 : 1111110110111101;
  430 : 1111111101101000;
  431 : 1111111010010001;
  432 : 1111111000111100;
  433 : 1111110010101110;
  434 : 1111111110010110;
  435 : 1111110001001110;
  436 : 1111110111101010;
  437 : 1111100010000000;
  438 : 1111111101001000;
  439 : 1111110111001000;
  440 : 1111101101010011;
  441 : 1111101011011000;
  442 : 1111111001110010;
  443 : 1111101110011111;
  444 : 1111110110000010;
  445 : 1111111111000111;
  446 : 1111111111011101;
  447 : 1111111111111101;
  448 : 1111111111111111;
  449 : 1111111111011101;
  450 : 1111111110000010;
  451 : 1111111111101000;
  452 : 1111111101000110;
  453 : 1111111110101011;
  454 : 1111111001010110;
  455 : 1111111101111011;
  456 : 1111100001001111;
  457 : 1111111011011001;
  458 : 1111110101000111;
  459 : 1111111110000010;
  460 : 1111111010100010;
  461 : 1111111111011001;
  462 : 1111111010111111;
  463 : 1111110111101101;
  464 : 1111110110100111;
  465 : 1111111111011000;
  466 : 1111110000100001;
  467 : 1111101111100000;
  468 : 1111100100011001;
  469 : 1111011010001001;
  470 : 1111101001111110;
  471 : 1111111010111110;
  472 : 1111111011001111;
  473 : 1111111111100001;
  474 : 1111111111111001;
  475 : 1111111111111110;
  476 : 1111111111110000;
  477 : 1111111111111111;
  478 : 1111111110010101;
  479 : 1111111010101001;
  480 : 1111111000000101;
  481 : 1111111110000001;
  482 : 1111110010100001;
  483 : 1111111111010001;
  484 : 1111110010100101;
  485 : 1111100010000011;
  486 : 1111100010110001;
  487 : 1111111011001000;
  488 : 1111111001011111;
  489 : 1111101011000010;
  490 : 1111111110011001;
  491 : 1111110100011000;
  492 : 1111110001010011;
  493 : 1111110011111111;
  494 : 1111011100111100;
  495 : 1111011100010000;
  496 : 1111100111100100;
  497 : 1111100101110110;
  498 : 1111110100101101;
  499 : 1111111000100111;
  500 : 1111111101000111;
  501 : 1111111111101110;
  502 : 1111111111111111;
  503 : 1111111111101101;
  504 : 1111111111100011;
  505 : 1111111111111110;
  506 : 1111111101101100;
  507 : 1111111011110111;
  508 : 1111110101100011;
  509 : 1111111100100000;
  510 : 1111110011001010;
  511 : 1111111000010011;
  512 : 1111111000101001;
  513 : 1111100101011110;
  514 : 1111101000100011;
  515 : 1111111001101100;
  516 : 1111001010010110;
  517 : 1111111010101100;
  518 : 1111111101101001;
  519 : 1111111101011011;
  520 : 1111100011100011;
  521 : 1111100111000101;
  522 : 1111011010000011;
  523 : 1111011100111001;
  524 : 1111101010100011;
  525 : 1111100111111001;
  526 : 1111110001111000;
  527 : 1111111100110111;
  528 : 1111111100011000;
  529 : 1111111111111111;
  530 : 1111111111101101;
  531 : 1111111110111010;
  532 : 1111111111111111;
  533 : 1111111111110111;
  534 : 1111111111000001;
  535 : 1111111101000110;
  536 : 1111111100100001;
  537 : 1111111110011000;
  538 : 1111110011000111;
  539 : 1111111111111111;
  540 : 1111111010101010;
  541 : 1111111110011111;
  542 : 1111111010000110;
  543 : 1111110001101010;
  544 : 1111111010101010;
  545 : 1111110100011111;
  546 : 1111100101100001;
  547 : 1111100011000011;
  548 : 1111100001100011;
  549 : 1111101101011001;
  550 : 1111100110110000;
  551 : 1111110011111110;
  552 : 1111111000010101;
  553 : 1111111111100000;
  554 : 1111111100001111;
  555 : 1111111111010110;
  556 : 1111111110000011;
  557 : 1111111101011110;
  558 : 1111111111111001;
  559 : 1111111111111010;
  560 : 1111111111101111;
  561 : 1111111111001100;
  562 : 1111111111111101;
  563 : 1111111001111010;
  564 : 1111111111101010;
  565 : 1111111111110001;
  566 : 1111110000011111;
  567 : 1111111110101010;
  568 : 1111111110110110;
  569 : 1111110111110111;
  570 : 1111101101101011;
  571 : 1111101110110010;
  572 : 1111110010100100;
  573 : 1111011110111101;
  574 : 1111011110010011;
  575 : 1111100110011010;
  576 : 1111011111011110;
  577 : 1111100001101101;
  578 : 1111111010110101;
  579 : 1111111010110111;
  580 : 1111111110101101;
  581 : 1111111111111001;
  582 : 1111101011111010;
  583 : 1111111111010101;
  584 : 1111111110110011;
  585 : 1111111111100011;
  586 : 1111111111111111;
  587 : 1111111111111110;
  588 : 1111111111001110;
  589 : 1111111111111110;
  590 : 1111111111111011;
  591 : 1111111001111010;
  592 : 1111110011101001;
  593 : 1111111010110011;
  594 : 1111111111111110;
  595 : 1111111001111110;
  596 : 1111101110010000;
  597 : 1111110101000101;
  598 : 1111101110101101;
  599 : 1111100000001011;
  600 : 1111100011111011;
  601 : 1111101100101000;
  602 : 1111101110110000;
  603 : 1111101000111110;
  604 : 1111111110011000;
  605 : 1111111110010001;
  606 : 1111110001110101;
  607 : 1111111011110011;
  608 : 1111100111010110;
  609 : 1111110100001101;
  610 : 1111110001110100;
  611 : 1111111110111111;
  612 : 1111111110000011;
  613 : 1111111111100010;
  614 : 1111111111111010;
  615 : 1111111111111001;
  616 : 1111111111110010;
  617 : 1111111111101011;
  618 : 1111111111110111;
  619 : 1111111010111111;
  620 : 1111110111111000;
  621 : 1111110100000101;
  622 : 1111110011000110;
  623 : 1111111110111001;
  624 : 1111111001000101;
  625 : 1111111101101111;
  626 : 1111111001001101;
  627 : 1111111001101100;
  628 : 1111011110100111;
  629 : 1111110100010111;
  630 : 1111111111100000;
  631 : 1111101100111111;
  632 : 1111110000010011;
  633 : 1111101011011111;
  634 : 1111111001111111;
  635 : 1111111100001001;
  636 : 1111111100101010;
  637 : 1111111111010011;
  638 : 1111111101100001;
  639 : 1111111111000110;
  640 : 1111111111011101;
  641 : 1111111111101001;
  642 : 1111111111111100;
  643 : 1111111111111011;
  644 : 1111111111110111;
  645 : 1111111111111111;
  646 : 1111111111110110;
  647 : 1111111101000100;
  648 : 1111110100000110;
  649 : 1111110010011101;
  650 : 1111110010001111;
  651 : 1111111110010101;
  652 : 1111111110001001;
  653 : 1111110010110001;
  654 : 1111011100010111;
  655 : 1111011010011100;
  656 : 1111111101110110;
  657 : 1111111111100100;
  658 : 1111110100001010;
  659 : 1111101110011111;
  660 : 1111111000100001;
  661 : 1111111011101010;
  662 : 1111110001111000;
  663 : 1111110010010001;
  664 : 1111111011100010;
  665 : 1111111100100110;
  666 : 1111111001100101;
  667 : 1111111101111000;
  668 : 1111111100010100;
  669 : 1111111111011110;
  670 : 1111111111110100;
  671 : 1111111111111110;
  672 : 1111111111110110;
  673 : 1111111111110011;
  674 : 1111111111111110;
  675 : 1111111101101111;
  676 : 1111111100011101;
  677 : 1111111100101011;
  678 : 1111111000101001;
  679 : 1111011111100011;
  680 : 1111100011111011;
  681 : 1111100010101100;
  682 : 1111100111110111;
  683 : 1111100101110101;
  684 : 1111111111101111;
  685 : 1111111100001101;
  686 : 1111110001101010;
  687 : 1111100000101110;
  688 : 1111111001000011;
  689 : 1111101100000010;
  690 : 1111111111110001;
  691 : 1111111011111001;
  692 : 1111110000100001;
  693 : 1111111101101100;
  694 : 1111111111100100;
  695 : 1111111111001001;
  696 : 1111111110100011;
  697 : 1111111110100001;
  698 : 1111111111011101;
  699 : 1111111111111000;
  700 : 1111111111000111;
  701 : 1111111111110100;
  702 : 1111111111111100;
  703 : 1111111110110001;
  704 : 1111111111001111;
  705 : 1111111111110001;
  706 : 1111111110001010;
  707 : 1111111010010101;
  708 : 1111110010110001;
  709 : 1111101001011001;
  710 : 1111110101010101;
  711 : 1111101001000111;
  712 : 1111100100101010;
  713 : 1111100000010111;
  714 : 1111110101111001;
  715 : 1111111010000111;
  716 : 1111111110011110;
  717 : 1111111111110111;
  718 : 0000000000000000;
  719 : 1111111101110011;
  720 : 1111111110000110;
  721 : 1111111010010011;
  722 : 1111111000100001;
  723 : 1111111101101111;
  724 : 1111111111111010;
  725 : 1111111111011100;
  726 : 1111111111001100;
  727 : 1111111111111000;
  728 : 1111111111110010;
  729 : 1111111111111101;
  730 : 1111111111111101;
  731 : 1111111111111010;
  732 : 1111111111111010;
  733 : 1111111111011010;
  734 : 1111111111111111;
  735 : 1111111111111100;
  736 : 1111111111110110;
  737 : 1111111010100001;
  738 : 1111110011111001;
  739 : 1111101111110011;
  740 : 1111111001010110;
  741 : 1111110111011101;
  742 : 1111111101111111;
  743 : 1111111101011111;
  744 : 1111110011000100;
  745 : 1111111110010110;
  746 : 1111111101100011;
  747 : 1111111010000110;
  748 : 1111111011110001;
  749 : 1111111010010010;
  750 : 1111111011111111;
  751 : 1111111111001001;
  752 : 1111111111111111;
  753 : 1111111111010011;
  754 : 1111111110111011;
  755 : 1111111111100100;
  756 : 1111111111110011;
  757 : 1111111111111100;
  758 : 1111111111111111;
  759 : 1111111111101001;
  760 : 1111111111011111;
  761 : 1111111111111001;
  762 : 1111111111100010;
  763 : 1111111111101110;
  764 : 1111111111110010;
  765 : 1111111111111011;
  766 : 1111111111110010;
  767 : 1111111111111111;
  768 : 1111111111111101;
  769 : 1111111111001001;
  770 : 1111111111001100;
  771 : 1111111100100001;
  772 : 1111111110001001;
  773 : 1111111111111110;
  774 : 1111111111011001;
  775 : 1111111111100010;
  776 : 1111111111111100;
  777 : 1111111110110011;
  778 : 1111111101100001;
  779 : 1111111111111111;
  780 : 1111111111001100;
  781 : 1111111111101111;
  782 : 1111111111101111;
  783 : 1111111111111101;
END;
