WIDTH=16;
DEPTH=784;
ADDRESS_RADIX=UNS;
DATA_RADIX=BIN;
CONTENT BEGIN
  0 : 1111111111111100;
  1 : 1111111111110111;
  2 : 1111111111010000;
  3 : 1111111111001100;
  4 : 1111111111100101;
  5 : 1111111111101000;
  6 : 1111111111011001;
  7 : 1111111111110011;
  8 : 1111111111011111;
  9 : 1111111111100011;
  10 : 1111111110110110;
  11 : 1111111110110111;
  12 : 1111111111111101;
  13 : 1111111111101010;
  14 : 1111111111100110;
  15 : 1111111111111110;
  16 : 1111111111111000;
  17 : 1111111111110010;
  18 : 1111111111010010;
  19 : 1111111111011000;
  20 : 1111111110110100;
  21 : 1111111111110100;
  22 : 1111111111111100;
  23 : 1111111111010111;
  24 : 1111111111100011;
  25 : 1111111111110011;
  26 : 1111111111000000;
  27 : 1111111111111110;
  28 : 1111111111101000;
  29 : 1111111111001000;
  30 : 1111111111111000;
  31 : 1111111111100010;
  32 : 1111111111111000;
  33 : 1111111111101101;
  34 : 1111111111111111;
  35 : 1111111111011001;
  36 : 1111111110101100;
  37 : 1111111111011000;
  38 : 1111111111100001;
  39 : 1111111111011001;
  40 : 1111111110110011;
  41 : 1111111110110011;
  42 : 1111111111111110;
  43 : 1111111111111011;
  44 : 1111111111111011;
  45 : 1111111110111100;
  46 : 1111111111111000;
  47 : 1111111111111101;
  48 : 1111111111011101;
  49 : 1111111111111100;
  50 : 1111111111011000;
  51 : 1111111111110011;
  52 : 1111111111100011;
  53 : 1111111111111110;
  54 : 1111111111111110;
  55 : 1111111111101110;
  56 : 1111111111110000;
  57 : 1111111111000110;
  58 : 1111111111111011;
  59 : 1111111111101011;
  60 : 1111111111111100;
  61 : 1111111111001000;
  62 : 1111111111010000;
  63 : 1111111101110110;
  64 : 1111111110001111;
  65 : 1111111100001110;
  66 : 1111111001101111;
  67 : 1111111011101011;
  68 : 1111111000111011;
  69 : 1111110111100101;
  70 : 1111111001000101;
  71 : 1111111111100001;
  72 : 1111111111111100;
  73 : 1111111011000110;
  74 : 1111111010110110;
  75 : 1111111001101110;
  76 : 1111111100001101;
  77 : 1111111101100010;
  78 : 1111111110011111;
  79 : 1111111110111001;
  80 : 1111111111011011;
  81 : 1111111111001110;
  82 : 1111111111101111;
  83 : 1111111111111010;
  84 : 1111111111100100;
  85 : 1111111111000000;
  86 : 1111111111101111;
  87 : 1111111111100100;
  88 : 1111111111110111;
  89 : 1111111111101111;
  90 : 1111111110111001;
  91 : 1111111100000111;
  92 : 1111110101111000;
  93 : 1111101110101111;
  94 : 1111101111110100;
  95 : 1111101111010011;
  96 : 1111110101000011;
  97 : 1111110011011011;
  98 : 1111110010110011;
  99 : 1111111101101010;
  100 : 1111111100010010;
  101 : 1111111111111000;
  102 : 1111111111101110;
  103 : 1111111010101110;
  104 : 1111111111111000;
  105 : 1111111011100111;
  106 : 1111111010101100;
  107 : 1111111100010011;
  108 : 1111111101011101;
  109 : 1111111101011110;
  110 : 1111111101010110;
  111 : 1111111111111110;
  112 : 1111111111100110;
  113 : 1111111111110010;
  114 : 1111111111101110;
  115 : 1111111111111011;
  116 : 1111111111111011;
  117 : 1111111111111111;
  118 : 1111111011111000;
  119 : 1111110010100100;
  120 : 1111110010000011;
  121 : 1111101000100010;
  122 : 1111101100110110;
  123 : 1111111000010100;
  124 : 1111110100111010;
  125 : 1111111010011010;
  126 : 1111110010110011;
  127 : 1111111111111100;
  128 : 1111111000010011;
  129 : 1111110000100110;
  130 : 1111111011001001;
  131 : 1111111000100101;
  132 : 1111111111010000;
  133 : 1111111111000010;
  134 : 1111111111010000;
  135 : 1111110011001001;
  136 : 1111110110000110;
  137 : 1111111010110101;
  138 : 1111111111100101;
  139 : 1111111111101100;
  140 : 1111111111111110;
  141 : 1111111111110101;
  142 : 1111111111101101;
  143 : 1111111111100010;
  144 : 1111111100100110;
  145 : 1111111100111000;
  146 : 1111111111110001;
  147 : 1111111100111101;
  148 : 1111110110001111;
  149 : 1111111010010101;
  150 : 1111111011001100;
  151 : 1111101110100111;
  152 : 1111111000111000;
  153 : 1111110000110011;
  154 : 1111110100011010;
  155 : 1111110010001000;
  156 : 1111110100001101;
  157 : 1111101011011110;
  158 : 1111101101101011;
  159 : 1111111111001010;
  160 : 1111110110101011;
  161 : 1111101110011101;
  162 : 1111110111011010;
  163 : 1111110000011110;
  164 : 1111110110111110;
  165 : 1111111001100000;
  166 : 1111111110010000;
  167 : 1111111111100100;
  168 : 1111111111110110;
  169 : 1111111111110000;
  170 : 1111111111011001;
  171 : 1111111111111010;
  172 : 1111111101110010;
  173 : 1111111111101101;
  174 : 1111110000010101;
  175 : 1111111010010010;
  176 : 1111111101011001;
  177 : 1111111010001100;
  178 : 1111111011000101;
  179 : 1111111101110001;
  180 : 1111111101101001;
  181 : 1111111111111010;
  182 : 1111111110111000;
  183 : 1111110111110111;
  184 : 1111111110001000;
  185 : 1111111100010001;
  186 : 1111111111110001;
  187 : 1111110111010000;
  188 : 1111111110001110;
  189 : 1111111110110011;
  190 : 1111111110100001;
  191 : 1111111110010000;
  192 : 1111111001101001;
  193 : 1111111100111001;
  194 : 1111111110110001;
  195 : 1111111110010101;
  196 : 1111111111111101;
  197 : 1111111111111111;
  198 : 1111111110001001;
  199 : 1111111110001111;
  200 : 1111111100000110;
  201 : 1111110011101111;
  202 : 1111111111001010;
  203 : 1111111110000101;
  204 : 1111111100100111;
  205 : 1111111111100111;
  206 : 1111111011111000;
  207 : 1111111100010010;
  208 : 1111110111110001;
  209 : 1111111111110110;
  210 : 1111111110100111;
  211 : 1111110111101011;
  212 : 1111111111000011;
  213 : 1111111011110100;
  214 : 1111111110011110;
  215 : 1111100000011000;
  216 : 1111111000100111;
  217 : 1111111000100111;
  218 : 1111111101100010;
  219 : 1111111111111011;
  220 : 1111111000001000;
  221 : 1111110101110000;
  222 : 1111111111111000;
  223 : 1111111110110110;
  224 : 1111111111110011;
  225 : 1111111111011011;
  226 : 1111111111110000;
  227 : 1111111100110101;
  228 : 1111110011001111;
  229 : 1111110011101011;
  230 : 1111111100001110;
  231 : 1111111111001000;
  232 : 1111111111100111;
  233 : 1111111111001010;
  234 : 1111111011110010;
  235 : 1111111000010000;
  236 : 1111101110010111;
  237 : 1111110010001111;
  238 : 1111110000000110;
  239 : 1111100000110111;
  240 : 1111111100101101;
  241 : 1111111101101100;
  242 : 1111110110111101;
  243 : 1111111101110101;
  244 : 1111111100000000;
  245 : 1111111111000111;
  246 : 1111111110010000;
  247 : 1111111000001000;
  248 : 1111110110100001;
  249 : 1111111011101000;
  250 : 1111111111000000;
  251 : 1111111111111000;
  252 : 1111111111110011;
  253 : 1111111111110000;
  254 : 1111111111111100;
  255 : 1111111111010001;
  256 : 1111111100000111;
  257 : 1111111100110010;
  258 : 1111111111011111;
  259 : 0000000000000000;
  260 : 1111111110001111;
  261 : 1111111111110110;
  262 : 1111110111001100;
  263 : 1111110111101100;
  264 : 1111110001111001;
  265 : 1111111000111010;
  266 : 1111111101100110;
  267 : 1111111001011111;
  268 : 1111110001100110;
  269 : 1111111110010101;
  270 : 1111111100110000;
  271 : 1111111100001011;
  272 : 1111111101110100;
  273 : 1111111000000001;
  274 : 1111111000110001;
  275 : 1111111110000110;
  276 : 1111110110010011;
  277 : 1111111000000100;
  278 : 1111111111110111;
  279 : 1111111100111100;
  280 : 1111111111101100;
  281 : 1111111111011111;
  282 : 1111111111001110;
  283 : 1111111101011000;
  284 : 1111111001010011;
  285 : 1111101110011001;
  286 : 1111110010110001;
  287 : 1111111101000010;
  288 : 1111111110011101;
  289 : 1111111010011101;
  290 : 1111111110111011;
  291 : 1111111100010010;
  292 : 1111111111111000;
  293 : 1111110111001110;
  294 : 1111101001100110;
  295 : 1111110101010010;
  296 : 1111111111011000;
  297 : 1111111111011000;
  298 : 1111110100101100;
  299 : 1111111011100000;
  300 : 1111111111000011;
  301 : 1111111001010001;
  302 : 1111111111011010;
  303 : 1111111111110100;
  304 : 1111110101101010;
  305 : 1111111110101010;
  306 : 1111111110011100;
  307 : 1111111111111111;
  308 : 1111111111111101;
  309 : 1111111111111011;
  310 : 1111111111111010;
  311 : 1111111111110111;
  312 : 1111111010011001;
  313 : 1111110000110011;
  314 : 1111111010100100;
  315 : 1111111110001110;
  316 : 1111110110111000;
  317 : 1111111001101000;
  318 : 1111111111110010;
  319 : 1111110111111000;
  320 : 1111111101010010;
  321 : 1111111100001010;
  322 : 1111111000000011;
  323 : 1111110010101011;
  324 : 1111111010010110;
  325 : 1111111111110001;
  326 : 1111111011110100;
  327 : 1111101001011010;
  328 : 1111111001001110;
  329 : 1111111101001100;
  330 : 1111111110111000;
  331 : 1111111110110001;
  332 : 1111110001001100;
  333 : 1111110111010010;
  334 : 1111111111110101;
  335 : 1111111111111101;
  336 : 1111111111111111;
  337 : 1111111111011111;
  338 : 1111111111110110;
  339 : 1111111100100100;
  340 : 1111111001111011;
  341 : 1111111110001111;
  342 : 1111111100010010;
  343 : 1111111000110001;
  344 : 1111111111100110;
  345 : 1111111000010010;
  346 : 1111111011100110;
  347 : 1111101001110010;
  348 : 1111111001101111;
  349 : 1111101100010111;
  350 : 1111101001111010;
  351 : 1111100000110011;
  352 : 1111111011110101;
  353 : 1111101100001101;
  354 : 1111111101110100;
  355 : 1111111111110001;
  356 : 1111111000000000;
  357 : 1111111111000010;
  358 : 1111111110111001;
  359 : 1111111110000100;
  360 : 1111101111010110;
  361 : 1111111011110001;
  362 : 1111111111111001;
  363 : 1111111111100101;
  364 : 1111111111110101;
  365 : 1111111111110010;
  366 : 1111111111101000;
  367 : 1111111101101000;
  368 : 1111111111100100;
  369 : 1111111101001110;
  370 : 1111111101111111;
  371 : 1111110111000000;
  372 : 1111110101010101;
  373 : 1111110101011010;
  374 : 1111111111110001;
  375 : 1111111101000000;
  376 : 1111111001100101;
  377 : 1111101010010110;
  378 : 1111111100010010;
  379 : 1111111011111110;
  380 : 1111111011010000;
  381 : 1111111101011011;
  382 : 1111111101001101;
  383 : 1111111110101111;
  384 : 1111111110000100;
  385 : 1111111101111111;
  386 : 1111110100100000;
  387 : 1111110100110110;
  388 : 1111110100100100;
  389 : 1111111101101000;
  390 : 1111111110101010;
  391 : 1111111101110011;
  392 : 1111111111101110;
  393 : 1111111111110000;
  394 : 1111111111011000;
  395 : 1111111111011001;
  396 : 1111111001100110;
  397 : 1111111111011010;
  398 : 1111111111010110;
  399 : 1111111111101000;
  400 : 1111111001110101;
  401 : 1111110110010101;
  402 : 1111110111100001;
  403 : 1111101100101101;
  404 : 1111111001011001;
  405 : 1111111011100110;
  406 : 1111111110100110;
  407 : 1111110010110101;
  408 : 1111111110110111;
  409 : 1111110000111111;
  410 : 1111111100010111;
  411 : 1111111100111111;
  412 : 1111111111110100;
  413 : 1111111110010110;
  414 : 1111110110110101;
  415 : 1111110111000001;
  416 : 1111110011000001;
  417 : 1111111001111110;
  418 : 1111111111111110;
  419 : 1111111111101010;
  420 : 1111111111100101;
  421 : 1111111111010011;
  422 : 1111111110011101;
  423 : 1111111111111111;
  424 : 1111110111101011;
  425 : 1111111001111100;
  426 : 1111110001010001;
  427 : 1111111110001110;
  428 : 1111111000011001;
  429 : 1111101101101000;
  430 : 1111100110110110;
  431 : 1111110001000010;
  432 : 1111111111010111;
  433 : 1111110110010100;
  434 : 1111110111110010;
  435 : 1111111010011110;
  436 : 1111110001110110;
  437 : 1111111010111001;
  438 : 1111111000100100;
  439 : 1111111000111010;
  440 : 1111111111101001;
  441 : 1111111111111001;
  442 : 1111111111000101;
  443 : 1111111101010100;
  444 : 1111110110110010;
  445 : 1111110111001101;
  446 : 1111111111101110;
  447 : 1111111111111011;
  448 : 1111111111100010;
  449 : 1111111111001100;
  450 : 1111111111001100;
  451 : 1111111111111111;
  452 : 1111111000101100;
  453 : 1111101111001110;
  454 : 1111100011111010;
  455 : 1111111000111111;
  456 : 1111011111001111;
  457 : 1111100000001101;
  458 : 1111101011010100;
  459 : 1111011001111110;
  460 : 1111111110000010;
  461 : 1111110111000110;
  462 : 1111111110000011;
  463 : 1111110011110110;
  464 : 1111111001110110;
  465 : 1111111111000010;
  466 : 1111111110010100;
  467 : 1111111110011011;
  468 : 1111110011101000;
  469 : 1111110111100001;
  470 : 1111111110111011;
  471 : 1111110101001000;
  472 : 1111110001000100;
  473 : 1111110010111100;
  474 : 1111111111101101;
  475 : 1111111111110011;
  476 : 1111111111010111;
  477 : 1111111111101001;
  478 : 1111111111011100;
  479 : 1111111110010100;
  480 : 1111111110000001;
  481 : 1111101001111101;
  482 : 1111011000101011;
  483 : 1111101011110101;
  484 : 1111100101100101;
  485 : 1111100101011100;
  486 : 1111001101000110;
  487 : 1111001100000111;
  488 : 1111101010110001;
  489 : 1111111111111010;
  490 : 1111111110111100;
  491 : 1111110011001010;
  492 : 1111111001110110;
  493 : 1111111010001010;
  494 : 1111100001111101;
  495 : 1111111111000100;
  496 : 1111101010010010;
  497 : 1111111111111101;
  498 : 1111111110101111;
  499 : 1111111111110011;
  500 : 1111101001101111;
  501 : 1111110110101000;
  502 : 1111111111110110;
  503 : 1111111110111000;
  504 : 1111111111111101;
  505 : 1111111111000001;
  506 : 1111111110111111;
  507 : 1111111111100010;
  508 : 1111111111111110;
  509 : 1111101000001101;
  510 : 1111011101010101;
  511 : 1111100110111100;
  512 : 1111110111011010;
  513 : 1111101101111100;
  514 : 1111011101001101;
  515 : 1111011110010110;
  516 : 1111101001100100;
  517 : 1111111111111010;
  518 : 1111101101011111;
  519 : 1111101001010001;
  520 : 1111111111110100;
  521 : 1111110011100010;
  522 : 1111111111010101;
  523 : 1111111111110101;
  524 : 1111111011110110;
  525 : 1111111101001111;
  526 : 1111111001111111;
  527 : 1111110000101010;
  528 : 1111100111101101;
  529 : 1111111010111000;
  530 : 1111111111110100;
  531 : 1111111111110011;
  532 : 1111111111111010;
  533 : 1111111111110011;
  534 : 1111111111101010;
  535 : 1111111011001111;
  536 : 1111111111001100;
  537 : 1111111111101001;
  538 : 1111101011001100;
  539 : 1111111010111101;
  540 : 1111111110000010;
  541 : 1111110000011001;
  542 : 1111110011111000;
  543 : 1111111100011011;
  544 : 1111111101011000;
  545 : 1111110111101010;
  546 : 1111011101000110;
  547 : 1111100100111011;
  548 : 1111111111011111;
  549 : 1111110110001000;
  550 : 1111111110001010;
  551 : 1111111101000100;
  552 : 1111111111001001;
  553 : 1111111000110101;
  554 : 1111111000010111;
  555 : 1111101000000110;
  556 : 1111110110101001;
  557 : 1111111101110011;
  558 : 1111111111001011;
  559 : 1111111111010000;
  560 : 1111111111101111;
  561 : 0000000000000000;
  562 : 1111111101010000;
  563 : 1111110011100101;
  564 : 1111111011111100;
  565 : 1111111100011011;
  566 : 1111101110000011;
  567 : 1111111000100000;
  568 : 1111111100010111;
  569 : 1111011111111010;
  570 : 1111010001100000;
  571 : 1111111001011110;
  572 : 1111111011101010;
  573 : 1111111000011000;
  574 : 1111111001110111;
  575 : 1111101101010111;
  576 : 1111111100000100;
  577 : 1111111001101110;
  578 : 1111111101010100;
  579 : 1111111010110001;
  580 : 1111111111100011;
  581 : 1111110011001111;
  582 : 1111110100010011;
  583 : 1111101011001001;
  584 : 1111111010000111;
  585 : 1111111100100111;
  586 : 1111111111100110;
  587 : 0000000000000000;
  588 : 1111111111100110;
  589 : 1111111111111010;
  590 : 1111111011000000;
  591 : 1111110011010011;
  592 : 1111111011001101;
  593 : 1111111110001001;
  594 : 1111110100000001;
  595 : 1111110001011001;
  596 : 1111111111110111;
  597 : 1111011100010111;
  598 : 1111101110000000;
  599 : 1111111001011001;
  600 : 1111111010011010;
  601 : 1111111001001011;
  602 : 1111110100011100;
  603 : 1111110001110001;
  604 : 1111111100001101;
  605 : 1111110010001011;
  606 : 1111111110001010;
  607 : 1111111110000000;
  608 : 1111111110010100;
  609 : 1111101100011000;
  610 : 1111101010011111;
  611 : 1111100111000011;
  612 : 1111111100111101;
  613 : 1111111101011001;
  614 : 1111111110101111;
  615 : 1111111111111101;
  616 : 1111111111111011;
  617 : 1111111111111000;
  618 : 1111111010001100;
  619 : 1111110110001001;
  620 : 1111111110110001;
  621 : 1111111111101101;
  622 : 1111111110010111;
  623 : 1111110000101010;
  624 : 1111110001001010;
  625 : 1111100111101001;
  626 : 1111011110100011;
  627 : 1111100111101101;
  628 : 1111101100101000;
  629 : 1111111111110011;
  630 : 1111111111100101;
  631 : 1111111101111100;
  632 : 1111111110010000;
  633 : 1111111110111011;
  634 : 1111111001101100;
  635 : 1111110100000101;
  636 : 1111111011001101;
  637 : 1111110000010100;
  638 : 1111110001011111;
  639 : 1111101100101001;
  640 : 1111111001010010;
  641 : 1111111110110101;
  642 : 1111111111111011;
  643 : 1111111111111100;
  644 : 1111111111100110;
  645 : 1111111111100110;
  646 : 1111111111111001;
  647 : 1111111110100010;
  648 : 1111111111001100;
  649 : 1111111011110101;
  650 : 1111111110100010;
  651 : 1111111111111110;
  652 : 1111110111011010;
  653 : 1111110111010100;
  654 : 1111111010111010;
  655 : 1111111100011010;
  656 : 1111110111001100;
  657 : 1111111011101111;
  658 : 1111111100100000;
  659 : 1111111100010110;
  660 : 1111111001110011;
  661 : 1111110100100100;
  662 : 1111111111110000;
  663 : 1111110011000100;
  664 : 1111111110100111;
  665 : 1111111010011010;
  666 : 1111110000000011;
  667 : 1111110001011101;
  668 : 1111111010101011;
  669 : 1111111100110101;
  670 : 1111111111111110;
  671 : 0000000000000000;
  672 : 1111111111111101;
  673 : 1111111111110100;
  674 : 1111111111011010;
  675 : 1111111110001011;
  676 : 1111111010111100;
  677 : 1111111111111000;
  678 : 1111111000001100;
  679 : 1111111010101101;
  680 : 1111111101111100;
  681 : 1111111100110101;
  682 : 1111111101000110;
  683 : 1111111110010000;
  684 : 1111111111100101;
  685 : 1111111111010110;
  686 : 1111111000111011;
  687 : 1111111110011110;
  688 : 1111111010101011;
  689 : 1111111010101111;
  690 : 1111111101110111;
  691 : 1111111111011101;
  692 : 1111111001101010;
  693 : 1111111111001100;
  694 : 1111111001111010;
  695 : 1111111010011011;
  696 : 1111111000001011;
  697 : 1111111011101001;
  698 : 1111111110110010;
  699 : 0000000000000000;
  700 : 1111111111100111;
  701 : 1111111111111000;
  702 : 1111111111100000;
  703 : 1111111111110001;
  704 : 1111111111101101;
  705 : 1111111111010111;
  706 : 1111111101111011;
  707 : 1111111001000111;
  708 : 1111110001001111;
  709 : 1111111011101010;
  710 : 1111110010011011;
  711 : 1111110101001101;
  712 : 1111111111001111;
  713 : 1111110101101111;
  714 : 1111111111011100;
  715 : 1111111000100001;
  716 : 1111111100100011;
  717 : 1111111110111001;
  718 : 1111111000001001;
  719 : 1111111100110101;
  720 : 1111111001100101;
  721 : 1111111111111000;
  722 : 1111111110001110;
  723 : 1111111110101001;
  724 : 1111111110110100;
  725 : 1111111110100111;
  726 : 1111111110011111;
  727 : 1111111111111110;
  728 : 1111111111100100;
  729 : 1111111111101111;
  730 : 1111111111111111;
  731 : 1111111111111010;
  732 : 1111111111101001;
  733 : 1111111111000001;
  734 : 1111111111110011;
  735 : 1111111110000111;
  736 : 1111111100000110;
  737 : 1111111000100100;
  738 : 1111111111000000;
  739 : 1111111111011111;
  740 : 1111111011011111;
  741 : 1111111111101001;
  742 : 1111111110101000;
  743 : 1111111111001000;
  744 : 1111111111101010;
  745 : 1111111111010111;
  746 : 1111111110110101;
  747 : 1111111100110010;
  748 : 1111111111010001;
  749 : 1111111111011111;
  750 : 1111111110001010;
  751 : 1111111111111110;
  752 : 1111111111110010;
  753 : 1111111111110010;
  754 : 1111111111111010;
  755 : 1111111110111100;
  756 : 1111111111110000;
  757 : 1111111111111100;
  758 : 1111111111110111;
  759 : 1111111111110010;
  760 : 1111111111111100;
  761 : 1111111111111001;
  762 : 1111111111110100;
  763 : 1111111111011010;
  764 : 1111111111011001;
  765 : 1111111111111110;
  766 : 1111111111111111;
  767 : 1111111111110100;
  768 : 1111111111101110;
  769 : 1111111111111111;
  770 : 1111111111110111;
  771 : 1111111111111100;
  772 : 1111111110100101;
  773 : 1111111111000111;
  774 : 1111111110111000;
  775 : 1111111111100000;
  776 : 1111111111100000;
  777 : 1111111111111100;
  778 : 1111111111100011;
  779 : 1111111111111010;
  780 : 1111111111100001;
  781 : 1111111111010010;
  782 : 1111111111100110;
  783 : 1111111111110000;
END;
