WIDTH=16;
DEPTH=784;
ADDRESS_RADIX=UNS;
DATA_RADIX=BIN;
CONTENT BEGIN
  0 : 1111111111010111;
  1 : 1111111111010010;
  2 : 1111111111110010;
  3 : 1111111111110101;
  4 : 1111111111100111;
  5 : 1111111111011110;
  6 : 1111111111111001;
  7 : 1111111111111010;
  8 : 1111111111101110;
  9 : 1111111111110110;
  10 : 1111111111010100;
  11 : 1111111111111111;
  12 : 1111111111111101;
  13 : 1111111111111001;
  14 : 1111111111011111;
  15 : 1111111111110000;
  16 : 1111111111111011;
  17 : 1111111111011010;
  18 : 1111111111111111;
  19 : 1111111111100010;
  20 : 1111111111111110;
  21 : 1111111111111101;
  22 : 1111111111111110;
  23 : 1111111111101010;
  24 : 1111111111110101;
  25 : 1111111111100010;
  26 : 1111111111100100;
  27 : 1111111111001010;
  28 : 1111111111110000;
  29 : 1111111111111110;
  30 : 1111111111010101;
  31 : 1111111111111100;
  32 : 1111111111101000;
  33 : 1111111111000011;
  34 : 1111111111110000;
  35 : 1111111111110110;
  36 : 1111111111110010;
  37 : 1111111111110100;
  38 : 1111111111111011;
  39 : 1111111111111010;
  40 : 1111111111111000;
  41 : 1111111111100010;
  42 : 1111111111111101;
  43 : 1111111111110101;
  44 : 1111111111111010;
  45 : 1111111111100011;
  46 : 1111111111000111;
  47 : 1111111111101010;
  48 : 1111111111010001;
  49 : 1111111111101010;
  50 : 1111111111101111;
  51 : 0000000000000000;
  52 : 1111111111111110;
  53 : 1111111111101111;
  54 : 1111111111111010;
  55 : 1111111111111010;
  56 : 1111111111111111;
  57 : 1111111111011011;
  58 : 1111111111111001;
  59 : 1111111111111010;
  60 : 1111111111110001;
  61 : 1111111111111110;
  62 : 1111111110111111;
  63 : 1111111110010001;
  64 : 1111111101011110;
  65 : 1111111010111100;
  66 : 1111111010011100;
  67 : 1111110111110011;
  68 : 1111111000011100;
  69 : 1111111110001111;
  70 : 1111111000101110;
  71 : 1111111110111001;
  72 : 1111111111001111;
  73 : 1111111101111001;
  74 : 1111111110110110;
  75 : 1111111111001111;
  76 : 1111111100111110;
  77 : 1111111101001001;
  78 : 1111111111010111;
  79 : 1111111111110011;
  80 : 1111111111110110;
  81 : 1111111111111111;
  82 : 1111111111110011;
  83 : 1111111111111111;
  84 : 1111111111111111;
  85 : 1111111111100100;
  86 : 1111111111101011;
  87 : 1111111111101010;
  88 : 1111111111100011;
  89 : 1111111111110011;
  90 : 1111111111110011;
  91 : 1111111110011101;
  92 : 1111111010111111;
  93 : 1111111101001110;
  94 : 1111111111101011;
  95 : 1111110100101101;
  96 : 1111111111110101;
  97 : 1111111110001011;
  98 : 1111111110100110;
  99 : 1111111000010111;
  100 : 1111111110000000;
  101 : 1111111001100000;
  102 : 1111111100000100;
  103 : 1111111111011000;
  104 : 1111111110011111;
  105 : 1111111111001010;
  106 : 1111111111000101;
  107 : 1111111111000110;
  108 : 1111111111011000;
  109 : 1111111110100010;
  110 : 1111111111100110;
  111 : 1111111111111001;
  112 : 1111111111111111;
  113 : 1111111111111011;
  114 : 1111111111000001;
  115 : 1111111111110011;
  116 : 1111111111111111;
  117 : 1111111110110111;
  118 : 1111111111111001;
  119 : 1111111000100101;
  120 : 1111110010111111;
  121 : 1111111100110110;
  122 : 1111111000110111;
  123 : 1111111100011010;
  124 : 1111111011000011;
  125 : 1111110111011000;
  126 : 1111111111100111;
  127 : 1111111011011111;
  128 : 1111111110110010;
  129 : 1111110111111000;
  130 : 1111111010011110;
  131 : 1111111111111110;
  132 : 1111111110010100;
  133 : 1111111011010110;
  134 : 1111111010110110;
  135 : 1111111100010011;
  136 : 1111110000010011;
  137 : 1111111111100111;
  138 : 1111111111100101;
  139 : 1111111111101101;
  140 : 1111111111111111;
  141 : 1111111111110110;
  142 : 1111111111011001;
  143 : 1111111111011000;
  144 : 1111111111100111;
  145 : 1111111001110100;
  146 : 1111111110001000;
  147 : 1111111101100100;
  148 : 1111111111100110;
  149 : 1111111011100111;
  150 : 1111111101101101;
  151 : 1111111100010011;
  152 : 1111110101101001;
  153 : 1111111101010000;
  154 : 1111111010010101;
  155 : 1111111110011000;
  156 : 1111111010000010;
  157 : 1111111110110100;
  158 : 1111111011110111;
  159 : 1111111110010000;
  160 : 1111111111001010;
  161 : 1111111111111101;
  162 : 1111111110010010;
  163 : 1111111010010101;
  164 : 1111110000000101;
  165 : 1111111111010001;
  166 : 1111111111100000;
  167 : 1111111111101100;
  168 : 1111111111100000;
  169 : 1111111111111000;
  170 : 1111111111111111;
  171 : 1111111101000011;
  172 : 1111111111011000;
  173 : 1111110001000111;
  174 : 1111110011000000;
  175 : 1111111101101100;
  176 : 1111111100010000;
  177 : 1111111000111110;
  178 : 1111110001000000;
  179 : 1111110001000110;
  180 : 1111111110100110;
  181 : 1111111101101111;
  182 : 1111111110000001;
  183 : 1111110111010100;
  184 : 1111101111110010;
  185 : 1111111111101100;
  186 : 1111111111110000;
  187 : 1111110000110100;
  188 : 1111111011110010;
  189 : 1111111101101101;
  190 : 1111111100110011;
  191 : 1111111101100000;
  192 : 1111110010000000;
  193 : 1111111110100010;
  194 : 1111111111101010;
  195 : 1111111111111010;
  196 : 1111111111011001;
  197 : 1111111111111101;
  198 : 1111111111001010;
  199 : 1111111101110100;
  200 : 1111111010001101;
  201 : 1111111010110110;
  202 : 1111111010100110;
  203 : 1111111111101000;
  204 : 1111111000100111;
  205 : 1111111100101100;
  206 : 1111111111111111;
  207 : 1111101001110101;
  208 : 1111101111011110;
  209 : 1111110010000110;
  210 : 1111111111000100;
  211 : 1111110110000011;
  212 : 1111110111000111;
  213 : 1111111110010101;
  214 : 1111110100110001;
  215 : 1111111101000111;
  216 : 1111111100111001;
  217 : 1111101100010100;
  218 : 1111111110001000;
  219 : 1111111100110110;
  220 : 1111111100100010;
  221 : 1111111111111000;
  222 : 1111111111000101;
  223 : 1111111111111111;
  224 : 1111111111100010;
  225 : 1111111111111011;
  226 : 1111111110101000;
  227 : 1111111111000111;
  228 : 1111111110100110;
  229 : 1111111100111101;
  230 : 1111111110100100;
  231 : 1111111111111011;
  232 : 1111111101000001;
  233 : 1111111001100101;
  234 : 1111111010001011;
  235 : 1111111110111000;
  236 : 1111111011100111;
  237 : 1111111111110111;
  238 : 1111111010011111;
  239 : 1111111110011000;
  240 : 1111100101001011;
  241 : 1111101000111010;
  242 : 1111111111101101;
  243 : 1111111111000010;
  244 : 1111111000010000;
  245 : 1111111010101111;
  246 : 1111111000101101;
  247 : 1111111111100000;
  248 : 1111111000001011;
  249 : 1111111000001111;
  250 : 1111111110011011;
  251 : 1111111111110100;
  252 : 1111111111010010;
  253 : 1111111111111000;
  254 : 1111111101101010;
  255 : 1111111111001101;
  256 : 1111111110000110;
  257 : 1111111010011111;
  258 : 1111111111100001;
  259 : 1111111100100011;
  260 : 1111111110100000;
  261 : 1111110101101100;
  262 : 1111111110101101;
  263 : 1111111100110011;
  264 : 1111111101101000;
  265 : 1111110001100110;
  266 : 1111100101110111;
  267 : 1111111011111000;
  268 : 1111111000000001;
  269 : 1111110010101110;
  270 : 1111110010110110;
  271 : 1111101111110110;
  272 : 1111111000000010;
  273 : 1111110100111111;
  274 : 1111111111001011;
  275 : 1111110100100111;
  276 : 1111111110110110;
  277 : 1111111001011010;
  278 : 1111111110011111;
  279 : 1111111111111001;
  280 : 1111111111111011;
  281 : 1111111111111100;
  282 : 1111111110011011;
  283 : 1111111111011100;
  284 : 1111110100110101;
  285 : 1111110000111100;
  286 : 1111101101100000;
  287 : 1111110011011010;
  288 : 1111111100001010;
  289 : 1111111111100110;
  290 : 1111111111101111;
  291 : 1111111001000100;
  292 : 1111111111001011;
  293 : 1111100100010100;
  294 : 1111101100010011;
  295 : 1111110011001110;
  296 : 1111110111001011;
  297 : 1111111010000101;
  298 : 1111100010010100;
  299 : 1111110111011011;
  300 : 1111111110100001;
  301 : 1111110001001000;
  302 : 1111111100010100;
  303 : 1111111110010010;
  304 : 1111111110100111;
  305 : 1111111000000101;
  306 : 1111111110100101;
  307 : 1111111111111100;
  308 : 0000000000000000;
  309 : 1111111110101110;
  310 : 1111111111000101;
  311 : 1111111110001110;
  312 : 1111111111111110;
  313 : 1111111000111101;
  314 : 1111101111010000;
  315 : 1111100010100001;
  316 : 1111111111101100;
  317 : 1111101000111001;
  318 : 1111111000000010;
  319 : 1111111110000101;
  320 : 1111101010111000;
  321 : 1111111011011110;
  322 : 1111110001101110;
  323 : 1111110110111011;
  324 : 1111100100110111;
  325 : 1111110101011110;
  326 : 1111111111011111;
  327 : 1111111111100001;
  328 : 1111111111111001;
  329 : 1111110001000010;
  330 : 1111111010010001;
  331 : 1111110111111100;
  332 : 1111111111000010;
  333 : 1111111111110000;
  334 : 1111111110010111;
  335 : 1111111111110110;
  336 : 1111111111011101;
  337 : 1111111111100000;
  338 : 1111111110110000;
  339 : 1111111111110100;
  340 : 1111111111000100;
  341 : 1111110010010011;
  342 : 1111100111111011;
  343 : 1111101011000111;
  344 : 1111110100010010;
  345 : 1111111000101101;
  346 : 1111111111110011;
  347 : 1111111001000101;
  348 : 1111111110110111;
  349 : 1111110000011100;
  350 : 1111110010010001;
  351 : 1111110011100000;
  352 : 1111111101000010;
  353 : 1111111011010010;
  354 : 1111110100010100;
  355 : 1111110110001010;
  356 : 1111111011011111;
  357 : 1111110000000100;
  358 : 1111111001100100;
  359 : 1111110011011010;
  360 : 1111100111110101;
  361 : 1111111000111001;
  362 : 1111111111101111;
  363 : 1111111111011011;
  364 : 1111111111110011;
  365 : 1111111111010001;
  366 : 1111111111110101;
  367 : 1111111110101000;
  368 : 1111111110001111;
  369 : 1111100110100100;
  370 : 1111100001110011;
  371 : 1111100110000001;
  372 : 1111111101011101;
  373 : 1111110111110011;
  374 : 1111111100010110;
  375 : 1111111111101011;
  376 : 1111111110110000;
  377 : 1111110110101000;
  378 : 1111110001111000;
  379 : 1111111010111010;
  380 : 1111100011101100;
  381 : 1111100000101111;
  382 : 1111111111111111;
  383 : 1111110100010011;
  384 : 1111111111000010;
  385 : 1111111111100010;
  386 : 1111110010110111;
  387 : 1111101100101011;
  388 : 1111101111111110;
  389 : 1111111000101011;
  390 : 1111111101000110;
  391 : 1111111100111110;
  392 : 1111111111011000;
  393 : 1111111111100110;
  394 : 1111111111111010;
  395 : 1111111111100001;
  396 : 1111111010010001;
  397 : 1111011111010101;
  398 : 1111010011000111;
  399 : 1111010011111100;
  400 : 1111100111000001;
  401 : 1111111101101001;
  402 : 1111111001100011;
  403 : 1111110000010010;
  404 : 1111111111111111;
  405 : 1111111000111110;
  406 : 1111100010001010;
  407 : 1111111001010100;
  408 : 1111111111010111;
  409 : 1111111100111110;
  410 : 1111111001101001;
  411 : 1111111011010001;
  412 : 1111111001011001;
  413 : 1111111111001010;
  414 : 1111111110111101;
  415 : 1111111001101111;
  416 : 1111111001010100;
  417 : 1111111011100111;
  418 : 1111111110101100;
  419 : 1111111111100101;
  420 : 1111111111101110;
  421 : 1111111111111111;
  422 : 1111111111100100;
  423 : 1111111111001010;
  424 : 1111111100011010;
  425 : 1111100000101010;
  426 : 1111010100010111;
  427 : 1111010001110011;
  428 : 1111001110000000;
  429 : 1111010110011001;
  430 : 1111010101000010;
  431 : 1111100000000110;
  432 : 1111111111110010;
  433 : 1111111111000000;
  434 : 1111110001011010;
  435 : 1111111101010101;
  436 : 1111110100101101;
  437 : 1111111110111110;
  438 : 1111111111111100;
  439 : 1111111111000101;
  440 : 1111111101101010;
  441 : 1111111101111110;
  442 : 1111111000010000;
  443 : 1111110100011110;
  444 : 1111111101110000;
  445 : 1111111100001010;
  446 : 1111111110010101;
  447 : 1111111111111101;
  448 : 1111111111000001;
  449 : 1111111111111011;
  450 : 1111111111011111;
  451 : 1111111111000011;
  452 : 1111111000010000;
  453 : 1111110011010000;
  454 : 1111110100110101;
  455 : 1111110000001010;
  456 : 1111100111000100;
  457 : 1111100000110110;
  458 : 1111001011111010;
  459 : 1111000011101001;
  460 : 1111100001101010;
  461 : 1111100110000011;
  462 : 1111111101111010;
  463 : 1111111010001100;
  464 : 1111101110001011;
  465 : 1111111111000001;
  466 : 1111110011100000;
  467 : 1111111011111110;
  468 : 1111111010010000;
  469 : 1111111000100111;
  470 : 1111111111110111;
  471 : 1111110010101001;
  472 : 1111111100110010;
  473 : 1111110100000000;
  474 : 1111111100100101;
  475 : 1111111111111000;
  476 : 1111111111111111;
  477 : 1111111111101000;
  478 : 1111111111010010;
  479 : 1111111011010000;
  480 : 1111111111011001;
  481 : 1111111101011010;
  482 : 1111111111100110;
  483 : 1111111100100001;
  484 : 1111100111101111;
  485 : 1111011100110010;
  486 : 1111010100111111;
  487 : 1111001001000001;
  488 : 1111001100100011;
  489 : 1111101000000111;
  490 : 1111101110011110;
  491 : 1111110101001100;
  492 : 1111110010011100;
  493 : 1111111101100110;
  494 : 1111111111110000;
  495 : 1111111100000110;
  496 : 1111111000010001;
  497 : 1111111101101001;
  498 : 1111111111011101;
  499 : 1111110001001000;
  500 : 1111101110100110;
  501 : 1111101111110010;
  502 : 1111111110011101;
  503 : 1111111111110001;
  504 : 1111111111111000;
  505 : 1111111111110101;
  506 : 1111111111101011;
  507 : 1111110100000101;
  508 : 1111111101011100;
  509 : 1111111111100011;
  510 : 1111111110101011;
  511 : 1111111101011101;
  512 : 1111111111111100;
  513 : 1111110011111011;
  514 : 1111101001111010;
  515 : 1111011011101110;
  516 : 1111001100110001;
  517 : 1111101000100101;
  518 : 1111111101001011;
  519 : 1111111110100000;
  520 : 1111111110101101;
  521 : 1111111111110101;
  522 : 1111101110100101;
  523 : 1111111110111000;
  524 : 1111111000111010;
  525 : 1111110101110010;
  526 : 1111111110101011;
  527 : 1111111110011010;
  528 : 1111101110110000;
  529 : 1111110111101100;
  530 : 1111111111101110;
  531 : 1111111111111101;
  532 : 1111111111110100;
  533 : 1111111111111011;
  534 : 1111111111111001;
  535 : 1111111010100101;
  536 : 1111111111111101;
  537 : 1111111001110110;
  538 : 1111111100000100;
  539 : 1111111110000100;
  540 : 1111111111011010;
  541 : 1111111111111001;
  542 : 1111110100010110;
  543 : 1111100111101010;
  544 : 1111100110000001;
  545 : 1111110001100011;
  546 : 1111110011010010;
  547 : 1111110101010100;
  548 : 1111111101100100;
  549 : 1111110100011000;
  550 : 1111111111111000;
  551 : 1111111100100011;
  552 : 1111111100011000;
  553 : 1111111110111111;
  554 : 1111111111101101;
  555 : 1111110110100011;
  556 : 1111111101100101;
  557 : 1111111100110011;
  558 : 1111111111011010;
  559 : 1111111111010010;
  560 : 1111111111110110;
  561 : 1111111111111111;
  562 : 1111111011110011;
  563 : 1111111011101100;
  564 : 1111111110110101;
  565 : 1111111100110010;
  566 : 1111111000111000;
  567 : 1111111111111111;
  568 : 1111111010100110;
  569 : 1111111110011101;
  570 : 1111111010111101;
  571 : 1111110001101010;
  572 : 1111011001010101;
  573 : 1111110001101010;
  574 : 1111110111110111;
  575 : 1111111110100000;
  576 : 1111111111100110;
  577 : 1111111101101100;
  578 : 1111111000100011;
  579 : 1111111100001001;
  580 : 1111111010001111;
  581 : 1111110100010000;
  582 : 1111111111010110;
  583 : 1111111010100000;
  584 : 1111111010001000;
  585 : 1111111100101000;
  586 : 1111111111110001;
  587 : 1111111110011100;
  588 : 1111111111100100;
  589 : 1111111111001001;
  590 : 1111111000011001;
  591 : 1111110011011000;
  592 : 1111111011001011;
  593 : 1111111100110011;
  594 : 1111111100111111;
  595 : 1111111110101111;
  596 : 1111111011100101;
  597 : 0000000000000000;
  598 : 1111111111100110;
  599 : 1111110001011011;
  600 : 1111100011010001;
  601 : 1111111111000000;
  602 : 1111111000100111;
  603 : 1111111111010010;
  604 : 1111110110001110;
  605 : 1111111010001100;
  606 : 1111111011111011;
  607 : 1111111000100010;
  608 : 1111111111110101;
  609 : 1111110100010100;
  610 : 1111101110100101;
  611 : 1111101000011011;
  612 : 1111110110111011;
  613 : 1111111100110101;
  614 : 1111111111000100;
  615 : 1111111111101010;
  616 : 1111111111111010;
  617 : 1111111111110110;
  618 : 1111111001000110;
  619 : 1111111000111111;
  620 : 1111111000110110;
  621 : 1111110000010001;
  622 : 1111110001000001;
  623 : 1111110010100000;
  624 : 1111111010101100;
  625 : 1111110011101000;
  626 : 1111110101111000;
  627 : 1111101110101110;
  628 : 1111100100010011;
  629 : 1111111101010000;
  630 : 1111110001111101;
  631 : 1111111111111010;
  632 : 1111111010001100;
  633 : 1111111010111011;
  634 : 1111111100110100;
  635 : 1111111110110011;
  636 : 1111110001101101;
  637 : 1111110001010010;
  638 : 1111110000110101;
  639 : 1111101110101110;
  640 : 1111110111111110;
  641 : 1111111100010111;
  642 : 1111111111110011;
  643 : 1111111111000100;
  644 : 1111111111110110;
  645 : 1111111111111010;
  646 : 1111111111111011;
  647 : 1111111110011111;
  648 : 1111111010100001;
  649 : 1111111111001111;
  650 : 1111110001110011;
  651 : 1111110001110110;
  652 : 1111100011100110;
  653 : 1111100111000010;
  654 : 1111101000010001;
  655 : 1111110010110100;
  656 : 1111011101111011;
  657 : 1111111010000100;
  658 : 1111111010110011;
  659 : 1111111001101011;
  660 : 1111110111001000;
  661 : 1111111011111001;
  662 : 1111111111011101;
  663 : 1111111001101011;
  664 : 1111110101100000;
  665 : 1111110001101101;
  666 : 1111101111010101;
  667 : 1111110010011101;
  668 : 1111111010001100;
  669 : 1111111011011111;
  670 : 1111111111110010;
  671 : 1111111111111010;
  672 : 1111111111100111;
  673 : 1111111111110100;
  674 : 1111111111101010;
  675 : 1111111100110000;
  676 : 1111111111101110;
  677 : 1111111110001010;
  678 : 1111111111101101;
  679 : 1111111100101101;
  680 : 1111110111011000;
  681 : 1111101101010101;
  682 : 1111101001101101;
  683 : 1111111010010010;
  684 : 1111111111011000;
  685 : 1111111011110111;
  686 : 1111111111110000;
  687 : 1111110101101011;
  688 : 1111111111110011;
  689 : 1111111011000110;
  690 : 1111111111111100;
  691 : 1111101111011101;
  692 : 1111111000000101;
  693 : 1111110100011011;
  694 : 1111110101011100;
  695 : 1111111011110011;
  696 : 1111111010011110;
  697 : 1111111101101111;
  698 : 1111111111011110;
  699 : 1111111111111101;
  700 : 1111111111110101;
  701 : 1111111111111010;
  702 : 1111111111110001;
  703 : 1111111111100110;
  704 : 1111111111111100;
  705 : 1111111110110011;
  706 : 1111111100101000;
  707 : 1111111100000001;
  708 : 1111111111001000;
  709 : 1111111011001010;
  710 : 1111111001011011;
  711 : 1111111000111111;
  712 : 1111110001001001;
  713 : 1111111110001110;
  714 : 1111111111111110;
  715 : 1111111010111110;
  716 : 1111111000011110;
  717 : 1111111010011010;
  718 : 1111111011001111;
  719 : 1111111110100001;
  720 : 1111111000101011;
  721 : 1111111101001111;
  722 : 1111111111101110;
  723 : 1111111110111001;
  724 : 1111111111110110;
  725 : 1111111111111101;
  726 : 1111111111111100;
  727 : 1111111111110010;
  728 : 1111111111110011;
  729 : 1111111111110100;
  730 : 1111111111110001;
  731 : 1111111110101001;
  732 : 1111111111001010;
  733 : 1111111111010111;
  734 : 1111111111101100;
  735 : 1111111110011110;
  736 : 1111111111111000;
  737 : 1111111110111011;
  738 : 1111111110011010;
  739 : 1111111101111100;
  740 : 1111111111100011;
  741 : 1111111100001001;
  742 : 1111111110010010;
  743 : 1111111111001110;
  744 : 1111110010001101;
  745 : 1111111111000111;
  746 : 1111111110111010;
  747 : 1111111110110110;
  748 : 1111111111011100;
  749 : 1111111110001100;
  750 : 1111111111101110;
  751 : 1111111111111110;
  752 : 1111111111011011;
  753 : 1111111111110100;
  754 : 1111111111110010;
  755 : 0000000000000000;
  756 : 1111111111100011;
  757 : 1111111111111100;
  758 : 1111111111101111;
  759 : 1111111111100100;
  760 : 1111111111101011;
  761 : 1111111110100010;
  762 : 1111111111111100;
  763 : 1111111111111011;
  764 : 1111111111011000;
  765 : 1111111111111000;
  766 : 1111111111111100;
  767 : 1111111111111101;
  768 : 1111111110110100;
  769 : 1111111110101010;
  770 : 1111111110111011;
  771 : 1111111111111011;
  772 : 1111111111000001;
  773 : 1111111111111000;
  774 : 1111111111110011;
  775 : 1111111111011100;
  776 : 1111111111001010;
  777 : 1111111111100101;
  778 : 1111111111110010;
  779 : 1111111111101001;
  780 : 1111111111101001;
  781 : 0000000000000000;
  782 : 1111111111111101;
  783 : 1111111111101101;
END;
