WIDTH=16;
DEPTH=784;
ADDRESS_RADIX=UNS;
DATA_RADIX=BIN;
CONTENT BEGIN
  0 : 1111111111110000;
  1 : 1111111111010110;
  2 : 1111111111111101;
  3 : 1111111111010001;
  4 : 1111111111010110;
  5 : 1111111111100111;
  6 : 1111111111101100;
  7 : 1111111111110011;
  8 : 1111111111100111;
  9 : 1111111111111110;
  10 : 1111111111111100;
  11 : 1111111111111111;
  12 : 1111111111111111;
  13 : 1111111111111100;
  14 : 1111111111111101;
  15 : 1111111111110001;
  16 : 1111111111111101;
  17 : 1111111111111111;
  18 : 1111111111100001;
  19 : 1111111111111110;
  20 : 1111111111100000;
  21 : 1111111111100011;
  22 : 1111111110110010;
  23 : 1111111111100100;
  24 : 1111111111101101;
  25 : 1111111111010011;
  26 : 1111111110111011;
  27 : 1111111111111101;
  28 : 1111111111001110;
  29 : 1111111111011101;
  30 : 1111111111111111;
  31 : 1111111111001110;
  32 : 1111111111111111;
  33 : 1111111111010111;
  34 : 1111111111100011;
  35 : 1111111111111101;
  36 : 1111111111001111;
  37 : 1111111111101101;
  38 : 1111111111110010;
  39 : 1111111111000010;
  40 : 1111111111101100;
  41 : 1111111110011100;
  42 : 1111111111110011;
  43 : 1111111101110100;
  44 : 1111111100101001;
  45 : 1111111111100100;
  46 : 1111111111111111;
  47 : 1111111110001001;
  48 : 1111111111011001;
  49 : 1111111111000110;
  50 : 1111111111101100;
  51 : 1111111111011001;
  52 : 1111111111110011;
  53 : 1111111111110000;
  54 : 1111111111100100;
  55 : 1111111111111011;
  56 : 1111111111110101;
  57 : 1111111111111011;
  58 : 1111111111101110;
  59 : 1111111111111110;
  60 : 1111111111110001;
  61 : 1111111111110110;
  62 : 1111111111111100;
  63 : 1111111100011011;
  64 : 1111111111101001;
  65 : 1111111111101001;
  66 : 1111111111000001;
  67 : 1111111111100011;
  68 : 1111111110010010;
  69 : 1111111111111110;
  70 : 1111111111110101;
  71 : 1111111111011000;
  72 : 1111110101100010;
  73 : 1111111111111100;
  74 : 1111111110011000;
  75 : 1111111110000000;
  76 : 1111111101010001;
  77 : 1111111111000000;
  78 : 1111111111111101;
  79 : 1111111111111000;
  80 : 1111111100000111;
  81 : 1111111100110110;
  82 : 1111111111111110;
  83 : 1111111111111110;
  84 : 1111111111000000;
  85 : 1111111111011011;
  86 : 1111111111110011;
  87 : 1111111111010110;
  88 : 1111111111101001;
  89 : 1111111111111000;
  90 : 1111111111011000;
  91 : 1111111111100011;
  92 : 1111111110110010;
  93 : 1111111110010101;
  94 : 1111111110011000;
  95 : 1111111111110011;
  96 : 1111111001011001;
  97 : 1111110100001110;
  98 : 1111111101001101;
  99 : 1111111110101011;
  100 : 1111110101101111;
  101 : 1111111110100010;
  102 : 1111111100100010;
  103 : 1111111101100001;
  104 : 1111111111111010;
  105 : 1111111111100000;
  106 : 1111111111111110;
  107 : 1111111110111100;
  108 : 1111111101111010;
  109 : 1111111101100000;
  110 : 1111111111110101;
  111 : 1111111111010101;
  112 : 1111111111011110;
  113 : 1111111111101011;
  114 : 1111111111011000;
  115 : 1111111111111011;
  116 : 1111111111100001;
  117 : 1111111110001010;
  118 : 1111111100011100;
  119 : 1111111101111000;
  120 : 1111111110111111;
  121 : 1111111110001011;
  122 : 1111111000011101;
  123 : 1111111010001001;
  124 : 1111111110110100;
  125 : 1111111110011101;
  126 : 1111110011110100;
  127 : 1111111010010100;
  128 : 1111111111000110;
  129 : 1111111000011101;
  130 : 1111110001000101;
  131 : 1111111111001011;
  132 : 1111110101011111;
  133 : 1111111100111001;
  134 : 1111111011001001;
  135 : 1111111111011111;
  136 : 1111111111010000;
  137 : 1111111111100010;
  138 : 1111111111100111;
  139 : 1111111111111000;
  140 : 1111111111110110;
  141 : 1111111111101100;
  142 : 1111111111001100;
  143 : 1111111111110100;
  144 : 1111111111001101;
  145 : 1111111100101001;
  146 : 1111111101010000;
  147 : 1111111110011000;
  148 : 1111111100100101;
  149 : 1111111100100101;
  150 : 1111111111100001;
  151 : 1111110010100001;
  152 : 1111111101100011;
  153 : 1111111101100011;
  154 : 1111111100010111;
  155 : 1111111100101100;
  156 : 1111111110011101;
  157 : 1111110001010110;
  158 : 1111110010000101;
  159 : 1111111001010010;
  160 : 1111111010010000;
  161 : 1111111111000010;
  162 : 1111111111000111;
  163 : 1111111001010101;
  164 : 1111111010110110;
  165 : 1111111100011010;
  166 : 1111111110101011;
  167 : 1111111111101100;
  168 : 1111111111001110;
  169 : 1111111111111111;
  170 : 1111111111111111;
  171 : 1111111111100000;
  172 : 1111111011111011;
  173 : 1111111001110100;
  174 : 1111101011001000;
  175 : 1111101011100110;
  176 : 1111111101110011;
  177 : 1111101110010101;
  178 : 1111100000010000;
  179 : 1111111000011001;
  180 : 1111111111101001;
  181 : 1111111111110101;
  182 : 1111111000001111;
  183 : 1111111111000010;
  184 : 1111101110101110;
  185 : 1111111111110100;
  186 : 1111111111011111;
  187 : 1111111111110010;
  188 : 1111111111000010;
  189 : 1111110001000110;
  190 : 1111111011110110;
  191 : 1111110101000001;
  192 : 1111110111110101;
  193 : 1111111010111000;
  194 : 1111111111110001;
  195 : 1111111111111101;
  196 : 1111111111011110;
  197 : 1111111111110101;
  198 : 1111111111111111;
  199 : 1111111111100001;
  200 : 1111111010000000;
  201 : 1111111111111100;
  202 : 1111110000000101;
  203 : 1111111000111111;
  204 : 1111111000001000;
  205 : 1111110100010011;
  206 : 1111111111011010;
  207 : 1111111101010001;
  208 : 1111101111001010;
  209 : 1111101011110011;
  210 : 1111110011111010;
  211 : 1111111111111110;
  212 : 1111111110100001;
  213 : 1111111110110001;
  214 : 1111111101111101;
  215 : 1111111110001010;
  216 : 1111111111111100;
  217 : 1111111100111000;
  218 : 1111111110011010;
  219 : 1111111111011001;
  220 : 1111111101000100;
  221 : 1111111110000100;
  222 : 1111111111111110;
  223 : 1111111111111110;
  224 : 1111111110101101;
  225 : 1111111111110100;
  226 : 1111111110010110;
  227 : 1111111111010101;
  228 : 1111110111001110;
  229 : 1111110110110110;
  230 : 1111110000011110;
  231 : 1111111011110001;
  232 : 1111111100100111;
  233 : 1111111010011011;
  234 : 1111110000101100;
  235 : 1111111100011101;
  236 : 1111110111011100;
  237 : 1111110111011111;
  238 : 1111100110000100;
  239 : 1111111100011101;
  240 : 1111111101111101;
  241 : 1111111111000010;
  242 : 1111111111100001;
  243 : 1111111110100110;
  244 : 1111111111101001;
  245 : 1111111110000011;
  246 : 1111111111111011;
  247 : 1111111110010110;
  248 : 1111110011101111;
  249 : 1111111110110110;
  250 : 1111111111001100;
  251 : 1111111111111001;
  252 : 1111111111100111;
  253 : 1111111111101011;
  254 : 1111111110010000;
  255 : 1111111111100011;
  256 : 1111111010001111;
  257 : 1111101111001011;
  258 : 1111111000000011;
  259 : 1111110100011000;
  260 : 1111110100101001;
  261 : 1111110100010110;
  262 : 1111101010011001;
  263 : 1111110010100110;
  264 : 1111011111001010;
  265 : 1111111111110101;
  266 : 1111111100000000;
  267 : 1111110001110001;
  268 : 1111111110001101;
  269 : 1111111111001100;
  270 : 1111111100011100;
  271 : 1111111100111001;
  272 : 1111110001100110;
  273 : 1111110101110000;
  274 : 1111111110111000;
  275 : 1111111111011110;
  276 : 1111110110001011;
  277 : 1111111101001100;
  278 : 1111111010100100;
  279 : 1111110111001001;
  280 : 1111111111110011;
  281 : 1111111111111000;
  282 : 1111111111011000;
  283 : 1111111111111101;
  284 : 1111111101100100;
  285 : 1111111010110011;
  286 : 1111101110100101;
  287 : 1111100100010010;
  288 : 1111010110010010;
  289 : 1111110110011001;
  290 : 1111101100001001;
  291 : 1111111111000010;
  292 : 1111111010000110;
  293 : 1111101010100000;
  294 : 1111100110000011;
  295 : 1111110110010001;
  296 : 1111111100110110;
  297 : 1111111111000101;
  298 : 1111101101011100;
  299 : 1111111110110101;
  300 : 1111111100000110;
  301 : 1111111110011001;
  302 : 1111111101011111;
  303 : 1111111101101000;
  304 : 1111111111110010;
  305 : 1111111010110000;
  306 : 1111111000100111;
  307 : 1111111110001011;
  308 : 1111111111011010;
  309 : 1111111111110011;
  310 : 1111111111000011;
  311 : 1111111011010101;
  312 : 1111110011011011;
  313 : 1111111110110000;
  314 : 1111111111001011;
  315 : 1111111011101010;
  316 : 1111111000001101;
  317 : 1111110100000010;
  318 : 1111010010111000;
  319 : 1111011010000111;
  320 : 1111110101000101;
  321 : 1111111100011000;
  322 : 1111100110110000;
  323 : 1111110101011100;
  324 : 1111111111000111;
  325 : 1111111111100000;
  326 : 1111111111010101;
  327 : 1111111111100001;
  328 : 1111110111110000;
  329 : 1111111111011000;
  330 : 1111111010110101;
  331 : 1111110001011001;
  332 : 1111111100101100;
  333 : 1111111111101110;
  334 : 1111111110001101;
  335 : 1111111111011101;
  336 : 1111111111110000;
  337 : 1111111111101000;
  338 : 1111111111011110;
  339 : 1111110010010100;
  340 : 1111111100110100;
  341 : 1111110010001101;
  342 : 1111110101110110;
  343 : 1111011100011001;
  344 : 1111111010110111;
  345 : 1110001011100011;
  346 : 1111100001011101;
  347 : 1111111000000100;
  348 : 1111111000010101;
  349 : 1111101011110110;
  350 : 1111111101000011;
  351 : 1111111111001101;
  352 : 1111111000110100;
  353 : 1111111011010100;
  354 : 1111111100011010;
  355 : 1111111101011001;
  356 : 1111111110111110;
  357 : 1111111111111001;
  358 : 1111111111111110;
  359 : 1111111111110111;
  360 : 1111111001101110;
  361 : 1111110100101001;
  362 : 1111111111011011;
  363 : 1111111111111100;
  364 : 1111111111110111;
  365 : 1111111111111010;
  366 : 1111111111000110;
  367 : 1111110011101100;
  368 : 1111101010101100;
  369 : 1111000111001111;
  370 : 1111010110011000;
  371 : 1111100101000011;
  372 : 1111010010101101;
  373 : 1111101010010111;
  374 : 1111110101011001;
  375 : 1111101101010101;
  376 : 1111111010010111;
  377 : 1111101010011001;
  378 : 1111111110001110;
  379 : 1111110000001000;
  380 : 1111111001000110;
  381 : 1111111001110010;
  382 : 1111110011001000;
  383 : 1111110010010011;
  384 : 1111110111100011;
  385 : 1111111011010010;
  386 : 1111111100100000;
  387 : 1111110101111000;
  388 : 1111110110101001;
  389 : 1111110001011100;
  390 : 1111111101101011;
  391 : 1111111110010000;
  392 : 1111111111100111;
  393 : 0000000000000000;
  394 : 1111111111110001;
  395 : 1111110110011010;
  396 : 1111111111111100;
  397 : 1111100110000000;
  398 : 1111111011001100;
  399 : 1111110011111110;
  400 : 1111111111100010;
  401 : 1111010110111010;
  402 : 1111100010010100;
  403 : 1111110010001000;
  404 : 1111100010100000;
  405 : 1111101101011100;
  406 : 1111101001100111;
  407 : 1111110000010100;
  408 : 1111101111000101;
  409 : 1111111110100101;
  410 : 1111111010110011;
  411 : 1111111010110110;
  412 : 1111111100011010;
  413 : 1111111110001100;
  414 : 1111111111110110;
  415 : 1111110110110000;
  416 : 1111110110110111;
  417 : 1111111101011110;
  418 : 1111111010101010;
  419 : 1111111111100000;
  420 : 1111111111110010;
  421 : 1111111111111110;
  422 : 1111111111101111;
  423 : 1111111010111000;
  424 : 1111111111100101;
  425 : 1111111110000100;
  426 : 1111110100110000;
  427 : 1111101000001111;
  428 : 1111110101000101;
  429 : 1111101011111110;
  430 : 1111101100010100;
  431 : 1111110011011010;
  432 : 1111111000010110;
  433 : 1111111110001100;
  434 : 1111111000010100;
  435 : 1111111101010000;
  436 : 1111111111001001;
  437 : 1111111101010010;
  438 : 1111111111100100;
  439 : 1111111111100001;
  440 : 1111101101001100;
  441 : 1111100110101011;
  442 : 1111111001011011;
  443 : 1111110010011100;
  444 : 1111101111111001;
  445 : 1111111110100101;
  446 : 1111111001111110;
  447 : 1111111111101100;
  448 : 1111111111101100;
  449 : 1111111111111001;
  450 : 1111111101011101;
  451 : 1111111011101010;
  452 : 1111111101101111;
  453 : 1111110011111111;
  454 : 1111101001111000;
  455 : 1111100011110100;
  456 : 1111111001001000;
  457 : 1111111111001111;
  458 : 1111111110100001;
  459 : 1111111111001111;
  460 : 1111101100000010;
  461 : 1111110010011000;
  462 : 1111101110110010;
  463 : 1111111101010001;
  464 : 1111111101110000;
  465 : 1111111111010110;
  466 : 1111101110101000;
  467 : 1111101000101101;
  468 : 1111110001101010;
  469 : 1111110000000110;
  470 : 1111111111111110;
  471 : 1111101101011011;
  472 : 1111100111100001;
  473 : 1111110101111111;
  474 : 1111110011111000;
  475 : 1111111111101111;
  476 : 1111111111111010;
  477 : 1111111111111111;
  478 : 1111111100101000;
  479 : 1111110100101101;
  480 : 1111101101000100;
  481 : 1111101010111011;
  482 : 1111111100101011;
  483 : 1111111010100001;
  484 : 1111111001111001;
  485 : 1111111111111111;
  486 : 1111111001100001;
  487 : 1111111110111010;
  488 : 1111111000111111;
  489 : 1111100110101011;
  490 : 1111101011110100;
  491 : 1111101010100001;
  492 : 1111111110010111;
  493 : 1111111111001101;
  494 : 1111111010111011;
  495 : 1111111001010111;
  496 : 1111111101111100;
  497 : 1111111101010110;
  498 : 1111101110011001;
  499 : 1111111111110101;
  500 : 1111111110010110;
  501 : 1111111000010000;
  502 : 1111111011001001;
  503 : 1111111111011011;
  504 : 1111111111010010;
  505 : 1111111111111011;
  506 : 1111111110011010;
  507 : 1111110010010100;
  508 : 1111110010000100;
  509 : 1111110011001011;
  510 : 1111111110000111;
  511 : 1111111000101101;
  512 : 1111111111000010;
  513 : 1111110111100000;
  514 : 1111111111010110;
  515 : 1111110100000011;
  516 : 1111111111101100;
  517 : 1111111111000111;
  518 : 1111110101001101;
  519 : 1111111111100100;
  520 : 1111111100010111;
  521 : 1111111110111001;
  522 : 1111111101100001;
  523 : 1111111100011110;
  524 : 1111111110000011;
  525 : 1111111111010100;
  526 : 1111110010001110;
  527 : 1111111000110100;
  528 : 1111111101010110;
  529 : 1111111000110110;
  530 : 1111111110010110;
  531 : 1111111111011010;
  532 : 1111111111100010;
  533 : 1111111111001001;
  534 : 1111111111100101;
  535 : 1111110101100011;
  536 : 1111111110000011;
  537 : 1111110101011000;
  538 : 1111111111100010;
  539 : 1111111111010011;
  540 : 1111111110111011;
  541 : 1111111111100001;
  542 : 1111110101110111;
  543 : 1111111110110011;
  544 : 1111111111101011;
  545 : 1111110110010001;
  546 : 1111111101001010;
  547 : 1111111100011111;
  548 : 1111111010000010;
  549 : 1111111010100100;
  550 : 1111111100101100;
  551 : 1111111110111101;
  552 : 1111111100001001;
  553 : 1111110100101100;
  554 : 1111110000011000;
  555 : 1111111100000011;
  556 : 1111111100101011;
  557 : 1111111100100110;
  558 : 1111111111011011;
  559 : 1111111111010101;
  560 : 1111111111111100;
  561 : 1111111111111111;
  562 : 1111111111101001;
  563 : 1111101101010111;
  564 : 1111110111101100;
  565 : 1111111011100110;
  566 : 1111110111001100;
  567 : 1111111010001011;
  568 : 1111111111101111;
  569 : 1111111010001001;
  570 : 1111110110101111;
  571 : 1111111010111100;
  572 : 1111111111000000;
  573 : 1111111101011000;
  574 : 1111110001111100;
  575 : 1111111111000101;
  576 : 1111110010000111;
  577 : 1111111111011101;
  578 : 1111111100100011;
  579 : 1111111110111000;
  580 : 1111111110011110;
  581 : 1111111100111101;
  582 : 1111111100011011;
  583 : 1111111110010001;
  584 : 1111111001011101;
  585 : 1111111101111110;
  586 : 1111111111000110;
  587 : 1111111111111111;
  588 : 1111111111111110;
  589 : 1111111111111010;
  590 : 1111111101001100;
  591 : 1111101111110100;
  592 : 1111110010101111;
  593 : 1111111111110000;
  594 : 1111111110010011;
  595 : 1111111001111110;
  596 : 1111101101100101;
  597 : 1111111001001100;
  598 : 1111111011100001;
  599 : 1111111111010100;
  600 : 1111101101010010;
  601 : 1111111001001001;
  602 : 1111111101101000;
  603 : 1111110110111010;
  604 : 1111111110101000;
  605 : 1111111100001100;
  606 : 1111111011011010;
  607 : 1111111010111010;
  608 : 1111111111001000;
  609 : 1111111111111111;
  610 : 1111111110101001;
  611 : 1111111101000011;
  612 : 1111111111101001;
  613 : 1111111001000000;
  614 : 1111111111010110;
  615 : 1111111111011100;
  616 : 1111111111010101;
  617 : 1111111111111111;
  618 : 1111111100111111;
  619 : 1111111110100110;
  620 : 1111110100101011;
  621 : 1111100101000100;
  622 : 1111111001111001;
  623 : 1111111111000111;
  624 : 1111111110110000;
  625 : 1111111111010001;
  626 : 1111111110000101;
  627 : 1111110110111111;
  628 : 1111111111111111;
  629 : 1111111011110000;
  630 : 1111110011110000;
  631 : 1111111111110001;
  632 : 1111110010001101;
  633 : 1111111101110011;
  634 : 1111111101111011;
  635 : 1111110011010110;
  636 : 1111111111001011;
  637 : 1111111110001010;
  638 : 1111111111000101;
  639 : 1111111011011110;
  640 : 1111111000010100;
  641 : 1111111001110110;
  642 : 1111111111111110;
  643 : 1111111111111011;
  644 : 1111111111111000;
  645 : 1111111111111111;
  646 : 1111111111010101;
  647 : 1111111111100000;
  648 : 1111111011101010;
  649 : 1111101100111110;
  650 : 1111101001111000;
  651 : 1111110000011111;
  652 : 1111110111010001;
  653 : 1111101110100100;
  654 : 1111110000001100;
  655 : 1111111111111111;
  656 : 1111111000101111;
  657 : 1111101100001111;
  658 : 1111111111111000;
  659 : 1111110010011111;
  660 : 1111111110101110;
  661 : 1111111010100011;
  662 : 1111110011111010;
  663 : 1111110110100011;
  664 : 1111111111101011;
  665 : 1111111001101010;
  666 : 1111111101101110;
  667 : 1111111101010100;
  668 : 1111111001000110;
  669 : 1111111011101010;
  670 : 1111111111111011;
  671 : 1111111111111110;
  672 : 1111111111111010;
  673 : 1111111111110010;
  674 : 1111111111101100;
  675 : 1111111101001101;
  676 : 1111110111000000;
  677 : 1111111001111100;
  678 : 1111110110101100;
  679 : 1111110010110111;
  680 : 1111111110000001;
  681 : 1111111010100110;
  682 : 1111111110111100;
  683 : 1111111111100101;
  684 : 1111111110110100;
  685 : 1111110000110111;
  686 : 1111111010001000;
  687 : 1111111101001000;
  688 : 1111111100100001;
  689 : 1111111101000101;
  690 : 1111111110001110;
  691 : 1111111100001000;
  692 : 1111111110101001;
  693 : 1111111110100001;
  694 : 1111111110100100;
  695 : 1111111111101100;
  696 : 1111111101111110;
  697 : 1111111110110101;
  698 : 1111111111111101;
  699 : 1111111111111100;
  700 : 1111111111111100;
  701 : 1111111111101111;
  702 : 1111111111111011;
  703 : 1111111111101011;
  704 : 1111111101001001;
  705 : 1111111100011101;
  706 : 1111111000101100;
  707 : 1111111011101111;
  708 : 1111110101011011;
  709 : 1111110100011101;
  710 : 1111111111001101;
  711 : 1111111101101010;
  712 : 1111110111010000;
  713 : 1111111011000010;
  714 : 1111111011000100;
  715 : 1111111010110001;
  716 : 1111111111111011;
  717 : 1111111100101100;
  718 : 1111111111110111;
  719 : 1111111111110101;
  720 : 1111111110010010;
  721 : 1111110010010001;
  722 : 1111111110100010;
  723 : 1111111111111101;
  724 : 1111111111101000;
  725 : 1111111111101000;
  726 : 1111111111011101;
  727 : 1111111111100011;
  728 : 1111111111111110;
  729 : 1111111111011011;
  730 : 1111111111000001;
  731 : 1111111111110111;
  732 : 1111111111100100;
  733 : 1111111001111110;
  734 : 1111111000100101;
  735 : 1111111111101101;
  736 : 1111111110100000;
  737 : 1111111111110011;
  738 : 1111111111111101;
  739 : 1111111100101011;
  740 : 1111110110111110;
  741 : 1111111110000110;
  742 : 1111111110110001;
  743 : 1111111111000010;
  744 : 1111111111110111;
  745 : 1111111000111100;
  746 : 1111111001001011;
  747 : 1111111110010010;
  748 : 1111111101101110;
  749 : 1111111111100101;
  750 : 1111111111111110;
  751 : 1111111111111001;
  752 : 1111111111110000;
  753 : 1111111111110010;
  754 : 1111111111100110;
  755 : 1111111111111001;
  756 : 1111111111111111;
  757 : 0000000000000000;
  758 : 1111111111100110;
  759 : 1111111111111001;
  760 : 1111111111100011;
  761 : 1111111111111111;
  762 : 1111111111000111;
  763 : 1111111111011010;
  764 : 1111111111111000;
  765 : 1111111111101110;
  766 : 1111111111111110;
  767 : 1111111111110111;
  768 : 1111111111111101;
  769 : 1111111111101000;
  770 : 1111111111110101;
  771 : 1111111111011000;
  772 : 1111111111011010;
  773 : 1111111111101111;
  774 : 1111111110001001;
  775 : 1111111111101011;
  776 : 1111111110000111;
  777 : 1111111111100010;
  778 : 1111111101011011;
  779 : 1111111111111011;
  780 : 1111111111000001;
  781 : 1111111111100100;
  782 : 1111111111111110;
  783 : 1111111111100110;
END;
